{
  "version": "1.0",
  "truncation": null,
  "padding": null,
  "added_tokens": [
    {
      "id": 0,
      "content": "[PAD]",
      "single_word": false,
      "lstrip": false,
      "rstrip": false,
      "normalized": false,
      "special": true
    },
    {
      "id": 1,
      "content": "[UNK]",
      "single_word": false,
      "lstrip": false,
      "rstrip": false,
      "normalized": false,
      "special": true
    },
    {
      "id": 2,
      "content": "[END]",
      "single_word": false,
      "lstrip": false,
      "rstrip": false,
      "normalized": false,
      "special": true
    },
    {
      "id": 3,
      "content": "[START]",
      "single_word": false,
      "lstrip": false,
      "rstrip": false,
      "normalized": false,
      "special": true
    }
  ],
  "normalizer": {
    "type": "NFKD"
  },
  "pre_tokenizer": {
    "type": "ByteLevel",
    "add_prefix_space": true,
    "trim_offsets": true,
    "use_regex": true
  },
  "post_processor": {
    "type": "ByteLevel",
    "add_prefix_space": true,
    "trim_offsets": true,
    "use_regex": true
  },
  "decoder": {
    "type": "ByteLevel",
    "add_prefix_space": true,
    "trim_offsets": true,
    "use_regex": true
  },
  "model": {
    "type": "BPE",
    "dropout": null,
    "unk_token": "[UNK]",
    "continuing_subword_prefix": null,
    "end_of_word_suffix": null,
    "fuse_unk": false,
    "byte_fallback": false,
    "ignore_merges": false,
    "vocab": {
      "[PAD]": 0,
      "[UNK]": 1,
      "[END]": 2,
      "[START]": 3,
      "!": 4,
      "\"": 5,
      "#": 6,
      "$": 7,
      "%": 8,
      "&": 9,
      "'": 10,
      "(": 11,
      ")": 12,
      "*": 13,
      "+": 14,
      ",": 15,
      "-": 16,
      ".": 17,
      "/": 18,
      "0": 19,
      "1": 20,
      "2": 21,
      "3": 22,
      "4": 23,
      "5": 24,
      "6": 25,
      "7": 26,
      "8": 27,
      "9": 28,
      ":": 29,
      ";": 30,
      "<": 31,
      "=": 32,
      ">": 33,
      "?": 34,
      "@": 35,
      "A": 36,
      "B": 37,
      "C": 38,
      "D": 39,
      "E": 40,
      "F": 41,
      "G": 42,
      "H": 43,
      "I": 44,
      "J": 45,
      "K": 46,
      "L": 47,
      "M": 48,
      "N": 49,
      "O": 50,
      "P": 51,
      "Q": 52,
      "R": 53,
      "S": 54,
      "T": 55,
      "U": 56,
      "V": 57,
      "W": 58,
      "X": 59,
      "Y": 60,
      "Z": 61,
      "[": 62,
      "\\": 63,
      "]": 64,
      "^": 65,
      "_": 66,
      "`": 67,
      "a": 68,
      "b": 69,
      "c": 70,
      "d": 71,
      "e": 72,
      "f": 73,
      "g": 74,
      "h": 75,
      "i": 76,
      "j": 77,
      "k": 78,
      "l": 79,
      "m": 80,
      "n": 81,
      "o": 82,
      "p": 83,
      "q": 84,
      "r": 85,
      "s": 86,
      "t": 87,
      "u": 88,
      "v": 89,
      "w": 90,
      "x": 91,
      "y": 92,
      "z": 93,
      "{": 94,
      "|": 95,
      "}": 96,
      "~": 97,
      "¡": 98,
      "¢": 99,
      "£": 100,
      "¤": 101,
      "¥": 102,
      "¦": 103,
      "§": 104,
      "¨": 105,
      "©": 106,
      "ª": 107,
      "«": 108,
      "¬": 109,
      "®": 110,
      "¯": 111,
      "°": 112,
      "±": 113,
      "²": 114,
      "³": 115,
      "´": 116,
      "µ": 117,
      "¶": 118,
      "·": 119,
      "¸": 120,
      "¹": 121,
      "º": 122,
      "»": 123,
      "¼": 124,
      "½": 125,
      "¾": 126,
      "¿": 127,
      "Â": 128,
      "Ã": 129,
      "Ä": 130,
      "Å": 131,
      "É": 132,
      "Ê": 133,
      "Ë": 134,
      "Ì": 135,
      "Î": 136,
      "Ï": 137,
      "Ð": 138,
      "Ñ": 139,
      "×": 140,
      "Ø": 141,
      "Ù": 142,
      "Ú": 143,
      "Û": 144,
      "à": 145,
      "á": 146,
      "â": 147,
      "ã": 148,
      "ä": 149,
      "å": 150,
      "æ": 151,
      "ç": 152,
      "è": 153,
      "é": 154,
      "ê": 155,
      "î": 156,
      "ï": 157,
      "ð": 158,
      "Ċ": 159,
      "č": 160,
      "Ġ": 161,
      "Ģ": 162,
      "ģ": 163,
      "Ĥ": 164,
      "ĥ": 165,
      "Ħ": 166,
      "ħ": 167,
      "Ĩ": 168,
      "ĩ": 169,
      "Ī": 170,
      "ī": 171,
      "Ĭ": 172,
      "ĭ": 173,
      "Į": 174,
      "į": 175,
      "İ": 176,
      "ı": 177,
      "Ĳ": 178,
      "ĳ": 179,
      "Ĵ": 180,
      "ĵ": 181,
      "Ķ": 182,
      "ķ": 183,
      "ĸ": 184,
      "Ĺ": 185,
      "ĺ": 186,
      "Ļ": 187,
      "ļ": 188,
      "Ľ": 189,
      "ľ": 190,
      "Ŀ": 191,
      "ŀ": 192,
      "Ł": 193,
      "ł": 194,
      "Ń": 195,
      "ä¸": 196,
      "ãĢ": 197,
      "çļ": 198,
      "çļĦ": 199,
      "äº": 200,
      "æľ": 201,
      "åı": 202,
      "ãĢĤ": 203,
      "ä»": 204,
      "åħ": 205,
      "å¤": 206,
      "å®": 207,
      "åĪ": 208,
      "è¿": 209,
      "ä½": 210,
      "çĶ": 211,
      "åľ": 212,
      "åĲ": 213,
      "ãĢģ": 214,
      "åĬ": 215,
      "æĺ": 216,
      "æĪ": 217,
      "ç»": 218,
      "æĸ": 219,
      "ä¹": 220,
      "ä¸Ģ": 221,
      "ä¼": 222,
      "è®": 223,
      "å°": 224,
      "æĹ": 225,
      "åĽ": 226,
      "æĺ¯": 227,
      "è¯": 228,
      "å¹": 229,
      "åľ¨": 230,
      "æĿ": 231,
      "ãĢĤ\\": 232,
      "æľī": 233,
      "åŃ": 234,
      "åį": 235,
      "âĢ": 236,
      "åº": 237,
      "å·": 238,
      "éĩ": 239,
      "å¸": 240,
      "ä¸į": 241,
      "æī": 242,
      "éĢ": 243,
      "å¼": 244,
      "åĮ": 245,
      "åĨ": 246,
      "ĥ½": 247,
      "åĩ": 248,
      "è¡": 249,
      "èĢ": 250,
      "æķ": 251,
      "çĽ": 252,
      "å¾": 253,
      "å¯": 254,
      "äºº": 255,
      "äºĨ": 256,
      "åĴ": 257,
      "æł": 258,
      "è´": 259,
      "æĬ": 260,
      "ä¸Ń": 261,
      "è§": 262,
      "ä¸º": 263,
      "åĴĮ": 264,
      "ä»¥": 265,
      "çĶ¨": 266,
      "çİ": 267,
      "å±": 268,
      "èµ": 269,
      "ç§": 270,
      "å¤§": 271,
      "çī": 272,
      "æĢ": 273,
      "ä¸ļ": 274,
      "¦ģ": 275,
      "è¦ģ": 276,
      "å¥": 277,
      "æ°": 278,
      "èĥ½": 279,
      "éĻ": 280,
      "éĹ": 281,
      "æĶ": 282,
      "æİ": 283,
      "æĹ¶": 284,
      "éĿ": 285,
      "åİ": 286,
      "çĶŁ": 287,
      "ä¿": 288,
      "å¿": 289,
      "åı¯": 290,
      "çº": 291,
      "ä¸Ĭ": 292,
      "çĲ": 293,
      "ä¼ļ": 294,
      "å½": 295,
      "æ³": 296,
      "èĩ": 297,
      "çŃ": 298,
      "ä¸ª": 299,
      "æµ": 300,
      "æŀ": 301,
      "æŃ": 302,
      "åĵ": 303,
      "åıĳ": 304,
      "åĳ": 305,
      "è¿Ļ": 306,
      "è½": 307,
      "è¡Į": 308,
      "å·¥": 309,
      "ä½ľ": 310,
      "æĪĳ": 311,
      "å¹´": 312,
      "åĪ°": 313,
      "åĽ½": 314,
      "å¯¹": 315,
      "é¢": 316,
      "æĿ¥": 317,
      "æ²": 318,
      "åŃ¦": 319,
      "æĪĲ": 320,
      "äºİ": 321,
      "âĢľ": 322,
      "âĢĿ": 323,
      "è¾": 324,
      "æĭ": 325,
      "æ¯": 326,
      "æĮ": 327,
      "åĩº": 328,
      "éĺ": 329,
      "å¤ļ": 330,
      "äº§": 331,
      "æĥ": 332,
      "åĪĨ": 333,
      "æĸ¹": 334,
      "åī": 335,
      "ç®": 336,
      "çĲĨ": 337,
      "ä»¬": 338,
      "æ±": 339,
      "åĬ¨": 340,
      "å®¶": 341,
      "é«": 342,
      "è¿ĩ": 343,
      "é«ĺ": 344,
      "çľ": 345,
      "åŁ": 346,
      "æ¸": 347,
      "åľ°": 348,
      "ç½": 349,
      "æĦ": 350,
      "ä¾": 351,
      "è¿Ľ": 352,
      "ç«": 353,
      "åĵģ": 354,
      "çŃī": 355,
      "å¦": 356,
      "ä¸ĭ": 357,
      "ä¹Ł": 358,
      "åĲİ": 359,
      "æľº": 360,
      "åĮĸ": 361,
      "ä½ĵ": 362,
      "èĩª": 363,
      "çİ°": 364,
      "åħ¬": 365,
      "æı": 366,
      "æĸ°": 367,
      "åĬĽ": 368,
      "æ¬": 369,
      "ç¨": 370,
      "åĲĪ": 371,
      "å°±": 372,
      "éĿ¢": 373,
      "åħ¨": 374,
      "æ´": 375,
      "æĽ": 376,
      "å®ļ": 377,
      "å®ŀ": 378,
      "ä¸İ": 379,
      "åģ": 380,
      "èĤ": 381,
      "çĶµ": 382,
      "åĲĮ": 383,
      "é¡": 384,
      "æĢ§": 385,
      "è®¾": 386,
      "å¼Ģ": 387,
      "æį": 388,
      "æľ¬": 389,
      "ç»ı": 390,
      "åº¦": 391,
      "éĥ": 392,
      "éģ": 393,
      "å¥½": 394,
      "çĤ": 395,
      "éķ": 396,
      "é£": 397,
      "å»": 398,
      "è¶": 399,
      "åĬł": 400,
      "å¸Ĥ": 401,
      "åıĬ": 402,
      "æıĲ": 403,
      "ä»ĸ": 404,
      "å¦Ĥ": 405,
      "åºĶ": 406,
      "åľº": 407,
      "æ³ķ": 408,
      "èĢĮ": 409,
      "éĩı": 410,
      "åħ¶": 411,
      "éĥ¨": 412,
      "å±ķ": 413,
      "åĬ¡": 414,
      "ä¸»": 415,
      "çĻ": 416,
      "èĢħ": 417,
      "ä¹ĭ": 418,
      "éĢļ": 419,
      "å¾Ĺ": 420,
      "æīĢ": 421,
      "çŁ": 422,
      "åĨħ": 423,
      "èī": 424,
      "åħ³": 425,
      "æĻ": 426,
      "20": 427,
      "åīį": 428,
      "æ¶": 429,
      "éĥ½": 430,
      "ç³": 431,
      "å¿ĥ": 432,
      "æ°´": 433,
      "éĹ´": 434,
      "èģ": 435,
      "å°Ĩ": 436,
      "éĩį": 437,
      "åĪ¶": 438,
      "éĽ": 439,
      "å»º": 440,
      "è·": 441,
      "éľ": 442,
      "åŃĲ": 443,
      "åĢ": 444,
      "æĽ´": 445,
      "ä¿Ŀ": 446,
      "æĹ¥": 447,
      "æķ°": 448,
      "è°": 449,
      "ç®¡": 450,
      "å¢": 451,
      "éļ": 452,
      "å°ı": 453,
      "åı¯ä»¥": 454,
      "ç¨ĭ": 455,
      "éĶ": 456,
      "ç¬": 457,
      "ç¤": 458,
      "ç§į": 459,
      "çī©": 460,
      "åĿ": 461,
      "çĤ¹": 462,
      "éķ¿": 463,
      "çĿ": 464,
      "èĬ": 465,
      "çł": 466,
      "æľĢ": 467,
      "èµĦ": 468,
      "ä½¿": 469,
      "çĽ®": 470,
      "ç³»": 471,
      "æĥħ": 472,
      "åĽł": 473,
      "çĦ": 474,
      "çĽ¸": 475,
      "å¹¶": 476,
      "çĸ": 477,
      "å¤ĸ": 478,
      "è®¡": 479,
      "ç©": 480,
      "æĪĸ": 481,
      "å¾Ī": 482,
      "æĪĳä»¬": 483,
      "è¿ĺ": 484,
      "äºĭ": 485,
      "ç¾": 486,
      "éħ": 487,
      "æ¯Ķ": 488,
      "æľŁ": 489,
      "ç½ĳ": 490,
      "çĥ": 491,
      "åĮº": 492,
      "æĬĢ": 493,
      "åħ¥": 494,
      "åı¸": 495,
      "å¼ı": 496,
      "å®ī": 497,
      "æŁ": 498,
      "ç¡": 499,
      "æĸĩ": 500,
      "ä½į": 501,
      "å½ĵ": 502,
      "è´¨": 503,
      "éľĢ": 504,
      "å¸¸": 505,
      "æŀľ": 506,
      "è½¦": 507,
      "åĳĺ": 508,
      "ä¿¡": 509,
      "èĲ": 510,
      "å¤©": 511,
      "æģ": 512,
      "æľĪ": 513,
      "ä½ł": 514,
      "è¡¨": 515,
      "éĴ": 516,
      "æĦı": 517,
      "è¯´": 518,
      "ä¼ģ": 519,
      "æĤ": 520,
      "ç²": 521,
      "æľį": 522,
      "åħ¬åı¸": 523,
      "çķ": 524,
      "æľ¯": 525,
      "ä¸Ģä¸ª": 526,
      "åķ": 527,
      "çĦ¶": 528,
      "æį®": 529,
      "å¹³": 530,
      "å§": 531,
      "ç±": 532,
      "éģĵ": 533,
      "äºĽ": 534,
      "çĿĢ": 535,
      "éĩĳ": 536,
      "è£": 537,
      "ä½Ĩ": 538,
      "ä»¶": 539,
      "åŀ": 540,
      "ä»İ": 541,
      "å·¥ä½ľ": 542,
      "æŃ¤": 543,
      "æĹł": 544,
      "æ´»": 545,
      "éĵ": 546,
      "ç¼": 547,
      "æķĻ": 548,
      "æ¬¡": 549,
      "é£İ": 550,
      "ç´": 551,
      "éĤ": 552,
      "ä¼ģä¸ļ": 553,
      "æłĩ": 554,
      "è§£": 555,
      "åĪ©": 556,
      "çĹ": 557,
      "ä¸ĵ": 558,
      "çī¹": 559,
      "æİ¥": 560,
      "èµ·": 561,
      "ç»Ł": 562,
      "æ¡": 563,
      "æĺİ": 564,
      "æ·": 565,
      "åĻ": 566,
      "çľĭ": 567,
      "ä¸ī": 568,
      "åĲĦ": 569,
      "ç¬¬": 570,
      "æ±Ĥ": 571,
      "åŁº": 572,
      "åħ·": 573,
      "å¤ĩ": 574,
      "æīĭ": 575,
      "æ°Ķ": 576,
      "ä¹Ī": 577,
      "åķĨ": 578,
      "é¦": 579,
      "ç§ĳ": 580,
      "æµģ": 581,
      "ç»ĵ": 582,
      "æŃ£": 583,
      "æł·": 584,
      "è§Ħ": 585,
      "èĥ": 586,
      "é¢ĺ": 587,
      "è¿Ľè¡Į": 588,
      "é¡¹": 589,
      "çº¿": 590,
      "åĻ¨": 591,
      "00": 592,
      "éĩĮ": 593,
      "æķĪ": 594,
      "åĲį": 595,
      "å¼º": 596,
      "çģ": 597,
      "æĸĻ": 598,
      "éª": 599,
      "åģļ": 600,
      "éĢł": 601,
      "æ»": 602,
      "æĮģ": 603,
      "ç¾İ": 604,
      "ä¾Ľ": 605,
      "æº": 606,
      "çĶ±": 607,
      "æľįåĬ¡": 608,
      "ä»£": 609,
      "åŀĭ": 610,
      "å£": 611,
      "åįķ": 612,
      "èĭ": 613,
      "èĪ": 614,
      "è¿Ĳ": 615,
      "æł¼": 616,
      "éĹ®": 617,
      "æĦŁ": 618,
      "å¤Ħ": 619,
      "æĪ·": 620,
      "éĢī": 621,
      "åıĳå±ķ": 622,
      "è£ħ": 623,
      "äº§åĵģ": 624,
      "çĲĥ": 625,
      "è¢": 626,
      "èº": 627,
      "åĪĽ": 628,
      "äº¤": 629,
      "éĹ¨": 630,
      "ä½¿çĶ¨": 631,
      "ä»·": 632,
      "å¯¼": 633,
      "æ²¡": 634,
      "åİ»": 635,
      "è®©": 636,
      "èį": 637,
      "å·²": 638,
      "æ£": 639,
      "çŁ¥": 640,
      "åĸ": 641,
      "èº«": 642,
      "æĬĢæľ¯": 643,
      "èī²": 644,
      "ä¼ł": 645,
      "çĪ": 646,
      "åĲĳ": 647,
      "åıĺ": 648,
      "çłĶ": 649,
      "æĬ¥": 650,
      "ç»Ħ": 651,
      "çİ¯": 652,
      "ç¥": 653,
      "åħĥ": 654,
      "ä»»": 655,
      "è´¹": 656,
      "æĶ¿": 657,
      "æĶ¶": 658,
      "åİŁ": 659,
      "èµĽ": 660,
      "éĻ¢": 661,
      "éĺ²": 662,
      "æĥ³": 663,
      "åıĹ": 664,
      "çĻ½": 665,
      "èĦ": 666,
      "èģĶ": 667,
      "éĤ£": 668,
      "å®¹": 669,
      "åı°": 670,
      "å·±": 671,
      "ãĢĭ": 672,
      "è¯ģ": 673,
      "åĮ»": 674,
      "ä¸¤": 675,
      "ãĢĬ": 676,
      "ä¼ĺ": 677,
      "è°ĥ": 678,
      "è¢«": 679,
      "èĩªå·±": 680,
      "æŀĦ": 681,
      "éĺŁ": 682,
      "è¾ĥ": 683,
      "ç®¡çĲĨ": 684,
      "ç¤º": 685,
      "å®Į": 686,
      "åĩĨ": 687,
      "å°ĳ": 688,
      "ç±»": 689,
      "æºĲ": 690,
      "åıª": 691,
      "æ°ĳ": 692,
      "é©": 693,
      "äºĮ": 694,
      "æ³¨": 695,
      "çĥŃ": 696,
      "éĽĨ": 697,
      "he": 698,
      "æĶ¾": 699,
      "ç¡®": 700,
      "å½¢": 701,
      "åĮħ": 702,
      "å¢ŀ": 703,
      "æķ´": 704,
      "æ²»": 705,
      "èİ": 706,
      "åħĪ": 707,
      "å¹¿": 708,
      "æİ¨": 709,
      "æģ¯": 710,
      "ç«ĭ": 711,
      "çº§": 712,
      "Ġt": 713,
      "ç¦": 714,
      "å½±": 715,
      "æ¨": 716,
      "è·¯": 717,
      "å¸Ī": 718,
      "æīĵ": 719,
      "è¾¾": 720,
      "ä¸ŃåĽ½": 721,
      "èĢĥ": 722,
      "èĬĤ": 723,
      "Ġa": 724,
      "æ¯ı": 725,
      "çĹħ": 726,
      "æµ·": 727,
      "èĩ³": 728,
      "åĪ«": 729,
      "æĮĩ": 730,
      "æµĭ": 731,
      "çĽ´": 732,
      "éľĢè¦ģ": 733,
      "éªĮ": 734,
      "èĲ¥": 735,
      "å¸¦": 736,
      "å®¢": 737,
      "åıĸ": 738,
      "è®¤": 739,
      "æĢ»": 740,
      "åı£": 741,
      "ç»Ļ": 742,
      "æ¶Ī": 743,
      "èĮ": 744,
      "éĢļè¿ĩ": 745,
      "åĽŀ": 746,
      "è¯ķ": 747,
      "é¢Ĩ": 748,
      "ä½İ": 749,
      "åħī": 750,
      "è¯¥": 751,
      "æł¡": 752,
      "æ®": 753,
      "ç©º": 754,
      "éĿŀ": 755,
      "è½¬": 756,
      "ç²¾": 757,
      "èĤ²": 758,
      "æ¸¸": 759,
      "ä¸ĩ": 760,
      "æĹ¶éĹ´": 761,
      "åįģ": 762,
      "æĸ½": 763,
      "åĬ©": 764,
      "æĿĲ": 765,
      "ç³»ç»Ł": 766,
      "æĬķ": 767,
      "èĻ": 768,
      "æ¨¡": 769,
      "çİĩ": 770,
      "è§Ĩ": 771,
      "åĬŁ": 772,
      "æ¸ħ": 773,
      "æĬ¤": 774,
      "åĨ³": 775,
      "çħ": 776,
      "in": 777,
      "éĹ®é¢ĺ": 778,
      "ä¸ľ": 779,
      "å®ĥ": 780,
      "ç«Ļ": 781,
      "¥¿": 782,
      "å¿«": 783,
      "æ²¡æľī": 784,
      "æ¼": 785,
      "å¸Ĥåľº": 786,
      "å¤´": 787,
      "æĶ¹": 788,
      "æĿ¡": 789,
      "æİ§": 790,
      "æĺĵ": 791,
      "ç¤¾": 792,
      "è¥¿": 793,
      "è§Ĥ": 794,
      "åĨµ": 795,
      "åıĤ": 796,
      "éĩĩ": 797,
      "æıĲä¾Ľ": 798,
      "åĬŀ": 799,
      "èĢģ": 800,
      "ç»Ń": 801,
      "å¢ĥ": 802,
      "åĽ¢": 803,
      "å¸ĥ": 804,
      "åĨį": 805,
      "éĢŁ": 806,
      "æŃ¥": 807,
      "åħ±": 808,
      "åİĭ": 809,
      "éħį": 810,
      "æ£Ģ": 811,
      "é¥": 812,
      "åĶ": 813,
      "æ¢": 814,
      "éĻĲ": 815,
      "çĶŁäº§": 816,
      "çĸĹ": 817,
      "è¿ĳ": 818,
      "è®¾è®¡": 819,
      "é»": 820,
      "è®°": 821,
      "çĬ": 822,
      "æīį": 823,
      "å¤į": 824,
      "æĢģ": 825,
      "ä½ķ": 826,
      "æ¸©": 827,
      "åįĩ": 828,
      "é£Ł": 829,
      "åŁİ": 830,
      "æĶ¯": 831,
      "éŁ": 832,
      "è¯·": 833,
      "å¦Ĥæŀľ": 834,
      "ä¹¦": 835,
      "å®īåħ¨": 836,
      "æ·±": 837,
      "æŁ¥": 838,
      "æ¡Ī": 839,
      "ä¸Ķ": 840,
      "ä»Ĭ": 841,
      "éĢĤ": 842,
      "è±": 843,
      "ç½®": 844,
      "é¡¹çĽ®": 845,
      "ç»´": 846,
      "æĪ¿": 847,
      "å¼ķ": 848,
      "çľŁ": 849,
      "å°±æĺ¯": 850,
      "æł¹": 851,
      "çķĮ": 852,
      "åŃĺ": 853,
      "æĿĥ": 854,
      "è¶Ĭ": 855,
      "åĢ¼": 856,
      "å²": 857,
      "åĳĬ": 858,
      "éĻħ": 859,
      "ä¸ĸ": 860,
      "æĿ¿": 861,
      "10": 862,
      "è¶³": 863,
      "æķ°æį®": 864,
      "çľģ": 865,
      "è®®": 866,
      "å±±": 867,
      "åħ»": 868,
      "å¿ħ": 869,
      "å±Ģ": 870,
      "çīĮ": 871,
      "è¯Ĩ": 872,
      "æĪĺ": 873,
      "æĤ¨": 874,
      "åĮĹ": 875,
      "åįĹ": 876,
      "åĵį": 877,
      "åŃĹ": 878,
      "è¶ħ": 879,
      "å¡": 880,
      "æ²¹": 881,
      "æĬĬ": 882,
      "ç©¶": 883,
      "è®¾å¤ĩ": 884,
      "æİĴ": 885,
      "æĳ": 886,
      "æľª": 887,
      "er": 888,
      "åĽĽ": 889,
      "éĻ¤": 890,
      "æĺ¾": 891,
      "ä¿¡æģ¯": 892,
      "ä»Ģ": 893,
      "åĪĻ": 894,
      "èĩ´": 895,
      "çīĩ": 896,
      "åĽ¾": 897,
      "é¦ĸ": 898,
      "èĬ±": 899,
      "èİ·": 900,
      "åı¯èĥ½": 901,
      "ç§¯": 902,
      "åıį": 903,
      "æĥħåĨµ": 904,
      "è¡Įä¸ļ": 905,
      "åŁŁ": 906,
      "è§ģ": 907,
      "ä»ĸä»¬": 908,
      "..": 909,
      "ä»Ģä¹Ī": 910,
      "ç´ł": 911,
      "ä¾¿": 912,
      "å¥¹": 913,
      "201": 914,
      "ä»¥åıĬ": 915,
      "è´£": 916,
      "æĸŃ": 917,
      "æĻº": 918,
      "ä¸ĵä¸ļ": 919,
      "ä¹Ĳ": 920,
      "è®º": 921,
      "åĽłä¸º": 922,
      "ä¹ł": 923,
      "æŀģ": 924,
      "æĭ©": 925,
      "çº¦": 926,
      "åĲĮæĹ¶": 927,
      "æĲ": 928,
      "éļ¾": 929,
      "éĶĢ": 930,
      "æ¬¾": 931,
      "è¿Ļä¸ª": 932,
      "è¦ģæ±Ĥ": 933,
      "å¥³": 934,
      "èŀ": 935,
      "å§ĭ": 936,
      "ä¸»è¦ģ": 937,
      "ä¸įåĲĮ": 938,
      "éļı": 939,
      "Ġs": 940,
      "çħ§": 941,
      "åı·": 942,
      "é¢Ħ": 943,
      "è¯Ŀ": 944,
      "éĢīæĭ©": 945,
      "åĪĴ": 946,
      "åį³": 947,
      "åĩł": 948,
      "çĬ¶": 949,
      "çİ¯å¢ĥ": 950,
      "åĬ¿": 951,
      "èħ": 952,
      "æ»¡": 953,
      "åĳ¨": 954,
      "å¤Ł": 955,
      "åĢĻ": 956,
      "ç¢": 957,
      "å»ºè®¾": 958,
      "çĶŁæ´»": 959,
      "æĸ¯": 960,
      "å±Ĥ": 961,
      "æĴ": 962,
      "æĸ¹éĿ¢": 963,
      "åįı": 964,
      "çª": 965,
      "çłĶç©¶": 966,
      "åģ¥": 967,
      "æħ": 968,
      "çĪ±": 969,
      "ç¦»": 970,
      "èģĮ": 971,
      "å½±åĵį": 972,
      "åıĪ": 973,
      "çĭ": 974,
      "è®¸": 975,
      "ä¿®": 976,
      "ç»Ĩ": 977,
      "å±ŀ": 978,
      "å¥½çļĦ": 979,
      "ç®Ĺ": 980,
      "æľĽ": 981,
      "èīº": 982,
      "æĻ¯": 983,
      "æ´»åĬ¨": 984,
      "æĮī": 985,
      "å¹²": 986,
      "æµİ": 987,
      "èĮĥ": 988,
      "ä¼Ĺ": 989,
      "éĩįè¦ģ": 990,
      "åįİ": 991,
      "202": 992,
      "çı": 993,
      "å·ŀ": 994,
      "on": 995,
      "æ¹": 996,
      "æ®µ": 997,
      "çĽ¸åħ³": 998,
      "ç§°": 999,
      "äººåĳĺ": 1000,
      "ç¥ŀ": 1001,
      "è¿ŀ": 1002,
      "åĽ½å®¶": 1003,
      "å¾Īå¤ļ": 1004,
      "éŁ³": 1005,
      "ä¾ĭ": 1006,
      "ä¸ĢäºĽ": 1007,
      "ä»ħ": 1008,
      "åħħ": 1009,
      "çĽĳ": 1010,
      "åĥ": 1011,
      "æļ": 1012,
      "æīĢä»¥": 1013,
      "è´¨éĩı": 1014,
      "èı": 1015,
      "æĵ": 1016,
      "åĦ": 1017,
      "Ġw": 1018,
      "åĩı": 1019,
      "é©¬": 1020,
      "æķĻèĤ²": 1021,
      "æĤ£": 1022,
      "åº·": 1023,
      "è¯Ħ": 1024,
      "åıĭ": 1025,
      "å¤§å®¶": 1026,
      "ãĢĤâĢĿ": 1027,
      "å¾·": 1028,
      "èĤ¡": 1029,
      "å°Ķ": 1030,
      "åŃ¦çĶŁ": 1031,
      "åĦ¿": 1032,
      "è±¡": 1033,
      "å¤ª": 1034,
      "åĪĹ": 1035,
      "åĪĩ": 1036,
      "è´Ł": 1037,
      "éĿŀå¸¸": 1038,
      "æĢĿ": 1039,
      "æł¸": 1040,
      "å¯¹äºİ": 1041,
      "å®¤": 1042,
      "åĨľ": 1043,
      "åħį": 1044,
      "ç®Ģ": 1045,
      "å§Ķ": 1046,
      "nd": 1047,
      "è´Ń": 1048,
      "çļ®": 1049,
      "åºĶçĶ¨": 1050,
      "éĻį": 1051,
      "è¿ĩç¨ĭ": 1052,
      "éĻ©": 1053,
      "åĥı": 1054,
      "è¿ĻäºĽ": 1055,
      "æī¿": 1056,
      "æĸ¹å¼ı": 1057,
      "çŃĸ": 1058,
      "ä¸ŃçļĦ": 1059,
      "ç»ıæµİ": 1060,
      "èĥ½åĬĽ": 1061,
      "è¯Ń": 1062,
      "åħ·æľī": 1063,
      "èŀį": 1064,
      "ä¸Ńå¿ĥ": 1065,
      "èį¯": 1066,
      "è¯¾": 1067,
      "è¿Ļæł·": 1068,
      "äºĶ": 1069,
      "çģ«": 1070,
      "ä½ľä¸º": 1071,
      "âĢĿ,": 1072,
      "åĽŃ": 1073,
      "åĵģçīĮ": 1074,
      "æĺ¯ä¸Ģ": 1075,
      "éĴ¢": 1076,
      "åĶ®": 1077,
      "æĹ¶åĢĻ": 1078,
      "çĶ¨æĪ·": 1079,
      "å¾®": 1080,
      "è§ī": 1081,
      "âĢĶ": 1082,
      "åĽ´": 1083,
      "æł¹æį®": 1084,
      "æ²»çĸĹ": 1085,
      "èĲ½": 1086,
      "å¾Ģ": 1087,
      "re": 1088,
      "åħ¶ä»ĸ": 1089,
      "æĿĲæĸĻ": 1090,
      "çŁ³": 1091,
      "ä½ı": 1092,
      "å£«": 1093,
      "èµ°": 1094,
      "åŃ£": 1095,
      "å·²ç»ı": 1096,
      "å¹³åı°": 1097,
      "å¼ł": 1098,
      "èĥ½å¤Ł": 1099,
      "å¤ĦçĲĨ": 1100,
      "å·¥ç¨ĭ": 1101,
      "ç±³": 1102,
      "å¤±": 1103,
      "çļĦäºº": 1104,
      "åİĨ": 1105,
      "åĩºçİ°": 1106,
      "éĥ¨åĪĨ": 1107,
      "åĿĩ": 1108,
      "åĨħå®¹": 1109,
      "å¤§çļĦ": 1110,
      "çĮ": 1111,
      "çº¢": 1112,
      "åħĭ": 1113,
      "å£°": 1114,
      "ç»ĩ": 1115,
      "åİĤ": 1116,
      "äºĴ": 1117,
      "ä¾Ŀ": 1118,
      "çĽĬ": 1119,
      "æĹ©": 1120,
      "ä¸ĸçķĮ": 1121,
      "ä»½": 1122,
      "ä¸¥": 1123,
      "è½»": 1124,
      "æĭī": 1125,
      "åºĹ": 1126,
      "åľŁ": 1127,
      "è§Ĵ": 1128,
      "åĳ½": 1129,
      "è¾ĵ": 1130,
      "æłĩåĩĨ": 1131,
      "åıĮ": 1132,
      "è¾¹": 1133,
      "è¨": 1134,
      "å¯Ĩ": 1135,
      "ç¤¾ä¼ļ": 1136,
      "äº§ä¸ļ": 1137,
      "è¨Ģ": 1138,
      "å¨": 1139,
      "åĭ": 1140,
      "ä¹Łæĺ¯": 1141,
      "ou": 1142,
      "èĳ": 1143,
      "å®¢æĪ·": 1144,
      "å¼Ģå§ĭ": 1145,
      "ä½Ĩæĺ¯": 1146,
      "äº¬": 1147,
      "æıĲé«ĺ": 1148,
      "it": 1149,
      "äºļ": 1150,
      "?\\": 1151,
      "æ¼Ķ": 1152,
      "èĭ±": 1153,
      "æ±½": 1154,
      "é¡»": 1155,
      "æĸ¹æ³ķ": 1156,
      "åŁ¹": 1157,
      "é¾": 1158,
      "ä¸Ģå®ļ": 1159,
      "æĭ¬": 1160,
      "ç»Ī": 1161,
      "æį¢": 1162,
      "çĽ®åīį": 1163,
      ";\\": 1164,
      "çļĦä¸Ģ": 1165,
      "èĪ¬": 1166,
      "çĶ³": 1167,
      "å¾ĭ": 1168,
      "å®ŀçİ°": 1169,
      "æĬķèµĦ": 1170,
      "æĪĲä¸º": 1171,
      "ä»ĭ": 1172,
      "åŃ©": 1173,
      "ä¸įæĺ¯": 1174,
      "æ±Ł": 1175,
      "äº²": 1176,
      "æ¶Īè´¹": 1177,
      "çİ°åľ¨": 1178,
      "ä¹ī": 1179,
      "å¸®": 1180,
      "åĮħæĭ¬": 1181,
      "äºĨè§£": 1182,
      "éĿĴ": 1183,
      "åĲ¸": 1184,
      "æŀĲ": 1185,
      "äº«": 1186,
      "èĩªå·±çļĦ": 1187,
      "éĢģ": 1188,
      "éľĢæ±Ĥ": 1189,
      "ç½ĳç«Ļ": 1190,
      "åĳ³": 1191,
      "åŃ¦ä¹ł": 1192,
      "ha": 1193,
      "éħĴ": 1194,
      "æĸĩåĮĸ": 1195,
      "åĬŁèĥ½": 1196,
      "æŀĹ": 1197,
      "æĪı": 1198,
      "ä¸ªäºº": 1199,
      "åºķ": 1200,
      "æĿĳ": 1201,
      "çĸ«": 1202,
      "åĲ«": 1203,
      "ä¹°": 1204,
      "ç£": 1205,
      "åĽłæŃ¤": 1206,
      "è®²": 1207,
      "çĻ¾": 1208,
      "ç§ĳæĬĢ": 1209,
      "éĺ³": 1210,
      "åĽ½éĻħ": 1211,
      "Ġthe": 1212,
      "ç¨³": 1213,
      "ç«¯": 1214,
      "åĲĥ": 1215,
      "åĪĽæĸ°": 1216,
      "åºľ": 1217,
      "ç¬¬ä¸Ģ": 1218,
      "or": 1219,
      "æķħ": 1220,
      "é¢ĳ": 1221,
      "æĹħ": 1222,
      "æĪĸèĢħ": 1223,
      "12": 1224,
      "çĻ½çĻ": 1225,
      "ä¸¾": 1226,
      "åĲ¦": 1227,
      "æĺŁ": 1228,
      "æŃ¢": 1229,
      "åĤ": 1230,
      "ľé£İ": 1231,
      "æ¬¢": 1232,
      "åģ¥åº·": 1233,
      "éĩĩçĶ¨": 1234,
      "çĻ½çĻľé£İ": 1235,
      "æ¯Ķè¾ĥ": 1236,
      "å½ķ": 1237,
      "ä¸įä¼ļ": 1238,
      "åĸĦ": 1239,
      "éĥ½æĺ¯": 1240,
      "å°½": 1241,
      "åħļ": 1242,
      "çļĦæĺ¯": 1243,
      "le": 1244,
      "æīĢæľī": 1245,
      "å¯Į": 1246,
      "æī¾": 1247,
      "ç»ľ": 1248,
      "ç»Ħç»ĩ": 1249,
      "å±ħ": 1250,
      "æľīéĻĲ": 1251,
      "äºī": 1252,
      "æĻºèĥ½": 1253,
      "ç¾¤": 1254,
      "è´§": 1255,
      "è¿ľ": 1256,
      "è¿ĺæĺ¯": 1257,
      "æĤ£èĢħ": 1258,
      "åĸľ": 1259,
      ":\\": 1260,
      "åł": 1261,
      "åįĬ": 1262,
      "çĩ": 1263,
      "çİĭ": 1264,
      "è®Ń": 1265,
      "èī¯": 1266,
      "å·®": 1267,
      "è§£åĨ³": 1268,
      "åĲĪä½ľ": 1269,
      "ä¸ĢèĪ¬": 1270,
      "äºĳ": 1271,
      "çŃĳ": 1272,
      "æİ§åĪ¶": 1273,
      "åĪĨæŀĲ": 1274,
      "æıĲåįĩ": 1275,
      "æ¥": 1276,
      "éĥ¨éĹ¨": 1277,
      "åĿļ": 1278,
      "è¿Ļç§į": 1279,
      "çīĪ": 1280,
      "äººçļĦ": 1281,
      "åħ´": 1282,
      "åĨ·": 1283,
      "åį¡": 1284,
      "å®Ŀ": 1285,
      "åŁİå¸Ĥ": 1286,
      "åį´": 1287,
      "11": 1288,
      "èİ·å¾Ĺ": 1289,
      "åı¦": 1290,
      "å¸Į": 1291,
      "ç¼ĸ": 1292,
      "çľ¼": 1293,
      "æĻ®": 1294,
      "ä¸ĬçļĦ": 1295,
      "çĶ¨äºİ": 1296,
      "å¿µ": 1297,
      "åŃ¦æł¡": 1298,
      "æľºæŀĦ": 1299,
      "è½¯": 1300,
      "åĩ»": 1301,
      "èĨ": 1302,
      "ä¸įèĥ½": 1303,
      "è¡¨ç¤º": 1304,
      "åĪ°äºĨ": 1305,
      "çķĻ": 1306,
      "è¡¥": 1307,
      "äº¿": 1308,
      "é¢ĨåŁŁ": 1309,
      "æ¤": 1310,
      "å®¡": 1311,
      "è´¢": 1312,
      "æ¶²": 1313,
      "åįķä½į": 1314,
      "çĨ": 1315,
      "æ¿": 1316,
      "éĵ¶": 1317,
      "åŁºç¡": 1318,
      "åŁºç¡Ģ": 1319,
      "è¯»": 1320,
      "é²": 1321,
      "Ġb": 1322,
      "èµĦæºĲ": 1323,
      "nåľ¨": 1324,
      "æĵį": 1325,
      "è½®": 1326,
      "å®ĮæĪĲ": 1327,
      "åºı": 1328,
      "30": 1329,
      "éĤ£ä¹Ī": 1330,
      "ed": 1331,
      "æįŁ": 1332,
      "åŃ©åŃĲ": 1333,
      "æĶ¿åºľ": 1334,
      "ç«ŀ": 1335,
      "ç½ĳç»ľ": 1336,
      "ç»ĵæŀĦ": 1337,
      "åĮ»éĻ¢": 1338,
      "Ġand": 1339,
      "çĵ": 1340,
      "æ¿Ģ": 1341,
      "æĭħ": 1342,
      "!\\": 1343,
      "ä»·æł¼": 1344,
      "çĶ±äºİ": 1345,
      "çĭ¬": 1346,
      "è½½": 1347,
      "æ½": 1348,
      "çł´": 1349,
      "éļľ": 1350,
      "æĽ´å¤ļ": 1351,
      "åıĳçĶŁ": 1352,
      "æ´Ĺ": 1353,
      "ar": 1354,
      "åĪĿ": 1355,
      "ç§»": 1356,
      "å®³": 1357,
      "å¼Ģåıĳ": 1358,
      "é»Ħ": 1359,
      "åĵª": 1360,
      "åģľ": 1361,
      "ä¸įæĸŃ": 1362,
      "çıŃ": 1363,
      "åĨĽ": 1364,
      "å¦Ĥä½ķ": 1365,
      "åİ¿": 1366,
      "å¿ħé¡»": 1367,
      "é¢Ŀ": 1368,
      "å©": 1369,
      "æī§": 1370,
      "en": 1371,
      "æ±½è½¦": 1372,
      "æľ¨": 1373,
      "çİ©": 1374,
      "æ³¨æĦı": 1375,
      "æľīæķĪ": 1376,
      "å¿Ĺ": 1377,
      "åĲĦç§į": 1378,
      "åĨĻ": 1379,
      "ç¦ı": 1380,
      "ä¸ļåĬ¡": 1381,
      "an": 1382,
      "ä¸ºäºĨ": 1383,
      "åĿĹ": 1384,
      "åıĳçİ°": 1385,
      "ä¹ĭåĲİ": 1386,
      "æĴŃ": 1387,
      "çļĦæĹ¶åĢĻ": 1388,
      "ä½ľçĶ¨": 1389,
      "è§Ħå®ļ": 1390,
      "é¦Ļ": 1391,
      "æĭĽ": 1392,
      "èĴ": 1393,
      "åī§": 1394,
      "å·¥ä¸ļ": 1395,
      "åĽº": 1396,
      "Ġf": 1397,
      "å®£": 1398,
      "ing": 1399,
      "æī¹": 1400,
      "æ¸¸æĪı": 1401,
      "å¤§åŃ¦": 1402,
      "çŁ¥éģĵ": 1403,
      "å»ºçŃĳ": 1404,
      "50": 1405,
      "ç¿": 1406,
      "),": 1407,
      "åĲ¬": 1408,
      "å¼Ĥ": 1409,
      "æľīéĻĲåħ¬åı¸": 1410,
      "ä¼¤": 1411,
      "éĵģ": 1412,
      "çķ¥": 1413,
      "åĳ¢": 1414,
      "éĵ¾": 1415,
      "æ³¢": 1416,
      "é¾Ļ": 1417,
      "æķĪæŀľ": 1418,
      "çº³": 1419,
      "ä»ª": 1420,
      "èĢĮä¸Ķ": 1421,
      "æĶ¯æĮģ": 1422,
      "æĸ¹æ¡Ī": 1423,
      "çŁŃ": 1424,
      "åħ¶ä¸Ń": 1425,
      "ç´§": 1426,
      "ä¿ĿæĬ¤": 1427,
      "å·´": 1428,
      "å¥Ĺ": 1429,
      "ä»¥ä¸Ĭ": 1430,
      "çīĽ": 1431,
      "19": 1432,
      "åįļ": 1433,
      "æĺ¥": 1434,
      "ç¯": 1435,
      "äº§çĶŁ": 1436,
      "åį°": 1437,
      "å¸®åĬ©": 1438,
      "ä¸´": 1439,
      "çĶ³è¯·": 1440,
      "æ¦": 1441,
      "æĿ¥çļĦ": 1442,
      "çªģ": 1443,
      "çĶ»": 1444,
      "åį«": 1445,
      "æŁĵ": 1446,
      "éĢı": 1447,
      "å¸ĮæľĽ": 1448,
      "æķ°åŃĹ": 1449,
      "èģļ": 1450,
      "åīĤ": 1451,
      "ç¨İ": 1452,
      "ç»¿": 1453,
      "æ²³": 1454,
      "ç»§": 1455,
      "ç»Ŀ": 1456,
      "ä¸ĢæŃ¥": 1457,
      "å¥ĸ": 1458,
      "ç´¢": 1459,
      "å¼Ģå±ķ": 1460,
      "åĪ©çĶ¨": 1461,
      "æĸ°çļĦ": 1462,
      "ä»»ä½ķ": 1463,
      "å¢ŀåĬł": 1464,
      "Ġm": 1465,
      "èĻ½": 1466,
      "ä¸°": 1467,
      "åĩĢ": 1468,
      ":âĢľ": 1469,
      "æĢİ": 1470,
      "åı²": 1471,
      "è·Ł": 1472,
      "å¾ħ": 1473,
      "çŁ¥è¯Ĩ": 1474,
      "æĶ¿çŃĸ": 1475,
      "ç»į": 1476,
      "åħ°": 1477,
      "is": 1478,
      "è¿ĺæľī": 1479,
      "ç»ĥ": 1480,
      "åºĵ": 1481,
      "æĮģç»Ń": 1482,
      "éħ¸": 1483,
      "æ±¡": 1484,
      "æĵįä½ľ": 1485,
      "æ¬§": 1486,
      "éĴ±": 1487,
      "éĽĨåĽ¢": 1488,
      "ä¸Ģèµ·": 1489,
      "éĶ®": 1490,
      "åĪ¶éĢł": 1491,
      "čĊ": 1492,
      "æĿ¥è¯´": 1493,
      "åĽ½åĨħ": 1494,
      "ç½Ĺ": 1495,
      "çłģ": 1496,
      "åĮĹäº¬": 1497,
      "è¡Ģ": 1498,
      "åī¯": 1499,
      "æŁĲ": 1500,
      "ä»ĺ": 1501,
      "çĶ·": 1502,
      "çĽ´æİ¥": 1503,
      "é¸": 1504,
      "¤Ĳ": 1505,
      "åŃĺåľ¨": 1506,
      "æ£Ģæµĭ": 1507,
      "æĭ¥": 1508,
      "é»ĳ": 1509,
      "ä»ĭç»į": 1510,
      "ä»į": 1511,
      "ç¼º": 1512,
      "at": 1513,
      "å®ĺ": 1514,
      "ç²ī": 1515,
      "åĨł": 1516,
      "ll": 1517,
      "è®¡åĪĴ": 1518,
      "15": 1519,
      "èĩªåĬ¨": 1520,
      "è¿Ļä¸Ģ": 1521,
      "è¯¢": 1522,
      "ç©ºéĹ´": 1523,
      "æīĺ": 1524,
      "ç»¼": 1525,
      "éĶĻ": 1526,
      "åı¤": 1527,
      "åįł": 1528,
      "es": 1529,
      "éĴĪ": 1530,
      "æĽ´åĬł": 1531,
      "çĻ»": 1532,
      "çī¹åĪ«": 1533,
      "ä½Ļ": 1534,
      "æĦ¿": 1535,
      "è´Łè´£": 1536,
      "åºĶè¯¥": 1537,
      "æ±ł": 1538,
      "ç§ĳåŃ¦": 1539,
      "åģĩ": 1540,
      "é¥®": 1541,
      "å¯¼èĩ´": 1542,
      "çĶµåŃĲ": 1543,
      "ç¬¬äºĮ": 1544,
      "100": 1545,
      "200": 1546,
      "é¤Ĳ": 1547,
      "å®¹æĺĵ": 1548,
      "æĬĹ": 1549,
      "ä¼łç»Ł": 1550,
      "å¹´çļĦ": 1551,
      "åħ¨åĽ½": 1552,
      "éĿł": 1553,
      "è¿°": 1554,
      "æľīåħ³": 1555,
      "æĪĲæľ¬": 1556,
      "å¯Ł": 1557,
      "ä»¤": 1558,
      "åĤ¨": 1559,
      "éģ¿": 1560,
      "å¾ģ": 1561,
      "æ¨¡å¼ı": 1562,
      "ä¿ĥ": 1563,
      "åª": 1564,
      "éļıçĿĢ": 1565,
      "éĴŁ": 1566,
      "æ°´å¹³": 1567,
      "å°Ħ": 1568,
      "è¿ĩç¨ĭä¸Ń": 1569,
      "èĢĲ": 1570,
      "èĤī": 1571,
      "æĿİ": 1572,
      "éĺ¿": 1573,
      "åŁºæľ¬": 1574,
      "ç»ıèĲ¥": 1575,
      "æ¸¯": 1576,
      "è¯ī": 1577,
      "å®īè£ħ": 1578,
      "ä¸įä»ħ": 1579,
      "å½©": 1580,
      "äºĨä¸Ģ": 1581,
      "èıľ": 1582,
      "ç§¯æŀģ": 1583,
      "Ġc": 1584,
      "æĢ§èĥ½": 1585,
      "ç«ł": 1586,
      "è®¤ä¸º": 1587,
      "Ġhe": 1588,
      "æİ¢": 1589,
      "åįĥ": 1590,
      "åĨ²": 1591,
      "èĥľ": 1592,
      "çĽ®æłĩ": 1593,
      "å¥ĩ": 1594,
      "èĩªçĦ¶": 1595,
      "æĿ¡ä»¶": 1596,
      "è´£ä»»": 1597,
      "åľ°åĮº": 1598,
      "æĿ¾": 1599,
      "æ¯į": 1600,
      "åħ³ç³»": 1601,
      "çŃ¾": 1602,
      "é¡º": 1603,
      "ç³»åĪĹ": 1604,
      "æĪĳä»¬çļĦ": 1605,
      "å®ŀéĻħ": 1606,
      "åı³": 1607,
      "è¾¾åĪ°": 1608,
      "ä»·åĢ¼": 1609,
      "Ġd": 1610,
      "åĪ»": 1611,
      "æĺ¯åĲ¦": 1612,
      "çĽĸ": 1613,
      "é±": 1614,
      "éĢłæĪĲ": 1615,
      "å¡ĳ": 1616,
      "èĻ½çĦ¶": 1617,
      "è¿Ľåħ¥": 1618,
      "æĶ»": 1619,
      "as": 1620,
      "èĪª": 1621,
      "ä¹¡": 1622,
      "Ġto": 1623,
      "ä¹ĭéĹ´": 1624,
      "æŀ¶": 1625,
      "å·¦": 1626,
      "Ġo": 1627,
      "é¦Ĩ": 1628,
      "éĶĢåĶ®": 1629,
      "éĢĲ": 1630,
      "äººæ°ĳ": 1631,
      "ç¾İåĽ½": 1632,
      "åħ¨çĲĥ": 1633,
      "æ£ĢæŁ¥": 1634,
      "æĭ¥æľī": 1635,
      "åº§": 1636,
      "æľĢåĲİ": 1637,
      "é±¼": 1638,
      "ç»©": 1639,
      "ä»£è¡¨": 1640,
      "2022": 1641,
      "åĽ¢éĺŁ": 1642,
      "çĽĺ": 1643,
      "æĺ¾ç¤º": 1644,
      "ĠI": 1645,
      "æ¯Ĵ": 1646,
      "èŃ": 1647,
      "éĽ¶": 1648,
      "å½¢æĪĲ": 1649,
      "æľªæĿ¥": 1650,
      "è®¯": 1651,
      "åĬ³": 1652,
      "çĶļ": 1653,
      "è¿Ļæĺ¯": 1654,
      "éī": 1655,
      "éī´": 1656,
      "åľ°æĸ¹": 1657,
      "æľĭ": 1658,
      "è¿İ": 1659,
      "åİŁåĽł": 1660,
      "ä¿Ŀè¯ģ": 1661,
      "ç»ĵæŀľ": 1662,
      "çĩĥ": 1663,
      "é¼": 1664,
      "ä¼¼": 1665,
      "åħŃ": 1666,
      "éĨ": 1667,
      "æĹłæ³ķ": 1668,
      "åĲ¯": 1669,
      "éĺ¶": 1670,
      "éģĩ": 1671,
      "èĤ¤": 1672,
      "åıĬæĹ¶": 1673,
      "åªĴ": 1674,
      "ç»ĵåĲĪ": 1675,
      "å¢ŀéķ¿": 1676,
      "èŃ¦": 1677,
      "æ··": 1678,
      "åºŃ": 1679,
      "è®¸å¤ļ": 1680,
      "èĽ": 1681,
      "ç¨³å®ļ": 1682,
      "åħ³äºİ": 1683,
      "æĭ¿": 1684,
      "æķ£": 1685,
      "æĿĤ": 1686,
      "æ¯ĶèµĽ": 1687,
      "çĹĩ": 1688,
      "ç®±": 1689,
      "åıĳå¸ĥ": 1690,
      "èĹ": 1691,
      "æī©": 1692,
      "ç»¼åĲĪ": 1693,
      "çİ°åľº": 1694,
      "çĦ¶åĲİ": 1695,
      "æ¥¼": 1696,
      "ç®Ģåįķ": 1697,
      ",âĢľ": 1698,
      "ç¬¦": 1699,
      "è¿ĲåĬ¨": 1700,
      "è¶ħè¿ĩ": 1701,
      "èĵ": 1702,
      "èĨľ": 1703,
      "è¿Ľä¸ĢæŃ¥": 1704,
      "æĽ¾": 1705,
      "çºª": 1706,
      "äº®": 1707,
      "éĩįçĤ¹": 1708,
      "åıĤä¸İ": 1709,
      "è®¿": 1710,
      "ä½łçļĦ": 1711,
      "é¥°": 1712,
      "ä¹ħ": 1713,
      "åĲĹ": 1714,
      "èĻĳ": 1715,
      "ä½ĵç³»": 1716,
      "ç»ıéªĮ": 1717,
      ")\\": 1718,
      "è¿½": 1719,
      "æİª": 1720,
      "æľĭåıĭ": 1721,
      "èĮĥåĽ´": 1722,
      "æĪĲåĬŁ": 1723,
      "éĿĻ": 1724,
      "èĭ¥": 1725,
      "èº«ä½ĵ": 1726,
      "ä½³": 1727,
      "çłĶåıĳ": 1728,
      "æĮ¥": 1729,
      "ä¼ĺåĬ¿": 1730,
      "èĥ¶": 1731,
      "æİĪ": 1732,
      "æķĻåŃ¦": 1733,
      "æłĳ": 1734,
      "ä»¥ä¸ĭ": 1735,
      "éķĩ": 1736,
      "æħ¢": 1737,
      "ä¸įè¿ĩ": 1738,
      "ä¸Ģæł·": 1739,
      "åĺ": 1740,
      "æ¤į": 1741,
      "ä¸įè¦ģ": 1742,
      "å®ŀæĸ½": 1743,
      "åĲ§": 1744,
      "çģµ": 1745,
      "æĮīçħ§": 1746,
      "æ´²": 1747,
      "å»ºè®®": 1748,
      "çĸ«æĥħ": 1749,
      "èĥĮ": 1750,
      "ç§Ł": 1751,
      "ä½ĵéªĮ": 1752,
      "é¡¾": 1753,
      "18": 1754,
      "ä¿ĿæĮģ": 1755,
      "éº": 1756,
      "æĢİä¹Ī": 1757,
      "éĿ©": 1758,
      "æ¶Īè´¹èĢħ": 1759,
      "å¹¶ä¸Ķ": 1760,
      "æ¹ĸ": 1761,
      "æĹħæ¸¸": 1762,
      "æ»ĳ": 1763,
      "å»ºç«ĭ": 1764,
      "æĪĳåĽ½": 1765,
      "åħ¨éĿ¢": 1766,
      "åħ³éĶ®": 1767,
      "äº¤æĺĵ": 1768,
      "æ´ģ": 1769,
      "èīºæľ¯": 1770,
      "åı¶": 1771,
      "åıĺåĮĸ": 1772,
      "éĻĪ": 1773,
      "éĻĦ": 1774,
      "é£ŀ": 1775,
      "èĸ": 1776,
      "ä¹ĭä¸Ģ": 1777,
      "èµ·æĿ¥": 1778,
      "é½": 1779,
      "ä¼ļè®®": 1780,
      "åĩıå°ĳ": 1781,
      "åĢŁ": 1782,
      "è®¡ç®Ĺ": 1783,
      "æ¯ķ": 1784,
      "çĶŁæĢģ": 1785,
      "ç¥¨": 1786,
      "æĸ½å·¥": 1787,
      "ä¸Ĭæµ·": 1788,
      "ç§Ģ": 1789,
      "åĪļ": 1790,
      "ä»Ĭå¹´": 1791,
      "å±ĭ": 1792,
      "åºĬ": 1793,
      "å»¶": 1794,
      "çĶļèĩ³": 1795,
      "æĻļ": 1796,
      "åĨĮ": 1797,
      "ic": 1798,
      "å°¼": 1799,
      "è®¢": 1800,
      "é£İéĻ©": 1801,
      "Ġp": 1802,
      "åħ¸": 1803,
      "ä¸Ŀ": 1804,
      "çĸ¾": 1805,
      "%,": 1806,
      "16": 1807,
      "om": 1808,
      "ä¸ĢçĽ´": 1809,
      "åŃ¦éĻ¢": 1810,
      "äºĪ": 1811,
      "åŁ¹è®Ń": 1812,
      "æĢ§çļĦ": 1813,
      "äººä»¬": 1814,
      "æ¢°": 1815,
      "é£Łåĵģ": 1816,
      "æ¸©åº¦": 1817,
      "ç²¾ç¥ŀ": 1818,
      "å²ģ": 1819,
      "æĢ¥": 1820,
      "åİĭåĬĽ": 1821,
      "åį±": 1822,
      "æıĲåĩº": 1823,
      "è¶£": 1824,
      "åĮ»çĸĹ": 1825,
      "ç»§ç»Ń": 1826,
      "ä¸Ģæ¬¡": 1827,
      "Ġl": 1828,
      "çĨŁ": 1829,
      "åĬłå·¥": 1830,
      "åħ¶å®ŀ": 1831,
      "è°Ī": 1832,
      "å°ģ": 1833,
      "åįĸ": 1834,
      "èĥ½æºĲ": 1835,
      "....": 1836,
      "åıĤåĬł": 1837,
      "åĽ°": 1838,
      "è½¯ä»¶": 1839,
      "å³": 1840,
      "ä¹İ": 1841,
      "è§¦": 1842,
      "éļĶ": 1843,
      "æ³ķå¾ĭ": 1844,
      "æ»¡è¶³": 1845,
      "é¡¶": 1846,
      "èĭı": 1847,
      "ä¸Ģç§į": 1848,
      "ç»ıè¿ĩ": 1849,
      "èĢģå¸Ī": 1850,
      "çĬ¶æĢģ": 1851,
      "ç¡®ä¿Ŀ": 1852,
      "ä¸įåĲĮçļĦ": 1853,
      "æ³Ľ": 1854,
      "å¦Ī": 1855,
      "ä¸¤ä¸ª": 1856,
      "âĢĶâĢĶ": 1857,
      "èĦĳ": 1858,
      "èģĶç½ĳ": 1859,
      "æīįèĥ½": 1860,
      "è¯¾ç¨ĭ": 1861,
      "ä¿Ŀéļľ": 1862,
      "ç¡¬": 1863,
      "å¿«éĢŁ": 1864,
      "åĪĨéĴŁ": 1865,
      "çģ¯": 1866,
      "æĭį": 1867,
      "å·¥èīº": 1868,
      "æķĻå¸Ī": 1869,
      "åĬłå¼º": 1870,
      "æ¶ī": 1871,
      "è°¢": 1872,
      "éĻ¤äºĨ": 1873,
      "ç¬¬ä¸ī": 1874,
      "çľĭåĪ°": 1875,
      "åĳĺå·¥": 1876,
      "èĮ¶": 1877,
      "et": 1878,
      "çŁ¿": 1879,
      "æ°§": 1880,
      "æ¶¦": 1881,
      "åħ·ä½ĵ": 1882,
      "æµĭè¯ķ": 1883,
      "åıªæľī": 1884,
      "èĳĹ": 1885,
      "åħ«": 1886,
      "å¤«": 1887,
      "æŃ¦": 1888,
      "çĽŁ": 1889,
      "å®ģ": 1890,
      "é²ľ": 1891,
      "è¡Įä¸º": 1892,
      "çŃĶ": 1893,
      "çĳ": 1894,
      "çĶ²": 1895,
      "éģ¿åħį": 1896,
      "ä¸°å¯Į": 1897,
      "æİ¨åĬ¨": 1898,
      "è´µ": 1899,
      "éľ²": 1900,
      "æľŁéĹ´": 1901,
      "æĬ¥åĳĬ": 1902,
      "éĩĳèŀį": 1903,
      "è®¨": 1904,
      "å°¤": 1905,
      "å®Ī": 1906,
      "éĻįä½İ": 1907,
      "ĠM": 1908,
      "æĺ¯åľ¨": 1909,
      "åħ³æ³¨": 1910,
      "âĢĿãĢĤ": 1911,
      "å¨ģ": 1912,
      "æī§è¡Į": 1913,
      "è¯Ĭ": 1914,
      "åİħ": 1915,
      "åıĸå¾Ĺ": 1916,
      "çĿ£": 1917,
      "åĸľæ¬¢": 1918,
      "éĺ¶æ®µ": 1919,
      "å±Ĭ": 1920,
      "äº¤æµģ": 1921,
      "èģĮä¸ļ": 1922,
      "è¿ĻéĩĮ": 1923,
      "çļĦå¤§": 1924,
      "è¿Ĳè¡Į": 1925,
      "ç§ģ": 1926,
      "è§Ħæ¨¡": 1927,
      "åģļå¥½": 1928,
      "å¾ĹåĪ°": 1929,
      "éĢĢ": 1930,
      "æĽ²": 1931,
      "éŃ": 1932,
      "è§ĦåĪĴ": 1933,
      "è®°èĢħ": 1934,
      "Ġg": 1935,
      "åĪ¤": 1936,
      "ç¬Ķ": 1937,
      "åįĪ": 1938,
      "å¥¥": 1939,
      "æĿ¯": 1940,
      "æ¸Ĳ": 1941,
      "åİļ": 1942,
      "æīĵéĢł": 1943,
      "åĪ¶ä½ľ": 1944,
      "ç¼©": 1945,
      "14": 1946,
      "æĳĦ": 1947,
      "çº¸": 1948,
      "ãĢĤâĢĿ\\": 1949,
      "èĤ¥": 1950,
      "éĴĪå¯¹": 1951,
      "el": 1952,
      "æ²Ļ": 1953,
      "æł¸å¿ĥ": 1954,
      "ot": 1955,
      "ä¼°": 1956,
      "å¸¦æĿ¥": 1957,
      "å®Įåħ¨": 1958,
      "åħħåĪĨ": 1959,
      "25": 1960,
      "èĦ±": 1961,
      "éĵ¶è¡Į": 1962,
      "åİĨåı²": 1963,
      "çĶŁçī©": 1964,
      "æĮĳ": 1965,
      "éĹ»": 1966,
      "éĩĳå±ŀ": 1967,
      "å®¶åºŃ": 1968,
      "è¸": 1969,
      "ä¸ĵå®¶": 1970,
      "ä½ĵèĤ²": 1971,
      "å°±ä¼ļ": 1972,
      "èĢĥèĻĳ": 1973,
      "ĠS": 1974,
      "æİªæĸ½": 1975,
      "13": 1976,
      "åıĹåĪ°": 1977,
      "æĪĳçļĦ": 1978,
      "éĽ¨": 1979,
      "æ¦Ĥ": 1980,
      "ä¼´": 1981,
      "æķĪçİĩ": 1982,
      "ç£¨": 1983,
      "ä¸Ģä¸ĭ": 1984,
      "åªĴä½ĵ": 1985,
      "æŃ£å¸¸": 1986,
      "çļ®èĤ¤": 1987,
      "æĹ¶ä»£": 1988,
      "èįī": 1989,
      "çļĦæĥħåĨµ": 1990,
      "è°ĥæķ´": 1991,
      "æľīçļĦ": 1992,
      "è§Ī": 1993,
      "è·Ŀ": 1994,
      "æĲŃ": 1995,
      "éī´å®ļ": 1996,
      "çļĦéĹ®é¢ĺ": 1997,
      "è¡¨éĿ¢": 1998,
      "çİ°ä»£": 1999,
      "åķĨä¸ļ": 2000,
      "æ°¸": 2001,
      "äº¤éĢļ": 2002,
      "æľºæ¢°": 2003,
      "ä¹ĭåīį": 2004,
      "ä¸ĩåħĥ": 2005,
      "çļĦé«ĺ": 2006,
      "ä»Ĭå¤©": 2007,
      "èļ": 2008,
      "å¢Ļ": 2009,
      "çĶµæ±ł": 2010,
      "çļĦè¯Ŀ": 2011,
      "è¿Ŀ": 2012,
      "æľºä¼ļ": 2013,
      "å¸Ń": 2014,
      "èµĦéĩĳ": 2015,
      "èĦļ": 2016,
      "å¹ħ": 2017,
      "åħ±åĲĮ": 2018,
      "è§Ĩé¢ĳ": 2019,
      "ç¢³": 2020,
      "çĸĳ": 2021,
      "çĸ¾çĹħ": 2022,
      "èĹı": 2023,
      "åºŁ": 2024,
      "å¸ģ": 2025,
      "å°ĺ": 2026,
      "åįģåĪĨ": 2027,
      "åĬª": 2028,
      "ĠA": 2029,
      "al": 2030,
      "æīĭæľº": 2031,
      "åĴ¨": 2032,
      "æĸĩä»¶": 2033,
      "çĪĨ": 2034,
      "èµĦæĸĻ": 2035,
      "åĮºåŁŁ": 2036,
      "æĸĳ": 2037,
      "æ¢¦": 2038,
      "å½¢å¼ı": 2039,
      "éĩıçļĦ": 2040,
      "ç«ŀäºī": 2041,
      "éĩĬ": 2042,
      "è¡¨çİ°": 2043,
      "å°ıæĹ¶": 2044,
      "ä»İèĢĮ": 2045,
      "ç¬¦åĲĪ": 2046,
      "æ»¤": 2047,
      "ç©¿": 2048,
      "Ġof": 2049,
      "è¶ĬæĿ¥": 2050,
      "é«ĺçļĦ": 2051,
      "ä¾ĽåºĶ": 2052,
      "é¢Ĩå¯¼": 2053,
      "è¯į": 2054,
      "ç«¥": 2055,
      "æ¯Ķå¦Ĥ": 2056,
      "æķ´ä¸ª": 2057,
      "çī¹çĤ¹": 2058,
      "åĴ¨è¯¢": 2059,
      "å®ľ": 2060,
      "\\\"": 2061,
      "è¶ĬæĿ¥è¶Ĭ": 2062,
      "æ³¨åĨĮ": 2063,
      "è®¾æĸ½": 2064,
      "åĬ±": 2065,
      "éĢĤåĲĪ": 2066,
      "åľĪ": 2067,
      "åºĶå½ĵ": 2068,
      "çĮ®": 2069,
      "æ¶Ĥ": 2070,
      "åĮĸçļĦ": 2071,
      "å©ļ": 2072,
      "ç¨ĭåºı": 2073,
      "èħĲ": 2074,
      "éķľ": 2075,
      "ä¸½": 2076,
      "å¹¿æ³Ľ": 2077,
      "ä¸ĥ": 2078,
      "40": 2079,
      "åĨ³å®ļ": 2080,
      "å½Ĵ": 2081,
      "åĽłç´ł": 2082,
      "å®£ä¼ł": 2083,
      "éĺ»": 2084,
      "è¯¯": 2085,
      "çīĻ": 2086,
      "oo": 2087,
      "äº¿åħĥ": 2088,
      "çĽ®çļĦ": 2089,
      "æŃ£åľ¨": 2090,
      "Â·": 2091,
      "ç¤¼": 2092,
      "æĺ¯ä¸Ģç§į": 2093,
      "æŃ»": 2094,
      "è¾Ĩ": 2095,
      "ä¹Łæľī": 2096,
      "èĶ": 2097,
      "æ±ĩ": 2098,
      "åĿı": 2099,
      "000": 2100,
      "äººæīį": 2101,
      "ä¸įåı¯": 2102,
      "æİ¥åıĹ": 2103,
      "åĮħè£ħ": 2104,
      "åĢº": 2105,
      "æİ¨è¿Ľ": 2106,
      "è½´": 2107,
      "ä»ĸçļĦ": 2108,
      "æļĸ": 2109,
      "åĬªåĬĽ": 2110,
      "äºĭæĥħ": 2111,
      "é¡µ": 2112,
      "åĢĴ": 2113,
      "èĽĭ": 2114,
      "è´·": 2115,
      "åĩĨå¤ĩ": 2116,
      "åŁºéĩĳ": 2117,
      "æķ´ä½ĵ": 2118,
      "ç¯®": 2119,
      "ow": 2120,
      "è´´": 2121,
      "17": 2122,
      "èį£": 2123,
      "åĿļæĮģ": 2124,
      "ä¸¥éĩį": 2125,
      "60": 2126,
      "æİī": 2127,
      "æĭŁ": 2128,
      "ä¿ĥè¿Ľ": 2129,
      "çļĦåıĳå±ķ": 2130,
      "æħ§": 2131,
      "å¯»": 2132,
      "åıªæĺ¯": 2133,
      "çļĦæĸ°": 2134,
      "è·ĳ": 2135,
      "éļĲ": 2136,
      "ç¨ĭåº¦": 2137,
      "è¿ĲèĲ¥": 2138,
      "ç¬ĳ": 2139,
      "çĥ§": 2140,
      "åĪĺ": 2141,
      "æĸ¹åĲĳ": 2142,
      "æ¹¿": 2143,
      "æ±ī": 2144,
      "æĹı": 2145,
      "éĥ½æľī": 2146,
      "Ġh": 2147,
      "çĪ¶": 2148,
      "çİ¯ä¿Ŀ": 2149,
      "ä½ľåĵģ": 2150,
      "çĲĥéĺŁ": 2151,
      "åıĳæĮ¥": 2152,
      "å®ŀéªĮ": 2153,
      "çªĹ": 2154,
      "è¯ļ": 2155,
      "ç©ºæ°Ķ": 2156,
      "ç»´æĬ¤": 2157,
      "å¤ľ": 2158,
      "æĥł": 2159,
      "å±ŀäºİ": 2160,
      "æĸ¹ä¾¿": 2161,
      "éĥ½ä¼ļ": 2162,
      "ç¼ĵ": 2163,
      "ä¼ĳ": 2164,
      "éĢŁåº¦": 2165,
      "æ¡£": 2166,
      "åłĤ": 2167,
      "å°ļ": 2168,
      "å¡ŀ": 2169,
      "ä¸»é¢ĺ": 2170,
      "åĿĲ": 2171,
      "ä¸įå¾Ĺ": 2172,
      "æľ¬æĸĩ": 2173,
      "æĺİç¡®": 2174,
      "è¡Ĺ": 2175,
      "è¡£": 2176,
      "æİĮ": 2177,
      "æ½®": 2178,
      "æĿ¥èĩª": 2179,
      "éķ¿æľŁ": 2180,
      "èĢĹ": 2181,
      "åĲĪçĲĨ": 2182,
      "ä»¥æĿ¥": 2183,
      "å·¦åı³": 2184,
      ")ãĢģ": 2185,
      "æĮĩå¯¼": 2186,
      "çĽĽ": 2187,
      "å¤ı": 2188,
      "éĢĶ": 2189,
      "24": 2190,
      "id": 2191,
      "ç¡®å®ļ": 2192,
      "åºĨ": 2193,
      "Ġn": 2194,
      "å±ı": 2195,
      "çĶ°": 2196,
      "æŃĮ": 2197,
      "ç´¯": 2198,
      "æķĳ": 2199,
      "é¹": 2200,
      "çļĦå·¥ä½ľ": 2201,
      "èľ": 2202,
      "è´¹çĶ¨": 2203,
      "ac": 2204,
      "ç¿»": 2205,
      "æĺ¯ä¸Ģä¸ª": 2206,
      "åĲĪåĲĮ": 2207,
      "æĹ¢": 2208,
      "å¾Ħ": 2209,
      "å·¨": 2210,
      "èģĶç³»": 2211,
      "2021": 2212,
      "åĩĿ": 2213,
      "éĽª": 2214,
      "åĸ·": 2215,
      "çĴ": 2216,
      "åĪĨåĪ«": 2217,
      "æ¾": 2218,
      "çĦ¦": 2219,
      "æĥ³è¦ģ": 2220,
      "è§īå¾Ĺ": 2221,
      "æĸĹ": 2222,
      "é¦ĸåħĪ": 2223,
      "çĥŁ": 2224,
      "å¹´æĿ¥": 2225,
      "å·¥åħ·": 2226,
      "äºĴèģĶç½ĳ": 2227,
      "ç¦ģ": 2228,
      "æĹ§": 2229,
      "æ±¡æŁĵ": 2230,
      "åĩºäºĨ": 2231,
      "èĢĥè¯ķ": 2232,
      "æĺİæĺ¾": 2233,
      "æ³¡": 2234,
      "æĤ¨çļĦ": 2235,
      "æĪĲç«ĭ": 2236,
      "ç¤¾åĮº": 2237,
      "è¶ĭ": 2238,
      "å®½": 2239,
      "åĳĪ": 2240,
      "æĿŁ": 2241,
      "åľĨ": 2242,
      "ä»»åĬ¡": 2243,
      "ä¹Łä¸į": 2244,
      "æı¡": 2245,
      "Ġha": 2246,
      "çĹĽ": 2247,
      "æĦŁè§ī": 2248,
      "èµĦäº§": 2249,
      "Ġher": 2250,
      "é¼ĵ": 2251,
      "ç³ĸ": 2252,
      "å³°": 2253,
      "åĩºçļĦ": 2254,
      "å¹¿åĳĬ": 2255,
      "æŃ¤å¤ĸ": 2256,
      "è·µ": 2257,
      "åĪ¶åº¦": 2258,
      "çº¯": 2259,
      "åĬŀåħ¬": 2260,
      "ä¹Łä¼ļ": 2261,
      "åĵªäºĽ": 2262,
      "å¹ķ": 2263,
      "Ġin": 2264,
      "æĿ¥çľĭ": 2265,
      "æ¯Ľ": 2266,
      "åĬ¨åĬĽ": 2267,
      "è´Ńä¹°": 2268,
      "ç»ıå¸¸": 2269,
      "èģĶåĲĪ": 2270,
      "æĪĺçķ¥": 2271,
      "ä¸įå°ĳ": 2272,
      "è¡¡": 2273,
      "è¿Ļæł·çļĦ": 2274,
      "ä¾§": 2275,
      "éĽ·": 2276,
      "å°¤åħ¶": 2277,
      "ĠC": 2278,
      "è§ĦèĮĥ": 2279,
      "é¢ľ": 2280,
      "åĵģè´¨": 2281,
      "çī©è´¨": 2282,
      "éĩįè¦ģçļĦ": 2283,
      "éĺħ": 2284,
      "å§Ķåĳĺ": 2285,
      "èĻļ": 2286,
      "ä¹Ŀ": 2287,
      "æĪĲç»©": 2288,
      "åı¦å¤ĸ": 2289,
      "æĬĵ": 2290,
      "è¿·": 2291,
      "æĳĺ": 2292,
      "éĺµ": 2293,
      "è¯¦": 2294,
      "è¡ĮæĶ¿": 2295,
      "è®¾ç½®": 2296,
      "ä¼ĺåĮĸ": 2297,
      "ç»ĦæĪĲ": 2298,
      "ay": 2299,
      "éĿ¢ç§¯": 2300,
      "åı«": 2301,
      "æ¢ħ": 2302,
      "å¹¶ä¸į": 2303,
      "åģı": 2304,
      "æ²ī": 2305,
      "å½ĵçĦ¶": 2306,
      "åĨ¬": 2307,
      "éĻĨ": 2308,
      "æĲľ": 2309,
      "è´¦": 2310,
      "èĭ¦": 2311,
      "æľĢç»Ī": 2312,
      "éŁ³ä¹Ĳ": 2313,
      "æĹ¥æľ¬": 2314,
      "éĵĿ": 2315,
      "åĨľä¸ļ": 2316,
      "åĩºæĿ¥": 2317,
      "åĲī": 2318,
      "é½Ĳ": 2319,
      "æ¯ıä¸ª": 2320,
      "èıĮ": 2321,
      "åĪº": 2322,
      "åĪĨäº«": 2323,
      "2020": 2324,
      "æ¶¨": 2325,
      "å¹¸": 2326,
      "ro": 2327,
      "æĮ¯": 2328,
      "å¤®": 2329,
      "åıªè¦ģ": 2330,
      "ä¸ľè¥¿": 2331,
      "èĲ½å®ŀ": 2332,
      "éĢļå¸¸": 2333,
      "æĶ¹åıĺ": 2334,
      "æľīäºĽ": 2335,
      "æľºåĻ¨": 2336,
      "ä½įç½®": 2337,
      "æķħäºĭ": 2338,
      "çļĦäº§åĵģ": 2339,
      "ri": 2340,
      "Ġy": 2341,
      "éĢĴ": 2342,
      "èĦĤ": 2343,
      "ç»¿èī²": 2344,
      "çĥĪ": 2345,
      "ut": 2346,
      "çļĦå°ı": 2347,
      "å²Ľ": 2348,
      "80": 2349,
      "ç²Ĵ": 2350,
      "å²Ĺ": 2351,
      "ĠâĢľ": 2352,
      "çº·": 2353,
      "è¡ĮåĬ¨": 2354,
      "st": 2355,
      "æĻ®éĢļ": 2356,
      "éģĹ": 2357,
      "âĢĿãĢĤ\\": 2358,
      "ç§»åĬ¨": 2359,
      "æĢĢ": 2360,
      "æ´¾": 2361,
      "ç±»åŀĭ": 2362,
      "ä¼Ļ": 2363,
      "åķĨåĵģ": 2364,
      "åģļåĪ°": 2365,
      "èµĦæł¼": 2366,
      "åĵĪ": 2367,
      "æĻºæħ§": 2368,
      "æµģç¨ĭ": 2369,
      "å·Ŀ": 2370,
      "çĲĥåĳĺ": 2371,
      "åĲİçļĦ": 2372,
      "åįıä¼ļ": 2373,
      "ç£ģ": 2374,
      "çī¹èī²": 2375,
      "è·¨": 2376,
      "èĬ¯": 2377,
      "æ®Ĭ": 2378,
      "å®ĮåĸĦ": 2379,
      "åŃĶ": 2380,
      "åħĪè¿Ľ": 2381,
      "åĪĽéĢł": 2382,
      "çļĦéĩįè¦ģ": 2383,
      "èĩªèº«": 2384,
      "2019": 2385,
      "æĿĢ": 2386,
      "å¼±": 2387,
      "è¯º": 2388,
      "æ¡¥": 2389,
      "èĲ¥éĶĢ": 2390,
      "åĢį": 2391,
      "æĩ": 2392,
      "éĿ¢çļĦ": 2393,
      "åŁ¹åħ»": 2394,
      "åħ¬åħ±": 2395,
      "ç¼ĺ": 2396,
      "æľ«": 2397,
      "çĲĨè§£": 2398,
      "åľ¨çº¿": 2399,
      "åįĩçº§": 2400,
      "åı¥": 2401,
      "äº§åĵģçļĦ": 2402,
      "ä¾ĭå¦Ĥ": 2403,
      "ä¼ĺç§Ģ": 2404,
      "æ³¥": 2405,
      "è¿ŀæİ¥": 2406,
      "å¥¶": 2407,
      "èĵĿ": 2408,
      "çĶ¨çļĦ": 2409,
      "ä¹Łåı¯ä»¥": 2410,
      "ãĢĤâĢľ": 2411,
      "æĬĺ": 2412,
      "åĮĸåŃ¦": 2413,
      "çİ»": 2414,
      "èµĽåŃ£": 2415,
      "åħ·å¤ĩ": 2416,
      "åį«çĶŁ": 2417,
      "ver": 2418,
      "æ²Ł": 2419,
      "è¿ĩåİ»": 2420,
      "çİ°è±¡": 2421,
      "å±ķå¼Ģ": 2422,
      "æĹ¥å¸¸": 2423,
      "æ¯ķä¸ļ": 2424,
      "å®ŀè·µ": 2425,
      "æ³°": 2426,
      "è®¤è¯ģ": 2427,
      "çĲĨå¿µ": 2428,
      "è´¥": 2429,
      "äºĭä¸ļ": 2430,
      "åĨ°": 2431,
      "å¤ļçļĦ": 2432,
      "åĪ¸": 2433,
      "éĹŃ": 2434,
      "æ¬¢è¿İ": 2435,
      "åħ¨éĥ¨": 2436,
      "æľºåĪ¶": 2437,
      "è´¸": 2438,
      "ä¸¥æł¼": 2439,
      "23": 2440,
      "è¯´æĺİ": 2441,
      "è¾ħ": 2442,
      "ad": 2443,
      "çĽ¸å¯¹": 2444,
      "é©¾": 2445,
      "ĠP": 2446,
      "çĶŁåĳ½": 2447,
      "åĲĮåŃ¦": 2448,
      "å¿ħè¦ģ": 2449,
      "æĹłè®º": 2450,
      "å¾ª": 2451,
      "å°±åı¯ä»¥": 2452,
      "æ£®": 2453,
      "2023": 2454,
      "ä¸Ģå®ļè¦ģ": 2455,
      "æĮĩåĩº": 2456,
      "è¿ª": 2457,
      "æĶ¶åħ¥": 2458,
      "å¼¹": 2459,
      "æ¶īåıĬ": 2460,
      "ä¸ĭæĿ¥": 2461,
      "åĬŀæ³ķ": 2462,
      "åĳ¼": 2463,
      "åĬłåħ¥": 2464,
      "ä¼ĺè´¨": 2465,
      "èĦ¸": 2466,
      "Ġyou": 2467,
      "è¦": 2468,
      "éĤ®": 2469,
      "ä½Ľ": 2470,
      "èª": 2471,
      ")ãĢĤ": 2472,
      "åĪ·": 2473,
      "ĠB": 2474,
      "æ´ĭ": 2475,
      "å¿ĥçĲĨ": 2476,
      "å¤ļç§į": 2477,
      "å¡«": 2478,
      "åıĳå±ķçļĦ": 2479,
      "åıįåºĶ": 2480,
      "æ·»": 2481,
      "èĪŀ": 2482,
      "åĪĽä¸ļ": 2483,
      "çľŁæŃ£": 2484,
      "è¦Ĩ": 2485,
      "çĴĥ": 2486,
      "è¿Ĳè¾ĵ": 2487,
      "æĮĤ": 2488,
      "å®Ĺ": 2489,
      "im": 2490,
      "Â°": 2491,
      "æľ¬æ¬¡": 2492,
      "ä¿ĿéĻ©": 2493,
      "æŃ£å¼ı": 2494,
      "èī¯å¥½çļĦ": 2495,
      "çĶµè¯Ŀ": 2496,
      "èĪĴ": 2497,
      "éŁ©": 2498,
      "å¦ĤæŃ¤": 2499,
      "æĪª": 2500,
      "ç»ķ": 2501,
      "éª¨": 2502,
      "éĶģ": 2503,
      "hat": 2504,
      "å¼ķèµ·": 2505,
      "çĬ¯": 2506,
      "æ·±åħ¥": 2507,
      "å¯¿": 2508,
      "ç«Ł": 2509,
      "æł·çļĦ": 2510,
      "åŁºäºİ": 2511,
      "è¯ķéªĮ": 2512,
      "æĶ¹éĿ©": 2513,
      "æĺł": 2514,
      "æ½ľ": 2515,
      "åĨħéĥ¨": 2516,
      "äº¦": 2517,
      "éĢļçŁ¥": 2518,
      "äººå·¥": 2519,
      "ç»ıçĲĨ": 2520,
      "æĹĹ": 2521,
      "éĨĴ": 2522,
      "22": 2523,
      "ä¸ºä»Ģä¹Ī": 2524,
      "éĿ¢å¯¹": 2525,
      "çİ»çĴĥ": 2526,
      "çº¹": 2527,
      "åı¯èĥ½ä¼ļ": 2528,
      "ä¼ģä¸ļçļĦ": 2529,
      "å½ĵåľ°": 2530,
      "ä¸ªæľĪ": 2531,
      "å®ĥä»¬": 2532,
      "±ä¹Ĳ": 2533,
      "æī¾åĪ°": 2534,
      "ç½²": 2535,
      "éĶħ": 2536,
      "æĽ¼": 2537,
      "çħ¤": 2538,
      "âĢĻ": 2539,
      "æµĵ": 2540,
      "çī¹æ®Ĭ": 2541,
      "èŀįåĲĪ": 2542,
      "çİ©å®¶": 2543,
      "éĩİ": 2544,
      "è¯Ńè¨Ģ": 2545,
      "am": 2546,
      "éĽħ": 2547,
      "ĠT": 2548,
      "æĿ¨": 2549,
      "æ¹¾": 2550,
      "éĽĨä¸Ń": 2551,
      "åĬĽçļĦ": 2552,
      "æİ¨å¹¿": 2553,
      "åĳĬè¯ī": 2554,
      "æĦıè§ģ": 2555,
      "è¯ģæĺİ": 2556,
      "æļ´": 2557,
      "æ¼ı": 2558,
      "ch": 2559,
      "æĦıè¯Ĩ": 2560,
      "ld": 2561,
      "çļĦæĸ¹å¼ı": 2562,
      "è¶ĭåĬ¿": 2563,
      "èĥŀ": 2564,
      "æĬ½": 2565,
      "æĽ¿": 2566,
      "ä¸ĢçĤ¹": 2567,
      "çİī": 2568,
      "åĨħçļĦ": 2569,
      "çĿ¡": 2570,
      "å¹´åº¦": 2571,
      "æµª": 2572,
      "èģĺ": 2573,
      "å¡Ķ": 2574,
      "ve": 2575,
      "èµ¢": 2576,
      "é£Łçī©": 2577,
      "æķı": 2578,
      "ç§ĺ": 2579,
      "æıı": 2580,
      "åĦ¿ç«¥": 2581,
      "è§£åĨ³æĸ¹æ¡Ī": 2582,
      "ä¸ĭçļĦ": 2583,
      "å±ķç¤º": 2584,
      "åľ£": 2585,
      "Ġ(": 2586,
      "çĺ": 2587,
      "å¤ļä¸ª": 2588,
      "æģ¢": 2589,
      "æĤī": 2590,
      "åħ¬å¼Ģ": 2591,
      "çĽĳç®¡": 2592,
      "è£ħç½®": 2593,
      "é¥Ń": 2594,
      "é£İæľº": 2595,
      "æĳĺè¦ģ": 2596,
      "åĿĢ": 2597,
      "åĮ»çĶŁ": 2598,
      "æľīæīĢ": 2599,
      "çļĦæĹ¶éĹ´": 2600,
      "ä¸»ä»»": 2601,
      "æĶ¹åĸĦ": 2602,
      "èįĲ": 2603,
      "è½¦è¾Ĩ": 2604,
      "ç»Łä¸Ģ": 2605,
      "è´Ŀ": 2606,
      "æĬµ": 2607,
      "\\\\": 2608,
      "ç½ļ": 2609,
      "ion": 2610,
      "å®īæİĴ": 2611,
      "å¼ĢæĶ¾": 2612,
      "èĥİ": 2613,
      "çĤİ": 2614,
      "å®ĥçļĦ": 2615,
      "æĬĢèĥ½": 2616,
      "çĬ¶åĨµ": 2617,
      "æģ¢å¤į": 2618,
      "åİĤå®¶": 2619,
      "éĶĪ": 2620,
      "å°º": 2621,
      "å¤§å¤ļ": 2622,
      "èĤ¯": 2623,
      "âĢĿãĢģ": 2624,
      "åıĮæĸ¹": 2625,
      "åĪ¶å®ļ": 2626,
      "ä¸Ģä½ĵ": 2627,
      "å¦ĩ": 2628,
      "å¹¼": 2629,
      "è°ģ": 2630,
      "è°ĥæŁ¥": 2631,
      "å¼ºåº¦": 2632,
      "æĪĲæŀľ": 2633,
      "æľĢå¤§": 2634,
      "ç»´ä¿®": 2635,
      "æ¸ħæ´Ĺ": 2636,
      "çĶµå½±": 2637,
      "æŃ£ç¡®": 2638,
      "èĴ¸": 2639,
      "æĥĬ": 2640,
      "çĲĨè®º": 2641,
      "çĽ¸ä¿¡": 2642,
      "åľ³": 2643,
      "çĽ¸å½ĵ": 2644,
      "å´": 2645,
      "éģį": 2646,
      "åĬŀçĲĨ": 2647,
      "21": 2648,
      "æĥ¯": 2649,
      "ç¹": 2650,
      "æľĿ": 2651,
      "çłĤ": 2652,
      "ãĢĲ": 2653,
      "ä¸ĭéĻį": 2654,
      "åĬĽéĩı": 2655,
      "æĬ¥åĲį": 2656,
      "éĩįæĸ°": 2657,
      "æĦıä¹ī": 2658,
      "æĸĩç«ł": 2659,
      "æŃ¤æ¬¡": 2660,
      "ç¹ģ": 2661,
      "æī¬": 2662,
      "èªī": 2663,
      "ãĢĳ": 2664,
      "ç§ĭ": 2665,
      "éĺ²æŃ¢": 2666,
      "æ·±åľ³": 2667,
      "åģ¿": 2668,
      "--": 2669,
      "åİŁåĪĻ": 2670,
      "çĻ½æĸĳ": 2671,
      "æ¯ıå¤©": 2672,
      "è¾ĳ": 2673,
      "è¿Ľè¡ĮäºĨ": 2674,
      "ç¯ĩ": 2675,
      "åĪĨä¸º": 2676,
      "ãĢĭ,": 2677,
      "æķ°éĩı": 2678,
      "åĭĩ": 2679,
      "é¸¡": 2680,
      "èĲ¥åħ»": 2681,
      "è¯Ħä¼°": 2682,
      "æĶ¯ä»ĺ": 2683,
      "æĪ¿å±ĭ": 2684,
      "2018": 2685,
      "çĽĲ": 2686,
      "ly": 2687,
      "æį·": 2688,
      "å¢ŀå¼º": 2689,
      "åı¯éĿł": 2690,
      "çĳŀ": 2691,
      "è±Ĩ": 2692,
      "åķĨæłĩ": 2693,
      "é©±": 2694,
      "æŀĦå»º": 2695,
      "æĮĳæĪĺ": 2696,
      "æĢķ": 2697,
      "æĪĲéķ¿": 2698,
      "è¿ŀç»Ń": 2699,
      "èĩªçĶ±": 2700,
      "ä»įçĦ¶": 2701,
      "äº²åŃĲ": 2702,
      "å¯¸": 2703,
      "Ġfor": 2704,
      "åĩŃ": 2705,
      "æĹĭ": 2706,
      "æİ¥è§¦": 2707,
      "èŀº": 2708,
      "pp": 2709,
      "æĭĵ": 2710,
      "ter": 2711,
      "èļĢ": 2712,
      "çıł": 2713,
      "ä¸¾åĬŀ": 2714,
      "çľŁçļĦ": 2715,
      "åħ¬åı¸çļĦ": 2716,
      "è£ģ": 2717,
      "ir": 2718,
      "âĢĺ": 2719,
      "å®ĩ": 2720,
      "æĢ§åĴĮ": 2721,
      "å¤įæĿĤ": 2722,
      "å·§": 2723,
      "é©¶": 2724,
      "é£İæł¼": 2725,
      "éĩĩåıĸ": 2726,
      "çĶµæľº": 2727,
      "çŀ": 2728,
      "çī©æµģ": 2729,
      "åįıè®®": 2730,
      "çŃīçŃī": 2731,
      "å¼ºåĮĸ": 2732,
      "åŁºåľ°": 2733,
      "çĽĳçĿ£": 2734,
      "è¿ĲçĶ¨": 2735,
      "æ©": 2736,
      "ĠL": 2737,
      "åħĪçĶŁ": 2738,
      "å½»": 2739,
      "Ġbe": 2740,
      "è°·": 2741,
      "åĲ¸å¼ķ": 2742,
      "æĪ´": 2743,
      "çĶµè§Ĩ": 2744,
      "èĭĹ": 2745,
      "Ġåľ¨": 2746,
      "åħ¼": 2747,
      "æĿĨ": 2748,
      "ä¼¦": 2749,
      "é«ĺæķĪ": 2750,
      "åĩĨç¡®": 2751,
      "ä¹±": 2752,
      "å¤§åŀĭ": 2753,
      "ç®¡éģĵ": 2754,
      "è®Ńç»ĥ": 2755,
      "Ġit": 2756,
      "çĤī": 2757,
      "èĳ£": 2758,
      "éħĴåºĹ": 2759,
      "çĽĳæµĭ": 2760,
      "èĪ¹": 2761,
      "ä¸Ĭå¸Ĥ": 2762,
      "mm": 2763,
      "æģ©": 2764,
      "ä¹ĺ": 2765,
      "ä¸įåĪ°": 2766,
      "åĲ¯åĬ¨": 2767,
      "æµĭéĩı": 2768,
      "è·Ŀç¦»": 2769,
      "è¯Ĺ": 2770,
      "é¢ĨåħĪ": 2771,
      "ç»Ĩèĥŀ": 2772,
      "åľºæĻ¯": 2773,
      "éĽĦ": 2774,
      "æİ¨èįĲ": 2775,
      "æ¶Īæģ¯": 2776,
      "ä»ĸä»¬çļĦ": 2777,
      "åº¦çļĦ": 2778,
      "å£ģ": 2779,
      "ä¸¾è¡Į": 2780,
      "27": 2781,
      "åı¬": 2782,
      "è®°å½ķ": 2783,
      "åį³åı¯": 2784,
      "æĸ°éĹ»": 2785,
      "æģ¶": 2786,
      "å¼ĥ": 2787,
      "è¿Ļä¹Ī": 2788,
      "æī«": 2789,
      "ä½įäºİ": 2790,
      "æ¥ļ": 2791,
      "åĢ¼å¾Ĺ": 2792,
      "ä¿¡åı·": 2793,
      "æµģéĩı": 2794,
      "æĽ´å¤ļçļĦ": 2795,
      "500": 2796,
      "å®«": 2797,
      "çĵ¦": 2798,
      "ç»Łè®¡": 2799,
      "éħįåĲĪ": 2800,
      "ä¸Ģå®ļçļĦ": 2801,
      "łéģĵ": 2802,
      "æĬķåħ¥": 2803,
      "çĽ¸åºĶ": 2804,
      "è·Į": 2805,
      "ent": 2806,
      "ä¹Ļ": 2807,
      "èĢ³": 2808,
      "âĢĿ\\": 2809,
      "æģĴ": 2810,
      "èĸĦ": 2811,
      "è¿Ķ": 2812,
      "æ²¿": 2813,
      "æı´": 2814,
      "åĵ¥": 2815,
      "çĦ¶èĢĮ": 2816,
      "nç¬¬": 2817,
      "èĤ¡ä»½": 2818,
      "æľīä¸Ģ": 2819,
      "æĺ¯ä»Ģä¹Ī": 2820,
      "åĲĦç±»": 2821,
      "åĨįæ¬¡": 2822,
      "éĩįè§Ĩ": 2823,
      "Ġas": 2824,
      "ä¼Ĭ": 2825,
      "ç¾İåħĥ": 2826,
      "ä¸ĭéĿ¢": 2827,
      "éĩĩè´Ń": 2828,
      "åį·": 2829,
      "çģ¾": 2830,
      "æľ¬æĸĩæĳĺè¦ģ": 2831,
      "å°±ä¸ļ": 2832,
      "åı¦ä¸Ģ": 2833,
      "28": 2834,
      "å¹´è½»": 2835,
      "è®¤è¯Ĩ": 2836,
      "å¥ĭ": 2837,
      "å¤ļå°ĳ": 2838,
      "éĤ£äºĽ": 2839,
      "ä½ľä¸ļ": 2840,
      "æ§": 2841,
      "ä»ĵ": 2842,
      "åĪĢ": 2843,
      "è£Ĥ": 2844,
      "åĲ¨": 2845,
      "ãĢĤ(": 2846,
      "èĲ¨": 2847,
      "çĶµåĬ¨": 2848,
      "å§Ķåĳĺä¼ļ": 2849,
      "åľ°äº§": 2850,
      "åĽºå®ļ": 2851,
      "éº»": 2852,
      "åĽ°éļ¾": 2853,
      "è´¯": 2854,
      "çģ°": 2855,
      "è´·æ¬¾": 2856,
      "ä»¥åĲİ": 2857,
      "å½ĵåīį": 2858,
      "æ²»çĲĨ": 2859,
      "nä¸Ģ": 2860,
      "æº¶": 2861,
      "åĸĿ": 2862,
      "ä¸ĵåĪ©": 2863,
      "æ¢ģ": 2864,
      "é¦Ļæ¸¯": 2865,
      "æĽ´å¥½": 2866,
      "gh": 2867,
      "ä»İäºĭ": 2868,
      "90": 2869,
      "us": 2870,
      "Ġe": 2871,
      "å¤§éĩı": 2872,
      "çĦĬ": 2873,
      "æĳ©": 2874,
      "åİ»å¹´": 2875,
      "æ¸ħæ´ģ": 2876,
      "ke": 2877,
      "å«": 2878,
      "æĭĴ": 2879,
      "ä¹ĭéĹ´çļĦ": 2880,
      "ä¸ºä¸»": 2881,
      "å¹¿ä¸ľ": 2882,
      "æ¾³": 2883,
      "éĺ²æİ§": 2884,
      "å¹¿å¤§": 2885,
      "éľĩ": 2886,
      "é¾Ħ": 2887,
      "å·¥ä½ľçļĦ": 2888,
      "æİ¨åĩº": 2889,
      "ä¼ļæľī": 2890,
      "çº¿ä¸Ĭ": 2891,
      "éĤĢ": 2892,
      "è´¡": 2893,
      "çĻ»è®°": 2894,
      "é¡¿": 2895,
      "äººç±»": 2896,
      "è°ĵ": 2897,
      "èĤĮ": 2898,
      "çº¤": 2899,
      "éĥĳ": 2900,
      "å¡ĳæĸĻ": 2901,
      "æ³µ": 2902,
      "éĩįå¤§": 2903,
      "ĠçļĦ": 2904,
      "æĽ´æĸ°": 2905,
      "ä¸ĵä¸ļçļĦ": 2906,
      "çļĩ": 2907,
      "èµŀ": 2908,
      "èĢĮæĺ¯": 2909,
      "ä¸»åĬ¨": 2910,
      "æ¼«": 2911,
      "åħįè´¹": 2912,
      "çĹĩçĬ¶": 2913,
      "......": 2914,
      "å¤Ħäºİ": 2915,
      "26": 2916,
      "æłı": 2917,
      "ä¹Ķ": 2918,
      "æ¯ıä¸Ģ": 2919,
      "éĢĤçĶ¨äºİ": 2920,
      "æ²ŁéĢļ": 2921,
      "çļĦå½±åĵį": 2922,
      "æ¯«": 2923,
      "å¾ĭå¸Ī": 2924,
      "åħĥç´ł": 2925,
      "%ãĢĤ": 2926,
      "è½¬åŀĭ": 2927,
      "å¦Ĥä»Ĭ": 2928,
      "åĬłå¿«": 2929,
      "ĠJ": 2930,
      "é¢ľèī²": 2931,
      "ä¸įè¶³": 2932,
      "è¯Ħä»·": 2933,
      "å·¥åİĤ": 2934,
      "åıªèĥ½": 2935,
      "è¿ħ": 2936,
      "å¹¿å·ŀ": 2937,
      "çī©çļĦ": 2938,
      "ç¾¤ä¼Ĺ": 2939,
      "å®ŀåĬĽ": 2940,
      "70": 2941,
      "é¢Ĺ": 2942,
      "ç»ĵæĿŁ": 2943,
      "åĺī": 2944,
      "Ġ1": 2945,
      "çŃ¹": 2946,
      "åĳĪçİ°": 2947,
      ".\\": 2948,
      "ç¼´": 2949,
      "é²ģ": 2950,
      "å¹³åĿĩ": 2951,
      "æ°§åĮĸ": 2952,
      "èµı": 2953,
      "çŁ¥åĲį": 2954,
      "æľīäºĨ": 2955,
      "èĢĮè¨Ģ": 2956,
      "æľīçĿĢ": 2957,
      "åı¯ä»¥åľ¨": 2958,
      "å±±ä¸ľ": 2959,
      "ç²ĺ": 2960,
      "çĽ¸åĲĮ": 2961,
      "ä¹¦è®°": 2962,
      "åŀĥ": 2963,
      "åľ¾": 2964,
      "åŀĥåľ¾": 2965,
      "æľºçļĦ": 2966,
      "é«ĺåº¦": 2967,
      "è¯¦ç»Ĩ": 2968,
      "ç»ª": 2969,
      "å½¢è±¡": 2970,
      "çĩ¥": 2971,
      "næľ¬": 2972,
      "æľĢè¿ĳ": 2973,
      "éĵº": 2974,
      "èĴĻ": 2975,
      "åĲĦåľ°": 2976,
      "æĲľç´¢": 2977,
      "èĦī": 2978,
      "éĢĲæ¸Ĳ": 2979,
      "Ġ3": 2980,
      "èİ±": 2981,
      "åĻ¨çļĦ": 2982,
      "èµĸ": 2983,
      "åħ¬å¸ĥ": 2984,
      "ä¸īä¸ª": 2985,
      "çĪ¸": 2986,
      "æıĴ": 2987,
      "æ±¤": 2988,
      "è®©äºº": 2989,
      "æĸ¹éĿ¢çļĦ": 2990,
      "éĶĭ": 2991,
      "å®Įæķ´": 2992,
      "ä¹łæĥ¯": 2993,
      "çĽ¸æ¯Ķ": 2994,
      "æŁĶ": 2995,
      "éħįç½®": 2996,
      "é«ĺè´¨éĩı": 2997,
      "ç³»ç»ŁçļĦ": 2998,
      "æ¯Ķä¾ĭ": 2999,
      "çĻ£": 3000,
      "åĶ¯": 3001,
      "æī¿æĭħ": 3002,
      "ä¸Ģå¹´": 3003,
      "ç»ıåİĨ": 3004,
      "æ°Ķä½ĵ": 3005,
      "çľŁå®ŀ": 3006,
      "èį·": 3007,
      "ä¼į": 3008,
      "èº«ä»½": 3009,
      "ä¹ĭå¤ĸ": 3010,
      "èİ·åıĸ": 3011,
      "æİĴåĲį": 3012,
      "å¾Ģå¾Ģ": 3013,
      "ith": 3014,
      "ä¾µ": 3015,
      "è·³": 3016,
      "å°Ŀ": 3017,
      "éĵľ": 3018,
      "æľ¬èº«": 3019,
      "å¸¸è§ģ": 3020,
      "åĮħåĲ«": 3021,
      "åĲĬ": 3022,
      "åĽŀåºĶ": 3023,
      "éĹ²": 3024,
      "æĹ¦": 3025,
      "æĬ¢": 3026,
      "éĺħè¯»": 3027,
      "æľīæľº": 3028,
      "æī¶": 3029,
      "å¼ķå¯¼": 3030,
      "å±ķçİ°": 3031,
      "ä¸Ńå¤®": 3032,
      "æķĻæİĪ": 3033,
      "è´Łè´£äºº": 3034,
      "é¡ºåĪ©": 3035,
      "å¤§ä¼ļ": 3036,
      "çīĽçļ®": 3037,
      "è¯ģä¹¦": 3038,
      "éĩĮçļĦ": 3039,
      "è£ħé¥°": 3040,
      "æĴĳ": 3041,
      "ç½ª": 3042,
      "nå¦Ĥæŀľ": 3043,
      "å°¾": 3044,
      "åºĦ": 3045,
      "æ´¥": 3046,
      "çªģçł´": 3047,
      "æļĤ": 3048,
      "ä¸Ńå°ı": 3049,
      "èĭ±è¯Ń": 3050,
      "æĮĩæłĩ": 3051,
      "çĽ´æĴŃ": 3052,
      "å¤º": 3053,
      "æĪĲåĳĺ": 3054,
      "æľŁçļĦ": 3055,
      "è¯´éģĵ": 3056,
      "æ®ĸ": 3057,
      "åħ´è¶£": 3058,
      "ĠG": 3059,
      "æĻ¶": 3060,
      "ç§ĳçłĶ": 3061,
      "ä½łä»¬": 3062,
      "èĢħçļĦ": 3063,
      "æľºåħ³": 3064,
      "æİĮæı¡": 3065,
      "æĢĿæĥ³": 3066,
      "åĩ¡": 3067,
      "åĪĽå»º": 3068,
      "è§Ĥå¯Ł": 3069,
      "æī£": 3070,
      "çĤ¼": 3071,
      "çİ¯èĬĤ": 3072,
      ")ãĢĤ\\": 3073,
      "Ġon": 3074,
      "å®¶éķ¿": 3075,
      "åıĤèĢĥ": 3076,
      "äº²åŃĲéī´å®ļ": 3077,
      "éģŃ": 3078,
      "Ġshe": 3079,
      "ä»ģ": 3080,
      "åĪ°çļĦ": 3081,
      "åħ±äº«": 3082,
      "éĻ·": 3083,
      "Ġwas": 3084,
      "æī°": 3085,
      "æİ¢ç´¢": 3086,
      "åĬłçĽŁ": 3087,
      "å®ĺæĸ¹": 3088,
      "å§Ĳ": 3089,
      "nè¿Ļ": 3090,
      "åĶ±": 3091,
      "ç¢İ": 3092,
      "è¯¸": 3093,
      "æŀĦæĪĲ": 3094,
      "æ¼Ĩ": 3095,
      "æĭĨ": 3096,
      "å®ļä½į": 3097,
      "ç¥Ŀ": 3098,
      "çĹħæ¯Ĵ": 3099,
      "å¥³æĢ§": 3100,
      "å¯Ĵ": 3101,
      "åĲĪæł¼": 3102,
      "äº«åıĹ": 3103,
      "åıĳåĬ¨": 3104,
      "è´¡çĮ®": 3105,
      "è¯ĳ": 3106,
      "åıĺå¾Ĺ": 3107,
      "æīĵå¼Ģ": 3108,
      "çĶŁéķ¿": 3109,
      "æµ®": 3110,
      "èī¾": 3111,
      "èµĦæľ¬": 3112,
      "éĻĲåĪ¶": 3113,
      "çļĦåľ°æĸ¹": 3114,
      "å±ħæ°ĳ": 3115,
      "næĪĳ": 3116,
      "éĺĢ": 3117,
      "æķ°åŃĹåĮĸ": 3118,
      "æĲº": 3119,
      "çĵ¶": 3120,
      "éĿĴå¹´": 3121,
      "è¦ĨçĽĸ": 3122,
      "2017": 3123,
      "æľīäºº": 3124,
      "åĩłä¹İ": 3125,
      "çīĽçļ®çĻ£": 3126,
      "ä¼łæĴŃ": 3127,
      "æī©å¤§": 3128,
      "éº¦": 3129,
      "å¯¿åĳ½": 3130,
      "å°Ĭ": 3131,
      "è§Ĥä¼Ĺ": 3132,
      "å¦Īå¦Ī": 3133,
      "ä¸įéĶĻ": 3134,
      "ä¼Ł": 3135,
      "ä¼Ļä¼´": 3136,
      "æĳĨ": 3137,
      "è´«": 3138,
      "éĢĤåºĶ": 3139,
      "éĿ¢ä¸´": 3140,
      "æ··åĲĪ": 3141,
      "èģĶèµĽ": 3142,
      "éĺ´": 3143,
      "çķħ": 3144,
      "æĪĲéĥ½": 3145,
      "ä¼¸": 3146,
      "äººå£«": 3147,
      "åĩłä¸ª": 3148,
      "æ³ī": 3149,
      "èĤ¯å®ļ": 3150,
      "æĹ¶çļĦ": 3151,
      "å°±èĥ½": 3152,
      "äºĨä¸Ģä¸ª": 3153,
      "èĥ¡": 3154,
      "æľĢä½³": 3155,
      "æ¸łéģĵ": 3156,
      "çĶµæºĲ": 3157,
      "ä¾Ŀæį®": 3158,
      "åħģ": 3159,
      "ä¸Ģå®¶": 3160,
      "è¿ĩæ»¤": 3161,
      "æĽ´å¥½çļĦ": 3162,
      "å¤§æķ°æį®": 3163,
      "é«ĺéĢŁ": 3164,
      "çĭ¬ç«ĭ": 3165,
      "âĢĿãĢģâĢľ": 3166,
      "äºĭä»¶": 3167,
      "ĠH": 3168,
      "çļĦæĥħåĨµä¸ĭ": 3169,
      "Ġæľ¬æĸĩæĳĺè¦ģ": 3170,
      "é¢Ħè®¡": 3171,
      "âĢĿâĢľ": 3172,
      "å§Ĩ": 3173,
      "æ·¡": 3174,
      "åĲĦé¡¹": 3175,
      "æµĻ": 3176,
      "è§Ĵèī²": 3177,
      "ç¡ħ": 3178,
      "ç½©": 3179,
      "éģµ": 3180,
      "åķĨåĬ¡": 3181,
      "æ·»åĬł": 3182,
      "çĮ«": 3183,
      "ä¹³": 3184,
      "å®¾": 3185,
      "è¢ĭ": 3186,
      "è£ħä¿®": 3187,
      "è±ª": 3188,
      "éŀ": 3189,
      "äºĭé¡¹": 3190,
      "åĨľæĿĳ": 3191,
      "åĿĽ": 3192,
      "èķ": 3193,
      "åį³ä½¿": 3194,
      "ä½ĵçİ°": 3195,
      "èĢĥçĶŁ": 3196,
      "æļĹ": 3197,
      "è¿¹": 3198,
      "çĶµèĦĳ": 3199,
      "é¥®é£Ł": 3200,
      "çĮª": 3201,
      "æ®ĭ": 3202,
      "åįıåĬ©": 3203,
      "å¤§éĥ¨åĪĨ": 3204,
      "è¿ĳæĹ¥": 3205,
      "un": 3206,
      "ä¸Ĭè¿°": 3207,
      "åľŁåľ°": 3208,
      "èĳ£äºĭ": 3209,
      "å°¤åħ¶æĺ¯": 3210,
      "é«ĺæ¸©": 3211,
      "æ´ŀ": 3212,
      "å¾ªçİ¯": 3213,
      "æŁ±": 3214,
      "ç¡®è®¤": 3215,
      "ĠD": 3216,
      "åı¯æĺ¯": 3217,
      "å¤§å¤§": 3218,
      "æĶ¾åľ¨": 3219,
      "åĬ³åĬ¨": 3220,
      "å¸ĥå±Ģ": 3221,
      "è¡¨è¾¾": 3222,
      "åį±éĻ©": 3223,
      "ä½¿å¾Ĺ": 3224,
      "æĹ©å·²": 3225,
      "ä»£çĲĨ": 3226,
      "å²Ĺä½į": 3227,
      "ç¾Ĭ": 3228,
      "åĲĮæł·": 3229,
      "çļĦæĸ¹æ³ķ": 3230,
      "99": 3231,
      "æĶ¶éĽĨ": 3232,
      "è½¨": 3233,
      "åĲ´": 3234,
      "ç½ĳä¸Ĭ": 3235,
      "è§Ĵåº¦": 3236,
      "næį®": 3237,
      "æ´Ľ": 3238,
      "åĨ»": 3239,
      "Ġwith": 3240,
      "åĩºåı£": 3241,
      "å¿Ļ": 3242,
      "å¾Īå¤ļäºº": 3243,
      "åŃĻ": 3244,
      "ec": 3245,
      "ç§°ä¸º": 3246,
      "çļĦåŁºç¡Ģ": 3247,
      "æ¡Į": 3248,
      "åĨłåĨĽ": 3249,
      "éģĵè·¯": 3250,
      "æ¯ıå¹´": 3251,
      "å¿ĺ": 3252,
      "æ°Ľ": 3253,
      "å¦»": 3254,
      "ä¸°å¯ĮçļĦ": 3255,
      "æĿ°": 3256,
      "å²©": 3257,
      "åģľè½¦": 3258,
      "æĲ¬": 3259,
      "å®¤åĨħ": 3260,
      "å¿ĥçļĦ": 3261,
      "é»ĺ": 3262,
      "å¦Ĥä¸ĭ": 3263,
      "åĬ²": 3264,
      "äºĮåįģ": 3265,
      "å¢¨": 3266,
      "åħµ": 3267,
      "å¼ºè°ĥ": 3268,
      "çļĦåĲĮæĹ¶": 3269,
      "å±¥": 3270,
      "æĺ¯æĮĩ": 3271,
      "èĩªä¸»": 3272,
      "æĩĤ": 3273,
      "æĿ¥æºĲ": 3274,
      "åĪĽæĦı": 3275,
      "æīİ": 3276,
      "ä»¤äºº": 3277,
      "æĦĪ": 3278,
      "æľĢé«ĺ": 3279,
      "å¸Ŀ": 3280,
      "PP": 3281,
      "è¿ĺè¦ģ": 3282,
      "çıį": 3283,
      "å°Ĩä¼ļ": 3284,
      "åıĬåħ¶": 3285,
      "èİ«": 3286,
      "çļĦä¸»è¦ģ": 3287,
      "ä¿¡çĶ¨": 3288,
      "çĭ¬çī¹": 3289,
      "è¿ħéĢŁ": 3290,
      "åĲĦä¸ª": 3291,
      "æĶ¿æ²»": 3292,
      "æĭĴç»Ŀ": 3293,
      "Ġth": 3294,
      "æľĢæĸ°": 3295,
      "æĢ»ç»ĵ": 3296,
      "æ¢¯": 3297,
      "å°Ĩåľ¨": 3298,
      "åħħæ»¡": 3299,
      "æĮĸ": 3300,
      "æľĢå¤§çļĦ": 3301,
      "å¹²çĩ¥": 3302,
      "æ¨¡åŀĭ": 3303,
      "Ġre": 3304,
      "çİ°å®ŀ": 3305,
      "æ¨ª": 3306,
      "çļĦä½¿çĶ¨": 3307,
      "åĮĢ": 3308,
      "å¯¹æĸ¹": 3309,
      "æĭľ": 3310,
      "å®ļåĪ¶": 3311,
      "æĻĵ": 3312,
      "çī©ä¸ļ": 3313,
      "åĪ©æ¶¦": 3314,
      "åĪĽä½ľ": 3315,
      "åºĶçĶ¨äºİ": 3316,
      "æĥħç»ª": 3317,
      "35": 3318,
      "ä¼Ĺå¤ļ": 3319,
      "ç´«": 3320,
      "åĳ¨æľŁ": 3321,
      "èħĲèļĢ": 3322,
      "å°ıç¼ĸ": 3323,
      "è®¤çľŁ": 3324,
      "å®¿": 3325,
      "å®ħ": 3326,
      "çĲĨæĥ³": 3327,
      "æĶ¯æĴĳ": 3328,
      "è¿Ļæ¬¡": 3329,
      "åķĬ": 3330,
      "æ¸¸å®¢": 3331,
      "æ¦Ĥå¿µ": 3332,
      "29": 3333,
      "å®ı": 3334,
      "Ġ,": 3335,
      "åĬłçĥŃ": 3336,
      "èĥĮæĻ¯": 3337,
      "åĮĸå·¥": 3338,
      "ä¸Ńåįİ": 3339,
      "ra": 3340,
      "ç²®": 3341,
      "è¶³çĲĥ": 3342,
      "çļĦæľįåĬ¡": 3343,
      "çļĦæĬĢæľ¯": 3344,
      "è°±": 3345,
      "ä¼ı": 3346,
      "åľ¨äºİ": 3347,
      "ä»¿": 3348,
      "çļĦè¦ģæ±Ĥ": 3349,
      "èħ¾": 3350,
      "æįŁå¤±": 3351,
      "çĶľ": 3352,
      "ä¸¤ç§į": 3353,
      "æĵ¦": 3354,
      "ä¸»ä½ĵ": 3355,
      "ä¸ĢåĪĩ": 3356,
      "äººä½ĵ": 3357,
      "her": 3358,
      "çī¹åĪ«æĺ¯": 3359,
      "æĥħåĨµä¸ĭ": 3360,
      "åŃķ": 3361,
      "èĩ´åĬĽ": 3362,
      "çĹħæĥħ": 3363,
      "æł¹æľ¬": 3364,
      "å½ĵä¸Ń": 3365,
      "å¥¹çļĦ": 3366,
      "éļ¾ä»¥": 3367,
      "è®¨è®º": 3368,
      "çļĦä¼ģä¸ļ": 3369,
      "æ¬§æ´²": 3370,
      "ook": 3371,
      "é½¿": 3372,
      "æĶ¹éĢł": 3373,
      "åĽ¾çīĩ": 3374,
      "çŃĸçķ¥": 3375,
      "åĲĮæ¯Ķ": 3376,
      "æĦŁæŁĵ": 3377,
      "è½»æĿ¾": 3378,
      "ä¹Į": 3379,
      "åĮ»åŃ¦": 3380,
      "åħħçĶµ": 3381,
      "å¤§å¤ļæķ°": 3382,
      "if": 3383,
      "ç«ŀèµĽ": 3384,
      "æķ¬": 3385,
      "å¿½": 3386,
      "åĻª": 3387,
      "è§ĦåĪĻ": 3388,
      "æµĻæ±Ł": 3389,
      "å¿Ĩ": 3390,
      "åŃĲçļĦ": 3391,
      "Ġthat": 3392,
      "çī¹å¾ģ": 3393,
      "çĻ½çĻľé£İçļĦ": 3394,
      "æĽ´æĺ¯": 3395,
      "æ¦ľ": 3396,
      "ä¸ĭåįĪ": 3397,
      "éĵ¸": 3398,
      "ä¹ı": 3399,
      "ĠR": 3400,
      "éĥ½åľ¨": 3401,
      "ä½¿çĶ¨çļĦ": 3402,
      "å®ļçļĦ": 3403,
      "æıĲä¾ĽäºĨ": 3404,
      "ä¿Ĺ": 3405,
      "å¼ºçļĦ": 3406,
      "åĶĲ": 3407,
      "å¼Ł": 3408,
      "è¡¨æĺİ": 3409,
      "æ¤įçī©": 3410,
      "çģŃ": 3411,
      "æĭ¼": 3412,
      "éĽķ": 3413,
      "éĽ¾": 3414,
      "ä»ªåĻ¨": 3415,
      "è®¡ç®Ĺæľº": 3416,
      "å²¸": 3417,
      "çĶµåĬĽ": 3418,
      "èµ¶": 3419,
      "å°ıç»Ħ": 3420,
      "è¯ĨåĪ«": 3421,
      "åĬłä¸Ĭ": 3422,
      "å¿ĹæĦ¿": 3423,
      "å®ŀè¡Į": 3424,
      "é©±åĬ¨": 3425,
      "æıĲåīį": 3426,
      "å¤©çĦ¶": 3427,
      "å¹¼åĦ¿": 3428,
      "å¾Īå¤§": 3429,
      "åĪ©äºİ": 3430,
      "å±ĳ": 3431,
      "é©¾é©¶": 3432,
      "äºĭå®ŀ": 3433,
      "æĦıåĳ³": 3434,
      "300": 3435,
      "æľ±": 3436,
      "å¹¸ç¦ı": 3437,
      "æĽ´æį¢": 3438,
      "æĦŁåĪ°": 3439,
      "æ¸ħæ¥ļ": 3440,
      "çĪ¶æ¯į": 3441,
      "2016": 3442,
      "æľĹ": 3443,
      "ç¼Ĩ": 3444,
      "æ¶µ": 3445,
      "çĶŁæ´»ä¸Ń": 3446,
      "åĬŁçİĩ": 3447,
      "è¡Įä¸ļçļĦ": 3448,
      "å¾·åĽ½": 3449,
      "éĺ²æĬ¤": 3450,
      "ä¼łæĦŁ": 3451,
      "æ¸ħæĻ": 3452,
      "èį¯çī©": 3453,
      "ä¸įéĶĪ": 3454,
      "çĲ´": 3455,
      "ä¸»ç®¡": 3456,
      "åĢ¾": 3457,
      "åľºæīĢ": 3458,
      "åŃĺåĤ¨": 3459,
      "è¿ĺåı¯ä»¥": 3460,
      "å½ĵæĹ¶": 3461,
      "å®¡æł¸": 3462,
      "ä¿Ŀæ¸©": 3463,
      "æīĭæ®µ": 3464,
      "çĽĳæİ§": 3465,
      "å°½ç®¡": 3466,
      "é¼ĵåĬ±": 3467,
      "æĶ¶è´¹": 3468,
      "éŃĶ": 3469,
      "ä¸Ĭåįĩ": 3470,
      "æ·±åº¦": 3471,
      "å¾Īéļ¾": 3472,
      "å®ŀéªĮå®¤": 3473,
      "æĸ°åŀĭ": 3474,
      "çļĦä¸Ģç§į": 3475,
      "äºķ": 3476,
      "å·ŀå¸Ĥ": 3477,
      "é«ĺæł¡": 3478,
      "å®ļæľŁ": 3479,
      "Ġ2": 3480,
      "èŀįèµĦ": 3481,
      "ĠJo": 3482,
      "å¯¹è±¡": 3483,
      "åħ¬åĽŃ": 3484,
      "æĦŁåıĹ": 3485,
      "èĬĤèĥ½": 3486,
      "å°ıçļĦ": 3487,
      "ç»ĻäºĪ": 3488,
      "åĨĴ": 3489,
      "çļĦå¥½": 3490,
      "ä¸įéĶĪéĴ¢": 3491,
      "åİ¨": 3492,
      "æ¡Ĩ": 3493,
      "ur": 3494,
      "äºĭæķħ": 3495,
      "æĸ°èĥ½æºĲ": 3496,
      "èĭ±åĽ½": 3497,
      "ä¸´åºĬ": 3498,
      "se": 3499,
      "æĶ¶çĽĬ": 3500,
      "éĢıè¿ĩ": 3501,
      "æĪĲäºĨ": 3502,
      "BA": 3503,
      "ä¸įçŁ¥éģĵ": 3504,
      "çĥ¦": 3505,
      "ç»ĦåĲĪ": 3506,
      "å°ºå¯¸": 3507,
      "è¿ĳå¹´æĿ¥": 3508,
      "äºİæĺ¯": 3509,
      "ç±»ä¼¼": 3510,
      "éĥ¨ä»¶": 3511,
      "ç¼Ŀ": 3512,
      "åĲĪéĢĤ": 3513,
      "æĹ¨": 3514,
      "åĲĪéĩĳ": 3515,
      "å£°éŁ³": 3516,
      "èĩªæĪĳ": 3517,
      "ä¸»è¦ģæĺ¯": 3518,
      "çļĦåİŁåĽł": 3519,
      "åĭ¤": 3520,
      "èĩªåĬ¨åĮĸ": 3521,
      "çļĦä¸Ģä¸ª": 3522,
      "æĮĩæķ°": 3523,
      "åĪĬ": 3524,
      "ä¾Ŀæ³ķ": 3525,
      "æľīå¾Īå¤ļ": 3526,
      "çĽĴ": 3527,
      "éļĨ": 3528,
      "ç¢į": 3529,
      "éĥ¨ç½²": 3530,
      "å¤ªéĺ³": 3531,
      "éĺŁä¼į": 3532,
      "æ³½": 3533,
      "ç©ºè°ĥ": 3534,
      "'t": 3535,
      "åĪĨå¸ĥ": 3536,
      "è£ħå¤ĩ": 3537,
      "åľ°åĿĢ": 3538,
      "æķħéļľ": 3539,
      "nä»İ": 3540,
      "å¾Ĳ": 3541,
      "é¢Ħéĺ²": 3542,
      "%ãĢĤ\\": 3543,
      "åİŁæĸĻ": 3544,
      "å·¡": 3545,
      "æľīåı¯èĥ½": 3546,
      "èī¯å¥½": 3547,
      "åĪĨç±»": 3548,
      "å¹³è¡¡": 3549,
      "æľĢå¥½": 3550,
      "åģļåĩº": 3551,
      "èĸª": 3552,
      "çĶµåķĨ": 3553,
      "æ¶Īéĺ²": 3554,
      "ä¿Ŀåħ»": 3555,
      "ä¸ģ": 3556,
      "åĬ¨æĢģ": 3557,
      "æľĪä»½": 3558,
      "ç±į": 3559,
      "çĶµæµģ": 3560,
      "åĨ³èµĽ": 3561,
      "å§ĭç»Ī": 3562,
      "çļĦè®¾è®¡": 3563,
      "é«ĺåİĭ": 3564,
      "æĸĩæĺİ": 3565,
      "ç¥ĸ": 3566,
      "æľīåĵªäºĽ": 3567,
      "çīµ": 3568,
      "æĽ´ä¸º": 3569,
      "äºĴåĬ¨": 3570,
      "ä¹Łå°±æĺ¯": 3571,
      "æĦŁè°¢": 3572,
      "è¿ĳæľŁ": 3573,
      "æľīä¸Ģä¸ª": 3574,
      "èµĭ": 3575,
      "æĢª": 3576,
      "èµĦè®¯": 3577,
      "31": 3578,
      "åħ¬åĳĬ": 3579,
      "äº§æĿĥ": 3580,
      "çļĦåĨħå®¹": 3581,
      "æĺ¯ä¸į": 3582,
      "æĪ¿åľ°äº§": 3583,
      "æ³ķè§Ħ": 3584,
      "AI": 3585,
      "åĪ¶åĵģ": 3586,
      "äººå·¥æĻºèĥ½": 3587,
      "æĬ±": 3588,
      "æīĢåľ¨": 3589,
      "åİŁçĲĨ": 3590,
      "ç¡®å®ŀ": 3591,
      "æĢĿç»´": 3592,
      "è°ĥèĬĤ": 3593,
      "éĢĤå½ĵ": 3594,
      "èĦı": 3595,
      "åĿ¡": 3596,
      "çīĪæľ¬": 3597,
      "**": 3598,
      "ç§Ĵ": 3599,
      "åı¬å¼Ģ": 3600,
      "éģĩåĪ°": 3601,
      "çºł": 3602,
      "ĠF": 3603,
      "å£³": 3604,
      "ä¼ĺæĥł": 3605,
      "Ġ'": 3606,
      "èī²çļĦ": 3607,
      "éħįå¥Ĺ": 3608,
      "åłĨ": 3609,
      "ä¸ĢæĹ¦": 3610,
      "ä¸Ĭä¸ĭ": 3611,
      "æĪĲçĨŁ": 3612,
      "åĬ¨çī©": 3613,
      "æıĲéĨĴ": 3614,
      "æĦıåĳ³çĿĢ": 3615,
      "æ³ķéĻ¢": 3616,
      "å°ĸ": 3617,
      "åĬŀåħ¬å®¤": 3618,
      "æĬ¥éģĵ": 3619,
      "åĽ´ç»ķ": 3620,
      "è´¢åĬ¡": 3621,
      "èĻ«": 3622,
      "ç»ĺ": 3623,
      "è®¾å¤ĩçļĦ": 3624,
      "åĪºæ¿Ģ": 3625,
      "æĿľ": 3626,
      "åı°æ¹¾": 3627,
      "45": 3628,
      "næĪĳä»¬": 3629,
      "ĠE": 3630,
      "å¤ļå¹´": 3631,
      "çĶµåİĭ": 3632,
      "è·ĥ": 3633,
      "å®¶åħ·": 3634,
      "éĩĮéĿ¢": 3635,
      "æĪĸè®¸": 3636,
      "æĪĸæĺ¯": 3637,
      "èĥ½éĩı": 3638,
      "æľŁæľĽ": 3639,
      "æĬ¤çĲĨ": 3640,
      "NA": 3641,
      "èĩªè¡Į": 3642,
      "è¿½æ±Ĥ": 3643,
      "è®©æĪĳä»¬": 3644,
      "æ¸Ĺ": 3645,
      "è§Ĩè§ī": 3646,
      "çģĮ": 3647,
      "ç¤ºèĮĥ": 3648,
      "å¿«ä¹Ĳ": 3649,
      "1000": 3650,
      "ä¸¹": 3651,
      "ä¼ļåĳĺ": 3652,
      "åħ¶å®ĥ": 3653,
      "å¯Ĩå°ģ": 3654,
      "æľŁå¾ħ": 3655,
      "è¯ģåĪ¸": 3656,
      "è¿ģ": 3657,
      "éĶĤ": 3658,
      "æ··åĩĿ": 3659,
      "è®¿éĹ®": 3660,
      "çļĦå¿ĥ": 3661,
      "çļĦéľĢæ±Ĥ": 3662,
      "æĪĲåĪĨ": 3663,
      "æıĲäº¤": 3664,
      "å¾®ä¿¡": 3665,
      "ä»¥åīį": 3666,
      "æĹ¶å°ļ": 3667,
      "ä¸ĭè½½": 3668,
      "èģĬ": 3669,
      "æĬķèµĦèĢħ": 3670,
      "æ±Łèĭı": 3671,
      "éĻ¶": 3672,
      "éĥ½èĥ½": 3673,
      "åĪ¤æĸŃ": 3674,
      "éĥ¨ä½į": 3675,
      "è¾ĵåĩº": 3676,
      "ce": 3677,
      "æ»¡æĦı": 3678,
      "çĻĮ": 3679,
      "å·¥ä½ľäººåĳĺ": 3680,
      "è®¤åı¯": 3681,
      "çĸ«æĥħéĺ²æİ§": 3682,
      "ä¸įç®¡": 3683,
      "å¥ı": 3684,
      "å£®": 3685,
      "æ¡Īä¾ĭ": 3686,
      "2015": 3687,
      "å¹¶åľ¨": 3688,
      "éĻª": 3689,
      "è¾Ľ": 3690,
      "æłĩå¿Ĺ": 3691,
      "ä¹¡æĿĳ": 3692,
      "ä¸ĵéĹ¨": 3693,
      "èĬĤçĽ®": 3694,
      "çĵľ": 3695,
      "ãĢĭ(": 3696,
      "åĬ©åĬĽ": 3697,
      "èĩ´åĬĽäºİ": 3698,
      "ä¸ļä¸»": 3699,
      "æĹ¶åĪ»": 3700,
      "Ġwh": 3701,
      "çļĦä½ľçĶ¨": 3702,
      "éĢĲæŃ¥": 3703,
      "åģ¶": 3704,
      "å¹²éĥ¨": 3705,
      "çĶ³æĬ¥": 3706,
      "è´¸æĺĵ": 3707,
      "ä¸ĸçķĮæĿ¯": 3708,
      "è¿«": 3709,
      "ä¸įåĨį": 3710,
      "åī²": 3711,
      "å¤©æ°Ķ": 3712,
      "æ§½": 3713,
      "IP": 3714,
      "çĶŁçļĦ": 3715,
      "åįĵ": 3716,
      "åħ¬ä¼Ĺ": 3717,
      "çº¤ç»´": 3718,
      "é¢ĨåŁŁçļĦ": 3719,
      "æĵİ": 3720,
      "å¨±ä¹Ĳ": 3721,
      "åĲ¸æĶ¶": 3722,
      "å¤¹": 3723,
      "ä¹Łèĥ½": 3724,
      "æŁľ": 3725,
      "ä¾ĽåºĶåķĨ": 3726,
      "èĶ¬": 3727,
      "Ġ\"": 3728,
      "ä¼¯": 3729,
      "åĬ¨ä½ľ": 3730,
      "é¡¾å®¢": 3731,
      "æ··åĩĿåľŁ": 3732,
      "çī¢": 3733,
      "åįıè°ĥ": 3734,
      "æķ¢": 3735,
      "ä¼ļä¸Ĭ": 3736,
      "å°±è¦ģ": 3737,
      "æ¯ıä¸Ģä¸ª": 3738,
      "åīª": 3739,
      "ç²¾åĩĨ": 3740,
      "åĩĢåĮĸ": 3741,
      "å¦Ĥæŀľä½ł": 3742,
      "å¾Īå¥½": 3743,
      "æģĲ": 3744,
      "çļĨ": 3745,
      "è®¸åı¯": 3746,
      "æľįåĬ¡åĻ¨": 3747,
      "è½´æī¿": 3748,
      "æ¸ħæĻ°": 3749,
      "ç½ĳåıĭ": 3750,
      "çĶµè·¯": 3751,
      "è´¨çļĦ": 3752,
      "æİĺ": 3753,
      "å¾Īå¤§çļĦ": 3754,
      "æ£ĢéªĮ": 3755,
      "é©»": 3756,
      "çħ§çīĩ": 3757,
      "çĽĪ": 3758,
      "çŃīæĸ¹éĿ¢": 3759,
      "åĪ«äºº": 3760,
      "è§£éĩĬ": 3761,
      "å¯»æī¾": 3762,
      "æµı": 3763,
      "æĢ»ç»ıçĲĨ": 3764,
      "æł¡åĽŃ": 3765,
      "åĲ«éĩı": 3766,
      "èĪĴéĢĤ": 3767,
      "çļĦçĥŃ": 3768,
      "éĽĨæĪĲ": 3769,
      "ç»ĨèĬĤ": 3770,
      "è®²è§£": 3771,
      "é¤Ĳé¥®": 3772,
      "åįĬå¹´": 3773,
      "èĩ³å°ĳ": 3774,
      "åĽŀæĶ¶": 3775,
      "æĢ»æĺ¯": 3776,
      "ç²¾å½©": 3777,
      "åŃ£åº¦": 3778,
      "åľ¨ä¸Ģèµ·": 3779,
      "è¿Ľåı£": 3780,
      "ä¸Ģèĩ´": 3781,
      "çī¹æĢ§": 3782,
      "æ¡ĥ": 3783,
      "èµµ": 3784,
      "å°ĳå¹´": 3785,
      "å°½éĩı": 3786,
      "ä»¥ä¸º": 3787,
      "å§ĵ": 3788,
      "éĥ½åı¯ä»¥": 3789,
      "ç¾İçļĦ": 3790,
      "å¸ĤåľºçļĦ": 3791,
      "ä¼ļåľ¨": 3792,
      "ä¸ºæĤ¨": 3793,
      "å¹³æĸ¹": 3794,
      "åĪ©çĽĬ": 3795,
      ",\\": 3796,
      "åĽĽå·Ŀ": 3797,
      "åĬłå¤§": 3798,
      "éķ¿æĹ¶éĹ´": 3799,
      "åıįæĺł": 3800,
      "éķĢ": 3801,
      "çĽ¸äºĴ": 3802,
      "æĬ¼": 3803,
      "æµ¸": 3804,
      "ss": 3805,
      "çļĦæķ°æį®": 3806,
      "åĲĮæĦı": 3807,
      "çī©çĲĨ": 3808,
      "çļĦçĶŁæ´»": 3809,
      "éļıåĲİ": 3810,
      "è¡¥åħħ": 3811,
      "æľºåĻ¨äºº": 3812,
      "åĩī": 3813,
      "å¹¶ä¸įæĺ¯": 3814,
      "åıĤæķ°": 3815,
      "åħ¨ä½ĵ": 3816,
      "å¾Īå¥½çļĦ": 3817,
      "å£¤": 3818,
      "æĭĽçĶŁ": 3819,
      "lo": 3820,
      "æİĴæĶ¾": 3821,
      "éŁ©åĽ½": 3822,
      "çī©åĵģ": 3823,
      "Ġst": 3824,
      "åĩ¯": 3825,
      "åĬłéĢŁ": 3826,
      "ä½ľèĢħ": 3827,
      "åŃ¦æľ¯": 3828,
      "åĭŁ": 3829,
      "'s": 3830,
      "ä¾ĿçĦ¶": 3831,
      "åħģè®¸": 3832,
      "éĥ½ä¸į": 3833,
      "å¦¹": 3834,
      "éĶĮ": 3835,
      "èĪªç©º": 3836,
      "LE": 3837,
      "ĠW": 3838,
      "çļĦä¸į": 3839,
      "å°±åĥı": 3840,
      "ä½İäºİ": 3841,
      "ä½©": 3842,
      "èĪį": 3843,
      "æĲŃéħį": 3844,
      "æ£ī": 3845,
      "è¾ĵåħ¥": 3846,
      "åĨ²åĩ»": 3847,
      "æĺ¯çĶ±": 3848,
      "æĹ¶æľŁ": 3849,
      "çļĦäºĭæĥħ": 3850,
      "æľīæķĪçļĦ": 3851,
      "å¤§åĪ©": 3852,
      "æķ´åĲĪ": 3853,
      "æµıè§Ī": 3854,
      "æ¬²": 3855,
      "å¼ķæĵİ": 3856,
      "åī©": 3857,
      "Ġso": 3858,
      "ç¡ķ": 3859,
      "éĤ£ä¸ª": 3860,
      "éĢļä¿¡": 3861,
      "æĻ¯åĮº": 3862,
      "èĽĭçĻ½": 3863,
      "åŀ«": 3864,
      "è¾ī": 3865,
      "è¾ĥä¸º": 3866,
      "æĸ°åĨł": 3867,
      "æĹ¥èµ·": 3868,
      "èī²å½©": 3869,
      "ç»´æĮģ": 3870,
      "æĢĿèĢĥ": 3871,
      "ill": 3872,
      "æ¡Īä»¶": 3873,
      "é¦ĸæ¬¡": 3874,
      "æīĭæľ¯": 3875,
      "éĺ³åħī": 3876,
      "ç»ıåħ¸": 3877,
      "ind": 3878,
      "åŃ¦ä¼ļ": 3879,
      "çģµæ´»": 3880,
      "çļĦåīį": 3881,
      "ä¹Łåľ¨": 3882,
      "äººåľ¨": 3883,
      "æĬĳ": 3884,
      "å¿§": 3885,
      "2000": 3886,
      "éļıæĹ¶": 3887,
      "å¤§åĬĽ": 3888,
      "ä¹Łè¦ģ": 3889,
      "å·®å¼Ĥ": 3890,
      "ght": 3891,
      "em": 3892,
      "å¤§å¹ħ": 3893,
      "åŃ¦ä½į": 3894,
      "åĿĩåĮĢ": 3895,
      "æµģåĬ¨": 3896,
      "åĭĴ": 3897,
      "ÃĹ": 3898,
      "æıŃ": 3899,
      "çļĦæ°´": 3900,
      "ç¬¬åĽĽ": 3901,
      "åħļåĳĺ": 3902,
      "æĬĢæľ¯çļĦ": 3903,
      "èĤº": 3904,
      "çĶµç¼Ĩ": 3905,
      "çĵ·": 3906,
      "éĤĢè¯·": 3907,
      "æ³Ħ": 3908,
      "è¾¨": 3909,
      "é«ĺç«¯": 3910,
      "au": 3911,
      "çłĸ": 3912,
      "æ¨¡åĿĹ": 3913,
      "åĨ³çŃĸ": 3914,
      "ä¼¼ä¹İ": 3915,
      "ç«ĭåį³": 3916,
      "æŃ£è§Ħ": 3917,
      "æŁ¥è¯¢": 3918,
      "è¡ĮçļĦ": 3919,
      "è¶³å¤Ł": 3920,
      "å°Ŀè¯ķ": 3921,
      "åıĳåĬ¨æľº": 3922,
      "æ·ĺ": 3923,
      "çĽ¸åħ³çļĦ": 3924,
      "éŀĭ": 3925,
      "ä¸»ä¹ī": 3926,
      "æĺ¾èĳĹ": 3927,
      "åĲ¦åĪĻ": 3928,
      "ä¸ĵé¡¹": 3929,
      "èµł": 3930,
      "å±ķè§Ī": 3931,
      "æĦıæĢĿ": 3932,
      "æŀĿ": 3933,
      "çĤ¸": 3934,
      "è´¢æĶ¿": 3935,
      "ä¼łæĦŁåĻ¨": 3936,
      "åĲĽ": 3937,
      "ä¿Ħ": 3938,
      "å¯Ħ": 3939,
      "Ġan": 3940,
      "æĹģ": 3941,
      "èĢĥæł¸": 3942,
      "æĿĥåĪ©": 3943,
      "èĻļæĭŁ": 3944,
      "çĶĺ": 3945,
      "ç²Ĺ": 3946,
      "èģĮå·¥": 3947,
      "éĢĨ": 3948,
      "å¹´é¾Ħ": 3949,
      "å®ļä¹ī": 3950,
      "å¼¯": 3951,
      "æµĨ": 3952,
      "ç«¹": 3953,
      "æķĻç»ĥ": 3954,
      "æīĢéľĢ": 3955,
      "...": 3956,
      "ä¸Ģæ®µ": 3957,
      "æ°ı": 3958,
      "å¼Ĥå¸¸": 3959,
      "åĪ°åºķ": 3960,
      "å¤ļæ¬¡": 3961,
      "åīįå¾Ģ": 3962,
      "ä¼ĺçĤ¹": 3963,
      "åľŁå£¤": 3964,
      "å¸Ĥæ°ĳ": 3965,
      "æ±¡æ°´": 3966,
      "åĮ»èį¯": 3967,
      "åĩłå¹´": 3968,
      "èµ·åĪ°": 3969,
      "IS": 3970,
      "çľł": 3971,
      "å®ŀæĹ¶": 3972,
      "ä¸įçĶ¨": 3973,
      "ç¨¿": 3974,
      "æĹłäºº": 3975,
      "æ¬£": 3976,
      "å¼ĢåĲ¯": 3977,
      "è¿ĺèĥ½": 3978,
      "ç¾İä¸½": 3979,
      "èĥĥ": 3980,
      "èģĶçĽŁ": 3981,
      "æŃ¦æ±ī": 3982,
      "36": 3983,
      "å®ŀä½ĵ": 3984,
      "ä¿¡å¿ĥ": 3985,
      "æİĪæĿĥ": 3986,
      "åĶ¯ä¸Ģ": 3987,
      "çļĦå®īåħ¨": 3988,
      "å©´": 3989,
      "èµĶ": 3990,
      "çĶ¨æĿ¥": 3991,
      "åħ»èĢģ": 3992,
      "æ¿Ģåħī": 3993,
      "éĩįåºĨ": 3994,
      "ä¼¤å®³": 3995,
      "èµĽäºĭ": 3996,
      "æĢģåº¦": 3997,
      "æĭĶ": 3998,
      "out": 3999,
      "èµļ": 4000,
      "å¸¦æĿ¥çļĦ": 4001,
      "æ²³åįĹ": 4002,
      "åĿ¦": 4003,
      "ä¿®æĶ¹": 4004,
      "åħįçĸ«": 4005,
      "é»Ħéĩĳ": 4006,
      "åıī": 4007,
      "åħļå§Ķ": 4008,
      "çĩĥæ°Ķ": 4009,
      "åĬĽåº¦": 4010,
      "æĳ¸": 4011,
      "åħ¬éĩĮ": 4012,
      "æ´ª": 4013,
      "æµ·å¤ĸ": 4014,
      "åį±å®³": 4015,
      "æĮ¡": 4016,
      "ç¢°": 4017,
      "åľ¨è¿Ļ": 4018,
      "ä¸įå¥½": 4019,
      "èµģ": 4020,
      "ä¸ĬåįĪ": 4021,
      "æĥ³åĪ°": 4022,
      "çªģåĩº": 4023,
      "å®£å¸ĥ": 4024,
      "ç§Łèµģ": 4025,
      "çŃĽ": 4026,
      "ä»¬çļĦ": 4027,
      "è°ĭ": 4028,
      "çŃīçº§": 4029,
      "ç¨Ģ": 4030,
      "æ»ļ": 4031,
      "nèĢĮ": 4032,
      "ä»Ķ": 4033,
      "é»İ": 4034,
      "æľīä»Ģä¹Ī": 4035,
      "ç²¾åº¦": 4036,
      "èĤ¡ç¥¨": 4037,
      "æĿ¥äºĨ": 4038,
      "åŃ¦ç§ĳ": 4039,
      "å¤ĸè§Ĥ": 4040,
      "æģĭ": 4041,
      "çĭĹ": 4042,
      "ç®Ģç§°": 4043,
      "åľ°ä½į": 4044,
      "å¼ķé¢Ĩ": 4045,
      "æĺĮ": 4046,
      "éĴ»": 4047,
      "éĢīçĶ¨": 4048,
      "ä¼ĺåħĪ": 4049,
      "è¿ĽæŃ¥": 4050,
      "åĪ¶éĢłä¸ļ": 4051,
      "ç¦»å¼Ģ": 4052,
      "ag": 4053,
      "æĮ¤": 4054,
      "é«ĺçº§": 4055,
      "å¤įåĲĪ": 4056,
      "æĿ¥åĪ°": 4057,
      "ĠN": 4058,
      "åĩ½": 4059,
      "å¦Ļ": 4060,
      "ä¸»æĮģ": 4061,
      "æīĢè°ĵ": 4062,
      "å¦Ĩ": 4063,
      "è¸ª": 4064,
      "åĲ¹": 4065,
      "ä¸ĢæĿ¡": 4066,
      "å¹¶æ²¡æľī": 4067,
      "æ³¨éĩį": 4068,
      "èĩ³ä»Ĭ": 4069,
      "åºĶå¯¹": 4070,
      "åºĶæĢ¥": 4071,
      "è®©ä½ł": 4072,
      "è¿Ŀæ³ķ": 4073,
      "Ġ4": 4074,
      "åĮºåĿĹ": 4075,
      "ä¼ª": 4076,
      "ä¸ĸçºª": 4077,
      "æŃ£æĺ¯": 4078,
      "èĻİ": 4079,
      "å®ĭ": 4080,
      "åĪĨåŃĲ": 4081,
      "åĺ´": 4082,
      "è²": 4083,
      "ä¸ĬäºĨ": 4084,
      "åĲ«æľī": 4085,
      "çĨŁæĤī": 4086,
      "äº§çĶŁçļĦ": 4087,
      "è°ĥçłĶ": 4088,
      "æ°´æ³¥": 4089,
      "ãĤ": 4090,
      "æīĢæľīçļĦ": 4091,
      "éĶĻè¯¯": 4092,
      "åľ¨æŃ¤": 4093,
      "åħ»æ®ĸ": 4094,
      "95": 4095
    },
    "merges": [
      [
        "ä",
        "¸"
      ],
      [
        "ã",
        "Ģ"
      ],
      [
        "ç",
        "ļ"
      ],
      [
        "çļ",
        "Ħ"
      ],
      [
        "ä",
        "º"
      ],
      [
        "æ",
        "ľ"
      ],
      [
        "å",
        "ı"
      ],
      [
        "ãĢ",
        "Ĥ"
      ],
      [
        "ä",
        "»"
      ],
      [
        "å",
        "ħ"
      ],
      [
        "å",
        "¤"
      ],
      [
        "å",
        "®"
      ],
      [
        "å",
        "Ī"
      ],
      [
        "è",
        "¿"
      ],
      [
        "ä",
        "½"
      ],
      [
        "ç",
        "Ķ"
      ],
      [
        "å",
        "ľ"
      ],
      [
        "å",
        "Ĳ"
      ],
      [
        "ãĢ",
        "ģ"
      ],
      [
        "å",
        "Ĭ"
      ],
      [
        "æ",
        "ĺ"
      ],
      [
        "æ",
        "Ī"
      ],
      [
        "ç",
        "»"
      ],
      [
        "æ",
        "ĸ"
      ],
      [
        "ä",
        "¹"
      ],
      [
        "ä¸",
        "Ģ"
      ],
      [
        "ä",
        "¼"
      ],
      [
        "è",
        "®"
      ],
      [
        "å",
        "°"
      ],
      [
        "æ",
        "Ĺ"
      ],
      [
        "å",
        "Ľ"
      ],
      [
        "æĺ",
        "¯"
      ],
      [
        "è",
        "¯"
      ],
      [
        "å",
        "¹"
      ],
      [
        "åľ",
        "¨"
      ],
      [
        "æ",
        "Ŀ"
      ],
      [
        "ãĢĤ",
        "\\"
      ],
      [
        "æľ",
        "ī"
      ],
      [
        "å",
        "Ń"
      ],
      [
        "å",
        "į"
      ],
      [
        "â",
        "Ģ"
      ],
      [
        "å",
        "º"
      ],
      [
        "å",
        "·"
      ],
      [
        "é",
        "ĩ"
      ],
      [
        "å",
        "¸"
      ],
      [
        "ä¸",
        "į"
      ],
      [
        "æ",
        "ī"
      ],
      [
        "é",
        "Ģ"
      ],
      [
        "å",
        "¼"
      ],
      [
        "å",
        "Į"
      ],
      [
        "å",
        "Ĩ"
      ],
      [
        "ĥ",
        "½"
      ],
      [
        "å",
        "ĩ"
      ],
      [
        "è",
        "¡"
      ],
      [
        "è",
        "Ģ"
      ],
      [
        "æ",
        "ķ"
      ],
      [
        "ç",
        "Ľ"
      ],
      [
        "å",
        "¾"
      ],
      [
        "å",
        "¯"
      ],
      [
        "äº",
        "º"
      ],
      [
        "äº",
        "Ĩ"
      ],
      [
        "å",
        "Ĵ"
      ],
      [
        "æ",
        "ł"
      ],
      [
        "è",
        "´"
      ],
      [
        "æ",
        "Ĭ"
      ],
      [
        "ä¸",
        "Ń"
      ],
      [
        "è",
        "§"
      ],
      [
        "ä¸",
        "º"
      ],
      [
        "åĴ",
        "Į"
      ],
      [
        "ä»",
        "¥"
      ],
      [
        "çĶ",
        "¨"
      ],
      [
        "ç",
        "İ"
      ],
      [
        "å",
        "±"
      ],
      [
        "è",
        "µ"
      ],
      [
        "ç",
        "§"
      ],
      [
        "å¤",
        "§"
      ],
      [
        "ç",
        "ī"
      ],
      [
        "æ",
        "Ģ"
      ],
      [
        "ä¸",
        "ļ"
      ],
      [
        "¦",
        "ģ"
      ],
      [
        "è",
        "¦ģ"
      ],
      [
        "å",
        "¥"
      ],
      [
        "æ",
        "°"
      ],
      [
        "è",
        "ĥ½"
      ],
      [
        "é",
        "Ļ"
      ],
      [
        "é",
        "Ĺ"
      ],
      [
        "æ",
        "Ķ"
      ],
      [
        "æ",
        "İ"
      ],
      [
        "æĹ",
        "¶"
      ],
      [
        "é",
        "Ŀ"
      ],
      [
        "å",
        "İ"
      ],
      [
        "çĶ",
        "Ł"
      ],
      [
        "ä",
        "¿"
      ],
      [
        "å",
        "¿"
      ],
      [
        "åı",
        "¯"
      ],
      [
        "ç",
        "º"
      ],
      [
        "ä¸",
        "Ĭ"
      ],
      [
        "ç",
        "Ĳ"
      ],
      [
        "ä¼",
        "ļ"
      ],
      [
        "å",
        "½"
      ],
      [
        "æ",
        "³"
      ],
      [
        "è",
        "ĩ"
      ],
      [
        "ç",
        "Ń"
      ],
      [
        "ä¸",
        "ª"
      ],
      [
        "æ",
        "µ"
      ],
      [
        "æ",
        "ŀ"
      ],
      [
        "æ",
        "Ń"
      ],
      [
        "å",
        "ĵ"
      ],
      [
        "åı",
        "ĳ"
      ],
      [
        "å",
        "ĳ"
      ],
      [
        "è¿",
        "Ļ"
      ],
      [
        "è",
        "½"
      ],
      [
        "è¡",
        "Į"
      ],
      [
        "å·",
        "¥"
      ],
      [
        "ä½",
        "ľ"
      ],
      [
        "æĪ",
        "ĳ"
      ],
      [
        "å¹",
        "´"
      ],
      [
        "åĪ",
        "°"
      ],
      [
        "åĽ",
        "½"
      ],
      [
        "å¯",
        "¹"
      ],
      [
        "é",
        "¢"
      ],
      [
        "æĿ",
        "¥"
      ],
      [
        "æ",
        "²"
      ],
      [
        "åŃ",
        "¦"
      ],
      [
        "æĪ",
        "Ĳ"
      ],
      [
        "äº",
        "İ"
      ],
      [
        "âĢ",
        "ľ"
      ],
      [
        "âĢ",
        "Ŀ"
      ],
      [
        "è",
        "¾"
      ],
      [
        "æ",
        "ĭ"
      ],
      [
        "æ",
        "¯"
      ],
      [
        "æ",
        "Į"
      ],
      [
        "åĩ",
        "º"
      ],
      [
        "é",
        "ĺ"
      ],
      [
        "å¤",
        "ļ"
      ],
      [
        "äº",
        "§"
      ],
      [
        "æ",
        "ĥ"
      ],
      [
        "åĪ",
        "Ĩ"
      ],
      [
        "æĸ",
        "¹"
      ],
      [
        "å",
        "ī"
      ],
      [
        "ç",
        "®"
      ],
      [
        "çĲ",
        "Ĩ"
      ],
      [
        "ä»",
        "¬"
      ],
      [
        "æ",
        "±"
      ],
      [
        "åĬ",
        "¨"
      ],
      [
        "å®",
        "¶"
      ],
      [
        "é",
        "«"
      ],
      [
        "è¿",
        "ĩ"
      ],
      [
        "é«",
        "ĺ"
      ],
      [
        "ç",
        "ľ"
      ],
      [
        "å",
        "Ł"
      ],
      [
        "æ",
        "¸"
      ],
      [
        "åľ",
        "°"
      ],
      [
        "ç",
        "½"
      ],
      [
        "æ",
        "Ħ"
      ],
      [
        "ä",
        "¾"
      ],
      [
        "è¿",
        "Ľ"
      ],
      [
        "ç",
        "«"
      ],
      [
        "åĵ",
        "ģ"
      ],
      [
        "çŃ",
        "ī"
      ],
      [
        "å",
        "¦"
      ],
      [
        "ä¸",
        "ĭ"
      ],
      [
        "ä¹",
        "Ł"
      ],
      [
        "åĲ",
        "İ"
      ],
      [
        "æľ",
        "º"
      ],
      [
        "åĮ",
        "ĸ"
      ],
      [
        "ä½",
        "ĵ"
      ],
      [
        "èĩ",
        "ª"
      ],
      [
        "çİ",
        "°"
      ],
      [
        "åħ",
        "¬"
      ],
      [
        "æ",
        "ı"
      ],
      [
        "æĸ",
        "°"
      ],
      [
        "åĬ",
        "Ľ"
      ],
      [
        "æ",
        "¬"
      ],
      [
        "ç",
        "¨"
      ],
      [
        "åĲ",
        "Ī"
      ],
      [
        "å°",
        "±"
      ],
      [
        "éĿ",
        "¢"
      ],
      [
        "åħ",
        "¨"
      ],
      [
        "æ",
        "´"
      ],
      [
        "æ",
        "Ľ"
      ],
      [
        "å®",
        "ļ"
      ],
      [
        "å®",
        "ŀ"
      ],
      [
        "ä¸",
        "İ"
      ],
      [
        "å",
        "ģ"
      ],
      [
        "è",
        "Ĥ"
      ],
      [
        "çĶ",
        "µ"
      ],
      [
        "åĲ",
        "Į"
      ],
      [
        "é",
        "¡"
      ],
      [
        "æĢ",
        "§"
      ],
      [
        "è®",
        "¾"
      ],
      [
        "å¼",
        "Ģ"
      ],
      [
        "æ",
        "į"
      ],
      [
        "æľ",
        "¬"
      ],
      [
        "ç»",
        "ı"
      ],
      [
        "åº",
        "¦"
      ],
      [
        "é",
        "ĥ"
      ],
      [
        "é",
        "ģ"
      ],
      [
        "å¥",
        "½"
      ],
      [
        "ç",
        "Ĥ"
      ],
      [
        "é",
        "ķ"
      ],
      [
        "é",
        "£"
      ],
      [
        "å",
        "»"
      ],
      [
        "è",
        "¶"
      ],
      [
        "åĬ",
        "ł"
      ],
      [
        "å¸",
        "Ĥ"
      ],
      [
        "åı",
        "Ĭ"
      ],
      [
        "æı",
        "Ĳ"
      ],
      [
        "ä»",
        "ĸ"
      ],
      [
        "å¦",
        "Ĥ"
      ],
      [
        "åº",
        "Ķ"
      ],
      [
        "åľ",
        "º"
      ],
      [
        "æ³",
        "ķ"
      ],
      [
        "èĢ",
        "Į"
      ],
      [
        "éĩ",
        "ı"
      ],
      [
        "åħ",
        "¶"
      ],
      [
        "éĥ",
        "¨"
      ],
      [
        "å±",
        "ķ"
      ],
      [
        "åĬ",
        "¡"
      ],
      [
        "ä¸",
        "»"
      ],
      [
        "ç",
        "Ļ"
      ],
      [
        "èĢ",
        "ħ"
      ],
      [
        "ä¹",
        "ĭ"
      ],
      [
        "éĢ",
        "ļ"
      ],
      [
        "å¾",
        "Ĺ"
      ],
      [
        "æī",
        "Ģ"
      ],
      [
        "ç",
        "Ł"
      ],
      [
        "åĨ",
        "ħ"
      ],
      [
        "è",
        "ī"
      ],
      [
        "åħ",
        "³"
      ],
      [
        "æ",
        "Ļ"
      ],
      [
        "2",
        "0"
      ],
      [
        "åī",
        "į"
      ],
      [
        "æ",
        "¶"
      ],
      [
        "é",
        "ĥ½"
      ],
      [
        "ç",
        "³"
      ],
      [
        "å¿",
        "ĥ"
      ],
      [
        "æ°",
        "´"
      ],
      [
        "éĹ",
        "´"
      ],
      [
        "è",
        "ģ"
      ],
      [
        "å°",
        "Ĩ"
      ],
      [
        "éĩ",
        "į"
      ],
      [
        "åĪ",
        "¶"
      ],
      [
        "é",
        "Ľ"
      ],
      [
        "å»",
        "º"
      ],
      [
        "è",
        "·"
      ],
      [
        "é",
        "ľ"
      ],
      [
        "åŃ",
        "Ĳ"
      ],
      [
        "å",
        "Ģ"
      ],
      [
        "æĽ",
        "´"
      ],
      [
        "ä¿",
        "Ŀ"
      ],
      [
        "æĹ",
        "¥"
      ],
      [
        "æķ",
        "°"
      ],
      [
        "è",
        "°"
      ],
      [
        "ç®",
        "¡"
      ],
      [
        "å",
        "¢"
      ],
      [
        "é",
        "ļ"
      ],
      [
        "å°",
        "ı"
      ],
      [
        "åı¯",
        "ä»¥"
      ],
      [
        "ç¨",
        "ĭ"
      ],
      [
        "é",
        "Ķ"
      ],
      [
        "ç",
        "¬"
      ],
      [
        "ç",
        "¤"
      ],
      [
        "ç§",
        "į"
      ],
      [
        "çī",
        "©"
      ],
      [
        "å",
        "Ŀ"
      ],
      [
        "çĤ",
        "¹"
      ],
      [
        "éķ",
        "¿"
      ],
      [
        "ç",
        "Ŀ"
      ],
      [
        "è",
        "Ĭ"
      ],
      [
        "ç",
        "ł"
      ],
      [
        "æľ",
        "Ģ"
      ],
      [
        "èµ",
        "Ħ"
      ],
      [
        "ä½",
        "¿"
      ],
      [
        "çĽ",
        "®"
      ],
      [
        "ç³",
        "»"
      ],
      [
        "æĥ",
        "ħ"
      ],
      [
        "åĽ",
        "ł"
      ],
      [
        "ç",
        "Ħ"
      ],
      [
        "çĽ",
        "¸"
      ],
      [
        "å¹",
        "¶"
      ],
      [
        "ç",
        "ĸ"
      ],
      [
        "å¤",
        "ĸ"
      ],
      [
        "è®",
        "¡"
      ],
      [
        "ç",
        "©"
      ],
      [
        "æĪ",
        "ĸ"
      ],
      [
        "å¾",
        "Ī"
      ],
      [
        "æĪĳ",
        "ä»¬"
      ],
      [
        "è¿",
        "ĺ"
      ],
      [
        "äº",
        "ĭ"
      ],
      [
        "ç",
        "¾"
      ],
      [
        "é",
        "ħ"
      ],
      [
        "æ¯",
        "Ķ"
      ],
      [
        "æľ",
        "Ł"
      ],
      [
        "ç½",
        "ĳ"
      ],
      [
        "ç",
        "ĥ"
      ],
      [
        "åĮ",
        "º"
      ],
      [
        "æĬ",
        "Ģ"
      ],
      [
        "åħ",
        "¥"
      ],
      [
        "åı",
        "¸"
      ],
      [
        "å¼",
        "ı"
      ],
      [
        "å®",
        "ī"
      ],
      [
        "æ",
        "Ł"
      ],
      [
        "ç",
        "¡"
      ],
      [
        "æĸ",
        "ĩ"
      ],
      [
        "ä½",
        "į"
      ],
      [
        "å½",
        "ĵ"
      ],
      [
        "è´",
        "¨"
      ],
      [
        "éľ",
        "Ģ"
      ],
      [
        "å¸",
        "¸"
      ],
      [
        "æŀ",
        "ľ"
      ],
      [
        "è½",
        "¦"
      ],
      [
        "åĳ",
        "ĺ"
      ],
      [
        "ä¿",
        "¡"
      ],
      [
        "è",
        "Ĳ"
      ],
      [
        "å¤",
        "©"
      ],
      [
        "æ",
        "ģ"
      ],
      [
        "æľ",
        "Ī"
      ],
      [
        "ä½",
        "ł"
      ],
      [
        "è¡",
        "¨"
      ],
      [
        "é",
        "Ĵ"
      ],
      [
        "æĦ",
        "ı"
      ],
      [
        "è¯",
        "´"
      ],
      [
        "ä¼",
        "ģ"
      ],
      [
        "æ",
        "Ĥ"
      ],
      [
        "ç",
        "²"
      ],
      [
        "æľ",
        "į"
      ],
      [
        "åħ¬",
        "åı¸"
      ],
      [
        "ç",
        "ķ"
      ],
      [
        "æľ",
        "¯"
      ],
      [
        "ä¸Ģ",
        "ä¸ª"
      ],
      [
        "å",
        "ķ"
      ],
      [
        "çĦ",
        "¶"
      ],
      [
        "æį",
        "®"
      ],
      [
        "å¹",
        "³"
      ],
      [
        "å",
        "§"
      ],
      [
        "ç",
        "±"
      ],
      [
        "éģ",
        "ĵ"
      ],
      [
        "äº",
        "Ľ"
      ],
      [
        "çĿ",
        "Ģ"
      ],
      [
        "éĩ",
        "ĳ"
      ],
      [
        "è",
        "£"
      ],
      [
        "ä½",
        "Ĩ"
      ],
      [
        "ä»",
        "¶"
      ],
      [
        "å",
        "ŀ"
      ],
      [
        "ä»",
        "İ"
      ],
      [
        "å·¥",
        "ä½ľ"
      ],
      [
        "æŃ",
        "¤"
      ],
      [
        "æĹ",
        "ł"
      ],
      [
        "æ´",
        "»"
      ],
      [
        "é",
        "ĵ"
      ],
      [
        "ç",
        "¼"
      ],
      [
        "æķ",
        "Ļ"
      ],
      [
        "æ¬",
        "¡"
      ],
      [
        "é£",
        "İ"
      ],
      [
        "ç",
        "´"
      ],
      [
        "é",
        "Ĥ"
      ],
      [
        "ä¼ģ",
        "ä¸ļ"
      ],
      [
        "æł",
        "ĩ"
      ],
      [
        "è§",
        "£"
      ],
      [
        "åĪ",
        "©"
      ],
      [
        "ç",
        "Ĺ"
      ],
      [
        "ä¸",
        "ĵ"
      ],
      [
        "çī",
        "¹"
      ],
      [
        "æİ",
        "¥"
      ],
      [
        "èµ",
        "·"
      ],
      [
        "ç»",
        "Ł"
      ],
      [
        "æ",
        "¡"
      ],
      [
        "æĺ",
        "İ"
      ],
      [
        "æ",
        "·"
      ],
      [
        "å",
        "Ļ"
      ],
      [
        "çľ",
        "ĭ"
      ],
      [
        "ä¸",
        "ī"
      ],
      [
        "åĲ",
        "Ħ"
      ],
      [
        "ç¬",
        "¬"
      ],
      [
        "æ±",
        "Ĥ"
      ],
      [
        "åŁ",
        "º"
      ],
      [
        "åħ",
        "·"
      ],
      [
        "å¤",
        "ĩ"
      ],
      [
        "æī",
        "ĭ"
      ],
      [
        "æ°",
        "Ķ"
      ],
      [
        "ä¹",
        "Ī"
      ],
      [
        "åķ",
        "Ĩ"
      ],
      [
        "é",
        "¦"
      ],
      [
        "ç§",
        "ĳ"
      ],
      [
        "æµ",
        "ģ"
      ],
      [
        "ç»",
        "ĵ"
      ],
      [
        "æŃ",
        "£"
      ],
      [
        "æł",
        "·"
      ],
      [
        "è§",
        "Ħ"
      ],
      [
        "è",
        "ĥ"
      ],
      [
        "é¢",
        "ĺ"
      ],
      [
        "è¿Ľ",
        "è¡Į"
      ],
      [
        "é¡",
        "¹"
      ],
      [
        "çº",
        "¿"
      ],
      [
        "åĻ",
        "¨"
      ],
      [
        "0",
        "0"
      ],
      [
        "éĩ",
        "Į"
      ],
      [
        "æķ",
        "Ī"
      ],
      [
        "åĲ",
        "į"
      ],
      [
        "å¼",
        "º"
      ],
      [
        "ç",
        "ģ"
      ],
      [
        "æĸ",
        "Ļ"
      ],
      [
        "é",
        "ª"
      ],
      [
        "åģ",
        "ļ"
      ],
      [
        "éĢ",
        "ł"
      ],
      [
        "æ",
        "»"
      ],
      [
        "æĮ",
        "ģ"
      ],
      [
        "ç¾",
        "İ"
      ],
      [
        "ä¾",
        "Ľ"
      ],
      [
        "æ",
        "º"
      ],
      [
        "çĶ",
        "±"
      ],
      [
        "æľį",
        "åĬ¡"
      ],
      [
        "ä»",
        "£"
      ],
      [
        "åŀ",
        "ĭ"
      ],
      [
        "å",
        "£"
      ],
      [
        "åį",
        "ķ"
      ],
      [
        "è",
        "ĭ"
      ],
      [
        "è",
        "Ī"
      ],
      [
        "è¿",
        "Ĳ"
      ],
      [
        "æł",
        "¼"
      ],
      [
        "éĹ",
        "®"
      ],
      [
        "æĦ",
        "Ł"
      ],
      [
        "å¤",
        "Ħ"
      ],
      [
        "æĪ",
        "·"
      ],
      [
        "éĢ",
        "ī"
      ],
      [
        "åıĳ",
        "å±ķ"
      ],
      [
        "è£",
        "ħ"
      ],
      [
        "äº§",
        "åĵģ"
      ],
      [
        "çĲ",
        "ĥ"
      ],
      [
        "è",
        "¢"
      ],
      [
        "è",
        "º"
      ],
      [
        "åĪ",
        "Ľ"
      ],
      [
        "äº",
        "¤"
      ],
      [
        "éĹ",
        "¨"
      ],
      [
        "ä½¿",
        "çĶ¨"
      ],
      [
        "ä»",
        "·"
      ],
      [
        "å¯",
        "¼"
      ],
      [
        "æ²",
        "¡"
      ],
      [
        "åİ",
        "»"
      ],
      [
        "è®",
        "©"
      ],
      [
        "è",
        "į"
      ],
      [
        "å·",
        "²"
      ],
      [
        "æ",
        "£"
      ],
      [
        "çŁ",
        "¥"
      ],
      [
        "å",
        "ĸ"
      ],
      [
        "èº",
        "«"
      ],
      [
        "æĬĢ",
        "æľ¯"
      ],
      [
        "èī",
        "²"
      ],
      [
        "ä¼",
        "ł"
      ],
      [
        "ç",
        "Ī"
      ],
      [
        "åĲ",
        "ĳ"
      ],
      [
        "åı",
        "ĺ"
      ],
      [
        "çł",
        "Ķ"
      ],
      [
        "æĬ",
        "¥"
      ],
      [
        "ç»",
        "Ħ"
      ],
      [
        "çİ",
        "¯"
      ],
      [
        "ç",
        "¥"
      ],
      [
        "åħ",
        "ĥ"
      ],
      [
        "ä»",
        "»"
      ],
      [
        "è´",
        "¹"
      ],
      [
        "æĶ",
        "¿"
      ],
      [
        "æĶ",
        "¶"
      ],
      [
        "åİ",
        "Ł"
      ],
      [
        "èµ",
        "Ľ"
      ],
      [
        "éĻ",
        "¢"
      ],
      [
        "éĺ",
        "²"
      ],
      [
        "æĥ",
        "³"
      ],
      [
        "åı",
        "Ĺ"
      ],
      [
        "çĻ",
        "½"
      ],
      [
        "è",
        "Ħ"
      ],
      [
        "èģ",
        "Ķ"
      ],
      [
        "éĤ",
        "£"
      ],
      [
        "å®",
        "¹"
      ],
      [
        "åı",
        "°"
      ],
      [
        "å·",
        "±"
      ],
      [
        "ãĢ",
        "ĭ"
      ],
      [
        "è¯",
        "ģ"
      ],
      [
        "åĮ",
        "»"
      ],
      [
        "ä¸",
        "¤"
      ],
      [
        "ãĢ",
        "Ĭ"
      ],
      [
        "ä¼",
        "ĺ"
      ],
      [
        "è°",
        "ĥ"
      ],
      [
        "è¢",
        "«"
      ],
      [
        "èĩª",
        "å·±"
      ],
      [
        "æŀ",
        "Ħ"
      ],
      [
        "éĺ",
        "Ł"
      ],
      [
        "è¾",
        "ĥ"
      ],
      [
        "ç®¡",
        "çĲĨ"
      ],
      [
        "ç¤",
        "º"
      ],
      [
        "å®",
        "Į"
      ],
      [
        "åĩ",
        "Ĩ"
      ],
      [
        "å°",
        "ĳ"
      ],
      [
        "ç±",
        "»"
      ],
      [
        "æº",
        "Ĳ"
      ],
      [
        "åı",
        "ª"
      ],
      [
        "æ°",
        "ĳ"
      ],
      [
        "é",
        "©"
      ],
      [
        "äº",
        "Į"
      ],
      [
        "æ³",
        "¨"
      ],
      [
        "çĥ",
        "Ń"
      ],
      [
        "éĽ",
        "Ĩ"
      ],
      [
        "h",
        "e"
      ],
      [
        "æĶ",
        "¾"
      ],
      [
        "ç¡",
        "®"
      ],
      [
        "å½",
        "¢"
      ],
      [
        "åĮ",
        "ħ"
      ],
      [
        "å¢",
        "ŀ"
      ],
      [
        "æķ",
        "´"
      ],
      [
        "æ²",
        "»"
      ],
      [
        "è",
        "İ"
      ],
      [
        "åħ",
        "Ī"
      ],
      [
        "å¹",
        "¿"
      ],
      [
        "æİ",
        "¨"
      ],
      [
        "æģ",
        "¯"
      ],
      [
        "ç«",
        "ĭ"
      ],
      [
        "çº",
        "§"
      ],
      [
        "Ġ",
        "t"
      ],
      [
        "ç",
        "¦"
      ],
      [
        "å½",
        "±"
      ],
      [
        "æ",
        "¨"
      ],
      [
        "è·",
        "¯"
      ],
      [
        "å¸",
        "Ī"
      ],
      [
        "æī",
        "ĵ"
      ],
      [
        "è¾",
        "¾"
      ],
      [
        "ä¸Ń",
        "åĽ½"
      ],
      [
        "èĢ",
        "ĥ"
      ],
      [
        "èĬ",
        "Ĥ"
      ],
      [
        "Ġ",
        "a"
      ],
      [
        "æ¯",
        "ı"
      ],
      [
        "çĹ",
        "ħ"
      ],
      [
        "æµ",
        "·"
      ],
      [
        "èĩ",
        "³"
      ],
      [
        "åĪ",
        "«"
      ],
      [
        "æĮ",
        "ĩ"
      ],
      [
        "æµ",
        "ĭ"
      ],
      [
        "çĽ",
        "´"
      ],
      [
        "éľĢ",
        "è¦ģ"
      ],
      [
        "éª",
        "Į"
      ],
      [
        "èĲ",
        "¥"
      ],
      [
        "å¸",
        "¦"
      ],
      [
        "å®",
        "¢"
      ],
      [
        "åı",
        "ĸ"
      ],
      [
        "è®",
        "¤"
      ],
      [
        "æĢ",
        "»"
      ],
      [
        "åı",
        "£"
      ],
      [
        "ç»",
        "Ļ"
      ],
      [
        "æ¶",
        "Ī"
      ],
      [
        "è",
        "Į"
      ],
      [
        "éĢļ",
        "è¿ĩ"
      ],
      [
        "åĽ",
        "ŀ"
      ],
      [
        "è¯",
        "ķ"
      ],
      [
        "é¢",
        "Ĩ"
      ],
      [
        "ä½",
        "İ"
      ],
      [
        "åħ",
        "ī"
      ],
      [
        "è¯",
        "¥"
      ],
      [
        "æł",
        "¡"
      ],
      [
        "æ",
        "®"
      ],
      [
        "ç©",
        "º"
      ],
      [
        "éĿ",
        "ŀ"
      ],
      [
        "è½",
        "¬"
      ],
      [
        "ç²",
        "¾"
      ],
      [
        "èĤ",
        "²"
      ],
      [
        "æ¸",
        "¸"
      ],
      [
        "ä¸",
        "ĩ"
      ],
      [
        "æĹ¶",
        "éĹ´"
      ],
      [
        "åį",
        "ģ"
      ],
      [
        "æĸ",
        "½"
      ],
      [
        "åĬ",
        "©"
      ],
      [
        "æĿ",
        "Ĳ"
      ],
      [
        "ç³»",
        "ç»Ł"
      ],
      [
        "æĬ",
        "ķ"
      ],
      [
        "è",
        "Ļ"
      ],
      [
        "æ¨",
        "¡"
      ],
      [
        "çİ",
        "ĩ"
      ],
      [
        "è§",
        "Ĩ"
      ],
      [
        "åĬ",
        "Ł"
      ],
      [
        "æ¸",
        "ħ"
      ],
      [
        "æĬ",
        "¤"
      ],
      [
        "åĨ",
        "³"
      ],
      [
        "ç",
        "ħ"
      ],
      [
        "i",
        "n"
      ],
      [
        "éĹ®",
        "é¢ĺ"
      ],
      [
        "ä¸",
        "ľ"
      ],
      [
        "å®",
        "ĥ"
      ],
      [
        "ç«",
        "Ļ"
      ],
      [
        "¥",
        "¿"
      ],
      [
        "å¿",
        "«"
      ],
      [
        "æ²¡",
        "æľī"
      ],
      [
        "æ",
        "¼"
      ],
      [
        "å¸Ĥ",
        "åľº"
      ],
      [
        "å¤",
        "´"
      ],
      [
        "æĶ",
        "¹"
      ],
      [
        "æĿ",
        "¡"
      ],
      [
        "æİ",
        "§"
      ],
      [
        "æĺ",
        "ĵ"
      ],
      [
        "ç¤",
        "¾"
      ],
      [
        "è",
        "¥¿"
      ],
      [
        "è§",
        "Ĥ"
      ],
      [
        "åĨ",
        "µ"
      ],
      [
        "åı",
        "Ĥ"
      ],
      [
        "éĩ",
        "ĩ"
      ],
      [
        "æıĲ",
        "ä¾Ľ"
      ],
      [
        "åĬ",
        "ŀ"
      ],
      [
        "èĢ",
        "ģ"
      ],
      [
        "ç»",
        "Ń"
      ],
      [
        "å¢",
        "ĥ"
      ],
      [
        "åĽ",
        "¢"
      ],
      [
        "å¸",
        "ĥ"
      ],
      [
        "åĨ",
        "į"
      ],
      [
        "éĢ",
        "Ł"
      ],
      [
        "æŃ",
        "¥"
      ],
      [
        "åħ",
        "±"
      ],
      [
        "åİ",
        "ĭ"
      ],
      [
        "éħ",
        "į"
      ],
      [
        "æ£",
        "Ģ"
      ],
      [
        "é",
        "¥"
      ],
      [
        "å",
        "Ķ"
      ],
      [
        "æ",
        "¢"
      ],
      [
        "éĻ",
        "Ĳ"
      ],
      [
        "çĶŁ",
        "äº§"
      ],
      [
        "çĸ",
        "Ĺ"
      ],
      [
        "è¿",
        "ĳ"
      ],
      [
        "è®¾",
        "è®¡"
      ],
      [
        "é",
        "»"
      ],
      [
        "è®",
        "°"
      ],
      [
        "ç",
        "Ĭ"
      ],
      [
        "æī",
        "į"
      ],
      [
        "å¤",
        "į"
      ],
      [
        "æĢ",
        "ģ"
      ],
      [
        "ä½",
        "ķ"
      ],
      [
        "æ¸",
        "©"
      ],
      [
        "åį",
        "ĩ"
      ],
      [
        "é£",
        "Ł"
      ],
      [
        "åŁ",
        "İ"
      ],
      [
        "æĶ",
        "¯"
      ],
      [
        "é",
        "Ł"
      ],
      [
        "è¯",
        "·"
      ],
      [
        "å¦Ĥ",
        "æŀľ"
      ],
      [
        "ä¹",
        "¦"
      ],
      [
        "å®ī",
        "åħ¨"
      ],
      [
        "æ·",
        "±"
      ],
      [
        "æŁ",
        "¥"
      ],
      [
        "æ¡",
        "Ī"
      ],
      [
        "ä¸",
        "Ķ"
      ],
      [
        "ä»",
        "Ĭ"
      ],
      [
        "éĢ",
        "Ĥ"
      ],
      [
        "è",
        "±"
      ],
      [
        "ç½",
        "®"
      ],
      [
        "é¡¹",
        "çĽ®"
      ],
      [
        "ç»",
        "´"
      ],
      [
        "æĪ",
        "¿"
      ],
      [
        "å¼",
        "ķ"
      ],
      [
        "çľ",
        "Ł"
      ],
      [
        "å°±",
        "æĺ¯"
      ],
      [
        "æł",
        "¹"
      ],
      [
        "çķ",
        "Į"
      ],
      [
        "åŃ",
        "ĺ"
      ],
      [
        "æĿ",
        "ĥ"
      ],
      [
        "è¶",
        "Ĭ"
      ],
      [
        "åĢ",
        "¼"
      ],
      [
        "å",
        "²"
      ],
      [
        "åĳ",
        "Ĭ"
      ],
      [
        "éĻ",
        "ħ"
      ],
      [
        "ä¸",
        "ĸ"
      ],
      [
        "æĿ",
        "¿"
      ],
      [
        "1",
        "0"
      ],
      [
        "è¶",
        "³"
      ],
      [
        "æķ°",
        "æį®"
      ],
      [
        "çľ",
        "ģ"
      ],
      [
        "è®",
        "®"
      ],
      [
        "å±",
        "±"
      ],
      [
        "åħ",
        "»"
      ],
      [
        "å¿",
        "ħ"
      ],
      [
        "å±",
        "Ģ"
      ],
      [
        "çī",
        "Į"
      ],
      [
        "è¯",
        "Ĩ"
      ],
      [
        "æĪ",
        "ĺ"
      ],
      [
        "æĤ",
        "¨"
      ],
      [
        "åĮ",
        "Ĺ"
      ],
      [
        "åį",
        "Ĺ"
      ],
      [
        "åĵ",
        "į"
      ],
      [
        "åŃ",
        "Ĺ"
      ],
      [
        "è¶",
        "ħ"
      ],
      [
        "å",
        "¡"
      ],
      [
        "æ²",
        "¹"
      ],
      [
        "æĬ",
        "Ĭ"
      ],
      [
        "ç©",
        "¶"
      ],
      [
        "è®¾",
        "å¤ĩ"
      ],
      [
        "æİ",
        "Ĵ"
      ],
      [
        "æ",
        "ĳ"
      ],
      [
        "æľ",
        "ª"
      ],
      [
        "e",
        "r"
      ],
      [
        "åĽ",
        "Ľ"
      ],
      [
        "éĻ",
        "¤"
      ],
      [
        "æĺ",
        "¾"
      ],
      [
        "ä¿¡",
        "æģ¯"
      ],
      [
        "ä»",
        "Ģ"
      ],
      [
        "åĪ",
        "Ļ"
      ],
      [
        "èĩ",
        "´"
      ],
      [
        "çī",
        "ĩ"
      ],
      [
        "åĽ",
        "¾"
      ],
      [
        "é¦",
        "ĸ"
      ],
      [
        "èĬ",
        "±"
      ],
      [
        "èİ",
        "·"
      ],
      [
        "åı¯",
        "èĥ½"
      ],
      [
        "ç§",
        "¯"
      ],
      [
        "åı",
        "į"
      ],
      [
        "æĥħ",
        "åĨµ"
      ],
      [
        "è¡Į",
        "ä¸ļ"
      ],
      [
        "åŁ",
        "Ł"
      ],
      [
        "è§",
        "ģ"
      ],
      [
        "ä»ĸ",
        "ä»¬"
      ],
      [
        ".",
        "."
      ],
      [
        "ä»Ģ",
        "ä¹Ī"
      ],
      [
        "ç´",
        "ł"
      ],
      [
        "ä¾",
        "¿"
      ],
      [
        "å¥",
        "¹"
      ],
      [
        "20",
        "1"
      ],
      [
        "ä»¥",
        "åıĬ"
      ],
      [
        "è´",
        "£"
      ],
      [
        "æĸ",
        "Ń"
      ],
      [
        "æĻ",
        "º"
      ],
      [
        "ä¸ĵ",
        "ä¸ļ"
      ],
      [
        "ä¹",
        "Ĳ"
      ],
      [
        "è®",
        "º"
      ],
      [
        "åĽł",
        "ä¸º"
      ],
      [
        "ä¹",
        "ł"
      ],
      [
        "æŀ",
        "ģ"
      ],
      [
        "æĭ",
        "©"
      ],
      [
        "çº",
        "¦"
      ],
      [
        "åĲĮ",
        "æĹ¶"
      ],
      [
        "æ",
        "Ĳ"
      ],
      [
        "éļ",
        "¾"
      ],
      [
        "éĶ",
        "Ģ"
      ],
      [
        "æ¬",
        "¾"
      ],
      [
        "è¿Ļ",
        "ä¸ª"
      ],
      [
        "è¦ģ",
        "æ±Ĥ"
      ],
      [
        "å¥",
        "³"
      ],
      [
        "è",
        "ŀ"
      ],
      [
        "å§",
        "ĭ"
      ],
      [
        "ä¸»",
        "è¦ģ"
      ],
      [
        "ä¸į",
        "åĲĮ"
      ],
      [
        "éļ",
        "ı"
      ],
      [
        "Ġ",
        "s"
      ],
      [
        "çħ",
        "§"
      ],
      [
        "åı",
        "·"
      ],
      [
        "é¢",
        "Ħ"
      ],
      [
        "è¯",
        "Ŀ"
      ],
      [
        "éĢī",
        "æĭ©"
      ],
      [
        "åĪ",
        "Ĵ"
      ],
      [
        "åį",
        "³"
      ],
      [
        "åĩ",
        "ł"
      ],
      [
        "çĬ",
        "¶"
      ],
      [
        "çİ¯",
        "å¢ĥ"
      ],
      [
        "åĬ",
        "¿"
      ],
      [
        "è",
        "ħ"
      ],
      [
        "æ»",
        "¡"
      ],
      [
        "åĳ",
        "¨"
      ],
      [
        "å¤",
        "Ł"
      ],
      [
        "åĢ",
        "Ļ"
      ],
      [
        "ç",
        "¢"
      ],
      [
        "å»º",
        "è®¾"
      ],
      [
        "çĶŁ",
        "æ´»"
      ],
      [
        "æĸ",
        "¯"
      ],
      [
        "å±",
        "Ĥ"
      ],
      [
        "æ",
        "Ĵ"
      ],
      [
        "æĸ¹",
        "éĿ¢"
      ],
      [
        "åį",
        "ı"
      ],
      [
        "ç",
        "ª"
      ],
      [
        "çłĶ",
        "ç©¶"
      ],
      [
        "åģ",
        "¥"
      ],
      [
        "æ",
        "ħ"
      ],
      [
        "çĪ",
        "±"
      ],
      [
        "ç¦",
        "»"
      ],
      [
        "èģ",
        "Į"
      ],
      [
        "å½±",
        "åĵį"
      ],
      [
        "åı",
        "Ī"
      ],
      [
        "ç",
        "ĭ"
      ],
      [
        "è®",
        "¸"
      ],
      [
        "ä¿",
        "®"
      ],
      [
        "ç»",
        "Ĩ"
      ],
      [
        "å±",
        "ŀ"
      ],
      [
        "å¥½",
        "çļĦ"
      ],
      [
        "ç®",
        "Ĺ"
      ],
      [
        "æľ",
        "Ľ"
      ],
      [
        "èī",
        "º"
      ],
      [
        "æĻ",
        "¯"
      ],
      [
        "æ´»",
        "åĬ¨"
      ],
      [
        "æĮ",
        "ī"
      ],
      [
        "å¹",
        "²"
      ],
      [
        "æµ",
        "İ"
      ],
      [
        "èĮ",
        "ĥ"
      ],
      [
        "ä¼",
        "Ĺ"
      ],
      [
        "éĩį",
        "è¦ģ"
      ],
      [
        "åį",
        "İ"
      ],
      [
        "20",
        "2"
      ],
      [
        "ç",
        "ı"
      ],
      [
        "å·",
        "ŀ"
      ],
      [
        "o",
        "n"
      ],
      [
        "æ",
        "¹"
      ],
      [
        "æ®",
        "µ"
      ],
      [
        "çĽ¸",
        "åħ³"
      ],
      [
        "ç§",
        "°"
      ],
      [
        "äºº",
        "åĳĺ"
      ],
      [
        "ç¥",
        "ŀ"
      ],
      [
        "è¿",
        "ŀ"
      ],
      [
        "åĽ½",
        "å®¶"
      ],
      [
        "å¾Ī",
        "å¤ļ"
      ],
      [
        "éŁ",
        "³"
      ],
      [
        "ä¾",
        "ĭ"
      ],
      [
        "ä¸Ģ",
        "äºĽ"
      ],
      [
        "ä»",
        "ħ"
      ],
      [
        "åħ",
        "ħ"
      ],
      [
        "çĽ",
        "ĳ"
      ],
      [
        "å",
        "ĥ"
      ],
      [
        "æ",
        "ļ"
      ],
      [
        "æīĢ",
        "ä»¥"
      ],
      [
        "è´¨",
        "éĩı"
      ],
      [
        "è",
        "ı"
      ],
      [
        "æ",
        "ĵ"
      ],
      [
        "å",
        "Ħ"
      ],
      [
        "Ġ",
        "w"
      ],
      [
        "åĩ",
        "ı"
      ],
      [
        "é©",
        "¬"
      ],
      [
        "æķĻ",
        "èĤ²"
      ],
      [
        "æĤ",
        "£"
      ],
      [
        "åº",
        "·"
      ],
      [
        "è¯",
        "Ħ"
      ],
      [
        "åı",
        "ĭ"
      ],
      [
        "å¤§",
        "å®¶"
      ],
      [
        "ãĢĤ",
        "âĢĿ"
      ],
      [
        "å¾",
        "·"
      ],
      [
        "èĤ",
        "¡"
      ],
      [
        "å°",
        "Ķ"
      ],
      [
        "åŃ¦",
        "çĶŁ"
      ],
      [
        "åĦ",
        "¿"
      ],
      [
        "è±",
        "¡"
      ],
      [
        "å¤",
        "ª"
      ],
      [
        "åĪ",
        "Ĺ"
      ],
      [
        "åĪ",
        "ĩ"
      ],
      [
        "è´",
        "Ł"
      ],
      [
        "éĿŀ",
        "å¸¸"
      ],
      [
        "æĢ",
        "Ŀ"
      ],
      [
        "æł",
        "¸"
      ],
      [
        "å¯¹",
        "äºİ"
      ],
      [
        "å®",
        "¤"
      ],
      [
        "åĨ",
        "ľ"
      ],
      [
        "åħ",
        "į"
      ],
      [
        "ç®",
        "Ģ"
      ],
      [
        "å§",
        "Ķ"
      ],
      [
        "n",
        "d"
      ],
      [
        "è´",
        "Ń"
      ],
      [
        "çļ",
        "®"
      ],
      [
        "åºĶ",
        "çĶ¨"
      ],
      [
        "éĻ",
        "į"
      ],
      [
        "è¿ĩ",
        "ç¨ĭ"
      ],
      [
        "éĻ",
        "©"
      ],
      [
        "åĥ",
        "ı"
      ],
      [
        "è¿Ļ",
        "äºĽ"
      ],
      [
        "æī",
        "¿"
      ],
      [
        "æĸ¹",
        "å¼ı"
      ],
      [
        "çŃ",
        "ĸ"
      ],
      [
        "ä¸Ń",
        "çļĦ"
      ],
      [
        "ç»ı",
        "æµİ"
      ],
      [
        "èĥ½",
        "åĬĽ"
      ],
      [
        "è¯",
        "Ń"
      ],
      [
        "åħ·",
        "æľī"
      ],
      [
        "èŀ",
        "į"
      ],
      [
        "ä¸Ń",
        "å¿ĥ"
      ],
      [
        "èį",
        "¯"
      ],
      [
        "è¯",
        "¾"
      ],
      [
        "è¿Ļ",
        "æł·"
      ],
      [
        "äº",
        "Ķ"
      ],
      [
        "çģ",
        "«"
      ],
      [
        "ä½ľ",
        "ä¸º"
      ],
      [
        "âĢĿ",
        ","
      ],
      [
        "åĽ",
        "Ń"
      ],
      [
        "åĵģ",
        "çīĮ"
      ],
      [
        "æĺ¯",
        "ä¸Ģ"
      ],
      [
        "éĴ",
        "¢"
      ],
      [
        "åĶ",
        "®"
      ],
      [
        "æĹ¶",
        "åĢĻ"
      ],
      [
        "çĶ¨",
        "æĪ·"
      ],
      [
        "å¾",
        "®"
      ],
      [
        "è§",
        "ī"
      ],
      [
        "âĢ",
        "Ķ"
      ],
      [
        "åĽ",
        "´"
      ],
      [
        "æł¹",
        "æį®"
      ],
      [
        "æ²»",
        "çĸĹ"
      ],
      [
        "èĲ",
        "½"
      ],
      [
        "å¾",
        "Ģ"
      ],
      [
        "r",
        "e"
      ],
      [
        "åħ¶",
        "ä»ĸ"
      ],
      [
        "æĿĲ",
        "æĸĻ"
      ],
      [
        "çŁ",
        "³"
      ],
      [
        "ä½",
        "ı"
      ],
      [
        "å£",
        "«"
      ],
      [
        "èµ",
        "°"
      ],
      [
        "åŃ",
        "£"
      ],
      [
        "å·²",
        "ç»ı"
      ],
      [
        "å¹³",
        "åı°"
      ],
      [
        "å¼",
        "ł"
      ],
      [
        "èĥ½",
        "å¤Ł"
      ],
      [
        "å¤Ħ",
        "çĲĨ"
      ],
      [
        "å·¥",
        "ç¨ĭ"
      ],
      [
        "ç±",
        "³"
      ],
      [
        "å¤",
        "±"
      ],
      [
        "çļĦ",
        "äºº"
      ],
      [
        "åİ",
        "Ĩ"
      ],
      [
        "åĩº",
        "çİ°"
      ],
      [
        "éĥ¨",
        "åĪĨ"
      ],
      [
        "åĿ",
        "ĩ"
      ],
      [
        "åĨħ",
        "å®¹"
      ],
      [
        "å¤§",
        "çļĦ"
      ],
      [
        "ç",
        "Į"
      ],
      [
        "çº",
        "¢"
      ],
      [
        "åħ",
        "ĭ"
      ],
      [
        "å£",
        "°"
      ],
      [
        "ç»",
        "ĩ"
      ],
      [
        "åİ",
        "Ĥ"
      ],
      [
        "äº",
        "Ĵ"
      ],
      [
        "ä¾",
        "Ŀ"
      ],
      [
        "çĽ",
        "Ĭ"
      ],
      [
        "æĹ",
        "©"
      ],
      [
        "ä¸ĸ",
        "çķĮ"
      ],
      [
        "ä»",
        "½"
      ],
      [
        "ä¸",
        "¥"
      ],
      [
        "è½",
        "»"
      ],
      [
        "æĭ",
        "ī"
      ],
      [
        "åº",
        "Ĺ"
      ],
      [
        "åľ",
        "Ł"
      ],
      [
        "è§",
        "Ĵ"
      ],
      [
        "åĳ",
        "½"
      ],
      [
        "è¾",
        "ĵ"
      ],
      [
        "æłĩ",
        "åĩĨ"
      ],
      [
        "åı",
        "Į"
      ],
      [
        "è¾",
        "¹"
      ],
      [
        "è",
        "¨"
      ],
      [
        "å¯",
        "Ĩ"
      ],
      [
        "ç¤¾",
        "ä¼ļ"
      ],
      [
        "äº§",
        "ä¸ļ"
      ],
      [
        "è¨",
        "Ģ"
      ],
      [
        "å",
        "¨"
      ],
      [
        "å",
        "ĭ"
      ],
      [
        "ä¹Ł",
        "æĺ¯"
      ],
      [
        "o",
        "u"
      ],
      [
        "è",
        "ĳ"
      ],
      [
        "å®¢",
        "æĪ·"
      ],
      [
        "å¼Ģ",
        "å§ĭ"
      ],
      [
        "ä½Ĩ",
        "æĺ¯"
      ],
      [
        "äº",
        "¬"
      ],
      [
        "æıĲ",
        "é«ĺ"
      ],
      [
        "i",
        "t"
      ],
      [
        "äº",
        "ļ"
      ],
      [
        "?",
        "\\"
      ],
      [
        "æ¼",
        "Ķ"
      ],
      [
        "èĭ",
        "±"
      ],
      [
        "æ±",
        "½"
      ],
      [
        "é¡",
        "»"
      ],
      [
        "æĸ¹",
        "æ³ķ"
      ],
      [
        "åŁ",
        "¹"
      ],
      [
        "é",
        "¾"
      ],
      [
        "ä¸Ģ",
        "å®ļ"
      ],
      [
        "æĭ",
        "¬"
      ],
      [
        "ç»",
        "Ī"
      ],
      [
        "æį",
        "¢"
      ],
      [
        "çĽ®",
        "åīį"
      ],
      [
        ";",
        "\\"
      ],
      [
        "çļĦ",
        "ä¸Ģ"
      ],
      [
        "èĪ",
        "¬"
      ],
      [
        "çĶ",
        "³"
      ],
      [
        "å¾",
        "ĭ"
      ],
      [
        "å®ŀ",
        "çİ°"
      ],
      [
        "æĬķ",
        "èµĦ"
      ],
      [
        "æĪĲ",
        "ä¸º"
      ],
      [
        "ä»",
        "ĭ"
      ],
      [
        "åŃ",
        "©"
      ],
      [
        "ä¸į",
        "æĺ¯"
      ],
      [
        "æ±",
        "Ł"
      ],
      [
        "äº",
        "²"
      ],
      [
        "æ¶Ī",
        "è´¹"
      ],
      [
        "çİ°",
        "åľ¨"
      ],
      [
        "ä¹",
        "ī"
      ],
      [
        "å¸",
        "®"
      ],
      [
        "åĮħ",
        "æĭ¬"
      ],
      [
        "äºĨ",
        "è§£"
      ],
      [
        "éĿ",
        "Ĵ"
      ],
      [
        "åĲ",
        "¸"
      ],
      [
        "æŀ",
        "Ĳ"
      ],
      [
        "äº",
        "«"
      ],
      [
        "èĩªå·±",
        "çļĦ"
      ],
      [
        "éĢ",
        "ģ"
      ],
      [
        "éľĢ",
        "æ±Ĥ"
      ],
      [
        "ç½ĳ",
        "ç«Ļ"
      ],
      [
        "åĳ",
        "³"
      ],
      [
        "åŃ¦",
        "ä¹ł"
      ],
      [
        "h",
        "a"
      ],
      [
        "éħ",
        "Ĵ"
      ],
      [
        "æĸĩ",
        "åĮĸ"
      ],
      [
        "åĬŁ",
        "èĥ½"
      ],
      [
        "æŀ",
        "Ĺ"
      ],
      [
        "æĪ",
        "ı"
      ],
      [
        "ä¸ª",
        "äºº"
      ],
      [
        "åº",
        "ķ"
      ],
      [
        "æĿ",
        "ĳ"
      ],
      [
        "çĸ",
        "«"
      ],
      [
        "åĲ",
        "«"
      ],
      [
        "ä¹",
        "°"
      ],
      [
        "ç",
        "£"
      ],
      [
        "åĽł",
        "æŃ¤"
      ],
      [
        "è®",
        "²"
      ],
      [
        "çĻ",
        "¾"
      ],
      [
        "ç§ĳ",
        "æĬĢ"
      ],
      [
        "éĺ",
        "³"
      ],
      [
        "åĽ½",
        "éĻħ"
      ],
      [
        "Ġt",
        "he"
      ],
      [
        "ç¨",
        "³"
      ],
      [
        "ç«",
        "¯"
      ],
      [
        "åĲ",
        "ĥ"
      ],
      [
        "åĪĽ",
        "æĸ°"
      ],
      [
        "åº",
        "ľ"
      ],
      [
        "ç¬¬",
        "ä¸Ģ"
      ],
      [
        "o",
        "r"
      ],
      [
        "æķ",
        "ħ"
      ],
      [
        "é¢",
        "ĳ"
      ],
      [
        "æĹ",
        "ħ"
      ],
      [
        "æĪĸ",
        "èĢħ"
      ],
      [
        "1",
        "2"
      ],
      [
        "çĻ½",
        "çĻ"
      ],
      [
        "ä¸",
        "¾"
      ],
      [
        "åĲ",
        "¦"
      ],
      [
        "æĺ",
        "Ł"
      ],
      [
        "æŃ",
        "¢"
      ],
      [
        "å",
        "Ĥ"
      ],
      [
        "ľ",
        "é£İ"
      ],
      [
        "æ¬",
        "¢"
      ],
      [
        "åģ¥",
        "åº·"
      ],
      [
        "éĩĩ",
        "çĶ¨"
      ],
      [
        "çĻ½çĻ",
        "ľé£İ"
      ],
      [
        "æ¯Ķ",
        "è¾ĥ"
      ],
      [
        "å½",
        "ķ"
      ],
      [
        "ä¸į",
        "ä¼ļ"
      ],
      [
        "åĸ",
        "Ħ"
      ],
      [
        "éĥ½",
        "æĺ¯"
      ],
      [
        "å°",
        "½"
      ],
      [
        "åħ",
        "ļ"
      ],
      [
        "çļĦ",
        "æĺ¯"
      ],
      [
        "l",
        "e"
      ],
      [
        "æīĢ",
        "æľī"
      ],
      [
        "å¯",
        "Į"
      ],
      [
        "æī",
        "¾"
      ],
      [
        "ç»",
        "ľ"
      ],
      [
        "ç»Ħ",
        "ç»ĩ"
      ],
      [
        "å±",
        "ħ"
      ],
      [
        "æľī",
        "éĻĲ"
      ],
      [
        "äº",
        "ī"
      ],
      [
        "æĻº",
        "èĥ½"
      ],
      [
        "ç¾",
        "¤"
      ],
      [
        "è´",
        "§"
      ],
      [
        "è¿",
        "ľ"
      ],
      [
        "è¿ĺ",
        "æĺ¯"
      ],
      [
        "æĤ£",
        "èĢħ"
      ],
      [
        "åĸ",
        "ľ"
      ],
      [
        ":",
        "\\"
      ],
      [
        "å",
        "ł"
      ],
      [
        "åį",
        "Ĭ"
      ],
      [
        "ç",
        "ĩ"
      ],
      [
        "çİ",
        "ĭ"
      ],
      [
        "è®",
        "Ń"
      ],
      [
        "èī",
        "¯"
      ],
      [
        "å·",
        "®"
      ],
      [
        "è§£",
        "åĨ³"
      ],
      [
        "åĲĪ",
        "ä½ľ"
      ],
      [
        "ä¸Ģ",
        "èĪ¬"
      ],
      [
        "äº",
        "ĳ"
      ],
      [
        "çŃ",
        "ĳ"
      ],
      [
        "æİ§",
        "åĪ¶"
      ],
      [
        "åĪĨ",
        "æŀĲ"
      ],
      [
        "æıĲ",
        "åįĩ"
      ],
      [
        "æ",
        "¥"
      ],
      [
        "éĥ¨",
        "éĹ¨"
      ],
      [
        "åĿ",
        "ļ"
      ],
      [
        "è¿Ļ",
        "ç§į"
      ],
      [
        "çī",
        "Ī"
      ],
      [
        "äºº",
        "çļĦ"
      ],
      [
        "åħ",
        "´"
      ],
      [
        "åĨ",
        "·"
      ],
      [
        "åį",
        "¡"
      ],
      [
        "å®",
        "Ŀ"
      ],
      [
        "åŁİ",
        "å¸Ĥ"
      ],
      [
        "åį",
        "´"
      ],
      [
        "1",
        "1"
      ],
      [
        "èİ·",
        "å¾Ĺ"
      ],
      [
        "åı",
        "¦"
      ],
      [
        "å¸",
        "Į"
      ],
      [
        "ç¼",
        "ĸ"
      ],
      [
        "çľ",
        "¼"
      ],
      [
        "æĻ",
        "®"
      ],
      [
        "ä¸Ĭ",
        "çļĦ"
      ],
      [
        "çĶ¨",
        "äºİ"
      ],
      [
        "å¿",
        "µ"
      ],
      [
        "åŃ¦",
        "æł¡"
      ],
      [
        "æľº",
        "æŀĦ"
      ],
      [
        "è½",
        "¯"
      ],
      [
        "åĩ",
        "»"
      ],
      [
        "è",
        "Ĩ"
      ],
      [
        "ä¸į",
        "èĥ½"
      ],
      [
        "è¡¨",
        "ç¤º"
      ],
      [
        "åĪ°",
        "äºĨ"
      ],
      [
        "çķ",
        "Ļ"
      ],
      [
        "è¡",
        "¥"
      ],
      [
        "äº",
        "¿"
      ],
      [
        "é¢Ĩ",
        "åŁŁ"
      ],
      [
        "æ",
        "¤"
      ],
      [
        "å®",
        "¡"
      ],
      [
        "è´",
        "¢"
      ],
      [
        "æ¶",
        "²"
      ],
      [
        "åįķ",
        "ä½į"
      ],
      [
        "ç",
        "Ĩ"
      ],
      [
        "æ",
        "¿"
      ],
      [
        "éĵ",
        "¶"
      ],
      [
        "åŁº",
        "ç¡"
      ],
      [
        "åŁºç¡",
        "Ģ"
      ],
      [
        "è¯",
        "»"
      ],
      [
        "é",
        "²"
      ],
      [
        "Ġ",
        "b"
      ],
      [
        "èµĦ",
        "æºĲ"
      ],
      [
        "n",
        "åľ¨"
      ],
      [
        "æĵ",
        "į"
      ],
      [
        "è½",
        "®"
      ],
      [
        "å®Į",
        "æĪĲ"
      ],
      [
        "åº",
        "ı"
      ],
      [
        "3",
        "0"
      ],
      [
        "éĤ£",
        "ä¹Ī"
      ],
      [
        "e",
        "d"
      ],
      [
        "æį",
        "Ł"
      ],
      [
        "åŃ©",
        "åŃĲ"
      ],
      [
        "æĶ¿",
        "åºľ"
      ],
      [
        "ç«",
        "ŀ"
      ],
      [
        "ç½ĳ",
        "ç»ľ"
      ],
      [
        "ç»ĵ",
        "æŀĦ"
      ],
      [
        "åĮ»",
        "éĻ¢"
      ],
      [
        "Ġa",
        "nd"
      ],
      [
        "ç",
        "ĵ"
      ],
      [
        "æ¿",
        "Ģ"
      ],
      [
        "æĭ",
        "ħ"
      ],
      [
        "!",
        "\\"
      ],
      [
        "ä»·",
        "æł¼"
      ],
      [
        "çĶ±",
        "äºİ"
      ],
      [
        "çĭ",
        "¬"
      ],
      [
        "è½",
        "½"
      ],
      [
        "æ",
        "½"
      ],
      [
        "çł",
        "´"
      ],
      [
        "éļ",
        "ľ"
      ],
      [
        "æĽ´",
        "å¤ļ"
      ],
      [
        "åıĳ",
        "çĶŁ"
      ],
      [
        "æ´",
        "Ĺ"
      ],
      [
        "a",
        "r"
      ],
      [
        "åĪ",
        "Ŀ"
      ],
      [
        "ç§",
        "»"
      ],
      [
        "å®",
        "³"
      ],
      [
        "å¼Ģ",
        "åıĳ"
      ],
      [
        "é»",
        "Ħ"
      ],
      [
        "åĵ",
        "ª"
      ],
      [
        "åģ",
        "ľ"
      ],
      [
        "ä¸į",
        "æĸŃ"
      ],
      [
        "çı",
        "Ń"
      ],
      [
        "åĨ",
        "Ľ"
      ],
      [
        "å¦Ĥ",
        "ä½ķ"
      ],
      [
        "åİ",
        "¿"
      ],
      [
        "å¿ħ",
        "é¡»"
      ],
      [
        "é¢",
        "Ŀ"
      ],
      [
        "å",
        "©"
      ],
      [
        "æī",
        "§"
      ],
      [
        "e",
        "n"
      ],
      [
        "æ±½",
        "è½¦"
      ],
      [
        "æľ",
        "¨"
      ],
      [
        "çİ",
        "©"
      ],
      [
        "æ³¨",
        "æĦı"
      ],
      [
        "æľī",
        "æķĪ"
      ],
      [
        "å¿",
        "Ĺ"
      ],
      [
        "åĲĦ",
        "ç§į"
      ],
      [
        "åĨ",
        "Ļ"
      ],
      [
        "ç¦",
        "ı"
      ],
      [
        "ä¸ļ",
        "åĬ¡"
      ],
      [
        "a",
        "n"
      ],
      [
        "ä¸º",
        "äºĨ"
      ],
      [
        "åĿ",
        "Ĺ"
      ],
      [
        "åıĳ",
        "çİ°"
      ],
      [
        "ä¹ĭ",
        "åĲİ"
      ],
      [
        "æĴ",
        "Ń"
      ],
      [
        "çļĦ",
        "æĹ¶åĢĻ"
      ],
      [
        "ä½ľ",
        "çĶ¨"
      ],
      [
        "è§Ħ",
        "å®ļ"
      ],
      [
        "é¦",
        "Ļ"
      ],
      [
        "æĭ",
        "Ľ"
      ],
      [
        "è",
        "Ĵ"
      ],
      [
        "åī",
        "§"
      ],
      [
        "å·¥",
        "ä¸ļ"
      ],
      [
        "åĽ",
        "º"
      ],
      [
        "Ġ",
        "f"
      ],
      [
        "å®",
        "£"
      ],
      [
        "in",
        "g"
      ],
      [
        "æī",
        "¹"
      ],
      [
        "æ¸¸",
        "æĪı"
      ],
      [
        "å¤§",
        "åŃ¦"
      ],
      [
        "çŁ¥",
        "éģĵ"
      ],
      [
        "å»º",
        "çŃĳ"
      ],
      [
        "5",
        "0"
      ],
      [
        "ç",
        "¿"
      ],
      [
        ")",
        ","
      ],
      [
        "åĲ",
        "¬"
      ],
      [
        "å¼",
        "Ĥ"
      ],
      [
        "æľīéĻĲ",
        "åħ¬åı¸"
      ],
      [
        "ä¼",
        "¤"
      ],
      [
        "éĵ",
        "ģ"
      ],
      [
        "çķ",
        "¥"
      ],
      [
        "åĳ",
        "¢"
      ],
      [
        "éĵ",
        "¾"
      ],
      [
        "æ³",
        "¢"
      ],
      [
        "é¾",
        "Ļ"
      ],
      [
        "æķĪ",
        "æŀľ"
      ],
      [
        "çº",
        "³"
      ],
      [
        "ä»",
        "ª"
      ],
      [
        "èĢĮ",
        "ä¸Ķ"
      ],
      [
        "æĶ¯",
        "æĮģ"
      ],
      [
        "æĸ¹",
        "æ¡Ī"
      ],
      [
        "çŁ",
        "Ń"
      ],
      [
        "åħ¶",
        "ä¸Ń"
      ],
      [
        "ç´",
        "§"
      ],
      [
        "ä¿Ŀ",
        "æĬ¤"
      ],
      [
        "å·",
        "´"
      ],
      [
        "å¥",
        "Ĺ"
      ],
      [
        "ä»¥",
        "ä¸Ĭ"
      ],
      [
        "çī",
        "Ľ"
      ],
      [
        "1",
        "9"
      ],
      [
        "åį",
        "ļ"
      ],
      [
        "æĺ",
        "¥"
      ],
      [
        "ç",
        "¯"
      ],
      [
        "äº§",
        "çĶŁ"
      ],
      [
        "åį",
        "°"
      ],
      [
        "å¸®",
        "åĬ©"
      ],
      [
        "ä¸",
        "´"
      ],
      [
        "çĶ³",
        "è¯·"
      ],
      [
        "æ",
        "¦"
      ],
      [
        "æĿ¥",
        "çļĦ"
      ],
      [
        "çª",
        "ģ"
      ],
      [
        "çĶ",
        "»"
      ],
      [
        "åį",
        "«"
      ],
      [
        "æŁ",
        "ĵ"
      ],
      [
        "éĢ",
        "ı"
      ],
      [
        "å¸Į",
        "æľĽ"
      ],
      [
        "æķ°",
        "åŃĹ"
      ],
      [
        "èģ",
        "ļ"
      ],
      [
        "åī",
        "Ĥ"
      ],
      [
        "ç¨",
        "İ"
      ],
      [
        "ç»",
        "¿"
      ],
      [
        "æ²",
        "³"
      ],
      [
        "ç»",
        "§"
      ],
      [
        "ç»",
        "Ŀ"
      ],
      [
        "ä¸Ģ",
        "æŃ¥"
      ],
      [
        "å¥",
        "ĸ"
      ],
      [
        "ç´",
        "¢"
      ],
      [
        "å¼Ģ",
        "å±ķ"
      ],
      [
        "åĪ©",
        "çĶ¨"
      ],
      [
        "æĸ°",
        "çļĦ"
      ],
      [
        "ä»»",
        "ä½ķ"
      ],
      [
        "å¢ŀ",
        "åĬł"
      ],
      [
        "Ġ",
        "m"
      ],
      [
        "èĻ",
        "½"
      ],
      [
        "ä¸",
        "°"
      ],
      [
        "åĩ",
        "Ģ"
      ],
      [
        ":",
        "âĢľ"
      ],
      [
        "æĢ",
        "İ"
      ],
      [
        "åı",
        "²"
      ],
      [
        "è·",
        "Ł"
      ],
      [
        "å¾",
        "ħ"
      ],
      [
        "çŁ¥",
        "è¯Ĩ"
      ],
      [
        "æĶ¿",
        "çŃĸ"
      ],
      [
        "ç»",
        "į"
      ],
      [
        "åħ",
        "°"
      ],
      [
        "i",
        "s"
      ],
      [
        "è¿ĺ",
        "æľī"
      ],
      [
        "ç»",
        "ĥ"
      ],
      [
        "åº",
        "ĵ"
      ],
      [
        "æĮģ",
        "ç»Ń"
      ],
      [
        "éħ",
        "¸"
      ],
      [
        "æ±",
        "¡"
      ],
      [
        "æĵį",
        "ä½ľ"
      ],
      [
        "æ¬",
        "§"
      ],
      [
        "éĴ",
        "±"
      ],
      [
        "éĽĨ",
        "åĽ¢"
      ],
      [
        "ä¸Ģ",
        "èµ·"
      ],
      [
        "éĶ",
        "®"
      ],
      [
        "åĪ¶",
        "éĢł"
      ],
      [
        "č",
        "Ċ"
      ],
      [
        "æĿ¥",
        "è¯´"
      ],
      [
        "åĽ½",
        "åĨħ"
      ],
      [
        "ç½",
        "Ĺ"
      ],
      [
        "çł",
        "ģ"
      ],
      [
        "åĮĹ",
        "äº¬"
      ],
      [
        "è¡",
        "Ģ"
      ],
      [
        "åī",
        "¯"
      ],
      [
        "æŁ",
        "Ĳ"
      ],
      [
        "ä»",
        "ĺ"
      ],
      [
        "çĶ",
        "·"
      ],
      [
        "çĽ´",
        "æİ¥"
      ],
      [
        "é",
        "¸"
      ],
      [
        "¤",
        "Ĳ"
      ],
      [
        "åŃĺ",
        "åľ¨"
      ],
      [
        "æ£Ģ",
        "æµĭ"
      ],
      [
        "æĭ",
        "¥"
      ],
      [
        "é»",
        "ĳ"
      ],
      [
        "ä»ĭ",
        "ç»į"
      ],
      [
        "ä»",
        "į"
      ],
      [
        "ç¼",
        "º"
      ],
      [
        "a",
        "t"
      ],
      [
        "å®",
        "ĺ"
      ],
      [
        "ç²",
        "ī"
      ],
      [
        "åĨ",
        "ł"
      ],
      [
        "l",
        "l"
      ],
      [
        "è®¡",
        "åĪĴ"
      ],
      [
        "1",
        "5"
      ],
      [
        "èĩª",
        "åĬ¨"
      ],
      [
        "è¿Ļ",
        "ä¸Ģ"
      ],
      [
        "è¯",
        "¢"
      ],
      [
        "ç©º",
        "éĹ´"
      ],
      [
        "æī",
        "ĺ"
      ],
      [
        "ç»",
        "¼"
      ],
      [
        "éĶ",
        "Ļ"
      ],
      [
        "åı",
        "¤"
      ],
      [
        "åį",
        "ł"
      ],
      [
        "e",
        "s"
      ],
      [
        "éĴ",
        "Ī"
      ],
      [
        "æĽ´",
        "åĬł"
      ],
      [
        "çĻ",
        "»"
      ],
      [
        "çī¹",
        "åĪ«"
      ],
      [
        "ä½",
        "Ļ"
      ],
      [
        "æĦ",
        "¿"
      ],
      [
        "è´Ł",
        "è´£"
      ],
      [
        "åºĶ",
        "è¯¥"
      ],
      [
        "æ±",
        "ł"
      ],
      [
        "ç§ĳ",
        "åŃ¦"
      ],
      [
        "åģ",
        "ĩ"
      ],
      [
        "é¥",
        "®"
      ],
      [
        "å¯¼",
        "èĩ´"
      ],
      [
        "çĶµ",
        "åŃĲ"
      ],
      [
        "ç¬¬",
        "äºĮ"
      ],
      [
        "1",
        "00"
      ],
      [
        "20",
        "0"
      ],
      [
        "é",
        "¤Ĳ"
      ],
      [
        "å®¹",
        "æĺĵ"
      ],
      [
        "æĬ",
        "Ĺ"
      ],
      [
        "ä¼ł",
        "ç»Ł"
      ],
      [
        "å¹´",
        "çļĦ"
      ],
      [
        "åħ¨",
        "åĽ½"
      ],
      [
        "éĿ",
        "ł"
      ],
      [
        "è¿",
        "°"
      ],
      [
        "æľī",
        "åħ³"
      ],
      [
        "æĪĲ",
        "æľ¬"
      ],
      [
        "å¯",
        "Ł"
      ],
      [
        "ä»",
        "¤"
      ],
      [
        "åĤ",
        "¨"
      ],
      [
        "éģ",
        "¿"
      ],
      [
        "å¾",
        "ģ"
      ],
      [
        "æ¨¡",
        "å¼ı"
      ],
      [
        "ä¿",
        "ĥ"
      ],
      [
        "å",
        "ª"
      ],
      [
        "éļı",
        "çĿĢ"
      ],
      [
        "éĴ",
        "Ł"
      ],
      [
        "æ°´",
        "å¹³"
      ],
      [
        "å°",
        "Ħ"
      ],
      [
        "è¿ĩç¨ĭ",
        "ä¸Ń"
      ],
      [
        "èĢ",
        "Ĳ"
      ],
      [
        "èĤ",
        "ī"
      ],
      [
        "æĿ",
        "İ"
      ],
      [
        "éĺ",
        "¿"
      ],
      [
        "åŁº",
        "æľ¬"
      ],
      [
        "ç»ı",
        "èĲ¥"
      ],
      [
        "æ¸",
        "¯"
      ],
      [
        "è¯",
        "ī"
      ],
      [
        "å®ī",
        "è£ħ"
      ],
      [
        "ä¸į",
        "ä»ħ"
      ],
      [
        "å½",
        "©"
      ],
      [
        "äºĨ",
        "ä¸Ģ"
      ],
      [
        "èı",
        "ľ"
      ],
      [
        "ç§¯",
        "æŀģ"
      ],
      [
        "Ġ",
        "c"
      ],
      [
        "æĢ§",
        "èĥ½"
      ],
      [
        "ç«",
        "ł"
      ],
      [
        "è®¤",
        "ä¸º"
      ],
      [
        "Ġ",
        "he"
      ],
      [
        "æİ",
        "¢"
      ],
      [
        "åį",
        "ĥ"
      ],
      [
        "åĨ",
        "²"
      ],
      [
        "èĥ",
        "ľ"
      ],
      [
        "çĽ®",
        "æłĩ"
      ],
      [
        "å¥",
        "ĩ"
      ],
      [
        "èĩª",
        "çĦ¶"
      ],
      [
        "æĿ¡",
        "ä»¶"
      ],
      [
        "è´£",
        "ä»»"
      ],
      [
        "åľ°",
        "åĮº"
      ],
      [
        "æĿ",
        "¾"
      ],
      [
        "æ¯",
        "į"
      ],
      [
        "åħ³",
        "ç³»"
      ],
      [
        "çŃ",
        "¾"
      ],
      [
        "é¡",
        "º"
      ],
      [
        "ç³»",
        "åĪĹ"
      ],
      [
        "æĪĳä»¬",
        "çļĦ"
      ],
      [
        "å®ŀ",
        "éĻħ"
      ],
      [
        "åı",
        "³"
      ],
      [
        "è¾¾",
        "åĪ°"
      ],
      [
        "ä»·",
        "åĢ¼"
      ],
      [
        "Ġ",
        "d"
      ],
      [
        "åĪ",
        "»"
      ],
      [
        "æĺ¯",
        "åĲ¦"
      ],
      [
        "çĽ",
        "ĸ"
      ],
      [
        "é",
        "±"
      ],
      [
        "éĢł",
        "æĪĲ"
      ],
      [
        "å¡",
        "ĳ"
      ],
      [
        "èĻ½",
        "çĦ¶"
      ],
      [
        "è¿Ľ",
        "åħ¥"
      ],
      [
        "æĶ",
        "»"
      ],
      [
        "a",
        "s"
      ],
      [
        "èĪ",
        "ª"
      ],
      [
        "ä¹",
        "¡"
      ],
      [
        "Ġt",
        "o"
      ],
      [
        "ä¹ĭ",
        "éĹ´"
      ],
      [
        "æŀ",
        "¶"
      ],
      [
        "å·",
        "¦"
      ],
      [
        "Ġ",
        "o"
      ],
      [
        "é¦",
        "Ĩ"
      ],
      [
        "éĶĢ",
        "åĶ®"
      ],
      [
        "éĢ",
        "Ĳ"
      ],
      [
        "äºº",
        "æ°ĳ"
      ],
      [
        "ç¾İ",
        "åĽ½"
      ],
      [
        "åħ¨",
        "çĲĥ"
      ],
      [
        "æ£Ģ",
        "æŁ¥"
      ],
      [
        "æĭ¥",
        "æľī"
      ],
      [
        "åº",
        "§"
      ],
      [
        "æľĢ",
        "åĲİ"
      ],
      [
        "é±",
        "¼"
      ],
      [
        "ç»",
        "©"
      ],
      [
        "ä»£",
        "è¡¨"
      ],
      [
        "202",
        "2"
      ],
      [
        "åĽ¢",
        "éĺŁ"
      ],
      [
        "çĽ",
        "ĺ"
      ],
      [
        "æĺ¾",
        "ç¤º"
      ],
      [
        "Ġ",
        "I"
      ],
      [
        "æ¯",
        "Ĵ"
      ],
      [
        "è",
        "Ń"
      ],
      [
        "éĽ",
        "¶"
      ],
      [
        "å½¢",
        "æĪĲ"
      ],
      [
        "æľª",
        "æĿ¥"
      ],
      [
        "è®",
        "¯"
      ],
      [
        "åĬ",
        "³"
      ],
      [
        "çĶ",
        "ļ"
      ],
      [
        "è¿Ļ",
        "æĺ¯"
      ],
      [
        "é",
        "ī"
      ],
      [
        "éī",
        "´"
      ],
      [
        "åľ°",
        "æĸ¹"
      ],
      [
        "æľ",
        "ĭ"
      ],
      [
        "è¿",
        "İ"
      ],
      [
        "åİŁ",
        "åĽł"
      ],
      [
        "ä¿Ŀ",
        "è¯ģ"
      ],
      [
        "ç»ĵ",
        "æŀľ"
      ],
      [
        "çĩ",
        "ĥ"
      ],
      [
        "é",
        "¼"
      ],
      [
        "ä¼",
        "¼"
      ],
      [
        "åħ",
        "Ń"
      ],
      [
        "é",
        "Ĩ"
      ],
      [
        "æĹł",
        "æ³ķ"
      ],
      [
        "åĲ",
        "¯"
      ],
      [
        "éĺ",
        "¶"
      ],
      [
        "éģ",
        "ĩ"
      ],
      [
        "èĤ",
        "¤"
      ],
      [
        "åıĬ",
        "æĹ¶"
      ],
      [
        "åª",
        "Ĵ"
      ],
      [
        "ç»ĵ",
        "åĲĪ"
      ],
      [
        "å¢ŀ",
        "éķ¿"
      ],
      [
        "èŃ",
        "¦"
      ],
      [
        "æ·",
        "·"
      ],
      [
        "åº",
        "Ń"
      ],
      [
        "è®¸",
        "å¤ļ"
      ],
      [
        "è",
        "Ľ"
      ],
      [
        "ç¨³",
        "å®ļ"
      ],
      [
        "åħ³",
        "äºİ"
      ],
      [
        "æĭ",
        "¿"
      ],
      [
        "æķ",
        "£"
      ],
      [
        "æĿ",
        "Ĥ"
      ],
      [
        "æ¯Ķ",
        "èµĽ"
      ],
      [
        "çĹ",
        "ĩ"
      ],
      [
        "ç®",
        "±"
      ],
      [
        "åıĳ",
        "å¸ĥ"
      ],
      [
        "è",
        "Ĺ"
      ],
      [
        "æī",
        "©"
      ],
      [
        "ç»¼",
        "åĲĪ"
      ],
      [
        "çİ°",
        "åľº"
      ],
      [
        "çĦ¶",
        "åĲİ"
      ],
      [
        "æ¥",
        "¼"
      ],
      [
        "ç®Ģ",
        "åįķ"
      ],
      [
        ",",
        "âĢľ"
      ],
      [
        "ç¬",
        "¦"
      ],
      [
        "è¿Ĳ",
        "åĬ¨"
      ],
      [
        "è¶ħ",
        "è¿ĩ"
      ],
      [
        "è",
        "ĵ"
      ],
      [
        "èĨ",
        "ľ"
      ],
      [
        "è¿Ľ",
        "ä¸ĢæŃ¥"
      ],
      [
        "æĽ",
        "¾"
      ],
      [
        "çº",
        "ª"
      ],
      [
        "äº",
        "®"
      ],
      [
        "éĩį",
        "çĤ¹"
      ],
      [
        "åıĤ",
        "ä¸İ"
      ],
      [
        "è®",
        "¿"
      ],
      [
        "ä½ł",
        "çļĦ"
      ],
      [
        "é¥",
        "°"
      ],
      [
        "ä¹",
        "ħ"
      ],
      [
        "åĲ",
        "Ĺ"
      ],
      [
        "èĻ",
        "ĳ"
      ],
      [
        "ä½ĵ",
        "ç³»"
      ],
      [
        "ç»ı",
        "éªĮ"
      ],
      [
        ")",
        "\\"
      ],
      [
        "è¿",
        "½"
      ],
      [
        "æİ",
        "ª"
      ],
      [
        "æľĭ",
        "åıĭ"
      ],
      [
        "èĮĥ",
        "åĽ´"
      ],
      [
        "æĪĲ",
        "åĬŁ"
      ],
      [
        "éĿ",
        "Ļ"
      ],
      [
        "èĭ",
        "¥"
      ],
      [
        "èº«",
        "ä½ĵ"
      ],
      [
        "ä½",
        "³"
      ],
      [
        "çłĶ",
        "åıĳ"
      ],
      [
        "æĮ",
        "¥"
      ],
      [
        "ä¼ĺ",
        "åĬ¿"
      ],
      [
        "èĥ",
        "¶"
      ],
      [
        "æİ",
        "Ī"
      ],
      [
        "æķĻ",
        "åŃ¦"
      ],
      [
        "æł",
        "ĳ"
      ],
      [
        "ä»¥",
        "ä¸ĭ"
      ],
      [
        "éķ",
        "ĩ"
      ],
      [
        "æħ",
        "¢"
      ],
      [
        "ä¸į",
        "è¿ĩ"
      ],
      [
        "ä¸Ģ",
        "æł·"
      ],
      [
        "å",
        "ĺ"
      ],
      [
        "æ¤",
        "į"
      ],
      [
        "ä¸į",
        "è¦ģ"
      ],
      [
        "å®ŀ",
        "æĸ½"
      ],
      [
        "åĲ",
        "§"
      ],
      [
        "çģ",
        "µ"
      ],
      [
        "æĮī",
        "çħ§"
      ],
      [
        "æ´",
        "²"
      ],
      [
        "å»º",
        "è®®"
      ],
      [
        "çĸ«",
        "æĥħ"
      ],
      [
        "èĥ",
        "Į"
      ],
      [
        "ç§",
        "Ł"
      ],
      [
        "ä½ĵ",
        "éªĮ"
      ],
      [
        "é¡",
        "¾"
      ],
      [
        "1",
        "8"
      ],
      [
        "ä¿Ŀ",
        "æĮģ"
      ],
      [
        "é",
        "º"
      ],
      [
        "æĢİ",
        "ä¹Ī"
      ],
      [
        "éĿ",
        "©"
      ],
      [
        "æ¶Īè´¹",
        "èĢħ"
      ],
      [
        "å¹¶",
        "ä¸Ķ"
      ],
      [
        "æ¹",
        "ĸ"
      ],
      [
        "æĹħ",
        "æ¸¸"
      ],
      [
        "æ»",
        "ĳ"
      ],
      [
        "å»º",
        "ç«ĭ"
      ],
      [
        "æĪĳ",
        "åĽ½"
      ],
      [
        "åħ¨",
        "éĿ¢"
      ],
      [
        "åħ³",
        "éĶ®"
      ],
      [
        "äº¤",
        "æĺĵ"
      ],
      [
        "æ´",
        "ģ"
      ],
      [
        "èīº",
        "æľ¯"
      ],
      [
        "åı",
        "¶"
      ],
      [
        "åıĺ",
        "åĮĸ"
      ],
      [
        "éĻ",
        "Ī"
      ],
      [
        "éĻ",
        "Ħ"
      ],
      [
        "é£",
        "ŀ"
      ],
      [
        "è",
        "ĸ"
      ],
      [
        "ä¹ĭ",
        "ä¸Ģ"
      ],
      [
        "èµ·",
        "æĿ¥"
      ],
      [
        "é",
        "½"
      ],
      [
        "ä¼ļ",
        "è®®"
      ],
      [
        "åĩı",
        "å°ĳ"
      ],
      [
        "åĢ",
        "Ł"
      ],
      [
        "è®¡",
        "ç®Ĺ"
      ],
      [
        "æ¯",
        "ķ"
      ],
      [
        "çĶŁ",
        "æĢģ"
      ],
      [
        "ç¥",
        "¨"
      ],
      [
        "æĸ½",
        "å·¥"
      ],
      [
        "ä¸Ĭ",
        "æµ·"
      ],
      [
        "ç§",
        "Ģ"
      ],
      [
        "åĪ",
        "ļ"
      ],
      [
        "ä»Ĭ",
        "å¹´"
      ],
      [
        "å±",
        "ĭ"
      ],
      [
        "åº",
        "Ĭ"
      ],
      [
        "å»",
        "¶"
      ],
      [
        "çĶļ",
        "èĩ³"
      ],
      [
        "æĻ",
        "ļ"
      ],
      [
        "åĨ",
        "Į"
      ],
      [
        "i",
        "c"
      ],
      [
        "å°",
        "¼"
      ],
      [
        "è®",
        "¢"
      ],
      [
        "é£İ",
        "éĻ©"
      ],
      [
        "Ġ",
        "p"
      ],
      [
        "åħ",
        "¸"
      ],
      [
        "ä¸",
        "Ŀ"
      ],
      [
        "çĸ",
        "¾"
      ],
      [
        "%",
        ","
      ],
      [
        "1",
        "6"
      ],
      [
        "o",
        "m"
      ],
      [
        "ä¸Ģ",
        "çĽ´"
      ],
      [
        "åŃ¦",
        "éĻ¢"
      ],
      [
        "äº",
        "Ī"
      ],
      [
        "åŁ¹",
        "è®Ń"
      ],
      [
        "æĢ§",
        "çļĦ"
      ],
      [
        "äºº",
        "ä»¬"
      ],
      [
        "æ¢",
        "°"
      ],
      [
        "é£Ł",
        "åĵģ"
      ],
      [
        "æ¸©",
        "åº¦"
      ],
      [
        "ç²¾",
        "ç¥ŀ"
      ],
      [
        "å²",
        "ģ"
      ],
      [
        "æĢ",
        "¥"
      ],
      [
        "åİĭ",
        "åĬĽ"
      ],
      [
        "åį",
        "±"
      ],
      [
        "æıĲ",
        "åĩº"
      ],
      [
        "è¶",
        "£"
      ],
      [
        "åĮ»",
        "çĸĹ"
      ],
      [
        "ç»§",
        "ç»Ń"
      ],
      [
        "ä¸Ģ",
        "æ¬¡"
      ],
      [
        "Ġ",
        "l"
      ],
      [
        "çĨ",
        "Ł"
      ],
      [
        "åĬł",
        "å·¥"
      ],
      [
        "åħ¶",
        "å®ŀ"
      ],
      [
        "è°",
        "Ī"
      ],
      [
        "å°",
        "ģ"
      ],
      [
        "åį",
        "ĸ"
      ],
      [
        "èĥ½",
        "æºĲ"
      ],
      [
        "..",
        ".."
      ],
      [
        "åıĤ",
        "åĬł"
      ],
      [
        "åĽ",
        "°"
      ],
      [
        "è½¯",
        "ä»¶"
      ],
      [
        "å",
        "³"
      ],
      [
        "ä¹",
        "İ"
      ],
      [
        "è§",
        "¦"
      ],
      [
        "éļ",
        "Ķ"
      ],
      [
        "æ³ķ",
        "å¾ĭ"
      ],
      [
        "æ»¡",
        "è¶³"
      ],
      [
        "é¡",
        "¶"
      ],
      [
        "èĭ",
        "ı"
      ],
      [
        "ä¸Ģ",
        "ç§į"
      ],
      [
        "ç»ı",
        "è¿ĩ"
      ],
      [
        "èĢģ",
        "å¸Ī"
      ],
      [
        "çĬ¶",
        "æĢģ"
      ],
      [
        "ç¡®",
        "ä¿Ŀ"
      ],
      [
        "ä¸įåĲĮ",
        "çļĦ"
      ],
      [
        "æ³",
        "Ľ"
      ],
      [
        "å¦",
        "Ī"
      ],
      [
        "ä¸¤",
        "ä¸ª"
      ],
      [
        "âĢĶ",
        "âĢĶ"
      ],
      [
        "èĦ",
        "ĳ"
      ],
      [
        "èģĶ",
        "ç½ĳ"
      ],
      [
        "æīį",
        "èĥ½"
      ],
      [
        "è¯¾",
        "ç¨ĭ"
      ],
      [
        "ä¿Ŀ",
        "éļľ"
      ],
      [
        "ç¡",
        "¬"
      ],
      [
        "å¿«",
        "éĢŁ"
      ],
      [
        "åĪĨ",
        "éĴŁ"
      ],
      [
        "çģ",
        "¯"
      ],
      [
        "æĭ",
        "į"
      ],
      [
        "å·¥",
        "èīº"
      ],
      [
        "æķĻ",
        "å¸Ī"
      ],
      [
        "åĬł",
        "å¼º"
      ],
      [
        "æ¶",
        "ī"
      ],
      [
        "è°",
        "¢"
      ],
      [
        "éĻ¤",
        "äºĨ"
      ],
      [
        "ç¬¬",
        "ä¸ī"
      ],
      [
        "çľĭ",
        "åĪ°"
      ],
      [
        "åĳĺ",
        "å·¥"
      ],
      [
        "èĮ",
        "¶"
      ],
      [
        "e",
        "t"
      ],
      [
        "çŁ",
        "¿"
      ],
      [
        "æ°",
        "§"
      ],
      [
        "æ¶",
        "¦"
      ],
      [
        "åħ·",
        "ä½ĵ"
      ],
      [
        "æµĭ",
        "è¯ķ"
      ],
      [
        "åıª",
        "æľī"
      ],
      [
        "èĳ",
        "Ĺ"
      ],
      [
        "åħ",
        "«"
      ],
      [
        "å¤",
        "«"
      ],
      [
        "æŃ",
        "¦"
      ],
      [
        "çĽ",
        "Ł"
      ],
      [
        "å®",
        "ģ"
      ],
      [
        "é²",
        "ľ"
      ],
      [
        "è¡Į",
        "ä¸º"
      ],
      [
        "çŃ",
        "Ķ"
      ],
      [
        "ç",
        "ĳ"
      ],
      [
        "çĶ",
        "²"
      ],
      [
        "éģ¿",
        "åħį"
      ],
      [
        "ä¸°",
        "å¯Į"
      ],
      [
        "æİ¨",
        "åĬ¨"
      ],
      [
        "è´",
        "µ"
      ],
      [
        "éľ",
        "²"
      ],
      [
        "æľŁ",
        "éĹ´"
      ],
      [
        "æĬ¥",
        "åĳĬ"
      ],
      [
        "éĩĳ",
        "èŀį"
      ],
      [
        "è®",
        "¨"
      ],
      [
        "å°",
        "¤"
      ],
      [
        "å®",
        "Ī"
      ],
      [
        "éĻį",
        "ä½İ"
      ],
      [
        "Ġ",
        "M"
      ],
      [
        "æĺ¯",
        "åľ¨"
      ],
      [
        "åħ³",
        "æ³¨"
      ],
      [
        "âĢĿ",
        "ãĢĤ"
      ],
      [
        "å¨",
        "ģ"
      ],
      [
        "æī§",
        "è¡Į"
      ],
      [
        "è¯",
        "Ĭ"
      ],
      [
        "åİ",
        "ħ"
      ],
      [
        "åıĸ",
        "å¾Ĺ"
      ],
      [
        "çĿ",
        "£"
      ],
      [
        "åĸľ",
        "æ¬¢"
      ],
      [
        "éĺ¶",
        "æ®µ"
      ],
      [
        "å±",
        "Ĭ"
      ],
      [
        "äº¤",
        "æµģ"
      ],
      [
        "èģĮ",
        "ä¸ļ"
      ],
      [
        "è¿Ļ",
        "éĩĮ"
      ],
      [
        "çļĦ",
        "å¤§"
      ],
      [
        "è¿Ĳ",
        "è¡Į"
      ],
      [
        "ç§",
        "ģ"
      ],
      [
        "è§Ħ",
        "æ¨¡"
      ],
      [
        "åģļ",
        "å¥½"
      ],
      [
        "å¾Ĺ",
        "åĪ°"
      ],
      [
        "éĢ",
        "Ģ"
      ],
      [
        "æĽ",
        "²"
      ],
      [
        "é",
        "Ń"
      ],
      [
        "è§Ħ",
        "åĪĴ"
      ],
      [
        "è®°",
        "èĢħ"
      ],
      [
        "Ġ",
        "g"
      ],
      [
        "åĪ",
        "¤"
      ],
      [
        "ç¬",
        "Ķ"
      ],
      [
        "åį",
        "Ī"
      ],
      [
        "å¥",
        "¥"
      ],
      [
        "æĿ",
        "¯"
      ],
      [
        "æ¸",
        "Ĳ"
      ],
      [
        "åİ",
        "ļ"
      ],
      [
        "æīĵ",
        "éĢł"
      ],
      [
        "åĪ¶",
        "ä½ľ"
      ],
      [
        "ç¼",
        "©"
      ],
      [
        "1",
        "4"
      ],
      [
        "æĳ",
        "Ħ"
      ],
      [
        "çº",
        "¸"
      ],
      [
        "ãĢĤâĢĿ",
        "\\"
      ],
      [
        "èĤ",
        "¥"
      ],
      [
        "éĴĪ",
        "å¯¹"
      ],
      [
        "e",
        "l"
      ],
      [
        "æ²",
        "Ļ"
      ],
      [
        "æł¸",
        "å¿ĥ"
      ],
      [
        "o",
        "t"
      ],
      [
        "ä¼",
        "°"
      ],
      [
        "å¸¦",
        "æĿ¥"
      ],
      [
        "å®Į",
        "åħ¨"
      ],
      [
        "åħħ",
        "åĪĨ"
      ],
      [
        "2",
        "5"
      ],
      [
        "èĦ",
        "±"
      ],
      [
        "éĵ¶",
        "è¡Į"
      ],
      [
        "åİĨ",
        "åı²"
      ],
      [
        "çĶŁ",
        "çī©"
      ],
      [
        "æĮ",
        "ĳ"
      ],
      [
        "éĹ",
        "»"
      ],
      [
        "éĩĳ",
        "å±ŀ"
      ],
      [
        "å®¶",
        "åºŃ"
      ],
      [
        "è",
        "¸"
      ],
      [
        "ä¸ĵ",
        "å®¶"
      ],
      [
        "ä½ĵ",
        "èĤ²"
      ],
      [
        "å°±",
        "ä¼ļ"
      ],
      [
        "èĢĥ",
        "èĻĳ"
      ],
      [
        "Ġ",
        "S"
      ],
      [
        "æİª",
        "æĸ½"
      ],
      [
        "1",
        "3"
      ],
      [
        "åıĹ",
        "åĪ°"
      ],
      [
        "æĪĳ",
        "çļĦ"
      ],
      [
        "éĽ",
        "¨"
      ],
      [
        "æ¦",
        "Ĥ"
      ],
      [
        "ä¼",
        "´"
      ],
      [
        "æķĪ",
        "çİĩ"
      ],
      [
        "ç£",
        "¨"
      ],
      [
        "ä¸Ģ",
        "ä¸ĭ"
      ],
      [
        "åªĴ",
        "ä½ĵ"
      ],
      [
        "æŃ£",
        "å¸¸"
      ],
      [
        "çļ®",
        "èĤ¤"
      ],
      [
        "æĹ¶",
        "ä»£"
      ],
      [
        "èį",
        "ī"
      ],
      [
        "çļĦ",
        "æĥħåĨµ"
      ],
      [
        "è°ĥ",
        "æķ´"
      ],
      [
        "æľī",
        "çļĦ"
      ],
      [
        "è§",
        "Ī"
      ],
      [
        "è·",
        "Ŀ"
      ],
      [
        "æĲ",
        "Ń"
      ],
      [
        "éī´",
        "å®ļ"
      ],
      [
        "çļĦ",
        "éĹ®é¢ĺ"
      ],
      [
        "è¡¨",
        "éĿ¢"
      ],
      [
        "çİ°",
        "ä»£"
      ],
      [
        "åķĨ",
        "ä¸ļ"
      ],
      [
        "æ°",
        "¸"
      ],
      [
        "äº¤",
        "éĢļ"
      ],
      [
        "æľº",
        "æ¢°"
      ],
      [
        "ä¹ĭ",
        "åīį"
      ],
      [
        "ä¸ĩ",
        "åħĥ"
      ],
      [
        "çļĦ",
        "é«ĺ"
      ],
      [
        "ä»Ĭ",
        "å¤©"
      ],
      [
        "è",
        "ļ"
      ],
      [
        "å¢",
        "Ļ"
      ],
      [
        "çĶµ",
        "æ±ł"
      ],
      [
        "çļĦ",
        "è¯Ŀ"
      ],
      [
        "è¿",
        "Ŀ"
      ],
      [
        "æľº",
        "ä¼ļ"
      ],
      [
        "å¸",
        "Ń"
      ],
      [
        "èµĦ",
        "éĩĳ"
      ],
      [
        "èĦ",
        "ļ"
      ],
      [
        "å¹",
        "ħ"
      ],
      [
        "åħ±",
        "åĲĮ"
      ],
      [
        "è§Ĩ",
        "é¢ĳ"
      ],
      [
        "ç¢",
        "³"
      ],
      [
        "çĸ",
        "ĳ"
      ],
      [
        "çĸ¾",
        "çĹħ"
      ],
      [
        "èĹ",
        "ı"
      ],
      [
        "åº",
        "Ł"
      ],
      [
        "å¸",
        "ģ"
      ],
      [
        "å°",
        "ĺ"
      ],
      [
        "åįģ",
        "åĪĨ"
      ],
      [
        "åĬ",
        "ª"
      ],
      [
        "Ġ",
        "A"
      ],
      [
        "a",
        "l"
      ],
      [
        "æīĭ",
        "æľº"
      ],
      [
        "åĴ",
        "¨"
      ],
      [
        "æĸĩ",
        "ä»¶"
      ],
      [
        "çĪ",
        "Ĩ"
      ],
      [
        "èµĦ",
        "æĸĻ"
      ],
      [
        "åĮº",
        "åŁŁ"
      ],
      [
        "æĸ",
        "ĳ"
      ],
      [
        "æ¢",
        "¦"
      ],
      [
        "å½¢",
        "å¼ı"
      ],
      [
        "éĩı",
        "çļĦ"
      ],
      [
        "ç«ŀ",
        "äºī"
      ],
      [
        "éĩ",
        "Ĭ"
      ],
      [
        "è¡¨",
        "çİ°"
      ],
      [
        "å°ı",
        "æĹ¶"
      ],
      [
        "ä»İ",
        "èĢĮ"
      ],
      [
        "ç¬¦",
        "åĲĪ"
      ],
      [
        "æ»",
        "¤"
      ],
      [
        "ç©",
        "¿"
      ],
      [
        "Ġo",
        "f"
      ],
      [
        "è¶Ĭ",
        "æĿ¥"
      ],
      [
        "é«ĺ",
        "çļĦ"
      ],
      [
        "ä¾Ľ",
        "åºĶ"
      ],
      [
        "é¢Ĩ",
        "å¯¼"
      ],
      [
        "è¯",
        "į"
      ],
      [
        "ç«",
        "¥"
      ],
      [
        "æ¯Ķ",
        "å¦Ĥ"
      ],
      [
        "æķ´",
        "ä¸ª"
      ],
      [
        "çī¹",
        "çĤ¹"
      ],
      [
        "åĴ¨",
        "è¯¢"
      ],
      [
        "å®",
        "ľ"
      ],
      [
        "\\",
        "\""
      ],
      [
        "è¶ĬæĿ¥",
        "è¶Ĭ"
      ],
      [
        "æ³¨",
        "åĨĮ"
      ],
      [
        "è®¾",
        "æĸ½"
      ],
      [
        "åĬ",
        "±"
      ],
      [
        "éĢĤ",
        "åĲĪ"
      ],
      [
        "åľ",
        "Ī"
      ],
      [
        "åºĶ",
        "å½ĵ"
      ],
      [
        "çĮ",
        "®"
      ],
      [
        "æ¶",
        "Ĥ"
      ],
      [
        "åĮĸ",
        "çļĦ"
      ],
      [
        "å©",
        "ļ"
      ],
      [
        "ç¨ĭ",
        "åºı"
      ],
      [
        "èħ",
        "Ĳ"
      ],
      [
        "éķ",
        "ľ"
      ],
      [
        "ä¸",
        "½"
      ],
      [
        "å¹¿",
        "æ³Ľ"
      ],
      [
        "ä¸",
        "ĥ"
      ],
      [
        "4",
        "0"
      ],
      [
        "åĨ³",
        "å®ļ"
      ],
      [
        "å½",
        "Ĵ"
      ],
      [
        "åĽł",
        "ç´ł"
      ],
      [
        "å®£",
        "ä¼ł"
      ],
      [
        "éĺ",
        "»"
      ],
      [
        "è¯",
        "¯"
      ],
      [
        "çī",
        "Ļ"
      ],
      [
        "o",
        "o"
      ],
      [
        "äº¿",
        "åħĥ"
      ],
      [
        "çĽ®",
        "çļĦ"
      ],
      [
        "æŃ£",
        "åľ¨"
      ],
      [
        "Â",
        "·"
      ],
      [
        "ç¤",
        "¼"
      ],
      [
        "æĺ¯ä¸Ģ",
        "ç§į"
      ],
      [
        "æŃ",
        "»"
      ],
      [
        "è¾",
        "Ĩ"
      ],
      [
        "ä¹Ł",
        "æľī"
      ],
      [
        "è",
        "Ķ"
      ],
      [
        "æ±",
        "ĩ"
      ],
      [
        "åĿ",
        "ı"
      ],
      [
        "00",
        "0"
      ],
      [
        "äºº",
        "æīį"
      ],
      [
        "ä¸į",
        "åı¯"
      ],
      [
        "æİ¥",
        "åıĹ"
      ],
      [
        "åĮħ",
        "è£ħ"
      ],
      [
        "åĢ",
        "º"
      ],
      [
        "æİ¨",
        "è¿Ľ"
      ],
      [
        "è½",
        "´"
      ],
      [
        "ä»ĸ",
        "çļĦ"
      ],
      [
        "æļ",
        "ĸ"
      ],
      [
        "åĬª",
        "åĬĽ"
      ],
      [
        "äºĭ",
        "æĥħ"
      ],
      [
        "é¡",
        "µ"
      ],
      [
        "åĢ",
        "Ĵ"
      ],
      [
        "èĽ",
        "ĭ"
      ],
      [
        "è´",
        "·"
      ],
      [
        "åĩĨ",
        "å¤ĩ"
      ],
      [
        "åŁº",
        "éĩĳ"
      ],
      [
        "æķ´",
        "ä½ĵ"
      ],
      [
        "ç¯",
        "®"
      ],
      [
        "o",
        "w"
      ],
      [
        "è´",
        "´"
      ],
      [
        "1",
        "7"
      ],
      [
        "èį",
        "£"
      ],
      [
        "åĿļ",
        "æĮģ"
      ],
      [
        "ä¸¥",
        "éĩį"
      ],
      [
        "6",
        "0"
      ],
      [
        "æİ",
        "ī"
      ],
      [
        "æĭ",
        "Ł"
      ],
      [
        "ä¿ĥ",
        "è¿Ľ"
      ],
      [
        "çļĦ",
        "åıĳå±ķ"
      ],
      [
        "æħ",
        "§"
      ],
      [
        "å¯",
        "»"
      ],
      [
        "åıª",
        "æĺ¯"
      ],
      [
        "çļĦ",
        "æĸ°"
      ],
      [
        "è·",
        "ĳ"
      ],
      [
        "éļ",
        "Ĳ"
      ],
      [
        "ç¨ĭ",
        "åº¦"
      ],
      [
        "è¿Ĳ",
        "èĲ¥"
      ],
      [
        "ç¬",
        "ĳ"
      ],
      [
        "çĥ",
        "§"
      ],
      [
        "åĪ",
        "ĺ"
      ],
      [
        "æĸ¹",
        "åĲĳ"
      ],
      [
        "æ¹",
        "¿"
      ],
      [
        "æ±",
        "ī"
      ],
      [
        "æĹ",
        "ı"
      ],
      [
        "éĥ½",
        "æľī"
      ],
      [
        "Ġ",
        "h"
      ],
      [
        "çĪ",
        "¶"
      ],
      [
        "çİ¯",
        "ä¿Ŀ"
      ],
      [
        "ä½ľ",
        "åĵģ"
      ],
      [
        "çĲĥ",
        "éĺŁ"
      ],
      [
        "åıĳ",
        "æĮ¥"
      ],
      [
        "å®ŀ",
        "éªĮ"
      ],
      [
        "çª",
        "Ĺ"
      ],
      [
        "è¯",
        "ļ"
      ],
      [
        "ç©º",
        "æ°Ķ"
      ],
      [
        "ç»´",
        "æĬ¤"
      ],
      [
        "å¤",
        "ľ"
      ],
      [
        "æĥ",
        "ł"
      ],
      [
        "å±ŀ",
        "äºİ"
      ],
      [
        "æĸ¹",
        "ä¾¿"
      ],
      [
        "éĥ½",
        "ä¼ļ"
      ],
      [
        "ç¼",
        "ĵ"
      ],
      [
        "ä¼",
        "ĳ"
      ],
      [
        "éĢŁ",
        "åº¦"
      ],
      [
        "æ¡",
        "£"
      ],
      [
        "åł",
        "Ĥ"
      ],
      [
        "å°",
        "ļ"
      ],
      [
        "å¡",
        "ŀ"
      ],
      [
        "ä¸»",
        "é¢ĺ"
      ],
      [
        "åĿ",
        "Ĳ"
      ],
      [
        "ä¸į",
        "å¾Ĺ"
      ],
      [
        "æľ¬",
        "æĸĩ"
      ],
      [
        "æĺİ",
        "ç¡®"
      ],
      [
        "è¡",
        "Ĺ"
      ],
      [
        "è¡",
        "£"
      ],
      [
        "æİ",
        "Į"
      ],
      [
        "æ½",
        "®"
      ],
      [
        "æĿ¥",
        "èĩª"
      ],
      [
        "éķ¿",
        "æľŁ"
      ],
      [
        "èĢ",
        "Ĺ"
      ],
      [
        "åĲĪ",
        "çĲĨ"
      ],
      [
        "ä»¥",
        "æĿ¥"
      ],
      [
        "å·¦",
        "åı³"
      ],
      [
        ")",
        "ãĢģ"
      ],
      [
        "æĮĩ",
        "å¯¼"
      ],
      [
        "çĽ",
        "Ľ"
      ],
      [
        "å¤",
        "ı"
      ],
      [
        "éĢ",
        "Ķ"
      ],
      [
        "2",
        "4"
      ],
      [
        "i",
        "d"
      ],
      [
        "ç¡®",
        "å®ļ"
      ],
      [
        "åº",
        "Ĩ"
      ],
      [
        "Ġ",
        "n"
      ],
      [
        "å±",
        "ı"
      ],
      [
        "çĶ",
        "°"
      ],
      [
        "æŃ",
        "Į"
      ],
      [
        "ç´",
        "¯"
      ],
      [
        "æķ",
        "ĳ"
      ],
      [
        "é",
        "¹"
      ],
      [
        "çļĦ",
        "å·¥ä½ľ"
      ],
      [
        "è",
        "ľ"
      ],
      [
        "è´¹",
        "çĶ¨"
      ],
      [
        "a",
        "c"
      ],
      [
        "ç¿",
        "»"
      ],
      [
        "æĺ¯",
        "ä¸Ģä¸ª"
      ],
      [
        "åĲĪ",
        "åĲĮ"
      ],
      [
        "æĹ",
        "¢"
      ],
      [
        "å¾",
        "Ħ"
      ],
      [
        "å·",
        "¨"
      ],
      [
        "èģĶ",
        "ç³»"
      ],
      [
        "202",
        "1"
      ],
      [
        "åĩ",
        "Ŀ"
      ],
      [
        "éĽ",
        "ª"
      ],
      [
        "åĸ",
        "·"
      ],
      [
        "ç",
        "Ĵ"
      ],
      [
        "åĪĨ",
        "åĪ«"
      ],
      [
        "æ",
        "¾"
      ],
      [
        "çĦ",
        "¦"
      ],
      [
        "æĥ³",
        "è¦ģ"
      ],
      [
        "è§ī",
        "å¾Ĺ"
      ],
      [
        "æĸ",
        "Ĺ"
      ],
      [
        "é¦ĸ",
        "åħĪ"
      ],
      [
        "çĥ",
        "Ł"
      ],
      [
        "å¹´",
        "æĿ¥"
      ],
      [
        "å·¥",
        "åħ·"
      ],
      [
        "äºĴ",
        "èģĶç½ĳ"
      ],
      [
        "ç",
        "¦ģ"
      ],
      [
        "æĹ",
        "§"
      ],
      [
        "æ±¡",
        "æŁĵ"
      ],
      [
        "åĩº",
        "äºĨ"
      ],
      [
        "èĢĥ",
        "è¯ķ"
      ],
      [
        "æĺİ",
        "æĺ¾"
      ],
      [
        "æ³",
        "¡"
      ],
      [
        "æĤ¨",
        "çļĦ"
      ],
      [
        "æĪĲ",
        "ç«ĭ"
      ],
      [
        "ç¤¾",
        "åĮº"
      ],
      [
        "è¶",
        "ĭ"
      ],
      [
        "å®",
        "½"
      ],
      [
        "åĳ",
        "Ī"
      ],
      [
        "æĿ",
        "Ł"
      ],
      [
        "åľ",
        "Ĩ"
      ],
      [
        "ä»»",
        "åĬ¡"
      ],
      [
        "ä¹Ł",
        "ä¸į"
      ],
      [
        "æı",
        "¡"
      ],
      [
        "Ġ",
        "ha"
      ],
      [
        "çĹ",
        "Ľ"
      ],
      [
        "æĦŁ",
        "è§ī"
      ],
      [
        "èµĦ",
        "äº§"
      ],
      [
        "Ġhe",
        "r"
      ],
      [
        "é¼",
        "ĵ"
      ],
      [
        "ç³",
        "ĸ"
      ],
      [
        "å³",
        "°"
      ],
      [
        "åĩº",
        "çļĦ"
      ],
      [
        "å¹¿",
        "åĳĬ"
      ],
      [
        "æŃ¤",
        "å¤ĸ"
      ],
      [
        "è·",
        "µ"
      ],
      [
        "åĪ¶",
        "åº¦"
      ],
      [
        "çº",
        "¯"
      ],
      [
        "åĬŀ",
        "åħ¬"
      ],
      [
        "ä¹Ł",
        "ä¼ļ"
      ],
      [
        "åĵª",
        "äºĽ"
      ],
      [
        "å¹",
        "ķ"
      ],
      [
        "Ġ",
        "in"
      ],
      [
        "æĿ¥",
        "çľĭ"
      ],
      [
        "æ¯",
        "Ľ"
      ],
      [
        "åĬ¨",
        "åĬĽ"
      ],
      [
        "è´Ń",
        "ä¹°"
      ],
      [
        "ç»ı",
        "å¸¸"
      ],
      [
        "èģĶ",
        "åĲĪ"
      ],
      [
        "æĪĺ",
        "çķ¥"
      ],
      [
        "ä¸į",
        "å°ĳ"
      ],
      [
        "è¡",
        "¡"
      ],
      [
        "è¿Ļæł·",
        "çļĦ"
      ],
      [
        "ä¾",
        "§"
      ],
      [
        "éĽ",
        "·"
      ],
      [
        "å°¤",
        "åħ¶"
      ],
      [
        "Ġ",
        "C"
      ],
      [
        "è§Ħ",
        "èĮĥ"
      ],
      [
        "é¢",
        "ľ"
      ],
      [
        "åĵģ",
        "è´¨"
      ],
      [
        "çī©",
        "è´¨"
      ],
      [
        "éĩįè¦ģ",
        "çļĦ"
      ],
      [
        "éĺ",
        "ħ"
      ],
      [
        "å§Ķ",
        "åĳĺ"
      ],
      [
        "èĻ",
        "ļ"
      ],
      [
        "ä¹",
        "Ŀ"
      ],
      [
        "æĪĲ",
        "ç»©"
      ],
      [
        "åı¦",
        "å¤ĸ"
      ],
      [
        "æĬ",
        "ĵ"
      ],
      [
        "è¿",
        "·"
      ],
      [
        "æĳ",
        "ĺ"
      ],
      [
        "éĺ",
        "µ"
      ],
      [
        "è¯",
        "¦"
      ],
      [
        "è¡Į",
        "æĶ¿"
      ],
      [
        "è®¾",
        "ç½®"
      ],
      [
        "ä¼ĺ",
        "åĮĸ"
      ],
      [
        "ç»Ħ",
        "æĪĲ"
      ],
      [
        "a",
        "y"
      ],
      [
        "éĿ¢",
        "ç§¯"
      ],
      [
        "åı",
        "«"
      ],
      [
        "æ¢",
        "ħ"
      ],
      [
        "å¹¶",
        "ä¸į"
      ],
      [
        "åģ",
        "ı"
      ],
      [
        "æ²",
        "ī"
      ],
      [
        "å½ĵ",
        "çĦ¶"
      ],
      [
        "åĨ",
        "¬"
      ],
      [
        "éĻ",
        "Ĩ"
      ],
      [
        "æĲ",
        "ľ"
      ],
      [
        "è´",
        "¦"
      ],
      [
        "èĭ",
        "¦"
      ],
      [
        "æľĢ",
        "ç»Ī"
      ],
      [
        "éŁ³",
        "ä¹Ĳ"
      ],
      [
        "æĹ¥",
        "æľ¬"
      ],
      [
        "éĵ",
        "Ŀ"
      ],
      [
        "åĨľ",
        "ä¸ļ"
      ],
      [
        "åĩº",
        "æĿ¥"
      ],
      [
        "åĲ",
        "ī"
      ],
      [
        "é½",
        "Ĳ"
      ],
      [
        "æ¯ı",
        "ä¸ª"
      ],
      [
        "èı",
        "Į"
      ],
      [
        "åĪ",
        "º"
      ],
      [
        "åĪĨ",
        "äº«"
      ],
      [
        "20",
        "20"
      ],
      [
        "æ¶",
        "¨"
      ],
      [
        "å¹",
        "¸"
      ],
      [
        "r",
        "o"
      ],
      [
        "æĮ",
        "¯"
      ],
      [
        "å¤",
        "®"
      ],
      [
        "åıª",
        "è¦ģ"
      ],
      [
        "ä¸ľ",
        "è¥¿"
      ],
      [
        "èĲ½",
        "å®ŀ"
      ],
      [
        "éĢļ",
        "å¸¸"
      ],
      [
        "æĶ¹",
        "åıĺ"
      ],
      [
        "æľī",
        "äºĽ"
      ],
      [
        "æľº",
        "åĻ¨"
      ],
      [
        "ä½į",
        "ç½®"
      ],
      [
        "æķħ",
        "äºĭ"
      ],
      [
        "çļĦ",
        "äº§åĵģ"
      ],
      [
        "r",
        "i"
      ],
      [
        "Ġ",
        "y"
      ],
      [
        "éĢ",
        "Ĵ"
      ],
      [
        "èĦ",
        "Ĥ"
      ],
      [
        "ç»¿",
        "èī²"
      ],
      [
        "çĥ",
        "Ī"
      ],
      [
        "u",
        "t"
      ],
      [
        "çļĦ",
        "å°ı"
      ],
      [
        "å²",
        "Ľ"
      ],
      [
        "8",
        "0"
      ],
      [
        "ç²",
        "Ĵ"
      ],
      [
        "å²",
        "Ĺ"
      ],
      [
        "Ġ",
        "âĢľ"
      ],
      [
        "çº",
        "·"
      ],
      [
        "è¡Į",
        "åĬ¨"
      ],
      [
        "s",
        "t"
      ],
      [
        "æĻ®",
        "éĢļ"
      ],
      [
        "éģ",
        "Ĺ"
      ],
      [
        "âĢĿ",
        "ãĢĤ\\"
      ],
      [
        "ç§»",
        "åĬ¨"
      ],
      [
        "æĢ",
        "Ģ"
      ],
      [
        "æ´",
        "¾"
      ],
      [
        "ç±»",
        "åŀĭ"
      ],
      [
        "ä¼",
        "Ļ"
      ],
      [
        "åķĨ",
        "åĵģ"
      ],
      [
        "åģļ",
        "åĪ°"
      ],
      [
        "èµĦ",
        "æł¼"
      ],
      [
        "åĵ",
        "Ī"
      ],
      [
        "æĻº",
        "æħ§"
      ],
      [
        "æµģ",
        "ç¨ĭ"
      ],
      [
        "å·",
        "Ŀ"
      ],
      [
        "çĲĥ",
        "åĳĺ"
      ],
      [
        "åĲİ",
        "çļĦ"
      ],
      [
        "åįı",
        "ä¼ļ"
      ],
      [
        "ç£",
        "ģ"
      ],
      [
        "çī¹",
        "èī²"
      ],
      [
        "è·",
        "¨"
      ],
      [
        "èĬ",
        "¯"
      ],
      [
        "æ®",
        "Ĭ"
      ],
      [
        "å®Į",
        "åĸĦ"
      ],
      [
        "åŃ",
        "Ķ"
      ],
      [
        "åħĪ",
        "è¿Ľ"
      ],
      [
        "åĪĽ",
        "éĢł"
      ],
      [
        "çļĦ",
        "éĩįè¦ģ"
      ],
      [
        "èĩª",
        "èº«"
      ],
      [
        "201",
        "9"
      ],
      [
        "æĿ",
        "Ģ"
      ],
      [
        "å¼",
        "±"
      ],
      [
        "è¯",
        "º"
      ],
      [
        "æ¡",
        "¥"
      ],
      [
        "èĲ¥",
        "éĶĢ"
      ],
      [
        "åĢ",
        "į"
      ],
      [
        "æ",
        "ĩ"
      ],
      [
        "éĿ¢",
        "çļĦ"
      ],
      [
        "åŁ¹",
        "åħ»"
      ],
      [
        "åħ¬",
        "åħ±"
      ],
      [
        "ç¼",
        "ĺ"
      ],
      [
        "æľ",
        "«"
      ],
      [
        "çĲĨ",
        "è§£"
      ],
      [
        "åľ¨",
        "çº¿"
      ],
      [
        "åįĩ",
        "çº§"
      ],
      [
        "åı",
        "¥"
      ],
      [
        "äº§åĵģ",
        "çļĦ"
      ],
      [
        "ä¾ĭ",
        "å¦Ĥ"
      ],
      [
        "ä¼ĺ",
        "ç§Ģ"
      ],
      [
        "æ³",
        "¥"
      ],
      [
        "è¿ŀ",
        "æİ¥"
      ],
      [
        "å¥",
        "¶"
      ],
      [
        "èĵ",
        "Ŀ"
      ],
      [
        "çĶ¨",
        "çļĦ"
      ],
      [
        "ä¹Ł",
        "åı¯ä»¥"
      ],
      [
        "ãĢĤ",
        "âĢľ"
      ],
      [
        "æĬ",
        "ĺ"
      ],
      [
        "åĮĸ",
        "åŃ¦"
      ],
      [
        "çİ",
        "»"
      ],
      [
        "èµĽ",
        "åŃ£"
      ],
      [
        "åħ·",
        "å¤ĩ"
      ],
      [
        "åį«",
        "çĶŁ"
      ],
      [
        "v",
        "er"
      ],
      [
        "æ²",
        "Ł"
      ],
      [
        "è¿ĩ",
        "åİ»"
      ],
      [
        "çİ°",
        "è±¡"
      ],
      [
        "å±ķ",
        "å¼Ģ"
      ],
      [
        "æĹ¥",
        "å¸¸"
      ],
      [
        "æ¯ķ",
        "ä¸ļ"
      ],
      [
        "å®ŀ",
        "è·µ"
      ],
      [
        "æ³",
        "°"
      ],
      [
        "è®¤",
        "è¯ģ"
      ],
      [
        "çĲĨ",
        "å¿µ"
      ],
      [
        "è´",
        "¥"
      ],
      [
        "äºĭ",
        "ä¸ļ"
      ],
      [
        "åĨ",
        "°"
      ],
      [
        "å¤ļ",
        "çļĦ"
      ],
      [
        "åĪ",
        "¸"
      ],
      [
        "éĹ",
        "Ń"
      ],
      [
        "æ¬¢",
        "è¿İ"
      ],
      [
        "åħ¨",
        "éĥ¨"
      ],
      [
        "æľº",
        "åĪ¶"
      ],
      [
        "è´",
        "¸"
      ],
      [
        "ä¸¥",
        "æł¼"
      ],
      [
        "2",
        "3"
      ],
      [
        "è¯´",
        "æĺİ"
      ],
      [
        "è¾",
        "ħ"
      ],
      [
        "a",
        "d"
      ],
      [
        "çĽ¸",
        "å¯¹"
      ],
      [
        "é©",
        "¾"
      ],
      [
        "Ġ",
        "P"
      ],
      [
        "çĶŁ",
        "åĳ½"
      ],
      [
        "åĲĮ",
        "åŃ¦"
      ],
      [
        "å¿ħ",
        "è¦ģ"
      ],
      [
        "æĹł",
        "è®º"
      ],
      [
        "å¾",
        "ª"
      ],
      [
        "å°±",
        "åı¯ä»¥"
      ],
      [
        "æ£",
        "®"
      ],
      [
        "202",
        "3"
      ],
      [
        "ä¸Ģå®ļ",
        "è¦ģ"
      ],
      [
        "æĮĩ",
        "åĩº"
      ],
      [
        "è¿",
        "ª"
      ],
      [
        "æĶ¶",
        "åħ¥"
      ],
      [
        "å¼",
        "¹"
      ],
      [
        "æ¶ī",
        "åıĬ"
      ],
      [
        "ä¸ĭ",
        "æĿ¥"
      ],
      [
        "åĬŀ",
        "æ³ķ"
      ],
      [
        "åĳ",
        "¼"
      ],
      [
        "åĬł",
        "åħ¥"
      ],
      [
        "ä¼ĺ",
        "è´¨"
      ],
      [
        "èĦ",
        "¸"
      ],
      [
        "Ġy",
        "ou"
      ],
      [
        "è",
        "¦"
      ],
      [
        "éĤ",
        "®"
      ],
      [
        "ä½",
        "Ľ"
      ],
      [
        "è",
        "ª"
      ],
      [
        ")",
        "ãĢĤ"
      ],
      [
        "åĪ",
        "·"
      ],
      [
        "Ġ",
        "B"
      ],
      [
        "æ´",
        "ĭ"
      ],
      [
        "å¿ĥ",
        "çĲĨ"
      ],
      [
        "å¤ļ",
        "ç§į"
      ],
      [
        "å¡",
        "«"
      ],
      [
        "åıĳå±ķ",
        "çļĦ"
      ],
      [
        "åıį",
        "åºĶ"
      ],
      [
        "æ·",
        "»"
      ],
      [
        "èĪ",
        "ŀ"
      ],
      [
        "åĪĽ",
        "ä¸ļ"
      ],
      [
        "çľŁ",
        "æŃ£"
      ],
      [
        "è¦",
        "Ĩ"
      ],
      [
        "çĴ",
        "ĥ"
      ],
      [
        "è¿Ĳ",
        "è¾ĵ"
      ],
      [
        "æĮ",
        "Ĥ"
      ],
      [
        "å®",
        "Ĺ"
      ],
      [
        "i",
        "m"
      ],
      [
        "Â",
        "°"
      ],
      [
        "æľ¬",
        "æ¬¡"
      ],
      [
        "ä¿Ŀ",
        "éĻ©"
      ],
      [
        "æŃ£",
        "å¼ı"
      ],
      [
        "èī¯",
        "å¥½çļĦ"
      ],
      [
        "çĶµ",
        "è¯Ŀ"
      ],
      [
        "èĪ",
        "Ĵ"
      ],
      [
        "éŁ",
        "©"
      ],
      [
        "å¦Ĥ",
        "æŃ¤"
      ],
      [
        "æĪ",
        "ª"
      ],
      [
        "ç»",
        "ķ"
      ],
      [
        "éª",
        "¨"
      ],
      [
        "éĶ",
        "ģ"
      ],
      [
        "ha",
        "t"
      ],
      [
        "å¼ķ",
        "èµ·"
      ],
      [
        "çĬ",
        "¯"
      ],
      [
        "æ·±",
        "åħ¥"
      ],
      [
        "å¯",
        "¿"
      ],
      [
        "ç«",
        "Ł"
      ],
      [
        "æł·",
        "çļĦ"
      ],
      [
        "åŁº",
        "äºİ"
      ],
      [
        "è¯ķ",
        "éªĮ"
      ],
      [
        "æĶ¹",
        "éĿ©"
      ],
      [
        "æĺ",
        "ł"
      ],
      [
        "æ½",
        "ľ"
      ],
      [
        "åĨħ",
        "éĥ¨"
      ],
      [
        "äº",
        "¦"
      ],
      [
        "éĢļ",
        "çŁ¥"
      ],
      [
        "äºº",
        "å·¥"
      ],
      [
        "ç»ı",
        "çĲĨ"
      ],
      [
        "æĹ",
        "Ĺ"
      ],
      [
        "éĨ",
        "Ĵ"
      ],
      [
        "2",
        "2"
      ],
      [
        "ä¸º",
        "ä»Ģä¹Ī"
      ],
      [
        "éĿ¢",
        "å¯¹"
      ],
      [
        "çİ»",
        "çĴĥ"
      ],
      [
        "çº",
        "¹"
      ],
      [
        "åı¯èĥ½",
        "ä¼ļ"
      ],
      [
        "ä¼ģä¸ļ",
        "çļĦ"
      ],
      [
        "å½ĵ",
        "åľ°"
      ],
      [
        "ä¸ª",
        "æľĪ"
      ],
      [
        "å®ĥ",
        "ä»¬"
      ],
      [
        "±",
        "ä¹Ĳ"
      ],
      [
        "æī¾",
        "åĪ°"
      ],
      [
        "ç½",
        "²"
      ],
      [
        "éĶ",
        "ħ"
      ],
      [
        "æĽ",
        "¼"
      ],
      [
        "çħ",
        "¤"
      ],
      [
        "âĢ",
        "Ļ"
      ],
      [
        "æµ",
        "ĵ"
      ],
      [
        "çī¹",
        "æ®Ĭ"
      ],
      [
        "èŀį",
        "åĲĪ"
      ],
      [
        "çİ©",
        "å®¶"
      ],
      [
        "éĩ",
        "İ"
      ],
      [
        "è¯Ń",
        "è¨Ģ"
      ],
      [
        "a",
        "m"
      ],
      [
        "éĽ",
        "ħ"
      ],
      [
        "Ġ",
        "T"
      ],
      [
        "æĿ",
        "¨"
      ],
      [
        "æ¹",
        "¾"
      ],
      [
        "éĽĨ",
        "ä¸Ń"
      ],
      [
        "åĬĽ",
        "çļĦ"
      ],
      [
        "æİ¨",
        "å¹¿"
      ],
      [
        "åĳĬ",
        "è¯ī"
      ],
      [
        "æĦı",
        "è§ģ"
      ],
      [
        "è¯ģ",
        "æĺİ"
      ],
      [
        "æļ",
        "´"
      ],
      [
        "æ¼",
        "ı"
      ],
      [
        "c",
        "h"
      ],
      [
        "æĦı",
        "è¯Ĩ"
      ],
      [
        "l",
        "d"
      ],
      [
        "çļĦ",
        "æĸ¹å¼ı"
      ],
      [
        "è¶ĭ",
        "åĬ¿"
      ],
      [
        "èĥ",
        "ŀ"
      ],
      [
        "æĬ",
        "½"
      ],
      [
        "æĽ",
        "¿"
      ],
      [
        "ä¸Ģ",
        "çĤ¹"
      ],
      [
        "çİ",
        "ī"
      ],
      [
        "åĨħ",
        "çļĦ"
      ],
      [
        "çĿ",
        "¡"
      ],
      [
        "å¹´",
        "åº¦"
      ],
      [
        "æµ",
        "ª"
      ],
      [
        "èģ",
        "ĺ"
      ],
      [
        "å¡",
        "Ķ"
      ],
      [
        "v",
        "e"
      ],
      [
        "èµ",
        "¢"
      ],
      [
        "é£Ł",
        "çī©"
      ],
      [
        "æķ",
        "ı"
      ],
      [
        "ç§",
        "ĺ"
      ],
      [
        "æı",
        "ı"
      ],
      [
        "åĦ¿",
        "ç«¥"
      ],
      [
        "è§£åĨ³",
        "æĸ¹æ¡Ī"
      ],
      [
        "ä¸ĭ",
        "çļĦ"
      ],
      [
        "å±ķ",
        "ç¤º"
      ],
      [
        "åľ",
        "£"
      ],
      [
        "Ġ",
        "("
      ],
      [
        "ç",
        "ĺ"
      ],
      [
        "å¤ļ",
        "ä¸ª"
      ],
      [
        "æģ",
        "¢"
      ],
      [
        "æĤ",
        "ī"
      ],
      [
        "åħ¬",
        "å¼Ģ"
      ],
      [
        "çĽĳ",
        "ç®¡"
      ],
      [
        "è£ħ",
        "ç½®"
      ],
      [
        "é¥",
        "Ń"
      ],
      [
        "é£İ",
        "æľº"
      ],
      [
        "æĳĺ",
        "è¦ģ"
      ],
      [
        "åĿ",
        "Ģ"
      ],
      [
        "åĮ»",
        "çĶŁ"
      ],
      [
        "æľī",
        "æīĢ"
      ],
      [
        "çļĦ",
        "æĹ¶éĹ´"
      ],
      [
        "ä¸»",
        "ä»»"
      ],
      [
        "æĶ¹",
        "åĸĦ"
      ],
      [
        "èį",
        "Ĳ"
      ],
      [
        "è½¦",
        "è¾Ĩ"
      ],
      [
        "ç»Ł",
        "ä¸Ģ"
      ],
      [
        "è´",
        "Ŀ"
      ],
      [
        "æĬ",
        "µ"
      ],
      [
        "\\",
        "\\"
      ],
      [
        "ç½",
        "ļ"
      ],
      [
        "i",
        "on"
      ],
      [
        "å®ī",
        "æİĴ"
      ],
      [
        "å¼Ģ",
        "æĶ¾"
      ],
      [
        "èĥ",
        "İ"
      ],
      [
        "çĤ",
        "İ"
      ],
      [
        "å®ĥ",
        "çļĦ"
      ],
      [
        "æĬĢ",
        "èĥ½"
      ],
      [
        "çĬ¶",
        "åĨµ"
      ],
      [
        "æģ¢",
        "å¤į"
      ],
      [
        "åİĤ",
        "å®¶"
      ],
      [
        "éĶ",
        "Ī"
      ],
      [
        "å°",
        "º"
      ],
      [
        "å¤§",
        "å¤ļ"
      ],
      [
        "èĤ",
        "¯"
      ],
      [
        "âĢĿ",
        "ãĢģ"
      ],
      [
        "åıĮ",
        "æĸ¹"
      ],
      [
        "åĪ¶",
        "å®ļ"
      ],
      [
        "ä¸Ģ",
        "ä½ĵ"
      ],
      [
        "å¦",
        "ĩ"
      ],
      [
        "å¹",
        "¼"
      ],
      [
        "è°",
        "ģ"
      ],
      [
        "è°ĥ",
        "æŁ¥"
      ],
      [
        "å¼º",
        "åº¦"
      ],
      [
        "æĪĲ",
        "æŀľ"
      ],
      [
        "æľĢ",
        "å¤§"
      ],
      [
        "ç»´",
        "ä¿®"
      ],
      [
        "æ¸ħ",
        "æ´Ĺ"
      ],
      [
        "çĶµ",
        "å½±"
      ],
      [
        "æŃ£",
        "ç¡®"
      ],
      [
        "èĴ",
        "¸"
      ],
      [
        "æĥ",
        "Ĭ"
      ],
      [
        "çĲĨ",
        "è®º"
      ],
      [
        "çĽ¸",
        "ä¿¡"
      ],
      [
        "åľ",
        "³"
      ],
      [
        "çĽ¸",
        "å½ĵ"
      ],
      [
        "å",
        "´"
      ],
      [
        "éģ",
        "į"
      ],
      [
        "åĬŀ",
        "çĲĨ"
      ],
      [
        "2",
        "1"
      ],
      [
        "æĥ",
        "¯"
      ],
      [
        "ç",
        "¹"
      ],
      [
        "æľ",
        "Ŀ"
      ],
      [
        "çł",
        "Ĥ"
      ],
      [
        "ãĢ",
        "Ĳ"
      ],
      [
        "ä¸ĭ",
        "éĻį"
      ],
      [
        "åĬĽ",
        "éĩı"
      ],
      [
        "æĬ¥",
        "åĲį"
      ],
      [
        "éĩį",
        "æĸ°"
      ],
      [
        "æĦı",
        "ä¹ī"
      ],
      [
        "æĸĩ",
        "ç«ł"
      ],
      [
        "æŃ¤",
        "æ¬¡"
      ],
      [
        "ç¹",
        "ģ"
      ],
      [
        "æī",
        "¬"
      ],
      [
        "èª",
        "ī"
      ],
      [
        "ãĢ",
        "ĳ"
      ],
      [
        "ç§",
        "ĭ"
      ],
      [
        "éĺ²",
        "æŃ¢"
      ],
      [
        "æ·±",
        "åľ³"
      ],
      [
        "åģ",
        "¿"
      ],
      [
        "-",
        "-"
      ],
      [
        "åİŁ",
        "åĪĻ"
      ],
      [
        "çĻ½",
        "æĸĳ"
      ],
      [
        "æ¯ı",
        "å¤©"
      ],
      [
        "è¾",
        "ĳ"
      ],
      [
        "è¿Ľè¡Į",
        "äºĨ"
      ],
      [
        "ç¯",
        "ĩ"
      ],
      [
        "åĪĨ",
        "ä¸º"
      ],
      [
        "ãĢĭ",
        ","
      ],
      [
        "æķ°",
        "éĩı"
      ],
      [
        "åĭ",
        "ĩ"
      ],
      [
        "é¸",
        "¡"
      ],
      [
        "èĲ¥",
        "åħ»"
      ],
      [
        "è¯Ħ",
        "ä¼°"
      ],
      [
        "æĶ¯",
        "ä»ĺ"
      ],
      [
        "æĪ¿",
        "å±ĭ"
      ],
      [
        "201",
        "8"
      ],
      [
        "çĽ",
        "Ĳ"
      ],
      [
        "l",
        "y"
      ],
      [
        "æį",
        "·"
      ],
      [
        "å¢ŀ",
        "å¼º"
      ],
      [
        "åı¯",
        "éĿł"
      ],
      [
        "çĳ",
        "ŀ"
      ],
      [
        "è±",
        "Ĩ"
      ],
      [
        "åķĨ",
        "æłĩ"
      ],
      [
        "é©",
        "±"
      ],
      [
        "æŀĦ",
        "å»º"
      ],
      [
        "æĮĳ",
        "æĪĺ"
      ],
      [
        "æĢ",
        "ķ"
      ],
      [
        "æĪĲ",
        "éķ¿"
      ],
      [
        "è¿ŀ",
        "ç»Ń"
      ],
      [
        "èĩª",
        "çĶ±"
      ],
      [
        "ä»į",
        "çĦ¶"
      ],
      [
        "äº²",
        "åŃĲ"
      ],
      [
        "å¯",
        "¸"
      ],
      [
        "Ġf",
        "or"
      ],
      [
        "åĩ",
        "Ń"
      ],
      [
        "æĹ",
        "ĭ"
      ],
      [
        "æİ¥",
        "è§¦"
      ],
      [
        "èŀ",
        "º"
      ],
      [
        "p",
        "p"
      ],
      [
        "æĭ",
        "ĵ"
      ],
      [
        "t",
        "er"
      ],
      [
        "èļ",
        "Ģ"
      ],
      [
        "çı",
        "ł"
      ],
      [
        "ä¸¾",
        "åĬŀ"
      ],
      [
        "çľŁ",
        "çļĦ"
      ],
      [
        "åħ¬åı¸",
        "çļĦ"
      ],
      [
        "è£",
        "ģ"
      ],
      [
        "i",
        "r"
      ],
      [
        "âĢ",
        "ĺ"
      ],
      [
        "å®",
        "ĩ"
      ],
      [
        "æĢ§",
        "åĴĮ"
      ],
      [
        "å¤į",
        "æĿĤ"
      ],
      [
        "å·",
        "§"
      ],
      [
        "é©",
        "¶"
      ],
      [
        "é£İ",
        "æł¼"
      ],
      [
        "éĩĩ",
        "åıĸ"
      ],
      [
        "çĶµ",
        "æľº"
      ],
      [
        "ç",
        "ŀ"
      ],
      [
        "çī©",
        "æµģ"
      ],
      [
        "åįı",
        "è®®"
      ],
      [
        "çŃī",
        "çŃī"
      ],
      [
        "å¼º",
        "åĮĸ"
      ],
      [
        "åŁº",
        "åľ°"
      ],
      [
        "çĽĳ",
        "çĿ£"
      ],
      [
        "è¿Ĳ",
        "çĶ¨"
      ],
      [
        "æ",
        "©"
      ],
      [
        "Ġ",
        "L"
      ],
      [
        "åħĪ",
        "çĶŁ"
      ],
      [
        "å½",
        "»"
      ],
      [
        "Ġb",
        "e"
      ],
      [
        "è°",
        "·"
      ],
      [
        "åĲ¸",
        "å¼ķ"
      ],
      [
        "æĪ",
        "´"
      ],
      [
        "çĶµ",
        "è§Ĩ"
      ],
      [
        "èĭ",
        "Ĺ"
      ],
      [
        "Ġ",
        "åľ¨"
      ],
      [
        "åħ",
        "¼"
      ],
      [
        "æĿ",
        "Ĩ"
      ],
      [
        "ä¼",
        "¦"
      ],
      [
        "é«ĺ",
        "æķĪ"
      ],
      [
        "åĩĨ",
        "ç¡®"
      ],
      [
        "ä¹",
        "±"
      ],
      [
        "å¤§",
        "åŀĭ"
      ],
      [
        "ç®¡",
        "éģĵ"
      ],
      [
        "è®Ń",
        "ç»ĥ"
      ],
      [
        "Ġ",
        "it"
      ],
      [
        "çĤ",
        "ī"
      ],
      [
        "èĳ",
        "£"
      ],
      [
        "éħĴ",
        "åºĹ"
      ],
      [
        "çĽĳ",
        "æµĭ"
      ],
      [
        "èĪ",
        "¹"
      ],
      [
        "ä¸Ĭ",
        "å¸Ĥ"
      ],
      [
        "m",
        "m"
      ],
      [
        "æģ",
        "©"
      ],
      [
        "ä¹",
        "ĺ"
      ],
      [
        "ä¸į",
        "åĪ°"
      ],
      [
        "åĲ¯",
        "åĬ¨"
      ],
      [
        "æµĭ",
        "éĩı"
      ],
      [
        "è·Ŀ",
        "ç¦»"
      ],
      [
        "è¯",
        "Ĺ"
      ],
      [
        "é¢Ĩ",
        "åħĪ"
      ],
      [
        "ç»Ĩ",
        "èĥŀ"
      ],
      [
        "åľº",
        "æĻ¯"
      ],
      [
        "éĽ",
        "Ħ"
      ],
      [
        "æİ¨",
        "èįĲ"
      ],
      [
        "æ¶Ī",
        "æģ¯"
      ],
      [
        "ä»ĸä»¬",
        "çļĦ"
      ],
      [
        "åº¦",
        "çļĦ"
      ],
      [
        "å£",
        "ģ"
      ],
      [
        "ä¸¾",
        "è¡Į"
      ],
      [
        "2",
        "7"
      ],
      [
        "åı",
        "¬"
      ],
      [
        "è®°",
        "å½ķ"
      ],
      [
        "åį³",
        "åı¯"
      ],
      [
        "æĸ°",
        "éĹ»"
      ],
      [
        "æģ",
        "¶"
      ],
      [
        "å¼",
        "ĥ"
      ],
      [
        "è¿Ļ",
        "ä¹Ī"
      ],
      [
        "æī",
        "«"
      ],
      [
        "ä½į",
        "äºİ"
      ],
      [
        "æ¥",
        "ļ"
      ],
      [
        "åĢ¼",
        "å¾Ĺ"
      ],
      [
        "ä¿¡",
        "åı·"
      ],
      [
        "æµģ",
        "éĩı"
      ],
      [
        "æĽ´å¤ļ",
        "çļĦ"
      ],
      [
        "5",
        "00"
      ],
      [
        "å®",
        "«"
      ],
      [
        "çĵ",
        "¦"
      ],
      [
        "ç»Ł",
        "è®¡"
      ],
      [
        "éħį",
        "åĲĪ"
      ],
      [
        "ä¸Ģå®ļ",
        "çļĦ"
      ],
      [
        "ł",
        "éģĵ"
      ],
      [
        "æĬķ",
        "åħ¥"
      ],
      [
        "çĽ¸",
        "åºĶ"
      ],
      [
        "è·",
        "Į"
      ],
      [
        "en",
        "t"
      ],
      [
        "ä¹",
        "Ļ"
      ],
      [
        "èĢ",
        "³"
      ],
      [
        "âĢĿ",
        "\\"
      ],
      [
        "æģ",
        "Ĵ"
      ],
      [
        "èĸ",
        "Ħ"
      ],
      [
        "è¿",
        "Ķ"
      ],
      [
        "æ²",
        "¿"
      ],
      [
        "æı",
        "´"
      ],
      [
        "åĵ",
        "¥"
      ],
      [
        "çĦ¶",
        "èĢĮ"
      ],
      [
        "n",
        "ç¬¬"
      ],
      [
        "èĤ¡",
        "ä»½"
      ],
      [
        "æľī",
        "ä¸Ģ"
      ],
      [
        "æĺ¯",
        "ä»Ģä¹Ī"
      ],
      [
        "åĲĦ",
        "ç±»"
      ],
      [
        "åĨį",
        "æ¬¡"
      ],
      [
        "éĩį",
        "è§Ĩ"
      ],
      [
        "Ġa",
        "s"
      ],
      [
        "ä¼",
        "Ĭ"
      ],
      [
        "ç¾İ",
        "åħĥ"
      ],
      [
        "ä¸ĭ",
        "éĿ¢"
      ],
      [
        "éĩĩ",
        "è´Ń"
      ],
      [
        "åį",
        "·"
      ],
      [
        "çģ",
        "¾"
      ],
      [
        "æľ¬æĸĩ",
        "æĳĺè¦ģ"
      ],
      [
        "å°±",
        "ä¸ļ"
      ],
      [
        "åı¦",
        "ä¸Ģ"
      ],
      [
        "2",
        "8"
      ],
      [
        "å¹´",
        "è½»"
      ],
      [
        "è®¤",
        "è¯Ĩ"
      ],
      [
        "å¥",
        "ĭ"
      ],
      [
        "å¤ļ",
        "å°ĳ"
      ],
      [
        "éĤ£",
        "äºĽ"
      ],
      [
        "ä½ľ",
        "ä¸ļ"
      ],
      [
        "æ",
        "§"
      ],
      [
        "ä»",
        "ĵ"
      ],
      [
        "åĪ",
        "Ģ"
      ],
      [
        "è£",
        "Ĥ"
      ],
      [
        "åĲ",
        "¨"
      ],
      [
        "ãĢĤ",
        "("
      ],
      [
        "èĲ",
        "¨"
      ],
      [
        "çĶµ",
        "åĬ¨"
      ],
      [
        "å§Ķåĳĺ",
        "ä¼ļ"
      ],
      [
        "åľ°",
        "äº§"
      ],
      [
        "åĽº",
        "å®ļ"
      ],
      [
        "éº",
        "»"
      ],
      [
        "åĽ°",
        "éļ¾"
      ],
      [
        "è´",
        "¯"
      ],
      [
        "çģ",
        "°"
      ],
      [
        "è´·",
        "æ¬¾"
      ],
      [
        "ä»¥",
        "åĲİ"
      ],
      [
        "å½ĵ",
        "åīį"
      ],
      [
        "æ²»",
[...]
