{
  "version": "1.0",
  "truncation": null,
  "padding": null,
  "added_tokens": [
    {
      "id": 0,
      "content": "[PAD]",
      "single_word": false,
      "lstrip": false,
      "rstrip": false,
      "normalized": false,
      "special": true
    },
    {
      "id": 1,
      "content": "[UNK]",
      "single_word": false,
      "lstrip": false,
      "rstrip": false,
      "normalized": false,
      "special": true
    },
    {
      "id": 2,
      "content": "[END]",
      "single_word": false,
      "lstrip": false,
      "rstrip": false,
      "normalized": false,
      "special": true
    },
    {
      "id": 3,
      "content": "[START]",
      "single_word": false,
      "lstrip": false,
      "rstrip": false,
      "normalized": false,
      "special": true
    }
  ],
  "normalizer": {
    "type": "NFKD"
  },
  "pre_tokenizer": {
    "type": "BertPreTokenizer"
  },
  "post_processor": null,
  "decoder": null,
  "model": {
    "type": "BPE",
    "dropout": null,
    "unk_token": "[UNK]",
    "continuing_subword_prefix": null,
    "end_of_word_suffix": null,
    "fuse_unk": false,
    "byte_fallback": false,
    "ignore_merges": false,
    "vocab": {
      "[PAD]": 0,
      "[UNK]": 1,
      "[END]": 2,
      "[START]": 3,
      "!": 4,
      "\"": 5,
      "#": 6,
      "$": 7,
      "%": 8,
      "&": 9,
      "'": 10,
      "(": 11,
      ")": 12,
      "*": 13,
      "+": 14,
      ",": 15,
      "-": 16,
      ".": 17,
      "/": 18,
      "0": 19,
      "1": 20,
      "2": 21,
      "3": 22,
      "4": 23,
      "5": 24,
      "6": 25,
      "7": 26,
      "8": 27,
      "9": 28,
      ":": 29,
      ";": 30,
      "<": 31,
      "=": 32,
      ">": 33,
      "?": 34,
      "@": 35,
      "A": 36,
      "B": 37,
      "C": 38,
      "D": 39,
      "E": 40,
      "F": 41,
      "G": 42,
      "H": 43,
      "I": 44,
      "J": 45,
      "K": 46,
      "L": 47,
      "M": 48,
      "N": 49,
      "O": 50,
      "P": 51,
      "Q": 52,
      "R": 53,
      "S": 54,
      "T": 55,
      "U": 56,
      "V": 57,
      "W": 58,
      "X": 59,
      "Y": 60,
      "Z": 61,
      "[": 62,
      "\\": 63,
      "]": 64,
      "^": 65,
      "_": 66,
      "`": 67,
      "a": 68,
      "b": 69,
      "c": 70,
      "d": 71,
      "e": 72,
      "f": 73,
      "g": 74,
      "h": 75,
      "i": 76,
      "j": 77,
      "k": 78,
      "l": 79,
      "m": 80,
      "n": 81,
      "o": 82,
      "p": 83,
      "q": 84,
      "r": 85,
      "s": 86,
      "t": 87,
      "u": 88,
      "v": 89,
      "w": 90,
      "x": 91,
      "y": 92,
      "z": 93,
      "{": 94,
      "|": 95,
      "}": 96,
      "~": 97,
      "": 98,
      "": 99,
      "¢": 100,
      "£": 101,
      "¤": 102,
      "¥": 103,
      "§": 104,
      "©": 105,
      "«": 106,
      "­": 107,
      "®": 108,
      "°": 109,
      "±": 110,
      "¶": 111,
      "·": 112,
      "»": 113,
      "×": 114,
      "Ø": 115,
      "ß": 116,
      "æ": 117,
      "ð": 118,
      "÷": 119,
      "ø": 120,
      "Đ": 121,
      "ı": 122,
      "ɑ": 123,
      "ɡ": 124,
      "ɦ": 125,
      "ˇ": 126,
      "ˉ": 127,
      "ˊ": 128,
      "ˋ": 129,
      "˹": 130,
      "˼": 131,
      "̀": 132,
      "́": 133,
      "̂": 134,
      "̃": 135,
      "̄": 136,
      "̆": 137,
      "̇": 138,
      "̈": 139,
      "̉": 140,
      "̊": 141,
      "̌": 142,
      "̛": 143,
      "̣": 144,
      "̧": 145,
      "̸": 146,
      "Δ": 147,
      "Μ": 148,
      "Ο": 149,
      "Σ": 150,
      "Φ": 151,
      "Χ": 152,
      "Ψ": 153,
      "Ω": 154,
      "α": 155,
      "β": 156,
      "γ": 157,
      "δ": 158,
      "ε": 159,
      "ζ": 160,
      "η": 161,
      "θ": 162,
      "ι": 163,
      "κ": 164,
      "λ": 165,
      "μ": 166,
      "ν": 167,
      "ξ": 168,
      "ο": 169,
      "π": 170,
      "ρ": 171,
      "σ": 172,
      "τ": 173,
      "υ": 174,
      "φ": 175,
      "χ": 176,
      "ψ": 177,
      "ω": 178,
      "А": 179,
      "Б": 180,
      "В": 181,
      "И": 182,
      "К": 183,
      "М": 184,
      "О": 185,
      "П": 186,
      "Р": 187,
      "С": 188,
      "У": 189,
      "Ф": 190,
      "Х": 191,
      "а": 192,
      "б": 193,
      "в": 194,
      "г": 195,
      "д": 196,
      "е": 197,
      "ж": 198,
      "з": 199,
      "и": 200,
      "к": 201,
      "л": 202,
      "м": 203,
      "н": 204,
      "о": 205,
      "п": 206,
      "р": 207,
      "с": 208,
      "т": 209,
      "у": 210,
      "ф": 211,
      "х": 212,
      "ц": 213,
      "ч": 214,
      "ш": 215,
      "ы": 216,
      "ь": 217,
      "я": 218,
      "і": 219,
      "ղ": 220,
      "ְ": 221,
      "ה": 222,
      "י": 223,
      "מ": 224,
      "ת": 225,
      "ا": 226,
      "ب": 227,
      "ة": 228,
      "ت": 229,
      "ج": 230,
      "ح": 231,
      "د": 232,
      "ر": 233,
      "س": 234,
      "ص": 235,
      "ض": 236,
      "ع": 237,
      "ف": 238,
      "ك": 239,
      "ل": 240,
      "م": 241,
      "ن": 242,
      "ه": 243,
      "و": 244,
      "ي": 245,
      "َ": 246,
      "ُ": 247,
      "ِ": 248,
      "ّ": 249,
      "ْ": 250,
      "ٔ": 251,
      "ۖ": 252,
      "ۣ": 253,
      "न": 254,
      "ी": 255,
      "ు": 256,
      "ก": 257,
      "ง": 258,
      "ช": 259,
      "ด": 260,
      "ต": 261,
      "ท": 262,
      "น": 263,
      "ป": 264,
      "พ": 265,
      "ม": 266,
      "ย": 267,
      "ร": 268,
      "ล": 269,
      "ว": 270,
      "ษ": 271,
      "ห": 272,
      "อ": 273,
      "ั": 274,
      "า": 275,
      "ิ": 276,
      "ี": 277,
      "ุ": 278,
      "ู": 279,
      "เ": 280,
      "ใ": 281,
      "ไ": 282,
      "่": 283,
      "้": 284,
      "์": 285,
      "က": 286,
      "မ": 287,
      "လ": 288,
      "း": 289,
      "်": 290,
      "ᄀ": 291,
      "ᄁ": 292,
      "ᄂ": 293,
      "ᄃ": 294,
      "ᄅ": 295,
      "ᄆ": 296,
      "ᄇ": 297,
      "ᄉ": 298,
      "ᄋ": 299,
      "ᄌ": 300,
      "ᄎ": 301,
      "ᄏ": 302,
      "ᄐ": 303,
      "ᄑ": 304,
      "ᄒ": 305,
      "ᅠ": 306,
      "ᅡ": 307,
      "ᅢ": 308,
      "ᅣ": 309,
      "ᅥ": 310,
      "ᅦ": 311,
      "ᅧ": 312,
      "ᅨ": 313,
      "ᅩ": 314,
      "ᅪ": 315,
      "ᅬ": 316,
      "ᅭ": 317,
      "ᅮ": 318,
      "ᅯ": 319,
      "ᅱ": 320,
      "ᅲ": 321,
      "ᅳ": 322,
      "ᅴ": 323,
      "ᅵ": 324,
      "ᆨ": 325,
      "ᆫ": 326,
      "ᆯ": 327,
      "ᆷ": 328,
      "ᆸ": 329,
      "ᆹ": 330,
      "ᆺ": 331,
      "ᆻ": 332,
      "ᆼ": 333,
      "ក": 334,
      "ង": 335,
      "ច": 336,
      "ជ": 337,
      "ដ": 338,
      "ត": 339,
      "ទ": 340,
      "ន": 341,
      "ប": 342,
      "ព": 343,
      "ម": 344,
      "យ": 345,
      "រ": 346,
      "ល": 347,
      "វ": 348,
      "ស": 349,
      "អ": 350,
      "ា": 351,
      "ិ": 352,
      "ី": 353,
      "ុ": 354,
      "ួ": 355,
      "េ": 356,
      "ោ": 357,
      "ំ": 358,
      "ះ": 359,
      "្": 360,
      "​": 361,
      "‌": 362,
      "‍": 363,
      "‎": 364,
      "‐": 365,
      "–": 366,
      "—": 367,
      "―": 368,
      "‖": 369,
      "‘": 370,
      "’": 371,
      "‚": 372,
      "‛": 373,
      "“": 374,
      "”": 375,
      "„": 376,
      "†": 377,
      "‡": 378,
      "•": 379,
      "‧": 380,
      "‬": 381,
      "‭": 382,
      "‰": 383,
      "′": 384,
      "※": 385,
      "⁄": 386,
      "⁠": 387,
      "€": 388,
      "⃣": 389,
      "←": 390,
      "↑": 391,
      "→": 392,
      "↓": 393,
      "↟": 394,
      "↩": 395,
      "⇒": 396,
      "⇩": 397,
      "∅": 398,
      "∆": 399,
      "∈": 400,
      "∏": 401,
      "∑": 402,
      "−": 403,
      "∕": 404,
      "∘": 405,
      "∙": 406,
      "√": 407,
      "∞": 408,
      "∟": 409,
      "∠": 410,
      "∣": 411,
      "∩": 412,
      "∮": 413,
      "∴": 414,
      "∶": 415,
      "∼": 416,
      "∽": 417,
      "≈": 418,
      "≡": 419,
      "≤": 420,
      "≥": 421,
      "≦": 422,
      "≧": 423,
      "⊙": 424,
      "⊥": 425,
      "⋯": 426,
      "⌒": 427,
      "─": 428,
      "│": 429,
      "┃": 430,
      "┄": 431,
      "┅": 432,
      "┋": 433,
      "├": 434,
      "┝": 435,
      "═": 436,
      "╯": 437,
      "╰": 438,
      "╱": 439,
      "╳": 440,
      "▂": 441,
      "█": 442,
      "▋": 443,
      "▌": 444,
      "▍": 445,
      "▎": 446,
      "■": 447,
      "▢": 448,
      "▩": 449,
      "▪": 450,
      "▲": 451,
      "△": 452,
      "▶": 453,
      "▸": 454,
      "►": 455,
      "▼": 456,
      "▽": 457,
      "◆": 458,
      "◇": 459,
      "◉": 460,
      "◊": 461,
      "○": 462,
      "◎": 463,
      "●": 464,
      "◕": 465,
      "◙": 466,
      "◢": 467,
      "☀": 468,
      "★": 469,
      "☆": 470,
      "☐": 471,
      "☑": 472,
      "☜": 473,
      "☞": 474,
      "☟": 475,
      "♀": 476,
      "♂": 477,
      "♐": 478,
      "♠": 479,
      "♡": 480,
      "♥": 481,
      "♦": 482,
      "♪": 483,
      "⚓": 484,
      "⚠": 485,
      "⚡": 486,
      "✅": 487,
      "✍": 488,
      "✓": 489,
      "✔": 490,
      "✦": 491,
      "✨": 492,
      "✪": 493,
      "✿": 494,
      "❂": 495,
      "❈": 496,
      "❋": 497,
      "❖": 498,
      "❣": 499,
      "❤": 500,
      "❮": 501,
      "❯": 502,
      "❶": 503,
      "❷": 504,
      "➕": 505,
      "➜": 506,
      "➢": 507,
      "➤": 508,
      "⠀": 509,
      "⬆": 510,
      "⭐": 511,
      "⭑": 512,
      "⭕": 513,
      "⻚": 514,
      "⻨": 515,
      "、": 516,
      "。": 517,
      "〃": 518,
      "々": 519,
      "〇": 520,
      "〈": 521,
      "〉": 522,
      "《": 523,
      "》": 524,
      "【": 525,
      "】": 526,
      "〒": 527,
      "〓": 528,
      "〔": 529,
      "〕": 530,
      "〖": 531,
      "〗": 532,
      "〜": 533,
      "〝": 534,
      "〞": 535,
      "ぁ": 536,
      "あ": 537,
      "い": 538,
      "う": 539,
      "え": 540,
      "お": 541,
      "か": 542,
      "き": 543,
      "く": 544,
      "け": 545,
      "こ": 546,
      "さ": 547,
      "し": 548,
      "す": 549,
      "せ": 550,
      "そ": 551,
      "た": 552,
      "ち": 553,
      "っ": 554,
      "つ": 555,
      "て": 556,
      "と": 557,
      "な": 558,
      "に": 559,
      "ね": 560,
      "の": 561,
      "は": 562,
      "ひ": 563,
      "ふ": 564,
      "へ": 565,
      "ほ": 566,
      "ま": 567,
      "み": 568,
      "む": 569,
      "め": 570,
      "も": 571,
      "ゃ": 572,
      "や": 573,
      "ゅ": 574,
      "ゆ": 575,
      "ょ": 576,
      "よ": 577,
      "ら": 578,
      "り": 579,
      "る": 580,
      "れ": 581,
      "ろ": 582,
      "わ": 583,
      "を": 584,
      "ん": 585,
      "゙": 586,
      "゚": 587,
      "ァ": 588,
      "ア": 589,
      "ィ": 590,
      "イ": 591,
      "ゥ": 592,
      "ウ": 593,
      "ェ": 594,
      "エ": 595,
      "ォ": 596,
      "オ": 597,
      "カ": 598,
      "キ": 599,
      "ク": 600,
      "ケ": 601,
      "コ": 602,
      "サ": 603,
      "シ": 604,
      "ス": 605,
      "セ": 606,
      "ソ": 607,
      "タ": 608,
      "チ": 609,
      "ッ": 610,
      "ツ": 611,
      "テ": 612,
      "ト": 613,
      "ナ": 614,
      "ニ": 615,
      "ネ": 616,
      "ノ": 617,
      "ハ": 618,
      "ヒ": 619,
      "フ": 620,
      "ヘ": 621,
      "ホ": 622,
      "マ": 623,
      "ミ": 624,
      "ム": 625,
      "メ": 626,
      "モ": 627,
      "ャ": 628,
      "ヤ": 629,
      "ュ": 630,
      "ユ": 631,
      "ョ": 632,
      "ヨ": 633,
      "ラ": 634,
      "リ": 635,
      "ル": 636,
      "レ": 637,
      "ロ": 638,
      "ワ": 639,
      "ン": 640,
      "ヶ": 641,
      "・": 642,
      "ー": 643,
      "ㄅ": 644,
      "ㄇ": 645,
      "ㄉ": 646,
      "ㄊ": 647,
      "ㄋ": 648,
      "ㄍ": 649,
      "ㄎ": 650,
      "ㄏ": 651,
      "ㄑ": 652,
      "ㄚ": 653,
      "ㄛ": 654,
      "ㄝ": 655,
      "ㄞ": 656,
      "ㄟ": 657,
      "ㄠ": 658,
      "ㄡ": 659,
      "ㄢ": 660,
      "ㄤ": 661,
      "ㄧ": 662,
      "ㄨ": 663,
      "㓥": 664,
      "㕭": 665,
      "㖞": 666,
      "㗎": 667,
      "㤭": 668,
      "㭎": 669,
      "㶶": 670,
      "䇲": 671,
      "䌷": 672,
      "䜣": 673,
      "䶮": 674,
      "一": 675,
      "丁": 676,
      "七": 677,
      "万": 678,
      "丈": 679,
      "三": 680,
      "上": 681,
      "下": 682,
      "不": 683,
      "与": 684,
      "丐": 685,
      "丑": 686,
      "专": 687,
      "且": 688,
      "丕": 689,
      "世": 690,
      "丘": 691,
      "丙": 692,
      "业": 693,
      "丛": 694,
      "东": 695,
      "丝": 696,
      "丞": 697,
      "両": 698,
      "丢": 699,
      "两": 700,
      "严": 701,
      "丧": 702,
      "丨": 703,
      "个": 704,
      "丫": 705,
      "中": 706,
      "丰": 707,
      "串": 708,
      "临": 709,
      "丶": 710,
      "丸": 711,
      "丹": 712,
      "为": 713,
      "主": 714,
      "丼": 715,
      "丽": 716,
      "举": 717,
      "乂": 718,
      "乃": 719,
      "久": 720,
      "么": 721,
      "义": 722,
      "之": 723,
      "乌": 724,
      "乍": 725,
      "乎": 726,
      "乏": 727,
      "乐": 728,
      "乒": 729,
      "乓": 730,
      "乔": 731,
      "乖": 732,
      "乘": 733,
      "乙": 734,
      "乜": 735,
      "九": 736,
      "乞": 737,
      "也": 738,
      "习": 739,
      "乡": 740,
      "书": 741,
      "乩": 742,
      "买": 743,
      "乱": 744,
      "乳": 745,
      "乾": 746,
      "亀": 747,
      "了": 748,
      "予": 749,
      "争": 750,
      "亊": 751,
      "事": 752,
      "二": 753,
      "亍": 754,
      "于": 755,
      "亏": 756,
      "云": 757,
      "互": 758,
      "亓": 759,
      "五": 760,
      "井": 761,
      "亘": 762,
      "亚": 763,
      "些": 764,
      "亟": 765,
      "亡": 766,
      "亢": 767,
      "交": 768,
      "亥": 769,
      "亦": 770,
      "产": 771,
      "亨": 772,
      "亩": 773,
      "享": 774,
      "京": 775,
      "亭": 776,
      "亮": 777,
      "亰": 778,
      "亲": 779,
      "亳": 780,
      "亵": 781,
      "亹": 782,
      "人": 783,
      "亻": 784,
      "亿": 785,
      "什": 786,
      "仁": 787,
      "仃": 788,
      "仄": 789,
      "仅": 790,
      "仆": 791,
      "仇": 792,
      "仉": 793,
      "今": 794,
      "介": 795,
      "仍": 796,
      "从": 797,
      "仑": 798,
      "仓": 799,
      "仔": 800,
      "仕": 801,
      "他": 802,
      "仗": 803,
      "付": 804,
      "仙": 805,
      "仝": 806,
      "仞": 807,
      "仟": 808,
      "仡": 809,
      "代": 810,
      "令": 811,
      "以": 812,
      "仨": 813,
      "仪": 814,
      "们": 815,
      "仮": 816,
      "仰": 817,
      "仲": 818,
      "仳": 819,
      "仵": 820,
      "件": 821,
      "价": 822,
      "任": 823,
      "份": 824,
      "仿": 825,
      "企": 826,
      "伉": 827,
      "伊": 828,
      "伍": 829,
      "伎": 830,
      "伏": 831,
      "伐": 832,
      "休": 833,
      "伕": 834,
      "众": 835,
      "优": 836,
      "伙": 837,
      "会": 838,
      "伝": 839,
      "伞": 840,
      "伟": 841,
      "传": 842,
      "伢": 843,
      "伤": 844,
      "伥": 845,
      "伦": 846,
      "伪": 847,
      "伫": 848,
      "伯": 849,
      "估": 850,
      "伴": 851,
      "伶": 852,
      "伸": 853,
      "伺": 854,
      "似": 855,
      "伽": 856,
      "佃": 857,
      "但": 858,
      "位": 859,
      "低": 860,
      "住": 861,
      "佐": 862,
      "佑": 863,
      "体": 864,
      "何": 865,
      "佗": 866,
      "佘": 867,
      "余": 868,
      "佚": 869,
      "佛": 870,
      "作": 871,
      "佝": 872,
      "佞": 873,
      "佟": 874,
      "你": 875,
      "佢": 876,
      "佣": 877,
      "佤": 878,
      "佥": 879,
      "佩": 880,
      "佬": 881,
      "佯": 882,
      "佰": 883,
      "佳": 884,
      "佶": 885,
      "佷": 886,
      "佻": 887,
      "佼": 888,
      "佾": 889,
      "使": 890,
      "侂": 891,
      "侃": 892,
      "侄": 893,
      "侈": 894,
      "例": 895,
      "侍": 896,
      "侎": 897,
      "侏": 898,
      "侑": 899,
      "侗": 900,
      "侘": 901,
      "供": 902,
      "依": 903,
      "侠": 904,
      "侣": 905,
      "侥": 906,
      "侦": 907,
      "侧": 908,
      "侨": 909,
      "侩": 910,
      "侪": 911,
      "侬": 912,
      "侮": 913,
      "侯": 914,
      "侵": 915,
      "便": 916,
      "促": 917,
      "俄": 918,
      "俅": 919,
      "俊": 920,
      "俎": 921,
      "俏": 922,
      "俐": 923,
      "俑": 924,
      "俗": 925,
      "俘": 926,
      "俚": 927,
      "保": 928,
      "俞": 929,
      "俟": 930,
      "信": 931,
      "俣": 932,
      "俦": 933,
      "俨": 934,
      "俩": 935,
      "俪": 936,
      "俭": 937,
      "修": 938,
      "俯": 939,
      "俱": 940,
      "俳": 941,
      "俸": 942,
      "俺": 943,
      "俾": 944,
      "倂": 945,
      "倌": 946,
      "倍": 947,
      "倏": 948,
      "倒": 949,
      "倔": 950,
      "倘": 951,
      "候": 952,
      "倚": 953,
      "倜": 954,
      "借": 955,
      "倡": 956,
      "倦": 957,
      "倨": 958,
      "倩": 959,
      "倪": 960,
      "倬": 961,
      "倭": 962,
      "倮": 963,
      "债": 964,
      "值": 965,
      "倾": 966,
      "偃": 967,
      "假": 968,
      "偈": 969,
      "偌": 970,
      "偎": 971,
      "偏": 972,
      "偕": 973,
      "做": 974,
      "停": 975,
      "健": 976,
      "偲": 977,
      "偶": 978,
      "偷": 979,
      "偻": 980,
      "偾": 981,
      "偿": 982,
      "傀": 983,
      "傅": 984,
      "傈": 985,
      "傍": 986,
      "傣": 987,
      "傥": 988,
      "储": 989,
      "傩": 990,
      "催": 991,
      "傲": 992,
      "傻": 993,
      "像": 994,
      "僖": 995,
      "僚": 996,
      "僧": 997,
      "僭": 998,
      "僮": 999,
      "僳": 1000,
      "僵": 1001,
      "僻": 1002,
      "儅": 1003,
      "儆": 1004,
      "儋": 1005,
      "儒": 1006,
      "儡": 1007,
      "儿": 1008,
      "兀": 1009,
      "允": 1010,
      "元": 1011,
      "兄": 1012,
      "充": 1013,
      "兆": 1014,
      "先": 1015,
      "光": 1016,
      "克": 1017,
      "免": 1018,
      "兑": 1019,
      "兔": 1020,
      "兖": 1021,
      "党": 1022,
      "兜": 1023,
      "兢": 1024,
      "入": 1025,
      "全": 1026,
      "八": 1027,
      "公": 1028,
      "六": 1029,
      "兮": 1030,
      "兰": 1031,
      "共": 1032,
      "关": 1033,
      "兴": 1034,
      "兵": 1035,
      "其": 1036,
      "具": 1037,
      "典": 1038,
      "兹": 1039,
      "养": 1040,
      "兼": 1041,
      "兽": 1042,
      "冀": 1043,
      "内": 1044,
      "円": 1045,
      "冇": 1046,
      "冈": 1047,
      "冉": 1048,
      "册": 1049,
      "再": 1050,
      "冏": 1051,
      "冒": 1052,
      "冕": 1053,
      "冗": 1054,
      "写": 1055,
      "冚": 1056,
      "军": 1057,
      "农": 1058,
      "冠": 1059,
      "冢": 1060,
      "冤": 1061,
      "冥": 1062,
      "冬": 1063,
      "冯": 1064,
      "冰": 1065,
      "冲": 1066,
      "决": 1067,
      "况": 1068,
      "冶": 1069,
      "冷": 1070,
      "冻": 1071,
      "冼": 1072,
      "冽": 1073,
      "净": 1074,
      "凃": 1075,
      "凄": 1076,
      "凅": 1077,
      "准": 1078,
      "凇": 1079,
      "凉": 1080,
      "凋": 1081,
      "凌": 1082,
      "减": 1083,
      "凑": 1084,
      "凛": 1085,
      "凝": 1086,
      "几": 1087,
      "凡": 1088,
      "凤": 1089,
      "処": 1090,
      "凪": 1091,
      "凫": 1092,
      "凭": 1093,
      "凯": 1094,
      "凰": 1095,
      "凳": 1096,
      "凶": 1097,
      "凸": 1098,
      "凹": 1099,
      "出": 1100,
      "击": 1101,
      "函": 1102,
      "凿": 1103,
      "刀": 1104,
      "刁": 1105,
      "刃": 1106,
      "分": 1107,
      "切": 1108,
      "刈": 1109,
      "刊": 1110,
      "刍": 1111,
      "刎": 1112,
      "刑": 1113,
      "划": 1114,
      "列": 1115,
      "刘": 1116,
      "则": 1117,
      "刚": 1118,
      "创": 1119,
      "初": 1120,
      "删": 1121,
      "判": 1122,
      "刨": 1123,
      "利": 1124,
      "别": 1125,
      "刮": 1126,
      "到": 1127,
      "制": 1128,
      "刷": 1129,
      "券": 1130,
      "刹": 1131,
      "刺": 1132,
      "刻": 1133,
      "刽": 1134,
      "剁": 1135,
      "剂": 1136,
      "剃": 1137,
      "削": 1138,
      "剌": 1139,
      "前": 1140,
      "剐": 1141,
      "剑": 1142,
      "剔": 1143,
      "剖": 1144,
      "剜": 1145,
      "剞": 1146,
      "剡": 1147,
      "剥": 1148,
      "剧": 1149,
      "剩": 1150,
      "剪": 1151,
      "副": 1152,
      "割": 1153,
      "剽": 1154,
      "剿": 1155,
      "劈": 1156,
      "力": 1157,
      "劝": 1158,
      "办": 1159,
      "功": 1160,
      "加": 1161,
      "务": 1162,
      "劢": 1163,
      "劣": 1164,
      "动": 1165,
      "助": 1166,
      "努": 1167,
      "劫": 1168,
      "劭": 1169,
      "励": 1170,
      "劲": 1171,
      "劳": 1172,
      "劵": 1173,
      "劾": 1174,
      "势": 1175,
      "勃": 1176,
      "勇": 1177,
      "勉": 1178,
      "勋": 1179,
      "勐": 1180,
      "勒": 1181,
      "勖": 1182,
      "勘": 1183,
      "募": 1184,
      "勠": 1185,
      "勤": 1186,
      "勰": 1187,
      "勺": 1188,
      "勾": 1189,
      "勿": 1190,
      "匀": 1191,
      "包": 1192,
      "匆": 1193,
      "匈": 1194,
      "匍": 1195,
      "匏": 1196,
      "匐": 1197,
      "匕": 1198,
      "化": 1199,
      "北": 1200,
      "匙": 1201,
      "匚": 1202,
      "匝": 1203,
      "匠": 1204,
      "匡": 1205,
      "匣": 1206,
      "匪": 1207,
      "匮": 1208,
      "匹": 1209,
      "区": 1210,
      "医": 1211,
      "匾": 1212,
      "匿": 1213,
      "十": 1214,
      "千": 1215,
      "卅": 1216,
      "升": 1217,
      "午": 1218,
      "卉": 1219,
      "半": 1220,
      "华": 1221,
      "协": 1222,
      "卑": 1223,
      "卒": 1224,
      "卓": 1225,
      "单": 1226,
      "卖": 1227,
      "南": 1228,
      "博": 1229,
      "卜": 1230,
      "卞": 1231,
      "卟": 1232,
      "占": 1233,
      "卡": 1234,
      "卢": 1235,
      "卣": 1236,
      "卤": 1237,
      "卦": 1238,
      "卧": 1239,
      "卫": 1240,
      "卬": 1241,
      "卮": 1242,
      "卯": 1243,
      "印": 1244,
      "危": 1245,
      "即": 1246,
      "却": 1247,
      "卵": 1248,
      "卷": 1249,
      "卸": 1250,
      "卿": 1251,
      "厂": 1252,
      "厄": 1253,
      "厅": 1254,
      "历": 1255,
      "厉": 1256,
      "压": 1257,
      "厌": 1258,
      "厕": 1259,
      "厘": 1260,
      "厚": 1261,
      "厝": 1262,
      "原": 1263,
      "厢": 1264,
      "厥": 1265,
      "厦": 1266,
      "厨": 1267,
      "厩": 1268,
      "厮": 1269,
      "厶": 1270,
      "去": 1271,
      "县": 1272,
      "叁": 1273,
      "参": 1274,
      "又": 1275,
      "叉": 1276,
      "及": 1277,
      "友": 1278,
      "双": 1279,
      "反": 1280,
      "发": 1281,
      "叒": 1282,
      "叔": 1283,
      "叕": 1284,
      "取": 1285,
      "受": 1286,
      "变": 1287,
      "叙": 1288,
      "叛": 1289,
      "叟": 1290,
      "叠": 1291,
      "叡": 1292,
      "口": 1293,
      "古": 1294,
      "句": 1295,
      "另": 1296,
      "叨": 1297,
      "叩": 1298,
      "只": 1299,
      "叫": 1300,
      "召": 1301,
      "叭": 1302,
      "叮": 1303,
      "可": 1304,
      "台": 1305,
      "叱": 1306,
      "史": 1307,
      "右": 1308,
      "叵": 1309,
      "叶": 1310,
      "号": 1311,
      "司": 1312,
      "叹": 1313,
      "叻": 1314,
      "叼": 1315,
      "叽": 1316,
      "吁": 1317,
      "吃": 1318,
      "各": 1319,
      "吆": 1320,
      "合": 1321,
      "吉": 1322,
      "吊": 1323,
      "吋": 1324,
      "同": 1325,
      "名": 1326,
      "后": 1327,
      "吏": 1328,
      "吐": 1329,
      "向": 1330,
      "吓": 1331,
      "吕": 1332,
      "吖": 1333,
      "吗": 1334,
      "君": 1335,
      "吝": 1336,
      "吞": 1337,
      "吟": 1338,
      "吠": 1339,
      "吡": 1340,
      "否": 1341,
      "吧": 1342,
      "吨": 1343,
      "吩": 1344,
      "含": 1345,
      "听": 1346,
      "吭": 1347,
      "吮": 1348,
      "启": 1349,
      "吱": 1350,
      "吲": 1351,
      "吴": 1352,
      "吵": 1353,
      "吸": 1354,
      "吹": 1355,
      "吻": 1356,
      "吼": 1357,
      "吽": 1358,
      "吾": 1359,
      "吿": 1360,
      "呀": 1361,
      "呃": 1362,
      "呆": 1363,
      "呈": 1364,
      "告": 1365,
      "呋": 1366,
      "呎": 1367,
      "呐": 1368,
      "呓": 1369,
      "呕": 1370,
      "呖": 1371,
      "呗": 1372,
      "员": 1373,
      "呛": 1374,
      "呜": 1375,
      "呢": 1376,
      "呤": 1377,
      "呦": 1378,
      "周": 1379,
      "呯": 1380,
      "呱": 1381,
      "呲": 1382,
      "味": 1383,
      "呵": 1384,
      "呶": 1385,
      "呷": 1386,
      "呸": 1387,
      "呻": 1388,
      "呼": 1389,
      "命": 1390,
      "咀": 1391,
      "咁": 1392,
      "咂": 1393,
      "咄": 1394,
      "咆": 1395,
      "咋": 1396,
      "和": 1397,
      "咎": 1398,
      "咏": 1399,
      "咐": 1400,
      "咒": 1401,
      "咔": 1402,
      "咕": 1403,
      "咖": 1404,
      "咗": 1405,
      "咘": 1406,
      "咙": 1407,
      "咚": 1408,
      "咛": 1409,
      "咝": 1410,
      "咣": 1411,
      "咤": 1412,
      "咥": 1413,
      "咦": 1414,
      "咧": 1415,
      "咨": 1416,
      "咩": 1417,
      "咪": 1418,
      "咫": 1419,
      "咬": 1420,
      "咭": 1421,
      "咯": 1422,
      "咱": 1423,
      "咲": 1424,
      "咳": 1425,
      "咸": 1426,
      "咻": 1427,
      "咽": 1428,
      "咿": 1429,
      "哀": 1430,
      "品": 1431,
      "哂": 1432,
      "哄": 1433,
      "哆": 1434,
      "哇": 1435,
      "哈": 1436,
      "哉": 1437,
      "哋": 1438,
      "哌": 1439,
      "响": 1440,
      "哎": 1441,
      "哏": 1442,
      "哐": 1443,
      "哑": 1444,
      "哒": 1445,
      "哔": 1446,
      "哗": 1447,
      "哙": 1448,
      "哚": 1449,
      "哝": 1450,
      "哞": 1451,
      "哟": 1452,
      "哥": 1453,
      "哦": 1454,
      "哧": 1455,
      "哨": 1456,
      "哩": 1457,
      "哪": 1458,
      "哭": 1459,
      "哮": 1460,
      "哲": 1461,
      "哺": 1462,
      "哼": 1463,
      "哽": 1464,
      "唁": 1465,
      "唆": 1466,
      "唇": 1467,
      "唉": 1468,
      "唏": 1469,
      "唐": 1470,
      "唑": 1471,
      "唔": 1472,
      "唛": 1473,
      "唠": 1474,
      "唢": 1475,
      "唤": 1476,
      "唧": 1477,
      "唬": 1478,
      "售": 1479,
      "唯": 1480,
      "唰": 1481,
      "唱": 1482,
      "唳": 1483,
      "唷": 1484,
      "唾": 1485,
      "唿": 1486,
      "啁": 1487,
      "啃": 1488,
      "啄": 1489,
      "商": 1490,
      "啉": 1491,
      "啊": 1492,
      "啕": 1493,
      "啖": 1494,
      "啜": 1495,
      "啡": 1496,
      "啤": 1497,
      "啥": 1498,
      "啦": 1499,
      "啧": 1500,
      "啪": 1501,
      "啫": 1502,
      "啬": 1503,
      "啮": 1504,
      "啰": 1505,
      "啱": 1506,
      "啲": 1507,
      "啵": 1508,
      "啶": 1509,
      "啷": 1510,
      "啸": 1511,
      "啻": 1512,
      "啼": 1513,
      "啾": 1514,
      "喀": 1515,
      "喁": 1516,
      "喂": 1517,
      "喃": 1518,
      "善": 1519,
      "喆": 1520,
      "喇": 1521,
      "喈": 1522,
      "喉": 1523,
      "喊": 1524,
      "喋": 1525,
      "喏": 1526,
      "喑": 1527,
      "喔": 1528,
      "喘": 1529,
      "喙": 1530,
      "喜": 1531,
      "喝": 1532,
      "喟": 1533,
      "喦": 1534,
      "喧": 1535,
      "喱": 1536,
      "喳": 1537,
      "喵": 1538,
      "営": 1539,
      "喷": 1540,
      "喹": 1541,
      "喺": 1542,
      "喻": 1543,
      "喽": 1544,
      "喾": 1545,
      "嗄": 1546,
      "嗅": 1547,
      "嗑": 1548,
      "嗒": 1549,
      "嗓": 1550,
      "嗔": 1551,
      "嗖": 1552,
      "嗜": 1553,
      "嗝": 1554,
      "嗟": 1555,
      "嗡": 1556,
      "嗣": 1557,
      "嗤": 1558,
      "嗦": 1559,
      "嗨": 1560,
      "嗪": 1561,
      "嗫": 1562,
      "嗬": 1563,
      "嗯": 1564,
      "嗲": 1565,
      "嗳": 1566,
      "嗷": 1567,
      "嗽": 1568,
      "嘀": 1569,
      "嘅": 1570,
      "嘈": 1571,
      "嘉": 1572,
      "嘌": 1573,
      "嘎": 1574,
      "嘏": 1575,
      "嘘": 1576,
      "嘚": 1577,
      "嘛": 1578,
      "嘞": 1579,
      "嘟": 1580,
      "嘢": 1581,
      "嘣": 1582,
      "嘤": 1583,
      "嘧": 1584,
      "嘬": 1585,
      "嘭": 1586,
      "嘱": 1587,
      "嘲": 1588,
      "嘴": 1589,
      "嘶": 1590,
      "嘹": 1591,
      "嘻": 1592,
      "嘿": 1593,
      "噌": 1594,
      "噎": 1595,
      "噔": 1596,
      "噗": 1597,
      "噘": 1598,
      "噙": 1599,
      "噜": 1600,
      "噢": 1601,
      "噤": 1602,
      "器": 1603,
      "噩": 1604,
      "噪": 1605,
      "噫": 1606,
      "噬": 1607,
      "噱": 1608,
      "噶": 1609,
      "噻": 1610,
      "噼": 1611,
      "嚅": 1612,
      "嚎": 1613,
      "嚏": 1614,
      "嚓": 1615,
      "嚟": 1616,
      "嚣": 1617,
      "嚯": 1618,
      "嚷": 1619,
      "嚼": 1620,
      "囊": 1621,
      "囍": 1622,
      "囔": 1623,
      "囗": 1624,
      "囚": 1625,
      "四": 1626,
      "囝": 1627,
      "回": 1628,
      "囟": 1629,
      "因": 1630,
      "囡": 1631,
      "团": 1632,
      "団": 1633,
      "囤": 1634,
      "囧": 1635,
      "囫": 1636,
      "园": 1637,
      "囯": 1638,
      "困": 1639,
      "囱": 1640,
      "図": 1641,
      "围": 1642,
      "囵": 1643,
      "囹": 1644,
      "固": 1645,
      "国": 1646,
      "图": 1647,
      "囿": 1648,
      "圃": 1649,
      "圄": 1650,
      "圆": 1651,
      "圈": 1652,
      "圉": 1653,
      "圏": 1654,
      "圜": 1655,
      "土": 1656,
      "圣": 1657,
      "在": 1658,
      "圩": 1659,
      "圪": 1660,
      "圭": 1661,
      "地": 1662,
      "圳": 1663,
      "场": 1664,
      "圻": 1665,
      "圾": 1666,
      "址": 1667,
      "坂": 1668,
      "均": 1669,
      "坊": 1670,
      "坍": 1671,
      "坎": 1672,
      "坏": 1673,
      "坐": 1674,
      "坑": 1675,
      "块": 1676,
      "坚": 1677,
      "坛": 1678,
      "坜": 1679,
      "坝": 1680,
      "坞": 1681,
      "坟": 1682,
      "坠": 1683,
      "坡": 1684,
      "坣": 1685,
      "坤": 1686,
      "坦": 1687,
      "坨": 1688,
      "坩": 1689,
      "坪": 1690,
      "坭": 1691,
      "坯": 1692,
      "坳": 1693,
      "坷": 1694,
      "坻": 1695,
      "坼": 1696,
      "垂": 1697,
      "垃": 1698,
      "垄": 1699,
      "垅": 1700,
      "型": 1701,
      "垌": 1702,
      "垒": 1703,
      "垓": 1704,
      "垕": 1705,
      "垚": 1706,
      "垛": 1707,
      "垠": 1708,
      "垡": 1709,
      "垢": 1710,
      "垣": 1711,
      "垦": 1712,
      "垩": 1713,
      "垫": 1714,
      "垭": 1715,
      "垮": 1716,
      "垸": 1717,
      "埂": 1718,
      "埃": 1719,
      "埇": 1720,
      "埈": 1721,
      "埋": 1722,
      "城": 1723,
      "埔": 1724,
      "埕": 1725,
      "埗": 1726,
      "埚": 1727,
      "埜": 1728,
      "埝": 1729,
      "域": 1730,
      "埠": 1731,
      "埤": 1732,
      "埭": 1733,
      "埵": 1734,
      "埸": 1735,
      "培": 1736,
      "基": 1737,
      "埼": 1738,
      "堀": 1739,
      "堂": 1740,
      "堃": 1741,
      "堆": 1742,
      "堇": 1743,
      "堉": 1744,
      "堑": 1745,
      "堕": 1746,
      "堠": 1747,
      "堡": 1748,
      "堤": 1749,
      "堪": 1750,
      "堰": 1751,
      "堵": 1752,
      "堺": 1753,
      "堿": 1754,
      "塁": 1755,
      "塄": 1756,
      "塌": 1757,
      "塍": 1758,
      "塑": 1759,
      "塔": 1760,
      "塘": 1761,
      "塞": 1762,
      "塩": 1763,
      "填": 1764,
      "塬": 1765,
      "塭": 1766,
      "塱": 1767,
      "塾": 1768,
      "境": 1769,
      "墅": 1770,
      "墉": 1771,
      "墒": 1772,
      "墓": 1773,
      "増": 1774,
      "墘": 1775,
      "墙": 1776,
      "增": 1777,
      "墟": 1778,
      "墨": 1779,
      "墩": 1780,
      "壁": 1781,
      "壅": 1782,
      "壊": 1783,
      "壑": 1784,
      "壕": 1785,
      "壤": 1786,
      "士": 1787,
      "壬": 1788,
      "壮": 1789,
      "声": 1790,
      "壱": 1791,
      "売": 1792,
      "壳": 1793,
      "壶": 1794,
      "壹": 1795,
      "处": 1796,
      "备": 1797,
      "変": 1798,
      "复": 1799,
      "夏": 1800,
      "夔": 1801,
      "夕": 1802,
      "外": 1803,
      "夙": 1804,
      "多": 1805,
      "夜": 1806,
      "够": 1807,
      "夤": 1808,
      "大": 1809,
      "天": 1810,
      "太": 1811,
      "夫": 1812,
      "夭": 1813,
      "央": 1814,
      "夯": 1815,
      "失": 1816,
      "头": 1817,
      "夷": 1818,
      "夸": 1819,
      "夹": 1820,
      "夺": 1821,
      "奁": 1822,
      "奂": 1823,
      "奄": 1824,
      "奇": 1825,
      "奈": 1826,
      "奉": 1827,
      "奋": 1828,
      "奎": 1829,
      "奏": 1830,
      "契": 1831,
      "奔": 1832,
      "奕": 1833,
      "奖": 1834,
      "套": 1835,
      "奘": 1836,
      "奚": 1837,
      "奠": 1838,
      "奢": 1839,
      "奥": 1840,
      "奭": 1841,
      "女": 1842,
      "奴": 1843,
      "奶": 1844,
      "奸": 1845,
      "她": 1846,
      "好": 1847,
      "妁": 1848,
      "如": 1849,
      "妃": 1850,
      "妄": 1851,
      "妆": 1852,
      "妇": 1853,
      "妈": 1854,
      "妊": 1855,
      "妍": 1856,
      "妒": 1857,
      "妓": 1858,
      "妖": 1859,
      "妗": 1860,
      "妙": 1861,
      "妞": 1862,
      "妣": 1863,
      "妤": 1864,
      "妥": 1865,
      "妨": 1866,
      "妩": 1867,
      "妪": 1868,
      "妫": 1869,
      "妮": 1870,
      "妲": 1871,
      "妹": 1872,
      "妺": 1873,
      "妻": 1874,
      "妾": 1875,
      "姆": 1876,
      "姊": 1877,
      "始": 1878,
      "姐": 1879,
      "姑": 1880,
      "姒": 1881,
      "姓": 1882,
      "委": 1883,
      "姗": 1884,
      "姚": 1885,
      "姜": 1886,
      "姝": 1887,
      "姞": 1888,
      "姣": 1889,
      "姥": 1890,
      "姨": 1891,
      "姫": 1892,
      "姬": 1893,
      "姮": 1894,
      "姵": 1895,
      "姹": 1896,
      "姻": 1897,
      "姿": 1898,
      "威": 1899,
      "娃": 1900,
      "娄": 1901,
      "娅": 1902,
      "娆": 1903,
      "娇": 1904,
      "娉": 1905,
      "娌": 1906,
      "娑": 1907,
      "娓": 1908,
      "娘": 1909,
      "娜": 1910,
      "娟": 1911,
      "娠": 1912,
      "娡": 1913,
      "娣": 1914,
      "娥": 1915,
      "娩": 1916,
      "娭": 1917,
      "娱": 1918,
      "娲": 1919,
      "娴": 1920,
      "娶": 1921,
      "娼": 1922,
      "婀": 1923,
      "婆": 1924,
      "婇": 1925,
      "婉": 1926,
      "婊": 1927,
      "婕": 1928,
      "婚": 1929,
      "婢": 1930,
      "婧": 1931,
      "婪": 1932,
      "婴": 1933,
      "婵": 1934,
      "婶": 1935,
      "婷": 1936,
      "婺": 1937,
      "婿": 1938,
      "媒": 1939,
      "媚": 1940,
      "媛": 1941,
      "媞": 1942,
      "媲": 1943,
      "媳": 1944,
      "媵": 1945,
      "嫁": 1946,
      "嫂": 1947,
      "嫉": 1948,
      "嫌": 1949,
      "嫒": 1950,
      "嫔": 1951,
      "嫖": 1952,
      "嫘": 1953,
      "嫚": 1954,
      "嫡": 1955,
      "嫣": 1956,
      "嫦": 1957,
      "嫩": 1958,
      "嫱": 1959,
      "嫲": 1960,
      "嬅": 1961,
      "嬉": 1962,
      "嬗": 1963,
      "嬛": 1964,
      "嬢": 1965,
      "嬴": 1966,
      "嬷": 1967,
      "嬿": 1968,
      "孀": 1969,
      "子": 1970,
      "孑": 1971,
      "孓": 1972,
      "孔": 1973,
      "孕": 1974,
      "孖": 1975,
      "字": 1976,
      "存": 1977,
      "孙": 1978,
      "孚": 1979,
      "孛": 1980,
      "孜": 1981,
      "孝": 1982,
      "孟": 1983,
      "孢": 1984,
      "季": 1985,
      "孤": 1986,
      "学": 1987,
      "孩": 1988,
      "孪": 1989,
      "孰": 1990,
      "孱": 1991,
      "孳": 1992,
      "孵": 1993,
      "孺": 1994,
      "孽": 1995,
      "宁": 1996,
      "它": 1997,
      "宅": 1998,
      "宇": 1999,
      "守": 2000,
      "安": 2001,
      "宋": 2002,
      "完": 2003,
      "宏": 2004,
      "宓": 2005,
      "宕": 2006,
      "宗": 2007,
      "官": 2008,
      "宙": 2009,
      "定": 2010,
      "宛": 2011,
      "宜": 2012,
      "宝": 2013,
      "实": 2014,
      "実": 2015,
      "宠": 2016,
      "审": 2017,
      "客": 2018,
      "宣": 2019,
      "室": 2020,
      "宥": 2021,
      "宦": 2022,
      "宪": 2023,
      "宫": 2024,
      "宰": 2025,
      "害": 2026,
      "宴": 2027,
      "宵": 2028,
      "家": 2029,
      "宸": 2030,
      "容": 2031,
      "宽": 2032,
      "宾": 2033,
      "宿": 2034,
      "寂": 2035,
      "寄": 2036,
      "寅": 2037,
      "密": 2038,
      "寇": 2039,
      "富": 2040,
      "寐": 2041,
      "寒": 2042,
      "寓": 2043,
      "寔": 2044,
      "寛": 2045,
      "寝": 2046,
      "寞": 2047,
      "察": 2048,
      "寡": 2049,
      "寤": 2050,
      "寥": 2051,
      "寨": 2052,
      "寮": 2053,
      "寰": 2054,
      "寸": 2055,
      "对": 2056,
      "寺": 2057,
      "寻": 2058,
      "导": 2059,
      "対": 2060,
      "寿": 2061,
      "封": 2062,
      "専": 2063,
      "射": 2064,
      "将": 2065,
      "尉": 2066,
      "尊": 2067,
      "小": 2068,
      "少": 2069,
      "尓": 2070,
      "尔": 2071,
      "尕": 2072,
      "尖": 2073,
      "尘": 2074,
      "尚": 2075,
      "尝": 2076,
      "尤": 2077,
      "尧": 2078,
      "尬": 2079,
      "就": 2080,
      "尴": 2081,
      "尸": 2082,
      "尹": 2083,
      "尺": 2084,
      "尻": 2085,
      "尼": 2086,
      "尽": 2087,
      "尾": 2088,
      "尿": 2089,
      "局": 2090,
      "屁": 2091,
      "层": 2092,
      "居": 2093,
      "屈": 2094,
      "屉": 2095,
      "届": 2096,
      "屋": 2097,
      "屌": 2098,
      "屎": 2099,
      "屏": 2100,
      "屐": 2101,
      "屑": 2102,
      "展": 2103,
      "属": 2104,
      "屠": 2105,
      "屡": 2106,
      "履": 2107,
      "屯": 2108,
      "山": 2109,
      "屹": 2110,
      "屿": 2111,
      "岀": 2112,
      "岁": 2113,
      "岂": 2114,
      "岌": 2115,
      "岐": 2116,
      "岑": 2117,
      "岔": 2118,
      "岖": 2119,
      "岗": 2120,
      "岘": 2121,
      "岙": 2122,
      "岚": 2123,
      "岛": 2124,
      "岢": 2125,
      "岩": 2126,
      "岫": 2127,
      "岬": 2128,
      "岭": 2129,
      "岱": 2130,
      "岳": 2131,
      "岷": 2132,
      "岸": 2133,
      "岿": 2134,
      "峁": 2135,
      "峄": 2136,
      "峇": 2137,
      "峋": 2138,
      "峒": 2139,
      "峙": 2140,
      "峠": 2141,
      "峡": 2142,
      "峣": 2143,
      "峤": 2144,
      "峥": 2145,
      "峦": 2146,
      "峨": 2147,
      "峪": 2148,
      "峭": 2149,
      "峮": 2150,
      "峰": 2151,
      "峻": 2152,
      "崀": 2153,
      "崁": 2154,
      "崂": 2155,
      "崃": 2156,
      "崆": 2157,
      "崇": 2158,
      "崎": 2159,
      "崔": 2160,
      "崖": 2161,
      "崛": 2162,
      "崧": 2163,
      "崩": 2164,
      "崭": 2165,
      "崮": 2166,
      "崴": 2167,
      "崽": 2168,
      "嵇": 2169,
      "嵊": 2170,
      "嵋": 2171,
      "嵌": 2172,
      "嵘": 2173,
      "嵚": 2174,
      "嵩": 2175,
      "嵬": 2176,
      "嵯": 2177,
      "嵴": 2178,
      "嶂": 2179,
      "嶋": 2180,
      "嶕": 2181,
      "嶙": 2182,
      "嶷": 2183,
      "巂": 2184,
      "巅": 2185,
      "巉": 2186,
      "巍": 2187,
      "川": 2188,
      "州": 2189,
      "巡": 2190,
      "巢": 2191,
      "巣": 2192,
      "工": 2193,
      "左": 2194,
      "巧": 2195,
      "巨": 2196,
      "巩": 2197,
      "巫": 2198,
      "差": 2199,
      "巯": 2200,
      "己": 2201,
      "已": 2202,
      "巳": 2203,
      "巴": 2204,
      "巷": 2205,
      "巻": 2206,
      "巽": 2207,
      "巾": 2208,
      "巿": 2209,
      "币": 2210,
      "市": 2211,
      "布": 2212,
      "帅": 2213,
      "帆": 2214,
      "师": 2215,
      "希": 2216,
      "帏": 2217,
      "帐": 2218,
      "帑": 2219,
      "帔": 2220,
      "帕": 2221,
      "帖": 2222,
      "帘": 2223,
      "帙": 2224,
      "帚": 2225,
      "帛": 2226,
      "帜": 2227,
      "帝": 2228,
      "带": 2229,
      "帧": 2230,
      "席": 2231,
      "帮": 2232,
      "帯": 2233,
      "帷": 2234,
      "常": 2235,
      "帻": 2236,
      "帼": 2237,
      "帽": 2238,
      "幂": 2239,
      "幄": 2240,
      "幅": 2241,
      "幌": 2242,
      "幔": 2243,
      "幕": 2244,
      "幡": 2245,
      "幢": 2246,
      "干": 2247,
      "平": 2248,
      "年": 2249,
      "并": 2250,
      "幷": 2251,
      "幸": 2252,
      "幺": 2253,
      "幻": 2254,
      "幼": 2255,
      "幽": 2256,
      "广": 2257,
      "広": 2258,
      "庄": 2259,
      "庆": 2260,
      "庇": 2261,
      "床": 2262,
      "序": 2263,
      "庐": 2264,
      "庑": 2265,
      "库": 2266,
      "应": 2267,
      "底": 2268,
      "庖": 2269,
      "店": 2270,
      "庙": 2271,
      "庚": 2272,
      "府": 2273,
      "庞": 2274,
      "废": 2275,
      "庠": 2276,
      "度": 2277,
      "座": 2278,
      "庭": 2279,
      "庵": 2280,
      "庶": 2281,
      "康": 2282,
      "庸": 2283,
      "庹": 2284,
      "庾": 2285,
      "廆": 2286,
      "廉": 2287,
      "廊": 2288,
      "廓": 2289,
      "廖": 2290,
      "廨": 2291,
      "廪": 2292,
      "廯": 2293,
      "延": 2294,
      "廷": 2295,
      "廸": 2296,
      "建": 2297,
      "廿": 2298,
      "开": 2299,
      "弁": 2300,
      "异": 2301,
      "弃": 2302,
      "弄": 2303,
      "弇": 2304,
      "弈": 2305,
      "弊": 2306,
      "弋": 2307,
      "式": 2308,
      "弑": 2309,
      "弓": 2310,
      "引": 2311,
      "弗": 2312,
      "弘": 2313,
      "弛": 2314,
      "弟": 2315,
      "张": 2316,
      "弢": 2317,
      "弥": 2318,
      "弦": 2319,
      "弧": 2320,
      "弩": 2321,
      "弭": 2322,
      "弯": 2323,
      "弱": 2324,
      "弹": 2325,
      "强": 2326,
      "弼": 2327,
      "彀": 2328,
      "彅": 2329,
      "彊": 2330,
      "归": 2331,
      "当": 2332,
      "录": 2333,
      "彗": 2334,
      "彘": 2335,
      "彝": 2336,
      "彡": 2337,
      "形": 2338,
      "彤": 2339,
      "彦": 2340,
      "彧": 2341,
      "彩": 2342,
      "彪": 2343,
      "彬": 2344,
      "彭": 2345,
      "彰": 2346,
      "影": 2347,
      "彷": 2348,
      "役": 2349,
      "彻": 2350,
      "彼": 2351,
      "彽": 2352,
      "往": 2353,
      "征": 2354,
      "徂": 2355,
      "径": 2356,
      "待": 2357,
      "徇": 2358,
      "很": 2359,
      "徉": 2360,
      "徊": 2361,
      "律": 2362,
      "徐": 2363,
      "徒": 2364,
      "徕": 2365,
      "得": 2366,
      "徘": 2367,
      "徙": 2368,
      "徜": 2369,
      "御": 2370,
      "徨": 2371,
      "循": 2372,
      "徬": 2373,
      "徭": 2374,
      "微": 2375,
      "徳": 2376,
      "徵": 2377,
      "德": 2378,
      "徼": 2379,
      "徽": 2380,
      "心": 2381,
      "必": 2382,
      "忆": 2383,
      "忌": 2384,
      "忍": 2385,
      "忏": 2386,
      "忐": 2387,
      "忑": 2388,
      "忒": 2389,
      "忖": 2390,
      "志": 2391,
      "忘": 2392,
      "忙": 2393,
      "応": 2394,
      "忝": 2395,
      "忠": 2396,
      "忡": 2397,
      "忤": 2398,
      "忧": 2399,
      "忪": 2400,
      "快": 2401,
      "忱": 2402,
      "念": 2403,
      "忸": 2404,
      "忻": 2405,
      "忽": 2406,
      "忿": 2407,
      "怀": 2408,
      "态": 2409,
      "怂": 2410,
      "怄": 2411,
      "怅": 2412,
      "怆": 2413,
      "怎": 2414,
      "怏": 2415,
      "怒": 2416,
      "怔": 2417,
      "怕": 2418,
      "怖": 2419,
      "怙": 2420,
      "怜": 2421,
      "思": 2422,
      "怠": 2423,
      "怡": 2424,
      "急": 2425,
      "怦": 2426,
      "性": 2427,
      "怨": 2428,
      "怪": 2429,
      "怯": 2430,
      "怵": 2431,
      "总": 2432,
      "怼": 2433,
      "怿": 2434,
      "恁": 2435,
      "恂": 2436,
      "恃": 2437,
      "恋": 2438,
      "恍": 2439,
      "恐": 2440,
      "恒": 2441,
      "恕": 2442,
      "恙": 2443,
      "恚": 2444,
      "恢": 2445,
      "恣": 2446,
      "恤": 2447,
      "恨": 2448,
      "恩": 2449,
      "恪": 2450,
      "恫": 2451,
      "恬": 2452,
      "恭": 2453,
      "息": 2454,
      "恰": 2455,
      "恳": 2456,
      "恵": 2457,
      "恶": 2458,
      "恸": 2459,
      "恹": 2460,
      "恺": 2461,
      "恻": 2462,
      "恼": 2463,
      "恽": 2464,
      "恿": 2465,
      "悄": 2466,
      "悉": 2467,
      "悌": 2468,
      "悍": 2469,
      "悒": 2470,
      "悔": 2471,
      "悖": 2472,
      "悚": 2473,
      "悛": 2474,
      "悝": 2475,
      "悟": 2476,
      "悠": 2477,
      "患": 2478,
      "悦": 2479,
      "您": 2480,
      "悪": 2481,
      "悬": 2482,
      "悭": 2483,
      "悯": 2484,
      "悱": 2485,
      "悲": 2486,
      "悴": 2487,
      "悸": 2488,
      "悻": 2489,
      "悼": 2490,
      "情": 2491,
      "惆": 2492,
      "惇": 2493,
      "惊": 2494,
      "惋": 2495,
      "惑": 2496,
      "惕": 2497,
      "惘": 2498,
      "惚": 2499,
      "惜": 2500,
      "惟": 2501,
      "惠": 2502,
      "惢": 2503,
      "惦": 2504,
      "惧": 2505,
      "惨": 2506,
      "惩": 2507,
      "惫": 2508,
      "惬": 2509,
      "惭": 2510,
      "惮": 2511,
      "惯": 2512,
      "惰": 2513,
      "想": 2514,
      "惴": 2515,
      "惶": 2516,
      "惹": 2517,
      "惺": 2518,
      "愁": 2519,
      "愆": 2520,
      "愈": 2521,
      "愉": 2522,
      "愍": 2523,
      "愎": 2524,
      "意": 2525,
      "愔": 2526,
      "愕": 2527,
      "愚": 2528,
      "感": 2529,
      "愠": 2530,
      "愣": 2531,
      "愤": 2532,
      "愦": 2533,
      "愧": 2534,
      "愫": 2535,
      "愿": 2536,
      "慈": 2537,
      "慌": 2538,
      "慎": 2539,
      "慑": 2540,
      "慕": 2541,
      "慜": 2542,
      "慝": 2543,
      "慢": 2544,
      "慧": 2545,
      "慨": 2546,
      "慰": 2547,
      "慵": 2548,
      "慷": 2549,
      "憋": 2550,
      "憎": 2551,
      "憓": 2552,
      "憔": 2553,
      "憙": 2554,
      "憧": 2555,
      "憨": 2556,
      "憩": 2557,
      "憬": 2558,
      "憾": 2559,
      "懂": 2560,
      "懈": 2561,
      "懊": 2562,
      "懋": 2563,
      "懑": 2564,
      "懒": 2565,
      "懦": 2566,
      "懵": 2567,
      "懿": 2568,
      "戈": 2569,
      "戊": 2570,
      "戋": 2571,
      "戌": 2572,
      "戍": 2573,
      "戎": 2574,
      "戏": 2575,
      "成": 2576,
      "我": 2577,
      "戒": 2578,
      "戕": 2579,
      "或": 2580,
      "戗": 2581,
      "战": 2582,
      "戚": 2583,
      "戛": 2584,
      "戟": 2585,
      "戡": 2586,
      "戣": 2587,
      "戦": 2588,
      "截": 2589,
      "戬": 2590,
      "戮": 2591,
      "戯": 2592,
      "戳": 2593,
      "戴": 2594,
      "户": 2595,
      "戸": 2596,
      "戽": 2597,
      "戾": 2598,
      "房": 2599,
      "所": 2600,
      "扁": 2601,
      "扇": 2602,
      "扈": 2603,
      "扉": 2604,
      "手": 2605,
      "扌": 2606,
      "才": 2607,
      "扎": 2608,
      "扑": 2609,
      "扒": 2610,
      "打": 2611,
      "扔": 2612,
      "托": 2613,
      "扛": 2614,
      "扣": 2615,
      "扥": 2616,
      "扦": 2617,
      "执": 2618,
      "扩": 2619,
      "扪": 2620,
      "扫": 2621,
      "扬": 2622,
      "扭": 2623,
      "扮": 2624,
      "扯": 2625,
      "扰": 2626,
      "扳": 2627,
      "扶": 2628,
      "批": 2629,
      "扼": 2630,
      "找": 2631,
      "承": 2632,
      "技": 2633,
      "抃": 2634,
      "抄": 2635,
      "抉": 2636,
      "把": 2637,
      "抑": 2638,
      "抒": 2639,
      "抓": 2640,
      "投": 2641,
      "抖": 2642,
      "抗": 2643,
      "折": 2644,
      "抚": 2645,
      "抛": 2646,
      "抟": 2647,
      "抠": 2648,
      "抡": 2649,
      "抢": 2650,
      "护": 2651,
      "报": 2652,
      "抨": 2653,
      "披": 2654,
      "抬": 2655,
      "抱": 2656,
      "抵": 2657,
      "抹": 2658,
      "抺": 2659,
      "抻": 2660,
      "押": 2661,
      "抽": 2662,
      "抿": 2663,
      "拂": 2664,
      "拄": 2665,
      "担": 2666,
      "拆": 2667,
      "拇": 2668,
      "拈": 2669,
      "拉": 2670,
      "拊": 2671,
      "拌": 2672,
      "拍": 2673,
      "拎": 2674,
      "拐": 2675,
      "拒": 2676,
      "拓": 2677,
      "拔": 2678,
      "拖": 2679,
      "拗": 2680,
      "拘": 2681,
      "拙": 2682,
      "招": 2683,
      "拜": 2684,
      "拟": 2685,
      "拢": 2686,
      "拣": 2687,
      "拥": 2688,
      "拦": 2689,
      "拧": 2690,
      "拨": 2691,
      "择": 2692,
      "括": 2693,
      "拭": 2694,
      "拮": 2695,
      "拯": 2696,
      "拱": 2697,
      "拳": 2698,
      "拴": 2699,
      "拷": 2700,
      "拼": 2701,
      "拽": 2702,
      "拾": 2703,
      "拿": 2704,
      "持": 2705,
      "挂": 2706,
      "指": 2707,
      "挈": 2708,
      "按": 2709,
      "挎": 2710,
      "挑": 2711,
      "挖": 2712,
      "挚": 2713,
      "挛": 2714,
      "挝": 2715,
      "挞": 2716,
      "挟": 2717,
      "挠": 2718,
      "挡": 2719,
      "挣": 2720,
      "挤": 2721,
      "挥": 2722,
      "挨": 2723,
      "挪": 2724,
      "挫": 2725,
      "振": 2726,
      "挲": 2727,
      "挹": 2728,
      "挺": 2729,
      "挽": 2730,
      "捂": 2731,
      "捅": 2732,
      "捆": 2733,
      "捉": 2734,
      "捋": 2735,
      "捌": 2736,
      "捍": 2737,
      "捎": 2738,
      "捏": 2739,
      "捐": 2740,
      "捕": 2741,
      "捞": 2742,
      "损": 2743,
      "捡": 2744,
      "换": 2745,
      "捣": 2746,
      "捧": 2747,
      "捩": 2748,
      "捭": 2749,
      "据": 2750,
      "捶": 2751,
      "捷": 2752,
      "捺": 2753,
      "捻": 2754,
      "掀": 2755,
      "掂": 2756,
      "掇": 2757,
      "授": 2758,
      "掉": 2759,
      "掌": 2760,
      "掏": 2761,
      "掐": 2762,
      "排": 2763,
      "掖": 2764,
      "掘": 2765,
      "掠": 2766,
      "探": 2767,
      "掣": 2768,
      "接": 2769,
      "控": 2770,
      "推": 2771,
      "掩": 2772,
      "措": 2773,
      "掬": 2774,
      "掮": 2775,
      "掰": 2776,
      "掳": 2777,
      "掴": 2778,
      "掷": 2779,
      "掸": 2780,
      "掺": 2781,
      "掼": 2782,
      "掾": 2783,
      "揄": 2784,
      "揆": 2785,
      "揉": 2786,
      "揍": 2787,
      "描": 2788,
      "提": 2789,
      "插": 2790,
      "揖": 2791,
      "揠": 2792,
      "握": 2793,
      "揣": 2794,
      "揩": 2795,
      "揪": 2796,
      "揭": 2797,
      "揲": 2798,
      "援": 2799,
      "揵": 2800,
      "揶": 2801,
      "揸": 2802,
      "揽": 2803,
      "揾": 2804,
      "揿": 2805,
      "搀": 2806,
      "搁": 2807,
      "搂": 2808,
      "搅": 2809,
      "搋": 2810,
      "搏": 2811,
      "搐": 2812,
      "搓": 2813,
      "搔": 2814,
      "搜": 2815,
      "搞": 2816,
      "搡": 2817,
      "搦": 2818,
      "搪": 2819,
      "搬": 2820,
      "搭": 2821,
      "携": 2822,
      "搽": 2823,
      "摀": 2824,
      "摁": 2825,
      "摄": 2826,
      "摆": 2827,
      "摇": 2828,
      "摈": 2829,
      "摊": 2830,
      "摒": 2831,
      "摔": 2832,
      "摘": 2833,
      "摞": 2834,
      "摧": 2835,
      "摩": 2836,
      "摭": 2837,
      "摰": 2838,
      "摸": 2839,
      "摹": 2840,
      "撂": 2841,
      "撃": 2842,
      "撅": 2843,
      "撇": 2844,
      "撑": 2845,
      "撒": 2846,
      "撕": 2847,
      "撙": 2848,
      "撞": 2849,
      "撤": 2850,
      "撩": 2851,
      "撬": 2852,
      "播": 2853,
      "撮": 2854,
      "撰": 2855,
      "撵": 2856,
      "撷": 2857,
      "撸": 2858,
      "撺": 2859,
      "撼": 2860,
      "擀": 2861,
      "擂": 2862,
      "擅": 2863,
      "操": 2864,
      "擎": 2865,
      "擒": 2866,
      "擘": 2867,
      "擞": 2868,
      "擡": 2869,
      "擢": 2870,
      "擤": 2871,
      "擦": 2872,
      "攀": 2873,
      "攒": 2874,
      "攘": 2875,
      "攞": 2876,
      "攥": 2877,
      "攫": 2878,
      "支": 2879,
      "攰": 2880,
      "收": 2881,
      "攸": 2882,
      "改": 2883,
      "攻": 2884,
      "放": 2885,
      "政": 2886,
      "故": 2887,
      "效": 2888,
      "敌": 2889,
      "敏": 2890,
      "救": 2891,
      "敕": 2892,
      "敖": 2893,
      "教": 2894,
      "敛": 2895,
      "敝": 2896,
      "敞": 2897,
      "敢": 2898,
      "散": 2899,
      "敦": 2900,
      "敬": 2901,
      "数": 2902,
      "敲": 2903,
      "整": 2904,
      "敷": 2905,
      "數": 2906,
      "文": 2907,
      "斋": 2908,
      "斌": 2909,
      "斐": 2910,
      "斑": 2911,
      "斓": 2912,
      "斗": 2913,
      "料": 2914,
      "斛": 2915,
      "斜": 2916,
      "斟": 2917,
      "斡": 2918,
      "斤": 2919,
      "斥": 2920,
      "斧": 2921,
      "斩": 2922,
      "斫": 2923,
      "断": 2924,
      "斯": 2925,
      "新": 2926,
      "方": 2927,
      "於": 2928,
      "施": 2929,
      "旁": 2930,
      "旃": 2931,
      "旅": 2932,
      "旋": 2933,
      "旌": 2934,
      "旎": 2935,
      "族": 2936,
      "旒": 2937,
      "旖": 2938,
      "旗": 2939,
      "无": 2940,
      "既": 2941,
      "日": 2942,
      "旦": 2943,
      "旧": 2944,
      "旨": 2945,
      "早": 2946,
      "旬": 2947,
      "旭": 2948,
      "旮": 2949,
      "旯": 2950,
      "旱": 2951,
      "旳": 2952,
      "时": 2953,
      "旷": 2954,
      "旸": 2955,
      "旺": 2956,
      "旻": 2957,
      "旼": 2958,
      "昀": 2959,
      "昂": 2960,
      "昆": 2961,
      "昉": 2962,
      "昊": 2963,
      "昌": 2964,
      "明": 2965,
      "昏": 2966,
      "易": 2967,
      "昔": 2968,
      "昕": 2969,
      "昙": 2970,
      "星": 2971,
      "映": 2972,
      "春": 2973,
      "昧": 2974,
      "昨": 2975,
      "昭": 2976,
      "是": 2977,
      "昰": 2978,
      "昱": 2979,
      "昴": 2980,
      "昵": 2981,
      "昶": 2982,
      "昺": 2983,
      "昼": 2984,
      "显": 2985,
      "晁": 2986,
      "晃": 2987,
      "晊": 2988,
      "晋": 2989,
      "晌": 2990,
      "晏": 2991,
      "晒": 2992,
      "晓": 2993,
      "晔": 2994,
      "晕": 2995,
      "晖": 2996,
      "晗": 2997,
      "晚": 2998,
      "晞": 2999,
      "晟": 3000,
      "晤": 3001,
      "晦": 3002,
      "晨": 3003,
      "晩": 3004,
      "普": 3005,
      "景": 3006,
      "晰": 3007,
      "晴": 3008,
      "晶": 3009,
      "晷": 3010,
      "智": 3011,
      "晾": 3012,
      "暂": 3013,
      "暄": 3014,
      "暇": 3015,
      "暌": 3016,
      "暑": 3017,
      "暖": 3018,
      "暗": 3019,
      "暝": 3020,
      "暧": 3021,
      "暨": 3022,
      "暮": 3023,
      "暴": 3024,
      "暸": 3025,
      "暹": 3026,
      "曌": 3027,
      "曙": 3028,
      "曜": 3029,
      "曝": 3030,
      "曦": 3031,
      "曩": 3032,
      "曰": 3033,
      "曲": 3034,
      "曳": 3035,
      "更": 3036,
      "曷": 3037,
      "曹": 3038,
      "曼": 3039,
      "曾": 3040,
      "替": 3041,
      "最": 3042,
      "朂": 3043,
      "月": 3044,
      "有": 3045,
      "朊": 3046,
      "朋": 3047,
      "服": 3048,
      "朐": 3049,
      "朓": 3050,
      "朔": 3051,
      "朕": 3052,
      "朗": 3053,
      "望": 3054,
      "朝": 3055,
      "期": 3056,
      "朤": 3057,
      "朦": 3058,
      "木": 3059,
      "未": 3060,
      "末": 3061,
      "本": 3062,
      "札": 3063,
      "术": 3064,
      "朱": 3065,
      "朴": 3066,
      "朵": 3067,
      "机": 3068,
      "朽": 3069,
      "杀": 3070,
      "杂": 3071,
      "权": 3072,
      "杆": 3073,
      "杈": 3074,
      "杉": 3075,
      "杌": 3076,
      "李": 3077,
      "杏": 3078,
      "材": 3079,
      "村": 3080,
      "杓": 3081,
      "杖": 3082,
      "杜": 3083,
      "杞": 3084,
      "束": 3085,
      "杠": 3086,
      "条": 3087,
      "来": 3088,
      "杨": 3089,
      "杪": 3090,
      "杬": 3091,
      "杭": 3092,
      "杯": 3093,
      "杰": 3094,
      "杲": 3095,
      "杳": 3096,
      "杵": 3097,
      "杷": 3098,
      "杼": 3099,
      "松": 3100,
      "板": 3101,
      "极": 3102,
      "构": 3103,
      "枇": 3104,
      "枉": 3105,
      "枋": 3106,
      "析": 3107,
      "枕": 3108,
      "林": 3109,
      "枚": 3110,
      "果": 3111,
      "枝": 3112,
      "枞": 3113,
      "枡": 3114,
      "枢": 3115,
      "枣": 3116,
      "枥": 3117,
      "枧": 3118,
      "枨": 3119,
      "枪": 3120,
      "枫": 3121,
      "枭": 3122,
      "枯": 3123,
      "枰": 3124,
      "枳": 3125,
      "架": 3126,
      "枷": 3127,
      "枸": 3128,
      "枹": 3129,
      "柁": 3130,
      "柄": 3131,
      "柏": 3132,
      "某": 3133,
      "柑": 3134,
      "柒": 3135,
      "染": 3136,
      "柔": 3137,
      "柘": 3138,
      "柚": 3139,
      "柜": 3140,
      "柝": 3141,
      "柞": 3142,
      "柠": 3143,
      "柢": 3144,
      "查": 3145,
      "柩": 3146,
      "柬": 3147,
      "柯": 3148,
      "柰": 3149,
      "柱": 3150,
      "柳": 3151,
      "柴": 3152,
      "柾": 3153,
      "柿": 3154,
      "栀": 3155,
      "栃": 3156,
      "栅": 3157,
      "标": 3158,
      "栈": 3159,
      "栉": 3160,
      "栊": 3161,
      "栋": 3162,
      "栌": 3163,
      "栎": 3164,
      "栏": 3165,
      "树": 3166,
      "栓": 3167,
      "栖": 3168,
      "栗": 3169,
      "校": 3170,
      "栩": 3171,
      "株": 3172,
      "栲": 3173,
      "栴": 3174,
      "样": 3175,
      "核": 3176,
      "根": 3177,
      "格": 3178,
      "栽": 3179,
      "栾": 3180,
      "桀": 3181,
      "桁": 3182,
      "桂": 3183,
      "桃": 3184,
      "桅": 3185,
      "框": 3186,
      "案": 3187,
      "桉": 3188,
      "桌": 3189,
      "桎": 3190,
      "桐": 3191,
      "桑": 3192,
      "桓": 3193,
      "桔": 3194,
      "桜": 3195,
      "桠": 3196,
      "桡": 3197,
      "桢": 3198,
      "档": 3199,
      "桥": 3200,
      "桦": 3201,
      "桧": 3202,
      "桨": 3203,
      "桩": 3204,
      "桫": 3205,
      "桶": 3206,
      "桷": 3207,
      "梁": 3208,
      "梃": 3209,
      "梅": 3210,
      "梆": 3211,
      "梏": 3212,
      "梓": 3213,
      "梗": 3214,
      "梢": 3215,
      "梦": 3216,
      "梧": 3217,
      "梨": 3218,
      "梭": 3219,
      "梯": 3220,
      "械": 3221,
      "梳": 3222,
      "梵": 3223,
      "梶": 3224,
      "梿": 3225,
      "检": 3226,
      "棂": 3227,
      "棉": 3228,
      "棋": 3229,
      "棍": 3230,
      "棒": 3231,
      "棕": 3232,
      "棘": 3233,
      "棚": 3234,
      "棠": 3235,
      "棣": 3236,
      "棪": 3237,
      "森": 3238,
      "棰": 3239,
      "棱": 3240,
      "棵": 3241,
      "棹": 3242,
      "棺": 3243,
      "椁": 3244,
      "椅": 3245,
      "椋": 3246,
      "植": 3247,
      "椎": 3248,
      "椐": 3249,
      "椒": 3250,
      "検": 3251,
      "椟": 3252,
      "椤": 3253,
      "椥": 3254,
      "椪": 3255,
      "椭": 3256,
      "椰": 3257,
      "椴": 3258,
      "椹": 3259,
      "椽": 3260,
      "椿": 3261,
      "楂": 3262,
      "楔": 3263,
      "楚": 3264,
      "楝": 3265,
      "楞": 3266,
      "楠": 3267,
      "楣": 3268,
      "楦": 3269,
      "楫": 3270,
      "楮": 3271,
      "楷": 3272,
      "楸": 3273,
      "楹": 3274,
      "楼": 3275,
      "楽": 3276,
      "榀": 3277,
      "概": 3278,
      "榄": 3279,
      "榆": 3280,
      "榈": 3281,
      "榉": 3282,
      "榎": 3283,
      "榔": 3284,
      "榕": 3285,
      "榖": 3286,
      "榛": 3287,
      "榜": 3288,
      "榧": 3289,
      "榨": 3290,
      "榫": 3291,
      "榭": 3292,
      "榴": 3293,
      "榷": 3294,
      "榻": 3295,
      "槁": 3296,
      "槃": 3297,
      "槊": 3298,
      "槌": 3299,
      "槎": 3300,
      "槐": 3301,
      "槔": 3302,
      "様": 3303,
      "槛": 3304,
      "槟": 3305,
      "槠": 3306,
      "槭": 3307,
      "槲": 3308,
      "槻": 3309,
      "槽": 3310,
      "槿": 3311,
      "樊": 3312,
      "樗": 3313,
      "樘": 3314,
      "樟": 3315,
      "模": 3316,
      "樨": 3317,
      "横": 3318,
      "樯": 3319,
      "樱": 3320,
      "樵": 3321,
      "樽": 3322,
      "樾": 3323,
      "橄": 3324,
      "橇": 3325,
      "橐": 3326,
      "橘": 3327,
      "橙": 3328,
      "橡": 3329,
      "橥": 3330,
      "橱": 3331,
      "橹": 3332,
      "橼": 3333,
      "檀": 3334,
      "檄": 3335,
      "檐": 3336,
      "檗": 3337,
      "檩": 3338,
      "檫": 3339,
      "檬": 3340,
      "櫂": 3341,
      "欠": 3342,
      "次": 3343,
      "欢": 3344,
      "欣": 3345,
      "欤": 3346,
      "欧": 3347,
      "欲": 3348,
      "欷": 3349,
      "欸": 3350,
      "欹": 3351,
      "欺": 3352,
      "欻": 3353,
      "款": 3354,
      "歃": 3355,
      "歆": 3356,
      "歇": 3357,
      "歉": 3358,
      "歌": 3359,
      "歙": 3360,
      "止": 3361,
      "正": 3362,
      "此": 3363,
      "步": 3364,
      "武": 3365,
      "歧": 3366,
      "歩": 3367,
      "歪": 3368,
      "歳": 3369,
      "歹": 3370,
      "死": 3371,
      "歼": 3372,
      "殁": 3373,
      "殂": 3374,
      "殃": 3375,
      "殄": 3376,
      "殆": 3377,
      "殇": 3378,
      "殉": 3379,
      "殊": 3380,
      "残": 3381,
      "殒": 3382,
      "殓": 3383,
      "殖": 3384,
      "殚": 3385,
      "殡": 3386,
      "殴": 3387,
      "段": 3388,
      "殷": 3389,
      "殿": 3390,
      "毁": 3391,
      "毂": 3392,
      "毅": 3393,
      "毉": 3394,
      "毋": 3395,
      "母": 3396,
      "毎": 3397,
      "每": 3398,
      "毑": 3399,
      "毒": 3400,
      "毓": 3401,
      "比": 3402,
      "毕": 3403,
      "毖": 3404,
      "毗": 3405,
      "毘": 3406,
      "毙": 3407,
      "毛": 3408,
      "毡": 3409,
      "毫": 3410,
      "毯": 3411,
      "毽": 3412,
      "氅": 3413,
      "氏": 3414,
      "氐": 3415,
      "民": 3416,
      "氓": 3417,
      "气": 3418,
      "氖": 3419,
      "気": 3420,
      "氘": 3421,
      "氙": 3422,
      "氚": 3423,
      "氛": 3424,
      "氟": 3425,
      "氡": 3426,
      "氢": 3427,
      "氤": 3428,
      "氦": 3429,
      "氧": 3430,
      "氨": 3431,
      "氩": 3432,
      "氪": 3433,
      "氮": 3434,
      "氯": 3435,
      "氰": 3436,
      "氲": 3437,
      "水": 3438,
      "永": 3439,
      "氹": 3440,
      "氽": 3441,
      "氿": 3442,
      "汀": 3443,
      "汁": 3444,
      "求": 3445,
      "汆": 3446,
      "汇": 3447,
      "汉": 3448,
      "汊": 3449,
      "汐": 3450,
      "汕": 3451,
      "汗": 3452,
      "汛": 3453,
      "汜": 3454,
      "汝": 3455,
      "汞": 3456,
      "江": 3457,
      "池": 3458,
      "污": 3459,
      "汤": 3460,
      "汧": 3461,
      "汨": 3462,
      "汩": 3463,
      "汪": 3464,
      "汫": 3465,
      "汰": 3466,
      "汲": 3467,
      "汴": 3468,
      "汶": 3469,
      "汹": 3470,
      "汽": 3471,
      "汾": 3472,
      "沁": 3473,
      "沂": 3474,
      "沃": 3475,
      "沄": 3476,
      "沅": 3477,
      "沆": 3478,
      "沈": 3479,
      "沉": 3480,
      "沌": 3481,
      "沏": 3482,
      "沐": 3483,
      "沓": 3484,
      "沔": 3485,
      "沙": 3486,
      "沚": 3487,
      "沛": 3488,
      "沟": 3489,
      "没": 3490,
      "沢": 3491,
      "沣": 3492,
      "沤": 3493,
      "沥": 3494,
      "沦": 3495,
      "沧": 3496,
      "沪": 3497,
      "沫": 3498,
      "沬": 3499,
      "沭": 3500,
      "沮": 3501,
      "沱": 3502,
      "河": 3503,
      "沴": 3504,
      "沸": 3505,
      "油": 3506,
      "治": 3507,
      "沼": 3508,
      "沽": 3509,
      "沾": 3510,
      "沿": 3511,
      "泄": 3512,
      "泅": 3513,
      "泉": 3514,
      "泊": 3515,
      "泌": 3516,
      "泓": 3517,
      "泔": 3518,
      "法": 3519,
      "泗": 3520,
      "泛": 3521,
      "泞": 3522,
      "泠": 3523,
      "泡": 3524,
      "波": 3525,
      "泣": 3526,
      "泥": 3527,
      "注": 3528,
      "泪": 3529,
      "泫": 3530,
      "泮": 3531,
      "泯": 3532,
      "泰": 3533,
      "泱": 3534,
      "泳": 3535,
      "泵": 3536,
      "泷": 3537,
      "泸": 3538,
      "泺": 3539,
      "泻": 3540,
      "泼": 3541,
      "泽": 3542,
      "泾": 3543,
      "洁": 3544,
      "洄": 3545,
      "洇": 3546,
      "洋": 3547,
      "洌": 3548,
      "洎": 3549,
      "洑": 3550,
      "洒": 3551,
      "洗": 3552,
      "洙": 3553,
      "洛": 3554,
      "洞": 3555,
      "津": 3556,
      "洧": 3557,
      "洪": 3558,
      "洮": 3559,
      "洱": 3560,
      "洲": 3561,
      "洵": 3562,
      "洸": 3563,
      "洹": 3564,
      "洺": 3565,
      "活": 3566,
      "洼": 3567,
      "洽": 3568,
      "派": 3569,
      "流": 3570,
      "浃": 3571,
      "浅": 3572,
      "浆": 3573,
      "浇": 3574,
      "浈": 3575,
      "浉": 3576,
      "浊": 3577,
      "测": 3578,
      "济": 3579,
      "浏": 3580,
      "浐": 3581,
      "浑": 3582,
      "浒": 3583,
      "浓": 3584,
      "浔": 3585,
      "浙": 3586,
      "浚": 3587,
      "浛": 3588,
      "浜": 3589,
      "浞": 3590,
      "浠": 3591,
      "浡": 3592,
      "浣": 3593,
      "浤": 3594,
      "浥": 3595,
      "浦": 3596,
      "浩": 3597,
      "浪": 3598,
      "浮": 3599,
      "浯": 3600,
      "浴": 3601,
      "海": 3602,
      "浸": 3603,
      "浼": 3604,
      "涂": 3605,
      "涅": 3606,
      "消": 3607,
      "涉": 3608,
      "涌": 3609,
      "涎": 3610,
      "涓": 3611,
      "涔": 3612,
      "涕": 3613,
      "涘": 3614,
      "涛": 3615,
      "涝": 3616,
      "涞": 3617,
      "涟": 3618,
      "涠": 3619,
      "涡": 3620,
      "涣": 3621,
      "涤": 3622,
      "润": 3623,
      "涧": 3624,
      "涨": 3625,
      "涩": 3626,
      "涪": 3627,
      "涮": 3628,
      "涯": 3629,
      "液": 3630,
      "涵": 3631,
      "涸": 3632,
      "涿": 3633,
      "淀": 3634,
      "淄": 3635,
      "淅": 3636,
      "淆": 3637,
      "淇": 3638,
      "淋": 3639,
      "淌": 3640,
      "淏": 3641,
      "淑": 3642,
      "淖": 3643,
      "淘": 3644,
      "淙": 3645,
      "淝": 3646,
      "淞": 3647,
      "淠": 3648,
      "淡": 3649,
      "淤": 3650,
      "淦": 3651,
      "淫": 3652,
      "淬": 3653,
      "淮": 3654,
      "淯": 3655,
      "深": 3656,
      "淳": 3657,
      "混": 3658,
      "淸": 3659,
      "淹": 3660,
      "添": 3661,
      "淼": 3662,
      "清": 3663,
      "渊": 3664,
      "渋": 3665,
      "渌": 3666,
      "渍": 3667,
      "渎": 3668,
      "渐": 3669,
      "渑": 3670,
      "渔": 3671,
      "渕": 3672,
      "渗": 3673,
      "渚": 3674,
      "渝": 3675,
      "渟": 3676,
      "渠": 3677,
      "渡": 3678,
      "渣": 3679,
      "渤": 3680,
      "渥": 3681,
      "温": 3682,
      "渭": 3683,
      "港": 3684,
      "渲": 3685,
      "渴": 3686,
      "游": 3687,
      "渺": 3688,
      "渼": 3689,
      "湃": 3690,
      "湄": 3691,
      "湉": 3692,
      "湍": 3693,
      "湎": 3694,
      "湓": 3695,
      "湖": 3696,
      "湘": 3697,
      "湛": 3698,
      "湜": 3699,
      "湟": 3700,
      "湣": 3701,
      "湦": 3702,
      "湮": 3703,
      "湲": 3704,
      "湳": 3705,
      "湾": 3706,
      "湿": 3707,
      "満": 3708,
      "溃": 3709,
      "溅": 3710,
      "溆": 3711,
      "溉": 3712,
      "溏": 3713,
      "源": 3714,
      "溜": 3715,
      "溟": 3716,
      "溢": 3717,
      "溥": 3718,
      "溧": 3719,
      "溪": 3720,
      "溯": 3721,
      "溱": 3722,
      "溴": 3723,
      "溶": 3724,
      "溷": 3725,
      "溺": 3726,
      "溽": 3727,
      "滁": 3728,
      "滂": 3729,
      "滇": 3730,
      "滉": 3731,
      "滋": 3732,
      "滏": 3733,
      "滑": 3734,
      "滓": 3735,
      "滔": 3736,
      "滕": 3737,
      "滗": 3738,
      "滘": 3739,
      "滚": 3740,
      "滞": 3741,
      "滟": 3742,
      "满": 3743,
      "滢": 3744,
      "滤": 3745,
      "滥": 3746,
      "滦": 3747,
      "滨": 3748,
      "滩": 3749,
      "滴": 3750,
      "滹": 3751,
      "滺": 3752,
      "漂": 3753,
      "漆": 3754,
      "漈": 3755,
      "漉": 3756,
      "漏": 3757,
      "漓": 3758,
      "演": 3759,
      "漕": 3760,
      "漠": 3761,
      "漩": 3762,
      "漪": 3763,
      "漫": 3764,
      "漯": 3765,
      "漱": 3766,
      "漳": 3767,
      "漷": 3768,
      "漼": 3769,
      "漾": 3770,
      "潇": 3771,
      "潋": 3772,
      "潍": 3773,
      "潘": 3774,
      "潜": 3775,
      "潞": 3776,
      "潟": 3777,
      "潢": 3778,
      "潦": 3779,
      "潭": 3780,
      "潮": 3781,
      "潲": 3782,
      "潴": 3783,
      "潸": 3784,
      "潺": 3785,
      "潼": 3786,
      "澄": 3787,
      "澈": 3788,
      "澍": 3789,
      "澎": 3790,
      "澜": 3791,
      "澡": 3792,
      "澧": 3793,
      "澳": 3794,
      "澹": 3795,
      "激": 3796,
      "濂": 3797,
      "濉": 3798,
      "濑": 3799,
      "濒": 3800,
      "濞": 3801,
      "濠": 3802,
      "濡": 3803,
      "濬": 3804,
      "濮": 3805,
      "濯": 3806,
      "瀑": 3807,
      "瀚": 3808,
      "瀛": 3809,
      "瀞": 3810,
      "瀣": 3811,
      "瀬": 3812,
      "灌": 3813,
      "灏": 3814,
      "灞": 3815,
      "火": 3816,
      "灭": 3817,
      "灯": 3818,
      "灰": 3819,
      "灵": 3820,
      "灶": 3821,
      "灸": 3822,
      "灼": 3823,
      "灾": 3824,
      "灿": 3825,
      "炀": 3826,
      "炁": 3827,
      "炅": 3828,
      "炆": 3829,
      "炉": 3830,
      "炊": 3831,
      "炎": 3832,
      "炒": 3833,
      "炔": 3834,
      "炕": 3835,
      "炖": 3836,
      "炘": 3837,
      "炙": 3838,
      "炜": 3839,
      "炝": 3840,
      "炫": 3841,
      "炬": 3842,
      "炭": 3843,
      "炮": 3844,
      "炯": 3845,
      "炳": 3846,
      "炷": 3847,
      "炸": 3848,
      "点": 3849,
      "炼": 3850,
      "炽": 3851,
      "烁": 3852,
      "烂": 3853,
      "烃": 3854,
      "烈": 3855,
      "烊": 3856,
      "烔": 3857,
      "烘": 3858,
      "烙": 3859,
      "烛": 3860,
      "烜": 3861,
      "烟": 3862,
      "烤": 3863,
      "烦": 3864,
      "烧": 3865,
      "烨": 3866,
      "烩": 3867,
      "烫": 3868,
      "烬": 3869,
      "热": 3870,
      "烯": 3871,
      "烷": 3872,
      "烹": 3873,
      "烽": 3874,
      "焉": 3875,
      "焊": 3876,
      "焐": 3877,
      "焓": 3878,
      "焕": 3879,
      "焖": 3880,
      "焗": 3881,
      "焘": 3882,
      "焙": 3883,
      "焚": 3884,
      "焜": 3885,
      "焦": 3886,
      "焮": 3887,
      "焯": 3888,
      "焰": 3889,
      "焱": 3890,
      "然": 3891,
      "煅": 3892,
      "煊": 3893,
      "煌": 3894,
      "煎": 3895,
      "煖": 3896,
      "煜": 3897,
      "煞": 3898,
      "煤": 3899,
      "煦": 3900,
      "照": 3901,
      "煨": 3902,
      "煮": 3903,
      "煲": 3904,
      "煳": 3905,
      "煴": 3906,
      "煸": 3907,
      "煽": 3908,
      "熄": 3909,
      "熊": 3910,
      "熏": 3911,
      "熔": 3912,
      "熘": 3913,
      "熙": 3914,
      "熜": 3915,
      "熟": 3916,
      "熠": 3917,
      "熥": 3918,
      "熨": 3919,
      "熬": 3920,
      "熳": 3921,
      "熵": 3922,
      "熹": 3923,
      "燃": 3924,
      "燊": 3925,
      "燎": 3926,
      "燏": 3927,
      "燔": 3928,
      "燕": 3929,
      "燚": 3930,
      "燠": 3931,
      "燥": 3932,
      "燧": 3933,
      "燮": 3934,
      "爆": 3935,
      "爪": 3936,
      "爬": 3937,
      "爰": 3938,
      "爱": 3939,
      "爵": 3940,
      "父": 3941,
      "爷": 3942,
      "爸": 3943,
      "爹": 3944,
      "爻": 3945,
      "爽": 3946,
      "爿": 3947,
      "片": 3948,
      "版": 3949,
      "牌": 3950,
      "牍": 3951,
      "牒": 3952,
      "牖": 3953,
      "牙": 3954,
      "牛": 3955,
      "牝": 3956,
      "牟": 3957,
      "牡": 3958,
      "牢": 3959,
      "牦": 3960,
      "牧": 3961,
      "物": 3962,
      "牯": 3963,
      "牲": 3964,
      "牵": 3965,
      "特": 3966,
      "牺": 3967,
      "牾": 3968,
      "犀": 3969,
      "犁": 3970,
      "犄": 3971,
      "犇": 3972,
      "犊": 3973,
      "犍": 3974,
      "犒": 3975,
      "犟": 3976,
      "犬": 3977,
      "犯": 3978,
      "状": 3979,
      "犷": 3980,
      "犸": 3981,
      "犹": 3982,
      "犽": 3983,
      "狂": 3984,
      "狃": 3985,
      "狄": 3986,
      "狈": 3987,
      "狎": 3988,
      "狐": 3989,
      "狒": 3990,
      "狗": 3991,
      "狙": 3992,
      "狞": 3993,
      "狠": 3994,
      "狡": 3995,
      "狩": 3996,
      "独": 3997,
      "狭": 3998,
      "狮": 3999,
      "狰": 4000,
      "狱": 4001,
      "狲": 4002,
      "狷": 4003,
      "狸": 4004,
      "狻": 4005,
      "狼": 4006,
      "猊": 4007,
      "猎": 4008,
      "猕": 4009,
      "猖": 4010,
      "猗": 4011,
      "猛": 4012,
      "猜": 4013,
      "猝": 4014,
      "猥": 4015,
      "猩": 4016,
      "猪": 4017,
      "猫": 4018,
      "猬": 4019,
      "献": 4020,
      "猱": 4021,
      "猴": 4022,
      "猷": 4023,
      "猾": 4024,
      "猿": 4025,
      "獐": 4026,
      "獒": 4027,
      "獗": 4028,
      "獠": 4029,
      "獭": 4030,
      "獴": 4031,
      "獾": 4032,
      "玄": 4033,
      "率": 4034,
      "玉": 4035,
      "王": 4036,
      "玑": 4037,
      "玖": 4038,
      "玗": 4039,
      "玘": 4040,
      "玙": 4041,
      "玛": 4042,
      "玟": 4043,
      "玠": 4044,
      "玥": 4045,
      "玦": 4046,
      "玨": 4047,
      "玩": 4048,
      "玫": 4049,
      "玭": 4050,
      "玮": 4051,
      "环": 4052,
      "现": 4053,
      "玲": 4054,
      "玳": 4055,
      "玷": 4056,
      "玹": 4057,
      "玺": 4058,
      "玻": 4059,
      "珀": 4060,
      "珂": 4061,
      "珅": 4062,
      "珈": 4063,
      "珉": 4064,
      "珊": 4065,
      "珍": 4066,
      "珏": 4067,
      "珐": 4068,
      "珑": 4069,
      "珙": 4070,
      "珞": 4071,
      "珠": 4072,
      "珣": 4073,
      "珥": 4074,
      "珩": 4075,
      "珪": 4076,
      "班": 4077,
      "珮": 4078,
      "珲": 4079,
      "珺": 4080,
      "琁": 4081,
      "球": 4082,
      "琅": 4083,
      "理": 4084,
      "琇": 4085,
      "琉": 4086,
      "琊": 4087,
      "琍": 4088,
      "琏": 4089,
      "琐": 4090,
      "琚": 4091,
      "琛": 4092,
      "琢": 4093,
      "琥": 4094,
      "琦": 4095,
      "琨": 4096,
      "琪": 4097,
      "琬": 4098,
      "琮": 4099,
      "琯": 4100,
      "琰": 4101,
      "琳": 4102,
      "琴": 4103,
      "琵": 4104,
      "琶": 4105,
      "琼": 4106,
      "瑀": 4107,
      "瑁": 4108,
      "瑄": 4109,
      "瑊": 4110,
      "瑕": 4111,
      "瑗": 4112,
      "瑙": 4113,
      "瑚": 4114,
      "瑛": 4115,
      "瑜": 4116,
      "瑞": 4117,
      "瑟": 4118,
      "瑠": 4119,
      "瑨": 4120,
      "瑰": 4121,
      "瑱": 4122,
      "瑳": 4123,
      "瑶": 4124,
      "瑾": 4125,
      "璀": 4126,
      "璃": 4127,
      "璇": 4128,
      "璋": 4129,
      "璎": 4130,
      "璐": 4131,
      "璘": 4132,
      "璜": 4133,
      "璞": 4134,
      "璟": 4135,
      "璠": 4136,
      "璧": 4137,
      "璨": 4138,
      "璩": 4139,
      "瓒": 4140,
      "瓜": 4141,
      "瓠": 4142,
      "瓢": 4143,
      "瓣": 4144,
      "瓤": 4145,
      "瓦": 4146,
      "瓩": 4147,
      "瓮": 4148,
      "瓯": 4149,
      "瓴": 4150,
      "瓶": 4151,
      "瓷": 4152,
      "瓿": 4153,
      "甄": 4154,
      "甑": 4155,
      "甘": 4156,
      "甙": 4157,
      "甚": 4158,
      "甜": 4159,
      "生": 4160,
      "甥": 4161,
      "用": 4162,
      "甩": 4163,
      "甪": 4164,
      "甫": 4165,
      "甬": 4166,
      "甭": 4167,
      "田": 4168,
      "由": 4169,
      "甲": 4170,
      "申": 4171,
      "电": 4172,
      "男": 4173,
      "甸": 4174,
      "町": 4175,
      "画": 4176,
      "甾": 4177,
      "畀": 4178,
      "畅": 4179,
      "畈": 4180,
      "畊": 4181,
      "畋": 4182,
      "界": 4183,
      "畏": 4184,
      "畑": 4185,
      "畔": 4186,
      "留": 4187,
      "畚": 4188,
      "畛": 4189,
      "畜": 4190,
      "略": 4191,
      "畦": 4192,
      "番": 4193,
      "畬": 4194,
      "畲": 4195,
      "畴": 4196,
      "畸": 4197,
      "畹": 4198,
      "畿": 4199,
      "疃": 4200,
      "疆": 4201,
      "疍": 4202,
      "疏": 4203,
      "疑": 4204,
      "疔": 4205,
      "疖": 4206,
      "疗": 4207,
      "疙": 4208,
      "疚": 4209,
      "疝": 4210,
      "疟": 4211,
      "疠": 4212,
      "疡": 4213,
      "疣": 4214,
      "疤": 4215,
      "疥": 4216,
      "疫": 4217,
      "疮": 4218,
      "疯": 4219,
      "疱": 4220,
      "疲": 4221,
      "疳": 4222,
      "疴": 4223,
      "疵": 4224,
      "疸": 4225,
      "疹": 4226,
      "疼": 4227,
      "疽": 4228,
      "疾": 4229,
      "痂": 4230,
      "病": 4231,
      "症": 4232,
      "痈": 4233,
      "痉": 4234,
      "痊": 4235,
      "痍": 4236,
      "痒": 4237,
      "痔": 4238,
      "痕": 4239,
      "痘": 4240,
      "痛": 4241,
      "痞": 4242,
      "痢": 4243,
      "痣": 4244,
      "痤": 4245,
      "痧": 4246,
      "痨": 4247,
      "痪": 4248,
      "痫": 4249,
      "痰": 4250,
      "痱": 4251,
      "痳": 4252,
      "痴": 4253,
      "痹": 4254,
      "痼": 4255,
      "痿": 4256,
      "瘀": 4257,
      "瘁": 4258,
      "瘆": 4259,
      "瘕": 4260,
      "瘘": 4261,
      "瘙": 4262,
      "瘟": 4263,
      "瘠": 4264,
      "瘢": 4265,
      "瘤": 4266,
      "瘦": 4267,
      "瘩": 4268,
      "瘪": 4269,
      "瘫": 4270,
      "瘰": 4271,
      "瘳": 4272,
      "瘴": 4273,
      "瘸": 4274,
      "瘾": 4275,
      "瘿": 4276,
      "癀": 4277,
      "癌": 4278,
      "癔": 4279,
      "癖": 4280,
      "癜": 4281,
      "癞": 4282,
      "癣": 4283,
      "癫": 4284,
      "癸": 4285,
      "発": 4286,
      "登": 4287,
      "白": 4288,
      "百": 4289,
      "皂": 4290,
      "的": 4291,
      "皆": 4292,
      "皇": 4293,
      "皈": 4294,
      "皋": 4295,
      "皎": 4296,
      "皑": 4297,
      "皓": 4298,
      "皖": 4299,
      "皙": 4300,
      "皞": 4301,
      "皮": 4302,
      "皱": 4303,
      "皲": 4304,
      "皴": 4305,
      "皿": 4306,
      "盂": 4307,
      "盅": 4308,
      "盆": 4309,
      "盈": 4310,
      "益": 4311,
      "盍": 4312,
      "盎": 4313,
      "盏": 4314,
      "盐": 4315,
      "监": 4316,
      "盒": 4317,
      "盔": 4318,
      "盖": 4319,
      "盗": 4320,
      "盘": 4321,
      "盛": 4322,
      "盟": 4323,
      "盥": 4324,
      "目": 4325,
      "盯": 4326,
      "盱": 4327,
      "盲": 4328,
      "直": 4329,
      "相": 4330,
      "盹": 4331,
      "盼": 4332,
      "盾": 4333,
      "眀": 4334,
      "省": 4335,
      "眇": 4336,
      "眈": 4337,
      "眉": 4338,
      "看": 4339,
      "県": 4340,
      "眙": 4341,
      "眚": 4342,
      "眛": 4343,
      "真": 4344,
      "眠": 4345,
      "眦": 4346,
      "眨": 4347,
      "眩": 4348,
      "眬": 4349,
      "眭": 4350,
      "眯": 4351,
      "眶": 4352,
      "眷": 4353,
      "眸": 4354,
      "眺": 4355,
      "眼": 4356,
      "着": 4357,
      "睁": 4358,
      "睇": 4359,
      "睐": 4360,
      "睑": 4361,
      "睚": 4362,
      "睛": 4363,
      "睡": 4364,
      "睢": 4365,
      "督": 4366,
      "睥": 4367,
      "睦": 4368,
      "睨": 4369,
      "睫": 4370,
      "睬": 4371,
      "睹": 4372,
      "睽": 4373,
      "睾": 4374,
      "睿": 4375,
      "瞀": 4376,
      "瞄": 4377,
      "瞅": 4378,
      "瞋": 4379,
      "瞌": 4380,
      "瞎": 4381,
      "瞑": 4382,
      "瞒": 4383,
      "瞓": 4384,
      "瞟": 4385,
      "瞠": 4386,
      "瞥": 4387,
      "瞧": 4388,
      "瞩": 4389,
      "瞪": 4390,
      "瞫": 4391,
      "瞬": 4392,
      "瞭": 4393,
      "瞰": 4394,
      "瞳": 4395,
      "瞻": 4396,
      "瞽": 4397,
      "瞿": 4398,
      "矍": 4399,
      "矗": 4400,
      "矛": 4401,
      "矜": 4402,
      "矢": 4403,
      "矣": 4404,
      "知": 4405,
      "矩": 4406,
      "矫": 4407,
      "短": 4408,
      "矮": 4409,
      "石": 4410,
      "矶": 4411,
      "矸": 4412,
      "矽": 4413,
      "矾": 4414,
      "矿": 4415,
      "砀": 4416,
      "码": 4417,
      "砂": 4418,
      "砌": 4419,
      "砍": 4420,
      "砒": 4421,
      "研": 4422,
      "砖": 4423,
      "砚": 4424,
      "砜": 4425,
      "砝": 4426,
      "砟": 4427,
      "砣": 4428,
      "砥": 4429,
      "砦": 4430,
      "砧": 4431,
      "砬": 4432,
      "砭": 4433,
      "砰": 4434,
      "破": 4435,
      "砵": 4436,
      "砷": 4437,
      "砸": 4438,
      "砺": 4439,
      "砻": 4440,
      "砼": 4441,
      "砾": 4442,
      "础": 4443,
      "硅": 4444,
      "硌": 4445,
      "硎": 4446,
      "硏": 4447,
      "硐": 4448,
      "硒": 4449,
      "硕": 4450,
      "硖": 4451,
      "硚": 4452,
      "硝": 4453,
      "硫": 4454,
      "硬": 4455,
      "确": 4456,
      "硷": 4457,
      "硼": 4458,
      "碁": 4459,
      "碇": 4460,
      "碉": 4461,
      "碌": 4462,
      "碍": 4463,
      "碎": 4464,
      "碑": 4465,
      "碓": 4466,
      "碗": 4467,
      "碘": 4468,
      "碚": 4469,
      "碛": 4470,
      "碜": 4471,
      "碟": 4472,
      "碣": 4473,
      "碧": 4474,
      "碰": 4475,
      "碱": 4476,
      "碲": 4477,
      "碳": 4478,
      "碴": 4479,
      "碾": 4480,
      "磁": 4481,
      "磅": 4482,
      "磊": 4483,
      "磋": 4484,
      "磐": 4485,
      "磕": 4486,
      "磡": 4487,
      "磨": 4488,
      "磬": 4489,
      "磴": 4490,
      "磷": 4491,
      "磺": 4492,
      "礁": 4493,
      "礑": 4494,
      "礡": 4495,
      "礴": 4496,
      "示": 4497,
      "礼": 4498,
      "礽": 4499,
      "社": 4500,
      "祀": 4501,
      "祁": 4502,
      "祂": 4503,
      "祇": 4504,
      "祈": 4505,
      "祉": 4506,
      "祎": 4507,
      "祐": 4508,
      "祖": 4509,
      "祗": 4510,
      "祚": 4511,
      "祛": 4512,
      "祜": 4513,
      "祝": 4514,
      "神": 4515,
      "祟": 4516,
      "祠": 4517,
      "祢": 4518,
      "祥": 4519,
      "票": 4520,
      "祭": 4521,
      "祯": 4522,
      "祷": 4523,
      "祸": 4524,
      "祺": 4525,
      "禀": 4526,
      "禁": 4527,
      "禄": 4528,
      "禅": 4529,
      "禊": 4530,
      "福": 4531,
      "禘": 4532,
      "禛": 4533,
      "禧": 4534,
      "禳": 4535,
      "禹": 4536,
      "禺": 4537,
      "离": 4538,
      "禼": 4539,
      "禽": 4540,
      "禾": 4541,
      "秀": 4542,
      "私": 4543,
      "秃": 4544,
      "秆": 4545,
      "秉": 4546,
      "秋": 4547,
      "种": 4548,
      "科": 4549,
      "秒": 4550,
      "秕": 4551,
      "秘": 4552,
      "租": 4553,
      "秣": 4554,
      "秤": 4555,
      "秦": 4556,
      "秧": 4557,
      "秩": 4558,
      "秫": 4559,
      "秭": 4560,
      "积": 4561,
      "称": 4562,
      "秸": 4563,
      "移": 4564,
      "秽": 4565,
      "秾": 4566,
      "稀": 4567,
      "程": 4568,
      "稍": 4569,
      "税": 4570,
      "稔": 4571,
      "稗": 4572,
      "稚": 4573,
      "稞": 4574,
      "稠": 4575,
      "稣": 4576,
      "稳": 4577,
      "稷": 4578,
      "稹": 4579,
      "稻": 4580,
      "稼": 4581,
      "稽": 4582,
      "稿": 4583,
      "穂": 4584,
      "穆": 4585,
      "穏": 4586,
      "穑": 4587,
      "穗": 4588,
      "穴": 4589,
      "究": 4590,
      "穷": 4591,
      "穹": 4592,
      "空": 4593,
      "穿": 4594,
      "突": 4595,
      "窃": 4596,
      "窄": 4597,
      "窈": 4598,
      "窍": 4599,
      "窑": 4600,
      "窒": 4601,
      "窕": 4602,
      "窖": 4603,
      "窗": 4604,
      "窘": 4605,
      "窜": 4606,
      "窝": 4607,
      "窟": 4608,
      "窠": 4609,
      "窣": 4610,
      "窥": 4611,
      "窦": 4612,
      "窨": 4613,
      "窳": 4614,
      "窸": 4615,
      "窿": 4616,
      "立": 4617,
      "竑": 4618,
      "竖": 4619,
      "站": 4620,
      "竜": 4621,
      "竞": 4622,
      "竟": 4623,
      "章": 4624,
      "竣": 4625,
      "童": 4626,
      "竦": 4627,
      "竭": 4628,
      "端": 4629,
      "竹": 4630,
      "竺": 4631,
      "竽": 4632,
      "竿": 4633,
      "笃": 4634,
      "笄": 4635,
      "笆": 4636,
      "笈": 4637,
      "笊": 4638,
      "笋": 4639,
      "笏": 4640,
      "笑": 4641,
      "笔": 4642,
      "笕": 4643,
      "笘": 4644,
      "笙": 4645,
      "笛": 4646,
      "笞": 4647,
      "笠": 4648,
      "笤": 4649,
      "符": 4650,
      "笨": 4651,
      "笪": 4652,
      "第": 4653,
      "笱": 4654,
      "笳": 4655,
      "笸": 4656,
      "笺": 4657,
      "笼": 4658,
      "筇": 4659,
      "等": 4660,
      "筊": 4661,
      "筋": 4662,
      "筌": 4663,
      "筎": 4664,
      "筏": 4665,
      "筐": 4666,
      "筑": 4667,
      "筒": 4668,
      "答": 4669,
      "策": 4670,
      "筘": 4671,
      "筚": 4672,
      "筛": 4673,
      "筝": 4674,
      "筠": 4675,
      "筮": 4676,
      "筱": 4677,
      "筲": 4678,
      "筵": 4679,
      "筷": 4680,
      "筹": 4681,
      "签": 4682,
      "筿": 4683,
      "简": 4684,
      "箅": 4685,
      "箍": 4686,
      "箐": 4687,
      "箓": 4688,
      "箔": 4689,
      "箕": 4690,
      "算": 4691,
      "箝": 4692,
      "管": 4693,
      "箧": 4694,
      "箩": 4695,
      "箪": 4696,
      "箫": 4697,
      "箬": 4698,
      "箭": 4699,
      "箱": 4700,
      "箴": 4701,
      "箸": 4702,
      "篁": 4703,
      "篆": 4704,
      "篇": 4705,
      "篑": 4706,
      "篓": 4707,
      "篙": 4708,
      "篝": 4709,
      "篡": 4710,
      "篦": 4711,
      "篮": 4712,
      "篱": 4713,
      "篷": 4714,
      "篾": 4715,
      "簇": 4716,
      "簋": 4717,
      "簌": 4718,
      "簟": 4719,
      "簧": 4720,
      "簪": 4721,
      "簸": 4722,
      "簿": 4723,
      "籁": 4724,
      "籊": 4725,
      "籍": 4726,
      "籓": 4727,
      "籥": 4728,
      "米": 4729,
      "类": 4730,
      "籼": 4731,
      "籽": 4732,
      "粄": 4733,
      "粉": 4734,
      "粑": 4735,
      "粒": 4736,
      "粕": 4737,
      "粗": 4738,
      "粘": 4739,
      "粝": 4740,
      "粟": 4741,
      "粤": 4742,
      "粥": 4743,
      "粪": 4744,
      "粮": 4745,
      "粱": 4746,
      "粲": 4747,
      "粳": 4748,
      "粹": 4749,
      "粼": 4750,
      "粽": 4751,
      "精": 4752,
      "粿": 4753,
      "糅": 4754,
      "糊": 4755,
      "糌": 4756,
      "糍": 4757,
      "糕": 4758,
      "糖": 4759,
      "糗": 4760,
      "糙": 4761,
      "糜": 4762,
      "糟": 4763,
      "糠": 4764,
      "糨": 4765,
      "糬": 4766,
      "糯": 4767,
      "糸": 4768,
      "系": 4769,
      "紊": 4770,
      "素": 4771,
      "索": 4772,
      "紧": 4773,
      "紫": 4774,
      "累": 4775,
      "経": 4776,
      "絜": 4777,
      "絮": 4778,
      "絷": 4779,
      "継": 4780,
      "続": 4781,
      "綦": 4782,
      "綮": 4783,
      "総": 4784,
      "縂": 4785,
      "縦": 4786,
      "繁": 4787,
      "繇": 4788,
      "繋": 4789,
      "纂": 4790,
      "纠": 4791,
      "纡": 4792,
      "红": 4793,
      "纣": 4794,
      "纤": 4795,
      "纥": 4796,
      "约": 4797,
      "级": 4798,
      "纨": 4799,
      "纪": 4800,
      "纫": 4801,
      "纬": 4802,
      "纭": 4803,
      "纮": 4804,
      "纯": 4805,
      "纰": 4806,
      "纱": 4807,
      "纲": 4808,
      "纳": 4809,
      "纵": 4810,
      "纶": 4811,
      "纷": 4812,
      "纸": 4813,
      "纹": 4814,
      "纺": 4815,
      "纽": 4816,
      "纾": 4817,
      "线": 4818,
      "绀": 4819,
      "练": 4820,
      "组": 4821,
      "绅": 4822,
      "细": 4823,
      "织": 4824,
      "终": 4825,
      "绉": 4826,
      "绊": 4827,
      "绌": 4828,
      "绍": 4829,
      "绎": 4830,
      "经": 4831,
      "绑": 4832,
      "绒": 4833,
      "结": 4834,
      "绔": 4835,
      "绕": 4836,
      "绗": 4837,
      "绘": 4838,
      "给": 4839,
      "绚": 4840,
      "绛": 4841,
      "络": 4842,
      "绝": 4843,
      "绞": 4844,
      "统": 4845,
      "绡": 4846,
      "绢": 4847,
      "绣": 4848,
      "绥": 4849,
      "绦": 4850,
      "继": 4851,
      "绩": 4852,
      "绪": 4853,
      "绫": 4854,
      "续": 4855,
      "绮": 4856,
      "绯": 4857,
      "绰": 4858,
      "绲": 4859,
      "绳": 4860,
      "维": 4861,
      "绵": 4862,
      "绶": 4863,
      "绷": 4864,
      "绸": 4865,
      "绺": 4866,
      "绻": 4867,
      "综": 4868,
      "绽": 4869,
      "绾": 4870,
      "绿": 4871,
      "缀": 4872,
      "缁": 4873,
      "缂": 4874,
      "缄": 4875,
      "缅": 4876,
      "缆": 4877,
      "缇": 4878,
      "缈": 4879,
      "缉": 4880,
      "缎": 4881,
      "缓": 4882,
      "缔": 4883,
      "缕": 4884,
      "编": 4885,
      "缗": 4886,
      "缘": 4887,
      "缙": 4888,
      "缚": 4889,
      "缛": 4890,
      "缜": 4891,
      "缝": 4892,
      "缟": 4893,
      "缠": 4894,
      "缢": 4895,
      "缣": 4896,
      "缤": 4897,
      "缥": 4898,
      "缦": 4899,
      "缧": 4900,
      "缨": 4901,
      "缩": 4902,
      "缪": 4903,
      "缫": 4904,
      "缬": 4905,
      "缭": 4906,
      "缮": 4907,
      "缯": 4908,
      "缰": 4909,
      "缱": 4910,
      "缴": 4911,
      "缶": 4912,
      "缸": 4913,
      "缺": 4914,
      "罂": 4915,
      "罄": 4916,
      "罅": 4917,
      "罍": 4918,
      "罐": 4919,
      "网": 4920,
      "罔": 4921,
      "罕": 4922,
      "罗": 4923,
      "罘": 4924,
      "罚": 4925,
      "罡": 4926,
      "罢": 4927,
      "罣": 4928,
      "罩": 4929,
      "罪": 4930,
      "置": 4931,
      "署": 4932,
      "罴": 4933,
      "罹": 4934,
      "羁": 4935,
      "羊": 4936,
      "羌": 4937,
      "美": 4938,
      "羔": 4939,
      "羕": 4940,
      "羚": 4941,
      "羞": 4942,
      "羟": 4943,
      "羡": 4944,
      "群": 4945,
      "羧": 4946,
      "羯": 4947,
      "羰": 4948,
      "羲": 4949,
      "羸": 4950,
      "羹": 4951,
      "羽": 4952,
      "羿": 4953,
      "翀": 4954,
      "翁": 4955,
      "翅": 4956,
      "翊": 4957,
      "翌": 4958,
      "翎": 4959,
      "翔": 4960,
      "翕": 4961,
      "翘": 4962,
      "翟": 4963,
      "翠": 4964,
      "翡": 4965,
      "翥": 4966,
      "翦": 4967,
      "翩": 4968,
      "翮": 4969,
      "翰": 4970,
      "翱": 4971,
      "翳": 4972,
      "翻": 4973,
      "翼": 4974,
      "耀": 4975,
      "老": 4976,
      "考": 4977,
      "耄": 4978,
      "者": 4979,
      "耆": 4980,
      "耋": 4981,
      "而": 4982,
      "耍": 4983,
      "耐": 4984,
      "耒": 4985,
      "耕": 4986,
      "耗": 4987,
      "耘": 4988,
      "耙": 4989,
      "耦": 4990,
      "耨": 4991,
      "耱": 4992,
      "耳": 4993,
      "耵": 4994,
      "耶": 4995,
      "耷": 4996,
      "耸": 4997,
      "耻": 4998,
      "耽": 4999,
      "耿": 5000,
      "聂": 5001,
      "聃": 5002,
      "聆": 5003,
      "聊": 5004,
      "聋": 5005,
      "职": 5006,
      "聍": 5007,
      "聒": 5008,
      "联": 5009,
      "聘": 5010,
      "聚": 5011,
      "聩": 5012,
      "聪": 5013,
      "聼": 5014,
      "聿": 5015,
      "肃": 5016,
      "肄": 5017,
      "肆": 5018,
      "肇": 5019,
      "肉": 5020,
      "肋": 5021,
      "肌": 5022,
      "肓": 5023,
      "肖": 5024,
      "肘": 5025,
      "肚": 5026,
      "肛": 5027,
      "肝": 5028,
      "肟": 5029,
      "肠": 5030,
      "股": 5031,
      "肢": 5032,
      "肤": 5033,
      "肥": 5034,
      "肩": 5035,
      "肪": 5036,
      "肮": 5037,
      "肯": 5038,
      "肱": 5039,
      "育": 5040,
      "肴": 5041,
      "肺": 5042,
      "肼": 5043,
      "肽": 5044,
      "肾": 5045,
      "肿": 5046,
      "胀": 5047,
      "胁": 5048,
      "胃": 5049,
      "胄": 5050,
      "胆": 5051,
      "背": 5052,
      "胍": 5053,
      "胎": 5054,
      "胖": 5055,
      "胗": 5056,
      "胚": 5057,
      "胛": 5058,
      "胜": 5059,
      "胝": 5060,
      "胞": 5061,
      "胡": 5062,
      "胤": 5063,
      "胥": 5064,
      "胧": 5065,
      "胨": 5066,
      "胪": 5067,
      "胫": 5068,
      "胬": 5069,
      "胭": 5070,
      "胯": 5071,
      "胰": 5072,
      "胱": 5073,
      "胳": 5074,
      "胴": 5075,
      "胶": 5076,
      "胸": 5077,
      "胺": 5078,
      "胼": 5079,
      "能": 5080,
      "脂": 5081,
      "脆": 5082,
      "脉": 5083,
      "脊": 5084,
      "脍": 5085,
      "脏": 5086,
      "脐": 5087,
      "脑": 5088,
      "脓": 5089,
      "脖": 5090,
      "脘": 5091,
      "脚": 5092,
      "脯": 5093,
      "脱": 5094,
      "脲": 5095,
      "脷": 5096,
      "脸": 5097,
      "脾": 5098,
      "脿": 5099,
      "腆": 5100,
      "腈": 5101,
      "腊": 5102,
      "腋": 5103,
      "腌": 5104,
      "腍": 5105,
      "腐": 5106,
      "腑": 5107,
      "腓": 5108,
      "腔": 5109,
      "腕": 5110,
      "腘": 5111,
      "腙": 5112,
      "腠": 5113,
      "腥": 5114,
      "腧": 5115,
      "腩": 5116,
      "腭": 5117,
      "腮": 5118,
      "腰": 5119,
      "腱": 5120,
      "腴": 5121,
      "腹": 5122,
      "腺": 5123,
      "腻": 5124,
      "腼": 5125,
      "腾": 5126,
      "腿": 5127,
      "膀": 5128,
      "膂": 5129,
      "膈": 5130,
      "膊": 5131,
      "膏": 5132,
      "膑": 5133,
      "膘": 5134,
      "膛": 5135,
      "膜": 5136,
      "膝": 5137,
      "膦": 5138,
      "膨": 5139,
      "膳": 5140,
      "膺": 5141,
      "膻": 5142,
      "臀": 5143,
      "臂": 5144,
      "臃": 5145,
      "臆": 5146,
      "臊": 5147,
      "臌": 5148,
      "臣": 5149,
      "臧": 5150,
      "自": 5151,
      "臬": 5152,
      "臭": 5153,
      "至": 5154,
      "致": 5155,
      "臵": 5156,
      "臻": 5157,
      "臼": 5158,
      "臾": 5159,
      "舀": 5160,
      "舂": 5161,
      "舅": 5162,
      "舆": 5163,
      "舌": 5164,
      "舍": 5165,
      "舐": 5166,
      "舒": 5167,
      "舔": 5168,
      "舛": 5169,
      "舜": 5170,
      "舞": 5171,
      "舟": 5172,
      "舢": 5173,
      "舨": 5174,
      "航": 5175,
      "舫": 5176,
      "般": 5177,
      "舰": 5178,
      "舱": 5179,
      "舲": 5180,
      "舵": 5181,
      "舶": 5182,
      "舷": 5183,
      "舸": 5184,
      "船": 5185,
      "舾": 5186,
      "艄": 5187,
      "艇": 5188,
      "艏": 5189,
      "艘": 5190,
      "艮": 5191,
      "良": 5192,
      "艰": 5193,
      "色": 5194,
      "艳": 5195,
      "艸": 5196,
      "艹": 5197,
      "艺": 5198,
      "艾": 5199,
      "艿": 5200,
      "节": 5201,
      "芃": 5202,
      "芈": 5203,
      "芊": 5204,
      "芋": 5205,
      "芍": 5206,
      "芎": 5207,
      "芒": 5208,
      "芗": 5209,
      "芘": 5210,
      "芙": 5211,
      "芜": 5212,
      "芝": 5213,
      "芟": 5214,
      "芡": 5215,
      "芥": 5216,
      "芦": 5217,
      "芨": 5218,
      "芩": 5219,
      "芪": 5220,
      "芫": 5221,
      "芬": 5222,
      "芭": 5223,
      "芮": 5224,
      "芯": 5225,
      "花": 5226,
      "芳": 5227,
      "芴": 5228,
      "芷": 5229,
      "芸": 5230,
      "芹": 5231,
      "芽": 5232,
      "芾": 5233,
      "苁": 5234,
      "苄": 5235,
      "苇": 5236,
      "苈": 5237,
      "苋": 5238,
      "苌": 5239,
      "苍": 5240,
      "苎": 5241,
      "苏": 5242,
      "苑": 5243,
      "苒": 5244,
      "苓": 5245,
      "苔": 5246,
      "苕": 5247,
      "苗": 5248,
      "苛": 5249,
      "苜": 5250,
      "苞": 5251,
      "苟": 5252,
      "苡": 5253,
      "苣": 5254,
      "若": 5255,
      "苦": 5256,
      "苧": 5257,
      "苫": 5258,
      "苯": 5259,
      "英": 5260,
      "苳": 5261,
      "苴": 5262,
      "苷": 5263,
      "苹": 5264,
      "苻": 5265,
      "苾": 5266,
      "茁": 5267,
      "茂": 5268,
      "范": 5269,
      "茄": 5270,
      "茅": 5271,
      "茆": 5272,
      "茉": 5273,
      "茌": 5274,
      "茍": 5275,
      "茎": 5276,
      "茏": 5277,
      "茑": 5278,
      "茔": 5279,
      "茕": 5280,
      "茗": 5281,
      "茚": 5282,
      "茛": 5283,
      "茜": 5284,
      "茧": 5285,
      "茨": 5286,
      "茫": 5287,
      "茬": 5288,
      "茭": 5289,
      "茯": 5290,
      "茱": 5291,
      "茴": 5292,
      "茵": 5293,
      "茶": 5294,
      "茸": 5295,
      "茹": 5296,
      "茼": 5297,
      "荀": 5298,
      "荃": 5299,
      "荆": 5300,
      "荇": 5301,
      "草": 5302,
      "荏": 5303,
      "荐": 5304,
      "荒": 5305,
      "荔": 5306,
      "荖": 5307,
      "荘": 5308,
      "荚": 5309,
      "荜": 5310,
      "荞": 5311,
      "荟": 5312,
      "荠": 5313,
      "荡": 5314,
      "荣": 5315,
      "荤": 5316,
      "荥": 5317,
      "荦": 5318,
      "荧": 5319,
      "荨": 5320,
      "荩": 5321,
      "荪": 5322,
      "荫": 5323,
      "荬": 5324,
      "荭": 5325,
      "药": 5326,
      "荷": 5327,
      "荸": 5328,
      "荻": 5329,
      "荼": 5330,
      "荽": 5331,
      "莅": 5332,
      "莆": 5333,
      "莉": 5334,
      "莎": 5335,
      "莒": 5336,
      "莓": 5337,
      "莘": 5338,
      "莜": 5339,
      "莞": 5340,
      "莠": 5341,
      "莪": 5342,
      "莫": 5343,
      "莰": 5344,
      "莱": 5345,
      "莲": 5346,
      "莳": 5347,
      "莴": 5348,
      "获": 5349,
      "莹": 5350,
      "莺": 5351,
      "莼": 5352,
      "莽": 5353,
      "莿": 5354,
      "菀": 5355,
      "菁": 5356,
      "菅": 5357,
      "菇": 5358,
      "菈": 5359,
      "菊": 5360,
      "菌": 5361,
      "菏": 5362,
      "菑": 5363,
      "菓": 5364,
      "菔": 5365,
      "菖": 5366,
      "菘": 5367,
      "菜": 5368,
      "菟": 5369,
      "菠": 5370,
      "菡": 5371,
      "菩": 5372,
      "菰": 5373,
      "菱": 5374,
      "菲": 5375,
      "菽": 5376,
      "萁": 5377,
      "萃": 5378,
      "萄": 5379,
      "萆": 5380,
      "萋": 5381,
      "萌": 5382,
      "萍": 5383,
      "萎": 5384,
      "萏": 5385,
      "萘": 5386,
      "萜": 5387,
      "萝": 5388,
      "萤": 5389,
      "营": 5390,
      "萦": 5391,
      "萧": 5392,
      "萨": 5393,
      "萩": 5394,
      "萱": 5395,
      "萸": 5396,
      "萼": 5397,
      "落": 5398,
      "葆": 5399,
      "葑": 5400,
      "著": 5401,
      "葚": 5402,
      "葛": 5403,
      "葡": 5404,
      "董": 5405,
      "葩": 5406,
      "葫": 5407,
      "葬": 5408,
      "葭": 5409,
      "葱": 5410,
      "葳": 5411,
      "葵": 5412,
      "葶": 5413,
      "葺": 5414,
      "蒂": 5415,
      "蒋": 5416,
      "蒌": 5417,
      "蒗": 5418,
      "蒙": 5419,
      "蒜": 5420,
      "蒟": 5421,
      "蒡": 5422,
      "蒨": 5423,
      "蒯": 5424,
      "蒲": 5425,
      "蒴": 5426,
      "蒸": 5427,
      "蒹": 5428,
      "蒺": 5429,
      "蒻": 5430,
      "蒽": 5431,
      "蒿": 5432,
      "蓁": 5433,
      "蓄": 5434,
      "蓉": 5435,
      "蓊": 5436,
      "蓍": 5437,
      "蓐": 5438,
      "蓑": 5439,
      "蓓": 5440,
      "蓖": 5441,
      "蓝": 5442,
      "蓟": 5443,
      "蓣": 5444,
      "蓥": 5445,
      "蓦": 5446,
      "蓬": 5447,
      "蓼": 5448,
      "蓿": 5449,
      "蔑": 5450,
      "蔓": 5451,
      "蔗": 5452,
      "蔚": 5453,
      "蔡": 5454,
      "蔫": 5455,
      "蔬": 5456,
      "蔵": 5457,
      "蔷": 5458,
      "蔺": 5459,
      "蔻": 5460,
      "蔼": 5461,
      "蔽": 5462,
      "蕃": 5463,
      "蕈": 5464,
      "蕉": 5465,
      "蕊": 5466,
      "蕖": 5467,
      "蕗": 5468,
      "蕙": 5469,
      "蕞": 5470,
      "蕤": 5471,
      "蕨": 5472,
      "蕲": 5473,
      "蕴": 5474,
      "蕻": 5475,
      "蕾": 5476,
      "薄": 5477,
      "薅": 5478,
      "薇": 5479,
      "薏": 5480,
      "薛": 5481,
      "薜": 5482,
      "薨": 5483,
      "薪": 5484,
      "薫": 5485,
      "薬": 5486,
      "薮": 5487,
      "薯": 5488,
      "薰": 5489,
      "薾": 5490,
      "藁": 5491,
      "藉": 5492,
      "藏": 5493,
      "藐": 5494,
      "藓": 5495,
      "藕": 5496,
      "藜": 5497,
      "藠": 5498,
      "藤": 5499,
      "藩": 5500,
      "藻": 5501,
      "藿": 5502,
      "蘅": 5503,
      "蘑": 5504,
      "蘖": 5505,
      "蘗": 5506,
      "蘧": 5507,
      "蘸": 5508,
      "蘼": 5509,
      "虎": 5510,
      "虏": 5511,
      "虐": 5512,
      "虑": 5513,
      "虓": 5514,
      "虔": 5515,
      "虚": 5516,
      "虞": 5517,
      "虢": 5518,
      "虫": 5519,
      "虬": 5520,
      "虱": 5521,
      "虹": 5522,
      "虺": 5523,
      "虻": 5524,
      "虽": 5525,
      "虾": 5526,
      "蚀": 5527,
      "蚁": 5528,
      "蚂": 5529,
      "蚊": 5530,
      "蚌": 5531,
      "蚍": 5532,
      "蚓": 5533,
      "蚕": 5534,
      "蚜": 5535,
      "蚝": 5536,
      "蚣": 5537,
      "蚤": 5538,
      "蚧": 5539,
      "蚩": 5540,
      "蚪": 5541,
      "蚬": 5542,
      "蚯": 5543,
      "蚰": 5544,
      "蚱": 5545,
      "蚴": 5546,
      "蚵": 5547,
      "蚶": 5548,
      "蛀": 5549,
      "蛄": 5550,
      "蛆": 5551,
      "蛇": 5552,
      "蛉": 5553,
      "蛊": 5554,
      "蛋": 5555,
      "蛎": 5556,
      "蛏": 5557,
      "蛐": 5558,
      "蛔": 5559,
      "蛙": 5560,
      "蛛": 5561,
      "蛞": 5562,
      "蛟": 5563,
      "蛤": 5564,
      "蛭": 5565,
      "蛮": 5566,
      "蛰": 5567,
      "蛳": 5568,
      "蛴": 5569,
      "蛸": 5570,
      "蛹": 5571,
      "蛾": 5572,
      "蜀": 5573,
      "蜂": 5574,
      "蜃": 5575,
      "蜇": 5576,
      "蜈": 5577,
      "蜉": 5578,
      "蜊": 5579,
      "蜍": 5580,
      "蜒": 5581,
      "蜓": 5582,
      "蜕": 5583,
      "蜗": 5584,
      "蜘": 5585,
      "蜚": 5586,
      "蜜": 5587,
      "蜡": 5588,
      "蜢": 5589,
      "蜥": 5590,
      "蜱": 5591,
      "蜴": 5592,
      "蜷": 5593,
      "蜻": 5594,
      "蜿": 5595,
      "蝇": 5596,
      "蝈": 5597,
      "蝉": 5598,
      "蝌": 5599,
      "蝎": 5600,
      "蝓": 5601,
      "蝗": 5602,
      "蝙": 5603,
      "蝠": 5604,
      "蝮": 5605,
      "蝰": 5606,
      "蝴": 5607,
      "蝶": 5608,
      "蝼": 5609,
      "蝽": 5610,
      "蝾": 5611,
      "螂": 5612,
      "螃": 5613,
      "螈": 5614,
      "融": 5615,
      "螔": 5616,
      "螟": 5617,
      "螨": 5618,
      "螫": 5619,
      "螬": 5620,
      "螭": 5621,
      "螯": 5622,
      "螳": 5623,
      "螵": 5624,
      "螺": 5625,
      "蟀": 5626,
      "蟆": 5627,
      "蟋": 5628,
      "蟑": 5629,
      "蟒": 5630,
      "蟠": 5631,
      "蟮": 5632,
      "蟹": 5633,
      "蟾": 5634,
      "蠊": 5635,
      "蠋": 5636,
      "蠓": 5637,
      "蠕": 5638,
      "蠡": 5639,
      "蠢": 5640,
      "蠲": 5641,
      "蠹": 5642,
      "血": 5643,
      "衄": 5644,
      "衅": 5645,
      "行": 5646,
      "衍": 5647,
      "衔": 5648,
      "街": 5649,
      "衙": 5650,
      "衡": 5651,
      "衢": 5652,
      "衣": 5653,
      "补": 5654,
      "表": 5655,
      "衩": 5656,
      "衪": 5657,
      "衫": 5658,
      "衬": 5659,
      "衮": 5660,
      "衰": 5661,
      "衲": 5662,
      "衷": 5663,
      "衹": 5664,
      "衽": 5665,
      "衾": 5666,
      "衿": 5667,
      "袁": 5668,
      "袂": 5669,
      "袄": 5670,
      "袅": 5671,
      "袈": 5672,
      "袋": 5673,
      "袍": 5674,
      "袒": 5675,
      "袖": 5676,
      "袜": 5677,
      "袢": 5678,
      "袤": 5679,
      "袪": 5680,
      "被": 5681,
      "袭": 5682,
      "袱": 5683,
      "裁": 5684,
      "裂": 5685,
      "装": 5686,
      "裆": 5687,
      "裔": 5688,
      "裕": 5689,
      "裘": 5690,
      "裙": 5691,
      "裟": 5692,
      "裤": 5693,
      "裥": 5694,
      "裨": 5695,
      "裱": 5696,
      "裳": 5697,
      "裴": 5698,
      "裸": 5699,
      "裹": 5700,
      "裾": 5701,
      "褀": 5702,
      "褂": 5703,
      "褊": 5704,
      "褐": 5705,
      "褒": 5706,
      "褓": 5707,
      "褔": 5708,
      "褙": 5709,
      "褚": 5710,
      "褛": 5711,
      "褡": 5712,
      "褥": 5713,
      "褪": 5714,
      "褫": 5715,
      "褴": 5716,
      "褶": 5717,
      "襁": 5718,
      "襄": 5719,
      "襕": 5720,
      "襞": 5721,
      "襟": 5722,
      "襦": 5723,
      "西": 5724,
      "要": 5725,
      "覃": 5726,
      "覅": 5727,
      "覆": 5728,
      "覧": 5729,
      "観": 5730,
      "见": 5731,
      "观": 5732,
      "规": 5733,
      "觅": 5734,
      "视": 5735,
      "览": 5736,
      "觉": 5737,
      "觊": 5738,
      "觎": 5739,
      "觏": 5740,
      "觐": 5741,
      "觑": 5742,
      "角": 5743,
      "觚": 5744,
      "觞": 5745,
      "解": 5746,
      "觥": 5747,
      "触": 5748,
      "觯": 5749,
      "言": 5750,
      "訇": 5751,
      "訾": 5752,
      "詈": 5753,
      "詹": 5754,
      "誉": 5755,
      "誊": 5756,
      "誓": 5757,
      "論": 5758,
      "謇": 5759,
      "警": 5760,
      "譬": 5761,
      "计": 5762,
      "订": 5763,
      "讣": 5764,
      "认": 5765,
      "讥": 5766,
      "讦": 5767,
      "讧": 5768,
      "讨": 5769,
      "让": 5770,
      "讪": 5771,
      "讫": 5772,
      "训": 5773,
      "议": 5774,
      "讯": 5775,
      "记": 5776,
      "讲": 5777,
      "讳": 5778,
      "讴": 5779,
      "讵": 5780,
      "讶": 5781,
      "讷": 5782,
      "许": 5783,
      "讹": 5784,
      "论": 5785,
      "讼": 5786,
      "讽": 5787,
      "设": 5788,
      "访": 5789,
      "诀": 5790,
      "证": 5791,
      "诂": 5792,
      "诃": 5793,
      "评": 5794,
      "诅": 5795,
      "识": 5796,
      "诈": 5797,
      "诉": 5798,
      "诊": 5799,
      "诋": 5800,
      "诌": 5801,
      "词": 5802,
      "诏": 5803,
      "译": 5804,
      "诒": 5805,
      "诓": 5806,
      "试": 5807,
      "诗": 5808,
      "诘": 5809,
      "诙": 5810,
      "诚": 5811,
      "诛": 5812,
      "话": 5813,
      "诞": 5814,
      "诟": 5815,
      "诠": 5816,
      "诡": 5817,
      "询": 5818,
      "诣": 5819,
      "诤": 5820,
      "该": 5821,
      "详": 5822,
      "诧": 5823,
      "诨": 5824,
      "诩": 5825,
      "诫": 5826,
      "诬": 5827,
      "语": 5828,
      "诮": 5829,
      "误": 5830,
      "诰": 5831,
      "诱": 5832,
      "诲": 5833,
      "诳": 5834,
      "说": 5835,
      "诵": 5836,
      "诶": 5837,
      "请": 5838,
      "诸": 5839,
      "诹": 5840,
      "诺": 5841,
      "读": 5842,
      "诽": 5843,
      "课": 5844,
      "诿": 5845,
      "谀": 5846,
      "谁": 5847,
      "谂": 5848,
      "调": 5849,
      "谄": 5850,
      "谅": 5851,
      "谆": 5852,
      "谈": 5853,
      "谊": 5854,
      "谋": 5855,
      "谌": 5856,
      "谍": 5857,
      "谎": 5858,
      "谏": 5859,
      "谐": 5860,
      "谑": 5861,
      "谒": 5862,
      "谓": 5863,
      "谔": 5864,
      "谕": 5865,
      "谖": 5866,
      "谗": 5867,
      "谙": 5868,
      "谚": 5869,
      "谛": 5870,
      "谜": 5871,
      "谞": 5872,
      "谟": 5873,
      "谠": 5874,
      "谡": 5875,
      "谢": 5876,
      "谣": 5877,
      "谤": 5878,
      "谥": 5879,
      "谦": 5880,
      "谧": 5881,
      "谨": 5882,
      "谩": 5883,
      "谪": 5884,
      "谬": 5885,
      "谭": 5886,
      "谮": 5887,
      "谯": 5888,
      "谱": 5889,
      "谲": 5890,
      "谴": 5891,
      "谵": 5892,
      "谶": 5893,
      "谷": 5894,
      "谿": 5895,
      "豁": 5896,
      "豆": 5897,
      "豇": 5898,
      "豉": 5899,
      "豊": 5900,
      "豌": 5901,
      "豕": 5902,
      "豚": 5903,
      "象": 5904,
      "豢": 5905,
      "豪": 5906,
      "豫": 5907,
      "豳": 5908,
      "豹": 5909,
      "豺": 5910,
      "貂": 5911,
      "貅": 5912,
      "貉": 5913,
      "貌": 5914,
      "貔": 5915,
      "貘": 5916,
      "贝": 5917,
      "贞": 5918,
      "负": 5919,
      "贡": 5920,
      "财": 5921,
      "责": 5922,
      "贤": 5923,
      "败": 5924,
      "账": 5925,
      "货": 5926,
      "质": 5927,
      "贩": 5928,
      "贪": 5929,
      "贫": 5930,
      "贬": 5931,
      "购": 5932,
      "贮": 5933,
      "贯": 5934,
      "贰": 5935,
      "贱": 5936,
      "贲": 5937,
      "贴": 5938,
      "贵": 5939,
      "贶": 5940,
      "贷": 5941,
      "贸": 5942,
      "费": 5943,
      "贺": 5944,
      "贻": 5945,
      "贼": 5946,
      "贽": 5947,
      "贾": 5948,
      "贿": 5949,
      "赀": 5950,
      "赁": 5951,
      "赂": 5952,
      "赃": 5953,
      "资": 5954,
      "赅": 5955,
      "赈": 5956,
      "赉": 5957,
      "赊": 5958,
      "赋": 5959,
      "赌": 5960,
      "赍": 5961,
      "赎": 5962,
      "赏": 5963,
      "赐": 5964,
      "赒": 5965,
      "赓": 5966,
      "赔": 5967,
      "赖": 5968,
      "赘": 5969,
      "赙": 5970,
      "赚": 5971,
      "赛": 5972,
      "赝": 5973,
      "赞": 5974,
      "赟": 5975,
      "赠": 5976,
      "赡": 5977,
      "赢": 5978,
      "赣": 5979,
      "赤": 5980,
      "赦": 5981,
      "赧": 5982,
      "赫": 5983,
      "赭": 5984,
      "走": 5985,
      "赳": 5986,
      "赴": 5987,
      "赵": 5988,
      "赶": 5989,
      "起": 5990,
      "趁": 5991,
      "趄": 5992,
      "超": 5993,
      "越": 5994,
      "趋": 5995,
      "趔": 5996,
      "趟": 5997,
      "趣": 5998,
      "足": 5999,
      "趴": 6000,
      "趵": 6001,
      "趸": 6002,
      "趺": 6003,
      "趾": 6004,
      "跃": 6005,
      "跄": 6006,
      "跆": 6007,
      "跋": 6008,
      "跌": 6009,
      "跎": 6010,
      "跏": 6011,
      "跑": 6012,
      "跖": 6013,
      "跗": 6014,
      "跚": 6015,
      "跛": 6016,
      "距": 6017,
      "跟": 6018,
      "跤": 6019,
      "跨": 6020,
      "跪": 6021,
      "跫": 6022,
      "跬": 6023,
      "路": 6024,
      "跳": 6025,
      "践": 6026,
      "跶": 6027,
      "跷": 6028,
      "跹": 6029,
      "跺": 6030,
      "跻": 6031,
      "踉": 6032,
      "踊": 6033,
      "踌": 6034,
      "踏": 6035,
      "踔": 6036,
      "踝": 6037,
      "踞": 6038,
      "踟": 6039,
      "踢": 6040,
      "踩": 6041,
      "踪": 6042,
      "踮": 6043,
      "踯": 6044,
      "踱": 6045,
      "踵": 6046,
      "踹": 6047,
      "踽": 6048,
      "蹁": 6049,
      "蹂": 6050,
      "蹄": 6051,
      "蹇": 6052,
      "蹈": 6053,
      "蹉": 6054,
      "蹊": 6055,
      "蹋": 6056,
      "蹑": 6057,
      "蹒": 6058,
      "蹙": 6059,
      "蹚": 6060,
      "蹦": 6061,
      "蹩": 6062,
      "蹬": 6063,
      "蹭": 6064,
      "蹰": 6065,
      "蹲": 6066,
      "蹴": 6067,
      "蹶": 6068,
      "蹼": 6069,
      "蹿": 6070,
      "躁": 6071,
      "躄": 6072,
      "躅": 6073,
      "躇": 6074,
      "躏": 6075,
      "身": 6076,
      "躬": 6077,
      "躯": 6078,
      "躲": 6079,
      "躺": 6080,
      "軚": 6081,
      "軽": 6082,
      "车": 6083,
      "轧": 6084,
      "轨": 6085,
      "轩": 6086,
      "轫": 6087,
      "转": 6088,
      "轭": 6089,
      "轮": 6090,
      "软": 6091,
      "轰": 6092,
      "轱": 6093,
      "轲": 6094,
      "轳": 6095,
      "轴": 6096,
      "轶": 6097,
      "轸": 6098,
      "轻": 6099,
      "轼": 6100,
      "载": 6101,
      "轾": 6102,
      "轿": 6103,
      "较": 6104,
      "辄": 6105,
      "辅": 6106,
      "辆": 6107,
      "辇": 6108,
      "辈": 6109,
      "辉": 6110,
      "辊": 6111,
      "辋": 6112,
      "辍": 6113,
      "辎": 6114,
      "辐": 6115,
      "辑": 6116,
      "输": 6117,
      "辔": 6118,
      "辕": 6119,
      "辖": 6120,
      "辗": 6121,
      "辘": 6122,
      "辙": 6123,
      "辛": 6124,
      "辜": 6125,
      "辞": 6126,
      "辟": 6127,
      "辣": 6128,
      "辨": 6129,
      "辩": 6130,
      "辫": 6131,
      "辰": 6132,
      "辱": 6133,
      "边": 6134,
      "辻": 6135,
      "込": 6136,
      "辽": 6137,
      "达": 6138,
      "迁": 6139,
      "迂": 6140,
      "迄": 6141,
      "迅": 6142,
      "过": 6143,
      "迈": 6144,
      "迎": 6145,
      "运": 6146,
      "近": 6147,
      "迓": 6148,
      "返": 6149,
      "还": 6150,
      "这": 6151,
      "进": 6152,
      "远": 6153,
      "违": 6154,
      "连": 6155,
      "迟": 6156,
      "迢": 6157,
      "迤": 6158,
      "迥": 6159,
      "迦": 6160,
      "迨": 6161,
      "迩": 6162,
      "迪": 6163,
      "迫": 6164,
      "迭": 6165,
      "述": 6166,
      "迳": 6167,
      "迷": 6168,
      "迸": 6169,
      "迹": 6170,
      "追": 6171,
      "退": 6172,
      "送": 6173,
      "适": 6174,
      "逃": 6175,
      "逄": 6176,
      "逅": 6177,
      "逆": 6178,
      "选": 6179,
      "逊": 6180,
      "逋": 6181,
      "逍": 6182,
      "透": 6183,
      "逐": 6184,
      "递": 6185,
      "途": 6186,
      "逗": 6187,
      "通": 6188,
      "逛": 6189,
      "逝": 6190,
      "逞": 6191,
      "速": 6192,
      "造": 6193,
      "逡": 6194,
      "逢": 6195,
      "逦": 6196,
      "逮": 6197,
      "逯": 6198,
      "逵": 6199,
      "逶": 6200,
      "逸": 6201,
      "逹": 6202,
      "逻": 6203,
      "逼": 6204,
      "逾": 6205,
      "遁": 6206,
      "遂": 6207,
      "遇": 6208,
      "遍": 6209,
      "遏": 6210,
      "遐": 6211,
      "遑": 6212,
      "遒": 6213,
      "道": 6214,
      "遗": 6215,
      "遛": 6216,
      "遢": 6217,
      "遣": 6218,
      "遥": 6219,
      "遨": 6220,
      "遭": 6221,
      "遮": 6222,
      "遴": 6223,
      "遵": 6224,
      "遽": 6225,
      "避": 6226,
      "邀": 6227,
      "邂": 6228,
      "邃": 6229,
      "邈": 6230,
      "邋": 6231,
      "邑": 6232,
      "邓": 6233,
      "邕": 6234,
      "邗": 6235,
      "邙": 6236,
      "邛": 6237,
      "邝": 6238,
      "邠": 6239,
      "邡": 6240,
      "邢": 6241,
      "那": 6242,
      "邦": 6243,
      "邨": 6244,
      "邪": 6245,
      "邬": 6246,
      "邮": 6247,
      "邯": 6248,
      "邰": 6249,
      "邱": 6250,
      "邳": 6251,
      "邴": 6252,
      "邵": 6253,
      "邸": 6254,
      "邹": 6255,
      "邺": 6256,
      "邻": 6257,
      "邽": 6258,
      "邾": 6259,
      "郁": 6260,
      "郃": 6261,
      "郅": 6262,
      "郊": 6263,
      "郎": 6264,
      "郏": 6265,
      "郑": 6266,
      "郓": 6267,
      "郗": 6268,
      "郜": 6269,
      "郝": 6270,
      "郡": 6271,
      "郢": 6272,
      "郤": 6273,
      "郦": 6274,
      "郧": 6275,
      "部": 6276,
      "郫": 6277,
      "郭": 6278,
      "郯": 6279,
      "郴": 6280,
      "郷": 6281,
      "郸": 6282,
      "都": 6283,
      "郾": 6284,
      "鄂": 6285,
      "鄄": 6286,
      "鄙": 6287,
      "鄜": 6288,
      "鄞": 6289,
      "鄠": 6290,
      "鄢": 6291,
      "鄯": 6292,
      "鄱": 6293,
      "酉": 6294,
      "酊": 6295,
      "酋": 6296,
      "酌": 6297,
      "配": 6298,
      "酎": 6299,
      "酐": 6300,
      "酒": 6301,
      "酗": 6302,
      "酚": 6303,
      "酝": 6304,
      "酞": 6305,
      "酢": 6306,
      "酣": 6307,
      "酥": 6308,
      "酦": 6309,
      "酩": 6310,
      "酪": 6311,
      "酬": 6312,
      "酮": 6313,
      "酯": 6314,
      "酰": 6315,
      "酱": 6316,
      "酵": 6317,
      "酶": 6318,
      "酷": 6319,
      "酸": 6320,
      "酿": 6321,
      "醅": 6322,
      "醇": 6323,
      "醉": 6324,
      "醋": 6325,
      "醌": 6326,
      "醍": 6327,
      "醐": 6328,
      "醒": 6329,
      "醚": 6330,
      "醛": 6331,
      "醪": 6332,
      "醮": 6333,
      "醴": 6334,
      "醺": 6335,
      "釆": 6336,
      "采": 6337,
      "釉": 6338,
      "释": 6339,
      "里": 6340,
      "重": 6341,
      "野": 6342,
      "量": 6343,
      "金": 6344,
      "釜": 6345,
      "鉱": 6346,
      "鉴": 6347,
      "銮": 6348,
      "鋆": 6349,
      "錾": 6350,
      "鎏": 6351,
      "鏊": 6352,
      "鏖": 6353,
      "鑫": 6354,
      "钇": 6355,
      "针": 6356,
      "钉": 6357,
      "钊": 6358,
      "钌": 6359,
      "钍": 6360,
      "钎": 6361,
      "钏": 6362,
      "钐": 6363,
      "钒": 6364,
      "钓": 6365,
      "钕": 6366,
      "钗": 6367,
      "钙": 6368,
      "钚": 6369,
      "钛": 6370,
      "钝": 6371,
      "钞": 6372,
      "钟": 6373,
      "钠": 6374,
      "钡": 6375,
      "钢": 6376,
      "钣": 6377,
      "钤": 6378,
      "钥": 6379,
      "钦": 6380,
      "钧": 6381,
      "钨": 6382,
      "钩": 6383,
      "钪": 6384,
      "钮": 6385,
      "钯": 6386,
      "钰": 6387,
      "钱": 6388,
      "钲": 6389,
      "钳": 6390,
      "钴": 6391,
      "钵": 6392,
      "钹": 6393,
      "钺": 6394,
      "钻": 6395,
      "钼": 6396,
      "钽": 6397,
      "钾": 6398,
      "钿": 6399,
      "铀": 6400,
      "铁": 6401,
      "铂": 6402,
      "铃": 6403,
      "铄": 6404,
      "铅": 6405,
      "铆": 6406,
      "铈": 6407,
      "铉": 6408,
      "铊": 6409,
      "铋": 6410,
      "铌": 6411,
      "铍": 6412,
      "铎": 6413,
      "铐": 6414,
      "铑": 6415,
      "铒": 6416,
      "铖": 6417,
      "铙": 6418,
      "铛": 6419,
      "铜": 6420,
      "铝": 6421,
      "铟": 6422,
      "铠": 6423,
      "铡": 6424,
      "铢": 6425,
      "铣": 6426,
      "铤": 6427,
      "铧": 6428,
      "铨": 6429,
      "铩": 6430,
      "铪": 6431,
      "铬": 6432,
      "铭": 6433,
      "铮": 6434,
      "铯": 6435,
      "铰": 6436,
      "铱": 6437,
      "铲": 6438,
      "铳": 6439,
      "铵": 6440,
      "银": 6441,
      "铷": 6442,
      "铸": 6443,
      "铺": 6444,
      "铼": 6445,
      "铽": 6446,
      "链": 6447,
      "铿": 6448,
      "销": 6449,
      "锁": 6450,
      "锂": 6451,
      "锃": 6452,
      "锄": 6453,
      "锅": 6454,
      "锆": 6455,
      "锇": 6456,
      "锈": 6457,
      "锉": 6458,
      "锋": 6459,
      "锌": 6460,
      "锏": 6461,
      "锐": 6462,
      "锑": 6463,
      "锒": 6464,
      "锔": 6465,
      "锕": 6466,
      "锗": 6467,
      "锘": 6468,
      "错": 6469,
      "锚": 6470,
      "锜": 6471,
      "锝": 6472,
      "锟": 6473,
      "锡": 6474,
      "锢": 6475,
      "锣": 6476,
      "锤": 6477,
      "锥": 6478,
      "锦": 6479,
      "锨": 6480,
      "锪": 6481,
      "锭": 6482,
      "键": 6483,
      "锯": 6484,
      "锰": 6485,
      "锱": 6486,
      "锲": 6487,
      "锴": 6488,
      "锵": 6489,
      "锶": 6490,
      "锷": 6491,
      "锹": 6492,
      "锻": 6493,
      "锾": 6494,
      "锿": 6495,
      "镀": 6496,
      "镁": 6497,
      "镂": 6498,
      "镇": 6499,
      "镉": 6500,
      "镊": 6501,
      "镌": 6502,
      "镍": 6503,
      "镏": 6504,
      "镐": 6505,
      "镑": 6506,
      "镒": 6507,
      "镓": 6508,
      "镕": 6509,
      "镖": 6510,
      "镗": 6511,
      "镘": 6512,
      "镙": 6513,
      "镛": 6514,
      "镜": 6515,
      "镝": 6516,
      "镣": 6517,
      "镦": 6518,
      "镧": 6519,
      "镨": 6520,
      "镪": 6521,
      "镫": 6522,
      "镬": 6523,
      "镭": 6524,
      "镯": 6525,
      "镰": 6526,
      "镱": 6527,
      "镲": 6528,
      "镳": 6529,
      "镶": 6530,
      "镹": 6531,
      "长": 6532,
      "関": 6533,
      "门": 6534,
      "闩": 6535,
      "闪": 6536,
      "闫": 6537,
      "闭": 6538,
      "问": 6539,
      "闯": 6540,
      "闰": 6541,
      "闱": 6542,
      "闲": 6543,
      "闳": 6544,
      "间": 6545,
      "闵": 6546,
      "闷": 6547,
      "闸": 6548,
      "闹": 6549,
      "闺": 6550,
      "闻": 6551,
      "闼": 6552,
      "闽": 6553,
      "闾": 6554,
      "阀": 6555,
      "阁": 6556,
      "阂": 6557,
      "阄": 6558,
      "阅": 6559,
      "阆": 6560,
      "阇": 6561,
      "阈": 6562,
      "阉": 6563,
      "阊": 6564,
      "阎": 6565,
      "阏": 6566,
      "阐": 6567,
      "阑": 6568,
      "阓": 6569,
      "阔": 6570,
      "阕": 6571,
      "阖": 6572,
      "阗": 6573,
      "阙": 6574,
      "阚": 6575,
      "阛": 6576,
      "阜": 6577,
      "阝": 6578,
      "队": 6579,
      "阡": 6580,
      "阪": 6581,
      "阮": 6582,
      "阱": 6583,
      "防": 6584,
      "阳": 6585,
      "阴": 6586,
      "阵": 6587,
      "阶": 6588,
      "阻": 6589,
      "阿": 6590,
      "陀": 6591,
      "陂": 6592,
      "附": 6593,
      "际": 6594,
      "陆": 6595,
      "陇": 6596,
      "陈": 6597,
      "陉": 6598,
      "陋": 6599,
      "陌": 6600,
      "降": 6601,
      "限": 6602,
      "陔": 6603,
      "陕": 6604,
      "陛": 6605,
      "陟": 6606,
      "陡": 6607,
      "院": 6608,
      "除": 6609,
      "陨": 6610,
      "险": 6611,
      "陪": 6612,
      "陬": 6613,
      "陲": 6614,
      "陵": 6615,
      "陶": 6616,
      "陷": 6617,
      "隅": 6618,
      "隆": 6619,
      "隈": 6620,
      "隋": 6621,
      "隍": 6622,
      "随": 6623,
      "隐": 6624,
      "隔": 6625,
      "隗": 6626,
      "隘": 6627,
      "隙": 6628,
      "障": 6629,
      "隠": 6630,
      "隧": 6631,
      "隰": 6632,
      "隶": 6633,
      "隹": 6634,
      "隼": 6635,
      "隽": 6636,
      "难": 6637,
      "雀": 6638,
      "雁": 6639,
      "雄": 6640,
      "雅": 6641,
      "集": 6642,
      "雇": 6643,
      "雉": 6644,
      "雌": 6645,
      "雍": 6646,
      "雎": 6647,
      "雏": 6648,
      "雒": 6649,
      "雕": 6650,
      "雠": 6651,
      "雨": 6652,
      "雩": 6653,
      "雪": 6654,
      "雫": 6655,
      "雮": 6656,
      "雯": 6657,
      "雳": 6658,
      "零": 6659,
      "雷": 6660,
      "雹": 6661,
      "雾": 6662,
      "需": 6663,
      "霁": 6664,
      "霄": 6665,
      "霆": 6666,
      "震": 6667,
      "霈": 6668,
      "霉": 6669,
      "霍": 6670,
      "霎": 6671,
      "霏": 6672,
      "霓": 6673,
      "霖": 6674,
      "霜": 6675,
      "霞": 6676,
      "霭": 6677,
      "霰": 6678,
      "露": 6679,
      "霸": 6680,
      "霹": 6681,
      "霾": 6682,
      "靑": 6683,
      "青": 6684,
      "靓": 6685,
      "靖": 6686,
      "静": 6687,
      "靛": 6688,
      "非": 6689,
      "靠": 6690,
      "靡": 6691,
      "面": 6692,
      "靥": 6693,
      "革": 6694,
      "靳": 6695,
      "靴": 6696,
      "靶": 6697,
      "靼": 6698,
      "鞅": 6699,
      "鞋": 6700,
      "鞍": 6701,
      "鞑": 6702,
      "鞘": 6703,
      "鞠": 6704,
      "鞣": 6705,
      "鞫": 6706,
      "鞭": 6707,
      "韦": 6708,
      "韧": 6709,
      "韩": 6710,
      "韪": 6711,
      "韫": 6712,
      "韬": 6713,
      "韭": 6714,
      "音": 6715,
      "韵": 6716,
      "韶": 6717,
      "页": 6718,
      "顶": 6719,
      "顷": 6720,
      "项": 6721,
      "顺": 6722,
      "须": 6723,
      "顼": 6724,
      "顽": 6725,
      "顾": 6726,
      "顿": 6727,
      "颀": 6728,
      "颁": 6729,
      "颂": 6730,
      "预": 6731,
      "颅": 6732,
      "领": 6733,
      "颇": 6734,
      "颈": 6735,
      "颉": 6736,
      "颊": 6737,
      "颌": 6738,
      "颍": 6739,
      "颏": 6740,
      "颐": 6741,
      "频": 6742,
      "颓": 6743,
      "颔": 6744,
      "颖": 6745,
      "颗": 6746,
      "题": 6747,
      "颙": 6748,
      "颚": 6749,
      "颛": 6750,
      "颜": 6751,
      "额": 6752,
      "颞": 6753,
      "颠": 6754,
      "颡": 6755,
      "颢": 6756,
      "颤": 6757,
      "颦": 6758,
      "颧": 6759,
      "风": 6760,
      "飑": 6761,
      "飒": 6762,
      "飓": 6763,
      "飕": 6764,
      "飘": 6765,
      "飙": 6766,
      "飚": 6767,
      "飞": 6768,
      "食": 6769,
      "飧": 6770,
      "飨": 6771,
      "餍": 6772,
      "餐": 6773,
      "餮": 6774,
      "饕": 6775,
      "饥": 6776,
      "饧": 6777,
      "饨": 6778,
      "饪": 6779,
      "饫": 6780,
      "饬": 6781,
      "饭": 6782,
      "饮": 6783,
      "饯": 6784,
      "饰": 6785,
      "饱": 6786,
      "饲": 6787,
      "饴": 6788,
      "饵": 6789,
      "饶": 6790,
      "饷": 6791,
      "饺": 6792,
      "饼": 6793,
      "饽": 6794,
      "饿": 6795,
      "馁": 6796,
      "馄": 6797,
      "馅": 6798,
      "馆": 6799,
      "馈": 6800,
      "馊": 6801,
      "馋": 6802,
      "馍": 6803,
      "馏": 6804,
      "馐": 6805,
      "馑": 6806,
      "馒": 6807,
      "馓": 6808,
      "馔": 6809,
      "馕": 6810,
      "首": 6811,
      "馗": 6812,
      "香": 6813,
      "馥": 6814,
      "馨": 6815,
      "駅": 6816,
      "験": 6817,
      "驒": 6818,
      "马": 6819,
      "驭": 6820,
      "驮": 6821,
      "驯": 6822,
      "驰": 6823,
      "驱": 6824,
      "驳": 6825,
      "驴": 6826,
      "驶": 6827,
      "驷": 6828,
      "驸": 6829,
      "驹": 6830,
      "驻": 6831,
      "驼": 6832,
      "驽": 6833,
      "驾": 6834,
      "驿": 6835,
      "骀": 6836,
      "骁": 6837,
      "骂": 6838,
      "骄": 6839,
      "骅": 6840,
      "骆": 6841,
      "骇": 6842,
      "骈": 6843,
      "骊": 6844,
      "骋": 6845,
      "验": 6846,
      "骎": 6847,
      "骏": 6848,
      "骐": 6849,
      "骑": 6850,
      "骓": 6851,
      "骗": 6852,
      "骘": 6853,
      "骚": 6854,
      "骛": 6855,
      "骜": 6856,
      "骞": 6857,
      "骠": 6858,
      "骡": 6859,
      "骢": 6860,
      "骤": 6861,
      "骥": 6862,
      "骧": 6863,
      "骨": 6864,
      "骰": 6865,
      "骶": 6866,
      "骷": 6867,
      "骸": 6868,
      "骺": 6869,
      "骼": 6870,
      "髀": 6871,
      "髁": 6872,
      "髂": 6873,
      "髅": 6874,
      "髋": 6875,
      "髌": 6876,
      "髓": 6877,
      "高": 6878,
      "髙": 6879,
      "髡": 6880,
      "髦": 6881,
      "髪": 6882,
      "髫": 6883,
      "髭": 6884,
      "髯": 6885,
      "髹": 6886,
      "髻": 6887,
      "鬃": 6888,
      "鬈": 6889,
      "鬓": 6890,
      "鬟": 6891,
      "鬣": 6892,
      "鬻": 6893,
      "鬼": 6894,
      "魁": 6895,
      "魂": 6896,
      "魄": 6897,
      "魅": 6898,
      "魇": 6899,
      "魉": 6900,
      "魍": 6901,
      "魏": 6902,
      "魑": 6903,
      "魔": 6904,
      "鮨": 6905,
      "鱼": 6906,
      "鱿": 6907,
      "鲁": 6908,
      "鲃": 6909,
      "鲅": 6910,
      "鲆": 6911,
      "鲇": 6912,
      "鲈": 6913,
      "鲉": 6914,
      "鲍": 6915,
      "鲎": 6916,
      "鲐": 6917,
      "鲑": 6918,
      "鲔": 6919,
      "鲗": 6920,
      "鲚": 6921,
      "鲛": 6922,
      "鲜": 6923,
      "鲟": 6924,
      "鲠": 6925,
      "鲡": 6926,
      "鲢": 6927,
      "鲣": 6928,
      "鲤": 6929,
      "鲥": 6930,
      "鲧": 6931,
      "鲨": 6932,
      "鲩": 6933,
      "鲫": 6934,
      "鲭": 6935,
      "鲮": 6936,
      "鲱": 6937,
      "鲲": 6938,
      "鲳": 6939,
      "鲵": 6940,
      "鲶": 6941,
      "鲷": 6942,
      "鲸": 6943,
      "鲹": 6944,
      "鲻": 6945,
      "鲽": 6946,
      "鳀": 6947,
      "鳃": 6948,
      "鳄": 6949,
      "鳅": 6950,
      "鳊": 6951,
      "鳌": 6952,
      "鳍": 6953,
      "鳏": 6954,
      "鳐": 6955,
      "鳔": 6956,
      "鳕": 6957,
      "鳖": 6958,
      "鳗": 6959,
      "鳙": 6960,
      "鳜": 6961,
      "鳝": 6962,
      "鳞": 6963,
      "鳟": 6964,
      "鳢": 6965,
      "鸟": 6966,
      "鸠": 6967,
      "鸡": 6968,
      "鸢": 6969,
      "鸣": 6970,
      "鸥": 6971,
      "鸦": 6972,
      "鸨": 6973,
      "鸩": 6974,
      "鸪": 6975,
      "鸫": 6976,
      "鸬": 6977,
      "鸭": 6978,
      "鸮": 6979,
      "鸯": 6980,
      "鸱": 6981,
      "鸲": 6982,
      "鸳": 6983,
      "鸵": 6984,
      "鸶": 6985,
      "鸷": 6986,
      "鸸": 6987,
      "鸽": 6988,
      "鸾": 6989,
      "鸿": 6990,
      "鹂": 6991,
      "鹃": 6992,
      "鹄": 6993,
      "鹅": 6994,
      "鹈": 6995,
      "鹉": 6996,
      "鹊": 6997,
      "鹋": 6998,
      "鹌": 6999,
      "鹏": 7000,
      "鹑": 7001,
      "鹕": 7002,
      "鹗": 7003,
      "鹘": 7004,
      "鹚": 7005,
      "鹜": 7006,
      "鹞": 7007,
      "鹟": 7008,
      "鹤": 7009,
      "鹦": 7010,
      "鹧": 7011,
      "鹫": 7012,
      "鹬": 7013,
      "鹭": 7014,
      "鹮": 7015,
      "鹰": 7016,
      "鹳": 7017,
      "鹿": 7018,
      "麂": 7019,
      "麃": 7020,
      "麋": 7021,
      "麒": 7022,
      "麓": 7023,
      "麝": 7024,
      "麟": 7025,
      "麤": 7026,
      "麦": 7027,
      "麸": 7028,
      "麻": 7029,
      "麾": 7030,
      "黄": 7031,
      "黉": 7032,
      "黍": 7033,
      "黎": 7034,
      "黏": 7035,
      "黑": 7036,
      "黒": 7037,
      "黔": 7038,
      "默": 7039,
      "黛": 7040,
      "黜": 7041,
      "黝": 7042,
      "黟": 7043,
      "黠": 7044,
      "黢": 7045,
      "黯": 7046,
      "黾": 7047,
      "鼋": 7048,
      "鼍": 7049,
      "鼎": 7050,
      "鼓": 7051,
      "鼙": 7052,
      "鼠": 7053,
      "鼬": 7054,
      "鼹": 7055,
      "鼻": 7056,
      "鼾": 7057,
      "齁": 7058,
      "齐": 7059,
      "齑": 7060,
      "齿": 7061,
      "龃": 7062,
      "龄": 7063,
      "龅": 7064,
      "龇": 7065,
      "龈": 7066,
      "龉": 7067,
      "龊": 7068,
      "龋": 7069,
      "龌": 7070,
      "龙": 7071,
      "龚": 7072,
      "龛": 7073,
      "龟": 7074,
      "": 7075,
      "": 7076,
      "": 7077,
      "": 7078,
      "": 7079,
      "": 7080,
      "": 7081,
      "": 7082,
      "": 7083,
      "": 7084,
      "": 7085,
      "": 7086,
      "": 7087,
      "": 7088,
      "": 7089,
      "": 7090,
      "": 7091,
      "": 7092,
      "": 7093,
      "": 7094,
      "": 7095,
      "": 7096,
      "": 7097,
      "": 7098,
      "": 7099,
      "": 7100,
      "": 7101,
      "": 7102,
      "": 7103,
      "": 7104,
      "": 7105,
      "": 7106,
      "": 7107,
      "": 7108,
      "": 7109,
      "": 7110,
      "": 7111,
      "": 7112,
      "﨑": 7113,
      "︎": 7114,
      "️": 7115,
      "﻿": 7116,
      "￼": 7117,
      "�": 7118,
      "🌟": 7119,
      "🌳": 7120,
      "🌹": 7121,
      "🎉": 7122,
      "🏻": 7123,
      "🏼": 7124,
      "👇": 7125,
      "👉": 7126,
      "👍": 7127,
      "💕": 7128,
      "💡": 7129,
      "💰": 7130,
      "📌": 7131,
      "📍": 7132,
      "📝": 7133,
      "📣": 7134,
      "🔆": 7135,
      "🔍": 7136,
      "🔥": 7137,
      "🔸": 7138,
      "😂": 7139,
      "😅": 7140,
      "😆": 7141,
      "😉": 7142,
      "😊": 7143,
      "😍": 7144,
      "😘": 7145,
      "😭": 7146,
      "😱": 7147,
      "🙂": 7148,
      "🟢": 7149,
      "🤣": 7150,
      "🥳": 7151,
      "🧡": 7152,
      "𠮶": 7153,
      "𦶟": 7154,
      "𩠌": 7155,
      "𩾃": 7156,
      "𪟝": 7157,
      "𪩘": 7158,
      "𪸩": 7159,
      "𪻺": 7160,
      "𫉄": 7161,
      "𫓹": 7162,
      "𫖮": 7163,
      "𫖯": 7164,
      "𫚥": 7165,
      "𬀩": 7166,
      "𬙂": 7167,
      "𬤇": 7168,
      "𬭎": 7169,
      "𬭳": 7170,
      "𬱖": 7171,
      "20": 7172,
      "可以": 7173,
      "我们": 7174,
      "公司": 7175,
      "一个": 7176,
      "企业": 7177,
      "工作": 7178,
      "进行": 7179,
      "00": 7180,
      "产品": 7181,
      "发展": 7182,
      "服务": 7183,
      "使用": 7184,
      "技术": 7185,
      "自己": 7186,
      "管理": 7187,
      "中国": 7188,
      "需要": 7189,
      "市场": 7190,
      "通过": 7191,
      "时间": 7192,
      "设计": 7193,
      "没有": 7194,
      "系统": 7195,
      "问题": 7196,
      "提供": 7197,
      "生产": 7198,
      "如果": 7199,
      "就是": 7200,
      "项目": 7201,
      "设备": 7202,
      "安全": 7203,
      "10": 7204,
      "可能": 7205,
      "行业": 7206,
      "数据": 7207,
      "他们": 7208,
      "情况": 7209,
      "信息": 7210,
      "什么": 7211,
      "主要": 7212,
      "要求": 7213,
      "201": 7214,
      "因为": 7215,
      "不同": 7216,
      "这个": 7217,
      "同时": 7218,
      "以及": 7219,
      "专业": 7220,
      "选择": 7221,
      "影响": 7222,
      "方面": 7223,
      "好的": 7224,
      "环境": 7225,
      "生活": 7226,
      "建设": 7227,
      "重要": 7228,
      "所以": 7229,
      "研究": 7230,
      "人员": 7231,
      "很多": 7232,
      "活动": 7233,
      "相关": 7234,
      "国家": 7235,
      "一些": 7236,
      "对于": 7237,
      "处理": 7238,
      "质量": 7239,
      "具有": 7240,
      "非常": 7241,
      "方式": 7242,
      "大家": 7243,
      "中的": 7244,
      "能力": 7245,
      "过程": 7246,
      "已经": 7247,
      "材料": 7248,
      "品牌": 7249,
      "这些": 7250,
      "根据": 7251,
      "应用": 7252,
      "是一": 7253,
      "经济": 7254,
      "时候": 7255,
      "作为": 7256,
      "用户": 7257,
      "这样": 7258,
      "投资": 7259,
      "202": 7260,
      "客户": 7261,
      "工程": 7262,
      "大的": 7263,
      "其他": 7264,
      "能够": 7265,
      "治疗": 7266,
      "中心": 7267,
      "部分": 7268,
      "教育": 7269,
      "目前": 7270,
      "出现": 7271,
      "er": 7272,
      "标准": 7273,
      "学生": 7274,
      "的人": 7275,
      "平台": 7276,
      "也是": 7277,
      "产业": 7278,
      "实现": 7279,
      "成为": 7280,
      "但是": 7281,
      "内容": 7282,
      "一定": 7283,
      "提高": 7284,
      "方法": 7285,
      "不是": 7286,
      "世界": 7287,
      "开始": 7288,
      "社会": 7289,
      "网站": 7290,
      "的一": 7291,
      "in": 7292,
      "采用": 7293,
      "现在": 7294,
      "功能": 7295,
      "了解": 7296,
      "控制": 7297,
      "比较": 7298,
      "需求": 7299,
      "n1": 7300,
      "因此": 7301,
      "包括": 7302,
      "自己的": 7303,
      "消费": 7304,
      "一般": 7305,
      "还是": 7306,
      "的是": 7307,
      "科技": 7308,
      "都是": 7309,
      "第一": 7310,
      "个人": 7311,
      "癜风": 7312,
      "白癜风": 7313,
      "所有": 7314,
      "学习": 7315,
      "创新": 7316,
      "患者": 7317,
      "提升": 7318,
      "合作": 7319,
      "或者": 7320,
      "国际": 7321,
      "表示": 7322,
      "智能": 7323,
      "价格": 7324,
      "由于": 7325,
      "文化": 7326,
      "组织": 7327,
      "孩子": 7328,
      "上的": 7329,
      "到了": 7330,
      "结构": 7331,
      "不能": 7332,
      "有限": 7333,
      "不会": 7334,
      "这种": 7335,
      "解决": 7336,
      "12": 7337,
      "n2": 7338,
      "单位": 7339,
      "用于": 7340,
      "健康": 7341,
      "机构": 7342,
      "n在": 7343,
      "分析": 7344,
      "an": 7345,
      "人的": 7346,
      "获得": 7347,
      "完成": 7348,
      "开发": 7349,
      "那么": 7350,
      "作用": 7351,
      "部门": 7352,
      "城市": 7353,
      "30": 7354,
      "发生": 7355,
      "网络": 7356,
      "基础": 7357,
      "资源": 7358,
      "必须": 7359,
      "效果": 7360,
      "如何": 7361,
      "业务": 7362,
      "不断": 7363,
      "更多": 7364,
      "的时候": 7365,
      "各种": 7366,
      "建筑": 7367,
      "领域": 7368,
      "政府": 7369,
      "注意": 7370,
      "为了": 7371,
      "有效": 7372,
      "发现": 7373,
      "产生": 7374,
      "而且": 7375,
      "工业": 7376,
      "之后": 7377,
      "大学": 7378,
      "50": 7379,
      "知道": 7380,
      "来的": 7381,
      "利用": 7382,
      "11": 7383,
      "方案": 7384,
      "on": 7385,
      "其中": 7386,
      "以上": 7387,
      "学校": 7388,
      "规定": 7389,
      "增加": 7390,
      "保护": 7391,
      "医院": 7392,
      "n3": 7393,
      "一步": 7394,
      "支持": 7395,
      "操作": 7396,
      "直接": 7397,
      "集团": 7398,
      "有限公司": 7399,
      "还有": 7400,
      "任何": 7401,
      "开展": 7402,
      "希望": 7403,
      "自动": 7404,
      "国内": 7405,
      "制造": 7406,
      "帮助": 7407,
      "来说": 7408,
      "申请": 7409,
      "政策": 7410,
      "空间": 7411,
      "汽车": 7412,
      "游戏": 7413,
      "19": 7414,
      "新的": 7415,
      "200": 7416,
      "电子": 7417,
      "性能": 7418,
      "安装": 7419,
      "一起": 7420,
      "达到": 7421,
      "检测": 7422,
      "这一": 7423,
      "基本": 7424,
      "应该": 7425,
      "持续": 7426,
      "特别": 7427,
      "导致": 7428,
      "计划": 7429,
      "存在": 7430,
      "成本": 7431,
      "100": 7432,
      "容易": 7433,
      "15": 7434,
      "经营": 7435,
      "水平": 7436,
      "美国": 7437,
      "模式": 7438,
      "销售": 7439,
      "进入": 7440,
      "科学": 7441,
      "传统": 7442,
      "随着": 7443,
      "介绍": 7444,
      "北京": 7445,
      "认为": 7446,
      "过程中": 7447,
      "不仅": 7448,
      "实际": 7449,
      "年的": 7450,
      "知识": 7451,
      "第二": 7452,
      "条件": 7453,
      "比赛": 7454,
      "是否": 7455,
      "有关": 7456,
      "目标": 7457,
      "检查": 7458,
      "系列": 7459,
      "交易": 7460,
      "积极": 7461,
      "之间": 7462,
      "虽然": 7463,
      "显示": 7464,
      "了一": 7465,
      "造成": 7466,
      "更加": 7467,
      "加工": 7468,
      "增长": 7469,
      "负责": 7470,
      "保证": 7471,
      "我们的": 7472,
      "未来": 7473,
      "价值": 7474,
      "数字": 7475,
      "全国": 7476,
      "自然": 7477,
      "稳定": 7478,
      "疫情": 7479,
      "形成": 7480,
      "全球": 7481,
      "地区": 7482,
      "温度": 7483,
      "关系": 7484,
      "拥有": 7485,
      "这是": 7486,
      "人民": 7487,
      "发布": 7488,
      "结合": 7489,
      "成功": 7490,
      "代表": 7491,
      "en": 7492,
      "综合": 7493,
      "原因": 7494,
      "结果": 7495,
      "ar": 7496,
      "范围": 7497,
      "保持": 7498,
      "团队": 7499,
      "压力": 7500,
      "进一步": 7501,
      "责任": 7502,
      "简单": 7503,
      "地方": 7504,
      "施工": 7505,
      "关于": 7506,
      "不要": 7507,
      "超过": 7508,
      "or": 7509,
      "2022": 7510,
      "无法": 7511,
      "风险": 7512,
      "你的": 7513,
      "及时": 7514,
      "实施": 7515,
      "许多": 7516,
      "优势": 7517,
      "培训": 7518,
      "以下": 7519,
      "th": 7520,
      "今年": 7521,
      "然后": 7522,
      "现场": 7523,
      "关键": 7524,
      "最后": 7525,
      "朋友": 7526,
      "体系": 7527,
      "我国": 7528,
      "一样": 7529,
      "建立": 7530,
      "重点": 7531,
      "减少": 7532,
      "不过": 7533,
      "怎么": 7534,
      "一直": 7535,
      "并且": 7536,
      "经验": 7537,
      "研发": 7538,
      "月2": 7539,
      "参与": 7540,
      "能源": 7541,
      "按照": 7542,
      "变化": 7543,
      "工艺": 7544,
      "其实": 7545,
      "运动": 7546,
      "艺术": 7547,
      "18": 7548,
      "运行": 7549,
      "体验": 7550,
      "机械": 7551,
      "快速": 7552,
      "一种": 7553,
      "性的": 7554,
      "之一": 7555,
      "消费者": 7556,
      "继续": 7557,
      "起来": 7558,
      "联网": 7559,
      "甚至": 7560,
      "n4": 7561,
      "满足": 7562,
      "基金": 7563,
      "建议": 7564,
      "上海": 7565,
      "才能": 7566,
      "一次": 7567,
      "只有": 7568,
      "保障": 7569,
      "参加": 7570,
      "经过": 7571,
      "计算": 7572,
      "体的": 7573,
      "降低": 7574,
      "表面": 7575,
      "人们": 7576,
      "看到": 7577,
      "不同的": 7578,
      "金融": 7579,
      "确保": 7580,
      "全面": 7581,
      "员工": 7582,
      "两个": 7583,
      "会议": 7584,
      "食品": 7585,
      "得到": 7586,
      "加强": 7587,
      "1年": 7588,
      "16": 7589,
      "精神": 7590,
      "状态": 7591,
      "表现": 7592,
      "le": 7593,
      "规划": 7594,
      "分钟": 7595,
      "提出": 7596,
      "除了": 7597,
      "教学": 7598,
      "报告": 7599,
      "避免": 7600,
      "第三": 7601,
      "行为": 7602,
      "at": 7603,
      "考虑": 7604,
      "关注": 7605,
      "学院": 7606,
      "金属": 7607,
      "专家": 7608,
      "医疗": 7609,
      "阶段": 7610,
      "做好": 7611,
      "调整": 7612,
      "正在": 7613,
      "软件": 7614,
      "资金": 7615,
      "的大": 7616,
      "制作": 7617,
      "这里": 7618,
      "规模": 7619,
      "竞争": 7620,
      "效率": 7621,
      "银行": 7622,
      "带来": 7623,
      "执行": 7624,
      "推动": 7625,
      "是在": 7626,
      "期间": 7627,
      "测试": 7628,
      "针对": 7629,
      "之前": 7630,
      "皮肤": 7631,
      "就会": 7632,
      "生态": 7633,
      "交流": 7634,
      "完全": 7635,
      "喜欢": 7636,
      "球队": 7637,
      "一下": 7638,
      "从而": 7639,
      "区域": 7640,
      "程序": 7641,
      "记者": 7642,
      "丰富": 7643,
      "身体": 7644,
      "特点": 7645,
      "量的": 7646,
      "正常": 7647,
      "措施": 7648,
      "取得": 7649,
      "核心": 7650,
      "旅游": 7651,
      "符合": 7652,
      "环保": 7653,
      "的问题": 7654,
      "老师": 7655,
      "充分": 7656,
      "的情况": 7657,
      "因素": 7658,
      "机会": 7659,
      "13": 7660,
      "法律": 7661,
      "亿元": 7662,
      "有的": 7663,
      "空气": 7664,
      "受到": 7665,
      "交通": 7666,
      "14": 7667,
      "小时": 7668,
      "al": 7669,
      "职业": 7670,
      "今天": 7671,
      "高的": 7672,
      "万元": 7673,
      "es": 7674,
      "打造": 7675,
      "污染": 7676,
      "文件": 7677,
      "时代": 7678,
      "化的": 7679,
      "方便": 7680,
      "家庭": 7681,
      "形式": 7682,
      "商业": 7683,
      "决定": 7684,
      "运营": 7685,
      "现代": 7686,
      "广泛": 7687,
      "生物": 7688,
      "资料": 7689,
      "整个": 7690,
      "来越": 7691,
      "共同": 7692,
      "我的": 7693,
      "历史": 7694,
      "是一种": 7695,
      "手机": 7696,
      "注册": 7697,
      "越来越": 7698,
      "供应": 7699,
      "速度": 7700,
      "视频": 7701,
      "设施": 7702,
      "适合": 7703,
      "的话": 7704,
      "比如": 7705,
      "的高": 7706,
      "疾病": 7707,
      "领导": 7708,
      "也有": 7709,
      "整体": 7710,
      "课程": 7711,
      "000": 7712,
      "的发展": 7713,
      "咨询": 7714,
      "方向": 7715,
      "具体": 7716,
      "长期": 7717,
      "努力": 7718,
      "程度": 7719,
      "媒体": 7720,
      "确定": 7721,
      "严重": 7722,
      "他的": 7723,
      "互联网": 7724,
      "不可": 7725,
      "的事": 7726,
      "60": 7727,
      "接受": 7728,
      "是一个": 7729,
      "40": 7730,
      "准备": 7731,
      "推进": 7732,
      "人才": 7733,
      "费用": 7734,
      "坚持": 7735,
      "都有": 7736,
      "左右": 7737,
      "规范": 7738,
      "以来": 7739,
      "不得": 7740,
      "促进": 7741,
      "it": 7742,
      "广告": 7743,
      "办公": 7744,
      "的新": 7745,
      "宣传": 7746,
      "目的": 7747,
      "合理": 7748,
      "2022年": 7749,
      "发挥": 7750,
      "明显": 7751,
      "位置": 7752,
      "来看": 7753,
      "2020": 7754,
      "球员": 7755,
      "属于": 7756,
      "觉得": 7757,
      "包装": 7758,
      "联系": 7759,
      "都会": 7760,
      "作品": 7761,
      "购买": 7762,
      "维护": 7763,
      "战略": 7764,
      "十分": 7765,
      "也不": 7766,
      "只是": 7767,
      "连接": 7768,
      "ou": 7769,
      "分别": 7770,
      "应当": 7771,
      "实验": 7772,
      "25": 7773,
      "首先": 7774,
      "感觉": 7775,
      "面积": 7776,
      "保险": 7777,
      "的工作": 7778,
      "17": 7779,
      "资产": 7780,
      "来自": 7781,
      "体育": 7782,
      "另外": 7783,
      "品质": 7784,
      "制度": 7785,
      "也会": 7786,
      "您的": 7787,
      "出了": 7788,
      "营销": 7789,
      "明确": 7790,
      "这样的": 7791,
      "as": 7792,
      "指导": 7793,
      "教师": 7794,
      "成立": 7795,
      "赛季": 7796,
      "最终": 7797,
      "并不": 7798,
      "绿色": 7799,
      "合同": 7800,
      "哪些": 7801,
      "年来": 7802,
      "设置": 7803,
      "玻璃": 7804,
      "日本": 7805,
      "组成": 7806,
      "改变": 7807,
      "有些": 7808,
      "工具": 7809,
      "主题": 7810,
      "想要": 7811,
      "el": 7812,
      "出的": 7813,
      "n5": 7814,
      "通常": 7815,
      "每个": 7816,
      "完善": 7817,
      "不少": 7818,
      "尤其": 7819,
      "此外": 7820,
      "9年": 7821,
      "考试": 7822,
      "当然": 7823,
      "社区": 7824,
      "只要": 7825,
      "机器": 7826,
      "80": 7827,
      "自身": 7828,
      "商品": 7829,
      "电机": 7830,
      "优化": 7831,
      "重要的": 7832,
      "后的": 7833,
      "经常": 7834,
      "ic": 7835,
      "产品的": 7836,
      "任务": 7837,
      "相对": 7838,
      "化学": 7839,
      "例如": 7840,
      "严格": 7841,
      "分享": 7842,
      "普通": 7843,
      "培养": 7844,
      "动力": 7845,
      "出来": 7846,
      "推广": 7847,
      "的产品": 7848,
      "内部": 7849,
      "落实": 7850,
      "创造": 7851,
      "装置": 7852,
      "类型": 7853,
      "创业": 7854,
      "联合": 7855,
      "2021年": 7856,
      "is": 7857,
      "移动": 7858,
      "物流": 7859,
      "的重要": 7860,
      "上市": 7861,
      "说明": 7862,
      "用的": 7863,
      "多的": 7864,
      "收入": 7865,
      "卫生": 7866,
      "24": 7867,
      "音乐": 7868,
      "成绩": 7869,
      "升级": 7870,
      "机制": 7871,
      "厂家": 7872,
      "ed": 7873,
      "个月": 7874,
      "物质": 7875,
      "也可以": 7876,
      "试验": 7877,
      "欢迎": 7878,
      "真正": 7879,
      "反应": 7880,
      "过去": 7881,
      "理念": 7882,
      "企业的": 7883,
      "面的": 7884,
      "无论": 7885,
      "运输": 7886,
      "8年": 7887,
      "行政": 7888,
      "良好的": 7889,
      "行动": 7890,
      "日常": 7891,
      "电池": 7892,
      "mm": 7893,
      "特色": 7894,
      "先进": 7895,
      "流程": 7896,
      "农业": 7897,
      "公共": 7898,
      "引起": 7899,
      "oo": 7900,
      "测量": 7901,
      "生命": 7902,
      "东西": 7903,
      "美元": 7904,
      "一定要": 7905,
      "面对": 7906,
      "发展的": 7907,
      "全部": 7908,
      "就可以": 7909,
      "在线": 7910,
      "本文": 7911,
      "具备": 7912,
      "故事": 7913,
      "通知": 7914,
      "办法": 7915,
      "内的": 7916,
      "监管": 7917,
      "经理": 7918,
      "优质": 7919,
      "儿童": 7920,
      "智慧": 7921,
      "理解": 7922,
      "样的": 7923,
      "心理": 7924,
      "正式": 7925,
      "多种": 7926,
      "加入": 7927,
      "下来": 7928,
      "必要": 7929,
      "优秀": 7930,
      "毕业": 7931,
      "安排": 7932,
      "实践": 7933,
      "细胞": 7934,
      "做到": 7935,
      "委员": 7936,
      "它的": 7937,
      "深圳": 7938,
      "特殊": 7939,
      "现象": 7940,
      "如此": 7941,
      "展示": 7942,
      "事业": 7943,
      "本次": 7944,
      "电话": 7945,
      "协会": 7946,
      "的时间": 7947,
      "为什么": 7948,
      "ing": 7949,
      "意见": 7950,
      "酒店": 7951,
      "下的": 7952,
      "度的": 7953,
      "接触": 7954,
      "集中": 7955,
      "可能会": 7956,
      "5年": 7957,
      "力的": 7958,
      "改革": 7959,
      "下降": 7960,
      "分为": 7961,
      "调查": 7962,
      "2020年": 7963,
      "同学": 7964,
      "re": 7965,
      "当地": 7966,
      "连续": 7967,
      "的小": 7968,
      "多个": 7969,
      "一点": 7970,
      "公司的": 7971,
      "机的": 7972,
      "制定": 7973,
      "深入": 7974,
      "ac": 7975,
      "证明": 7976,
      "意识": 7977,
      "成长": 7978,
      "ro": 7979,
      "力量": 7980,
      "每天": 7981,
      "氧化": 7982,
      "它们": 7983,
      "指出": 7984,
      "意义": 7985,
      "大多": 7986,
      "清洗": 7987,
      "的方式": 7988,
      "增强": 7989,
      "资格": 7990,
      "不到": 7991,
      "趋势": 7992,
      "找到": 7993,
      "数量": 7994,
      "防止": 7995,
      "复杂": 7996,
      "医生": 7997,
      "风格": 7998,
      "相信": 7999,
      "恢复": 8000,
      "采取": 8001,
      "最大": 8002,
      "基于": 8003,
      "防控": 8004,
      "监督": 8005,
      "and": 8006,
      "此次": 8007,
      "大型": 8008,
      "°C": 8009,
      "联赛": 8010,
      "电动": 8011,
      "人工": 8012,
      "状况": 8013,
      "白斑": 8014,
      "他们的": 8015,
      "正确": 8016,
      "真的": 8017,
      "有所": 8018,
      "吸引": 8019,
      "强度": 8020,
      "3年": 8021,
      "管道": 8022,
      "就业": 8023,
      "告诉": 8024,
      "统一": 8025,
      "记录": 8026,
      "训练": 8027,
      "开放": 8028,
      "可靠": 8029,
      "车辆": 8030,
      "文章": 8031,
      "原则": 8032,
      "1日": 8033,
      "改善": 8034,
      "语言": 8035,
      "公开": 8036,
      "解决方案": 8037,
      "运用": 8038,
      "垃圾": 8039,
      "食物": 8040,
      "新闻": 8041,
      "成果": 8042,
      "涉及": 8043,
      "多少": 8044,
      "等等": 8045,
      "电影": 8046,
      "进行了": 8047,
      "协议": 8048,
      "et": 8049,
      "消防": 8050,
      "一定的": 8051,
      "支付": 8052,
      "流量": 8053,
      "相应": 8054,
      "相当": 8055,
      "准确": 8056,
      "投入": 8057,
      "结束": 8058,
      "90": 8059,
      "困难": 8060,
      "这么": 8061,
      "商标": 8062,
      "有机": 8063,
      "基地": 8064,
      "重新": 8065,
      "作业": 8066,
      "配合": 8067,
      "颜色": 8068,
      "位于": 8069,
      "融合": 8070,
      "症状": 8071,
      "广州": 8072,
      "距离": 8073,
      "启动": 8074,
      "自由": 8075,
      "统计": 8076,
      "性和": 8077,
      "评估": 8078,
      "双方": 8079,
      "以后": 8080,
      "地产": 8081,
      "下面": 8082,
      "7年": 8083,
      "技能": 8084,
      "监测": 8085,
      "推荐": 8086,
      "展开": 8087,
      "挑战": 8088,
      "办理": 8089,
      "器的": 8090,
      "电视": 8091,
      "举办": 8092,
      "干燥": 8093,
      "只能": 8094,
      "再次": 8095,
      "有一": 8096,
      "认证": 8097,
      "处于": 8098,
      "另一": 8099,
      "股份": 8100,
      "然而": 8101,
      "更多的": 8102,
      "500": 8103,
      "相比": 8104,
      "重视": 8105,
      "之间的": 8106,
      "实力": 8107,
      "本身": 8108,
      "70": 8109,
      "各类": 8110,
      "高效": 8111,
      "而是": 8112,
      "寿命": 8113,
      "大量": 8114,
      "那些": 8115,
      "即可": 8116,
      "营养": 8117,
      "n一": 8118,
      "评价": 8119,
      "年轻": 8120,
      "室内": 8121,
      "的影响": 8122,
      "装饰": 8123,
      "值得": 8124,
      "采购": 8125,
      "消息": 8126,
      "认识": 8127,
      "为主": 8128,
      "逐渐": 8129,
      "形象": 8130,
      "更好": 8131,
      "而言": 8132,
      "信号": 8133,
      "仍然": 8134,
      "循环": 8135,
      "是什么": 8136,
      "固定": 8137,
      "不足": 8138,
      "免费": 8139,
      "沟通": 8140,
      "电力": 8141,
      "家长": 8142,
      "更新": 8143,
      "会有": 8144,
      "n6": 8145,
      "保温": 8146,
      "2019年": 8147,
      "如今": 8148,
      "加快": 8149,
      "主任": 8150,
      "线上": 8151,
      "中小": 8152,
      "清洁": 8153,
      "8月": 8154,
      "当前": 8155,
      "配置": 8156,
      "重大": 8157,
      "适用于": 8158,
      "常见": 8159,
      "强化": 8160,
      "有着": 8161,
      "治理": 8162,
      "证券": 8163,
      "主动": 8164,
      "lo": 8165,
      "方面的": 8166,
      "往往": 8167,
      "报名": 8168,
      "n这": 8169,
      "23": 8170,
      "排名": 8171,
      "不锈": 8172,
      "ch": 8173,
      "比例": 8174,
      "详细": 8175,
      "习惯": 8176,
      "投资者": 8177,
      "有了": 8178,
      "玩家": 8179,
      "9月": 8180,
      "腐蚀": 8181,
      "专业的": 8182,
      "指标": 8183,
      "从事": 8184,
      "相同": 8185,
      "加热": 8186,
      "负责人": 8187,
      "资本": 8188,
      "环节": 8189,
      "元素": 8190,
      "场景": 8191
    },
    "merges": [
      [
        "2",
        "0"
      ],
      [
        "可",
        "以"
      ],
      [
        "我",
        "们"
      ],
      [
        "公",
        "司"
      ],
      [
        "一",
        "个"
      ],
      [
        "企",
        "业"
      ],
      [
        "工",
        "作"
      ],
      [
        "进",
        "行"
      ],
      [
        "0",
        "0"
      ],
      [
        "产",
        "品"
      ],
      [
        "发",
        "展"
      ],
      [
        "服",
        "务"
      ],
      [
        "使",
        "用"
      ],
      [
        "技",
        "术"
      ],
      [
        "自",
        "己"
      ],
      [
        "管",
        "理"
      ],
      [
        "中",
        "国"
      ],
      [
        "需",
        "要"
      ],
      [
        "市",
        "场"
      ],
      [
        "通",
        "过"
      ],
      [
        "时",
        "间"
      ],
      [
        "设",
        "计"
      ],
      [
        "没",
        "有"
      ],
      [
        "系",
        "统"
      ],
      [
        "问",
        "题"
      ],
      [
        "提",
        "供"
      ],
      [
        "生",
        "产"
      ],
      [
        "如",
        "果"
      ],
      [
        "就",
        "是"
      ],
      [
        "项",
        "目"
      ],
      [
        "设",
        "备"
      ],
      [
        "安",
        "全"
      ],
      [
        "1",
        "0"
      ],
      [
        "可",
        "能"
      ],
      [
        "行",
        "业"
      ],
      [
        "数",
        "据"
      ],
      [
        "他",
        "们"
      ],
      [
        "情",
        "况"
      ],
      [
        "信",
        "息"
      ],
      [
        "什",
        "么"
      ],
      [
        "主",
        "要"
      ],
      [
        "要",
        "求"
      ],
      [
        "20",
        "1"
      ],
      [
        "因",
        "为"
      ],
      [
        "不",
        "同"
      ],
      [
        "这",
        "个"
      ],
      [
        "同",
        "时"
      ],
      [
        "以",
        "及"
      ],
      [
        "专",
        "业"
      ],
      [
        "选",
        "择"
      ],
      [
        "影",
        "响"
      ],
      [
        "方",
        "面"
      ],
      [
        "好",
        "的"
      ],
      [
        "环",
        "境"
      ],
      [
        "生",
        "活"
      ],
      [
        "建",
        "设"
      ],
      [
        "重",
        "要"
      ],
      [
        "所",
        "以"
      ],
      [
        "研",
        "究"
      ],
      [
        "人",
        "员"
      ],
      [
        "很",
        "多"
      ],
      [
        "活",
        "动"
      ],
      [
        "相",
        "关"
      ],
      [
        "国",
        "家"
      ],
      [
        "一",
        "些"
      ],
      [
        "对",
        "于"
      ],
      [
        "处",
        "理"
      ],
      [
        "质",
        "量"
      ],
      [
        "具",
        "有"
      ],
      [
        "非",
        "常"
      ],
      [
        "方",
        "式"
      ],
      [
        "大",
        "家"
      ],
      [
        "中",
        "的"
      ],
      [
        "能",
        "力"
      ],
      [
        "过",
        "程"
      ],
      [
        "已",
        "经"
      ],
      [
        "材",
        "料"
      ],
      [
        "品",
        "牌"
      ],
      [
        "这",
        "些"
      ],
      [
        "根",
        "据"
      ],
      [
        "应",
        "用"
      ],
      [
        "是",
        "一"
      ],
      [
        "经",
        "济"
      ],
      [
        "时",
        "候"
      ],
      [
        "作",
        "为"
      ],
      [
        "用",
        "户"
      ],
      [
        "这",
        "样"
      ],
      [
        "投",
        "资"
      ],
      [
        "20",
        "2"
      ],
      [
        "客",
        "户"
      ],
      [
        "工",
        "程"
      ],
      [
        "大",
        "的"
      ],
      [
        "其",
        "他"
      ],
      [
        "能",
        "够"
      ],
      [
        "治",
        "疗"
      ],
      [
        "中",
        "心"
      ],
      [
        "部",
        "分"
      ],
      [
        "教",
        "育"
      ],
      [
        "目",
        "前"
      ],
      [
        "出",
        "现"
      ],
      [
        "e",
        "r"
      ],
      [
        "标",
        "准"
      ],
      [
        "学",
        "生"
      ],
      [
        "的",
        "人"
      ],
      [
        "平",
        "台"
      ],
      [
        "也",
        "是"
      ],
      [
        "产",
        "业"
      ],
      [
        "实",
        "现"
      ],
      [
        "成",
        "为"
      ],
      [
        "但",
        "是"
      ],
      [
        "内",
        "容"
      ],
      [
        "一",
        "定"
      ],
      [
        "提",
        "高"
      ],
      [
        "方",
        "法"
      ],
      [
        "不",
        "是"
      ],
      [
        "世",
        "界"
      ],
      [
        "开",
        "始"
      ],
      [
        "社",
        "会"
      ],
      [
        "网",
        "站"
      ],
      [
        "的",
        "一"
      ],
      [
        "i",
        "n"
      ],
      [
        "采",
        "用"
      ],
      [
        "现",
        "在"
      ],
      [
        "功",
        "能"
      ],
      [
        "了",
        "解"
      ],
      [
        "控",
        "制"
      ],
      [
        "比",
        "较"
      ],
      [
        "需",
        "求"
      ],
      [
        "n",
        "1"
      ],
      [
        "因",
        "此"
      ],
      [
        "包",
        "括"
      ],
      [
        "自己",
        "的"
      ],
      [
        "消",
        "费"
      ],
      [
        "一",
        "般"
      ],
      [
        "还",
        "是"
      ],
      [
        "的",
        "是"
      ],
      [
        "科",
        "技"
      ],
      [
        "都",
        "是"
      ],
      [
        "第",
        "一"
      ],
      [
        "个",
        "人"
      ],
      [
        "癜",
        "风"
      ],
      [
        "白",
        "癜风"
      ],
      [
        "所",
        "有"
      ],
      [
        "学",
        "习"
      ],
      [
        "创",
        "新"
      ],
      [
        "患",
        "者"
      ],
      [
        "提",
        "升"
      ],
      [
        "合",
        "作"
      ],
      [
        "或",
        "者"
      ],
      [
        "国",
        "际"
      ],
      [
        "表",
        "示"
      ],
      [
        "智",
        "能"
      ],
      [
        "价",
        "格"
      ],
      [
        "由",
        "于"
      ],
      [
        "文",
        "化"
      ],
      [
        "组",
        "织"
      ],
      [
        "孩",
        "子"
      ],
      [
        "上",
        "的"
      ],
      [
        "到",
        "了"
      ],
      [
        "结",
        "构"
      ],
      [
        "不",
        "能"
      ],
      [
        "有",
        "限"
      ],
      [
        "不",
        "会"
      ],
      [
        "这",
        "种"
      ],
      [
        "解",
        "决"
      ],
      [
        "1",
        "2"
      ],
      [
        "n",
        "2"
      ],
      [
        "单",
        "位"
      ],
      [
        "用",
        "于"
      ],
      [
        "健",
        "康"
      ],
      [
        "机",
        "构"
      ],
      [
        "n",
        "在"
      ],
      [
        "分",
        "析"
      ],
      [
        "a",
        "n"
      ],
      [
        "人",
        "的"
      ],
      [
        "获",
        "得"
      ],
      [
        "完",
        "成"
      ],
      [
        "开",
        "发"
      ],
      [
        "那",
        "么"
      ],
      [
        "作",
        "用"
      ],
      [
        "部",
        "门"
      ],
      [
        "城",
        "市"
      ],
      [
        "3",
        "0"
      ],
      [
        "发",
        "生"
      ],
      [
        "网",
        "络"
      ],
      [
        "基",
        "础"
      ],
      [
        "资",
        "源"
      ],
      [
        "必",
        "须"
      ],
      [
        "效",
        "果"
      ],
      [
        "如",
        "何"
      ],
      [
        "业",
        "务"
      ],
      [
        "不",
        "断"
      ],
      [
        "更",
        "多"
      ],
      [
        "的",
        "时候"
      ],
      [
        "各",
        "种"
      ],
      [
        "建",
        "筑"
      ],
      [
        "领",
        "域"
      ],
      [
        "政",
        "府"
      ],
      [
        "注",
        "意"
      ],
      [
        "为",
        "了"
      ],
      [
        "有",
        "效"
      ],
      [
        "发",
        "现"
      ],
      [
        "产",
        "生"
      ],
      [
        "而",
        "且"
      ],
      [
        "工",
        "业"
      ],
      [
        "之",
        "后"
      ],
      [
        "大",
        "学"
      ],
      [
        "5",
        "0"
      ],
      [
        "知",
        "道"
      ],
      [
        "来",
        "的"
      ],
      [
        "利",
        "用"
      ],
      [
        "1",
        "1"
      ],
      [
        "方",
        "案"
      ],
      [
        "o",
        "n"
      ],
      [
        "其",
        "中"
      ],
      [
        "以",
        "上"
      ],
      [
        "学",
        "校"
      ],
      [
        "规",
        "定"
      ],
      [
        "增",
        "加"
      ],
      [
        "保",
        "护"
      ],
      [
        "医",
        "院"
      ],
      [
        "n",
        "3"
      ],
      [
        "一",
        "步"
      ],
      [
        "支",
        "持"
      ],
      [
        "操",
        "作"
      ],
      [
        "直",
        "接"
      ],
      [
        "集",
        "团"
      ],
      [
        "有限",
        "公司"
      ],
      [
        "还",
        "有"
      ],
      [
        "任",
        "何"
      ],
      [
        "开",
        "展"
      ],
      [
        "希",
        "望"
      ],
      [
        "自",
        "动"
      ],
      [
        "国",
        "内"
      ],
      [
        "制",
        "造"
      ],
      [
        "帮",
        "助"
      ],
      [
        "来",
        "说"
      ],
      [
        "申",
        "请"
      ],
      [
        "政",
        "策"
      ],
      [
        "空",
        "间"
      ],
      [
        "汽",
        "车"
      ],
      [
        "游",
        "戏"
      ],
      [
        "1",
        "9"
      ],
      [
        "新",
        "的"
      ],
      [
        "20",
        "0"
      ],
      [
        "电",
        "子"
      ],
      [
        "性",
        "能"
      ],
      [
        "安",
        "装"
      ],
      [
        "一",
        "起"
      ],
      [
        "达",
        "到"
      ],
      [
        "检",
        "测"
      ],
      [
        "这",
        "一"
      ],
      [
        "基",
        "本"
      ],
      [
        "应",
        "该"
      ],
      [
        "持",
        "续"
      ],
      [
        "特",
        "别"
      ],
      [
        "导",
        "致"
      ],
      [
        "计",
        "划"
      ],
      [
        "存",
        "在"
      ],
      [
        "成",
        "本"
      ],
      [
        "1",
        "00"
      ],
      [
        "容",
        "易"
      ],
      [
        "1",
        "5"
      ],
      [
        "经",
        "营"
      ],
      [
        "水",
        "平"
      ],
      [
        "美",
        "国"
      ],
      [
        "模",
        "式"
      ],
      [
        "销",
        "售"
      ],
      [
        "进",
        "入"
      ],
      [
        "科",
        "学"
      ],
      [
        "传",
        "统"
      ],
      [
        "随",
        "着"
      ],
      [
        "介",
        "绍"
      ],
      [
        "北",
        "京"
      ],
      [
        "认",
        "为"
      ],
      [
        "过程",
        "中"
      ],
      [
        "不",
        "仅"
      ],
      [
        "实",
        "际"
      ],
      [
        "年",
        "的"
      ],
      [
        "知",
        "识"
      ],
      [
        "第",
        "二"
      ],
      [
        "条",
        "件"
      ],
      [
        "比",
        "赛"
      ],
      [
        "是",
        "否"
      ],
      [
        "有",
        "关"
      ],
      [
        "目",
        "标"
      ],
      [
        "检",
        "查"
      ],
      [
        "系",
        "列"
      ],
      [
        "交",
        "易"
      ],
      [
        "积",
        "极"
      ],
      [
        "之",
        "间"
      ],
      [
        "虽",
        "然"
      ],
      [
        "显",
        "示"
      ],
      [
        "了",
        "一"
      ],
      [
        "造",
        "成"
      ],
      [
        "更",
        "加"
      ],
      [
        "加",
        "工"
      ],
      [
        "增",
        "长"
      ],
      [
        "负",
        "责"
      ],
      [
        "保",
        "证"
      ],
      [
        "我们",
        "的"
      ],
      [
        "未",
        "来"
      ],
      [
        "价",
        "值"
      ],
      [
        "数",
        "字"
      ],
      [
        "全",
        "国"
      ],
      [
        "自",
        "然"
      ],
      [
        "稳",
        "定"
      ],
      [
        "疫",
        "情"
      ],
      [
        "形",
        "成"
      ],
      [
        "全",
        "球"
      ],
      [
        "地",
        "区"
      ],
      [
        "温",
        "度"
      ],
      [
        "关",
        "系"
      ],
      [
        "拥",
        "有"
      ],
      [
        "这",
        "是"
      ],
      [
        "人",
        "民"
      ],
      [
        "发",
        "布"
      ],
      [
        "结",
        "合"
      ],
      [
        "成",
        "功"
      ],
      [
        "代",
        "表"
      ],
      [
        "e",
        "n"
      ],
      [
        "综",
        "合"
      ],
      [
        "原",
        "因"
      ],
      [
        "结",
        "果"
      ],
      [
        "a",
        "r"
      ],
      [
        "范",
        "围"
      ],
      [
        "保",
        "持"
      ],
      [
        "团",
        "队"
      ],
      [
        "压",
        "力"
      ],
      [
        "进",
        "一步"
      ],
      [
        "责",
        "任"
      ],
      [
        "简",
        "单"
      ],
      [
        "地",
        "方"
      ],
      [
        "施",
        "工"
      ],
      [
        "关",
        "于"
      ],
      [
        "不",
        "要"
      ],
      [
        "超",
        "过"
      ],
      [
        "o",
        "r"
      ],
      [
        "202",
        "2"
      ],
      [
        "无",
        "法"
      ],
      [
        "风",
        "险"
      ],
      [
        "你",
        "的"
      ],
      [
        "及",
        "时"
      ],
      [
        "实",
        "施"
      ],
      [
        "许",
        "多"
      ],
      [
        "优",
        "势"
      ],
      [
        "培",
        "训"
      ],
      [
        "以",
        "下"
      ],
      [
        "t",
        "h"
      ],
      [
        "今",
        "年"
      ],
      [
        "然",
        "后"
      ],
      [
        "现",
        "场"
      ],
      [
        "关",
        "键"
      ],
      [
        "最",
        "后"
      ],
      [
        "朋",
        "友"
      ],
      [
        "体",
        "系"
      ],
      [
        "我",
        "国"
      ],
      [
        "一",
        "样"
      ],
      [
        "建",
        "立"
      ],
      [
        "重",
        "点"
      ],
      [
        "减",
        "少"
      ],
      [
        "不",
        "过"
      ],
      [
        "怎",
        "么"
      ],
      [
        "一",
        "直"
      ],
      [
        "并",
        "且"
      ],
      [
        "经",
        "验"
      ],
      [
        "研",
        "发"
      ],
      [
        "月",
        "2"
      ],
      [
        "参",
        "与"
      ],
      [
        "能",
        "源"
      ],
      [
        "按",
        "照"
      ],
      [
        "变",
        "化"
      ],
      [
        "工",
        "艺"
      ],
      [
        "其",
        "实"
      ],
      [
        "运",
        "动"
      ],
      [
        "艺",
        "术"
      ],
      [
        "1",
        "8"
      ],
      [
        "运",
        "行"
      ],
      [
        "体",
        "验"
      ],
      [
        "机",
        "械"
      ],
      [
        "快",
        "速"
      ],
      [
        "一",
        "种"
      ],
      [
        "性",
        "的"
      ],
      [
        "之",
        "一"
      ],
      [
        "消费",
        "者"
      ],
      [
        "继",
        "续"
      ],
      [
        "起",
        "来"
      ],
      [
        "联",
        "网"
      ],
      [
        "甚",
        "至"
      ],
      [
        "n",
        "4"
      ],
      [
        "满",
        "足"
      ],
      [
        "基",
        "金"
      ],
      [
        "建",
        "议"
      ],
      [
        "上",
        "海"
      ],
      [
        "才",
        "能"
      ],
      [
        "一",
        "次"
      ],
      [
        "只",
        "有"
      ],
      [
        "保",
        "障"
      ],
      [
        "参",
        "加"
      ],
      [
        "经",
        "过"
      ],
      [
        "计",
        "算"
      ],
      [
        "体",
        "的"
      ],
      [
        "降",
        "低"
      ],
      [
        "表",
        "面"
      ],
      [
        "人",
        "们"
      ],
      [
        "看",
        "到"
      ],
      [
        "不同",
        "的"
      ],
      [
        "金",
        "融"
      ],
      [
        "确",
        "保"
      ],
      [
        "全",
        "面"
      ],
      [
        "员",
        "工"
      ],
      [
        "两",
        "个"
      ],
      [
        "会",
        "议"
      ],
      [
        "食",
        "品"
      ],
      [
        "得",
        "到"
      ],
      [
        "加",
        "强"
      ],
      [
        "1",
        "年"
      ],
      [
        "1",
        "6"
      ],
      [
        "精",
        "神"
      ],
      [
        "状",
        "态"
      ],
      [
        "表",
        "现"
      ],
      [
        "l",
        "e"
      ],
      [
        "规",
        "划"
      ],
      [
        "分",
        "钟"
      ],
      [
        "提",
        "出"
      ],
      [
        "除",
        "了"
      ],
      [
        "教",
        "学"
      ],
      [
        "报",
        "告"
      ],
      [
        "避",
        "免"
      ],
      [
        "第",
        "三"
      ],
      [
        "行",
        "为"
      ],
      [
        "a",
        "t"
      ],
      [
        "考",
        "虑"
      ],
      [
        "关",
        "注"
      ],
      [
        "学",
        "院"
      ],
      [
        "金",
        "属"
      ],
      [
        "专",
        "家"
      ],
      [
        "医",
        "疗"
      ],
      [
        "阶",
        "段"
      ],
      [
        "做",
        "好"
      ],
      [
        "调",
        "整"
      ],
      [
        "正",
        "在"
      ],
      [
        "软",
        "件"
      ],
      [
        "资",
        "金"
      ],
      [
        "的",
        "大"
      ],
      [
        "制",
        "作"
      ],
      [
        "这",
        "里"
      ],
      [
        "规",
        "模"
      ],
      [
        "竞",
        "争"
      ],
      [
        "效",
        "率"
      ],
      [
        "银",
        "行"
      ],
      [
        "带",
        "来"
      ],
      [
        "执",
        "行"
      ],
      [
        "推",
        "动"
      ],
      [
        "是",
        "在"
      ],
      [
        "期",
        "间"
      ],
      [
        "测",
        "试"
      ],
      [
        "针",
        "对"
      ],
      [
        "之",
        "前"
      ],
      [
        "皮",
        "肤"
      ],
      [
        "就",
        "会"
      ],
      [
        "生",
        "态"
      ],
      [
        "交",
        "流"
      ],
      [
        "完",
        "全"
      ],
      [
        "喜",
        "欢"
      ],
      [
        "球",
        "队"
      ],
      [
        "一",
        "下"
      ],
      [
        "从",
        "而"
      ],
      [
        "区",
        "域"
      ],
      [
        "程",
        "序"
      ],
      [
        "记",
        "者"
      ],
      [
        "丰",
        "富"
      ],
      [
        "身",
        "体"
      ],
      [
        "特",
        "点"
      ],
      [
        "量",
        "的"
      ],
      [
        "正",
        "常"
      ],
      [
        "措",
        "施"
      ],
      [
        "取",
        "得"
      ],
      [
        "核",
        "心"
      ],
      [
        "旅",
        "游"
      ],
      [
        "符",
        "合"
      ],
      [
        "环",
        "保"
      ],
      [
        "的",
        "问题"
      ],
      [
        "老",
        "师"
      ],
      [
        "充",
        "分"
      ],
      [
        "的",
        "情况"
      ],
      [
        "因",
        "素"
      ],
      [
        "机",
        "会"
      ],
      [
        "1",
        "3"
      ],
      [
        "法",
        "律"
      ],
      [
        "亿",
        "元"
      ],
      [
        "有",
        "的"
      ],
      [
        "空",
        "气"
      ],
      [
        "受",
        "到"
      ],
      [
        "交",
        "通"
      ],
      [
        "1",
        "4"
      ],
      [
        "小",
        "时"
      ],
      [
        "a",
        "l"
      ],
      [
        "职",
        "业"
      ],
      [
        "今",
        "天"
      ],
      [
        "高",
        "的"
      ],
      [
        "万",
        "元"
      ],
      [
        "e",
        "s"
      ],
      [
        "打",
        "造"
      ],
      [
        "污",
        "染"
      ],
      [
        "文",
        "件"
      ],
      [
        "时",
        "代"
      ],
      [
        "化",
        "的"
      ],
      [
        "方",
        "便"
      ],
      [
        "家",
        "庭"
      ],
      [
        "形",
        "式"
      ],
      [
        "商",
        "业"
      ],
      [
        "决",
        "定"
      ],
      [
        "运",
        "营"
      ],
      [
        "现",
        "代"
      ],
      [
        "广",
        "泛"
      ],
      [
        "生",
        "物"
      ],
      [
        "资",
        "料"
      ],
      [
        "整",
        "个"
      ],
      [
        "来",
        "越"
      ],
      [
        "共",
        "同"
      ],
      [
        "我",
        "的"
      ],
      [
        "历",
        "史"
      ],
      [
        "是一",
        "种"
      ],
      [
        "手",
        "机"
      ],
      [
        "注",
        "册"
      ],
      [
        "越",
        "来越"
      ],
      [
        "供",
        "应"
      ],
      [
        "速",
        "度"
      ],
      [
        "视",
        "频"
      ],
      [
        "设",
        "施"
      ],
      [
        "适",
        "合"
      ],
      [
        "的",
        "话"
      ],
      [
        "比",
        "如"
      ],
      [
        "的",
        "高"
      ],
      [
        "疾",
        "病"
      ],
      [
        "领",
        "导"
      ],
      [
        "也",
        "有"
      ],
      [
        "整",
        "体"
      ],
      [
        "课",
        "程"
      ],
      [
        "00",
        "0"
      ],
      [
        "的",
        "发展"
      ],
      [
        "咨",
        "询"
      ],
      [
        "方",
        "向"
      ],
      [
        "具",
        "体"
      ],
      [
        "长",
        "期"
      ],
      [
        "努",
        "力"
      ],
      [
        "程",
        "度"
      ],
      [
        "媒",
        "体"
      ],
      [
        "确",
        "定"
      ],
      [
        "严",
        "重"
      ],
      [
        "他",
        "的"
      ],
      [
        "互",
        "联网"
      ],
      [
        "不",
        "可"
      ],
      [
        "的",
        "事"
      ],
      [
        "6",
        "0"
      ],
      [
        "接",
        "受"
      ],
      [
        "是",
        "一个"
      ],
      [
        "4",
        "0"
      ],
      [
        "准",
        "备"
      ],
      [
        "推",
        "进"
      ],
      [
        "人",
        "才"
      ],
      [
        "费",
        "用"
      ],
      [
        "坚",
        "持"
      ],
      [
        "都",
        "有"
      ],
      [
        "左",
        "右"
      ],
      [
        "规",
        "范"
      ],
      [
        "以",
        "来"
      ],
      [
        "不",
        "得"
      ],
      [
        "促",
        "进"
      ],
      [
        "i",
        "t"
      ],
      [
        "广",
        "告"
      ],
      [
        "办",
        "公"
      ],
      [
        "的",
        "新"
      ],
      [
        "宣",
        "传"
      ],
      [
        "目",
        "的"
      ],
      [
        "合",
        "理"
      ],
      [
        "2022",
        "年"
      ],
      [
        "发",
        "挥"
      ],
      [
        "明",
        "显"
      ],
      [
        "位",
        "置"
      ],
      [
        "来",
        "看"
      ],
      [
        "20",
        "20"
      ],
      [
        "球",
        "员"
      ],
      [
        "属",
        "于"
      ],
      [
        "觉",
        "得"
      ],
      [
        "包",
        "装"
      ],
      [
        "联",
        "系"
      ],
      [
        "都",
        "会"
      ],
      [
        "作",
        "品"
      ],
      [
        "购",
        "买"
      ],
      [
        "维",
        "护"
      ],
      [
        "战",
        "略"
      ],
      [
        "十",
        "分"
      ],
      [
        "也",
        "不"
      ],
      [
        "只",
        "是"
      ],
      [
        "连",
        "接"
      ],
      [
        "o",
        "u"
      ],
      [
        "分",
        "别"
      ],
      [
        "应",
        "当"
      ],
      [
        "实",
        "验"
      ],
      [
        "2",
        "5"
      ],
      [
        "首",
        "先"
      ],
      [
        "感",
        "觉"
      ],
      [
        "面",
        "积"
      ],
      [
        "保",
        "险"
      ],
      [
        "的",
        "工作"
      ],
      [
        "1",
        "7"
      ],
      [
        "资",
        "产"
      ],
      [
        "来",
        "自"
      ],
      [
        "体",
        "育"
      ],
      [
        "另",
        "外"
      ],
      [
        "品",
        "质"
      ],
      [
        "制",
        "度"
      ],
      [
        "也",
        "会"
      ],
      [
        "您",
        "的"
      ],
      [
        "出",
        "了"
      ],
      [
        "营",
        "销"
      ],
      [
        "明",
        "确"
      ],
      [
        "这样",
        "的"
      ],
      [
        "a",
        "s"
      ],
      [
        "指",
        "导"
      ],
      [
        "教",
        "师"
      ],
      [
        "成",
        "立"
      ],
      [
        "赛",
        "季"
      ],
      [
        "最",
        "终"
      ],
      [
        "并",
        "不"
      ],
      [
        "绿",
        "色"
      ],
      [
        "合",
        "同"
      ],
      [
        "哪",
        "些"
      ],
      [
        "年",
        "来"
      ],
      [
        "设",
        "置"
      ],
      [
        "玻",
        "璃"
      ],
      [
        "日",
        "本"
      ],
      [
        "组",
        "成"
      ],
      [
        "改",
        "变"
      ],
      [
        "有",
        "些"
      ],
      [
        "工",
        "具"
      ],
      [
        "主",
        "题"
      ],
      [
        "想",
        "要"
      ],
      [
        "e",
        "l"
      ],
      [
        "出",
        "的"
      ],
      [
        "n",
        "5"
      ],
      [
        "通",
        "常"
      ],
      [
        "每",
        "个"
      ],
      [
        "完",
        "善"
      ],
      [
        "不",
        "少"
      ],
      [
        "尤",
        "其"
      ],
      [
        "此",
        "外"
      ],
      [
        "9",
        "年"
      ],
      [
        "考",
        "试"
      ],
      [
        "当",
        "然"
      ],
      [
        "社",
        "区"
      ],
      [
        "只",
        "要"
      ],
      [
        "机",
        "器"
      ],
      [
        "8",
        "0"
      ],
      [
        "自",
        "身"
      ],
      [
        "商",
        "品"
      ],
      [
        "电",
        "机"
      ],
      [
        "优",
        "化"
      ],
      [
        "重要",
        "的"
      ],
      [
        "后",
        "的"
      ],
      [
        "经",
        "常"
      ],
      [
        "i",
        "c"
      ],
      [
        "产品",
        "的"
      ],
      [
        "任",
        "务"
      ],
      [
        "相",
        "对"
      ],
      [
        "化",
        "学"
      ],
      [
        "例",
        "如"
      ],
      [
        "严",
        "格"
      ],
      [
        "分",
        "享"
      ],
      [
        "普",
        "通"
      ],
      [
        "培",
        "养"
      ],
      [
        "动",
        "力"
      ],
      [
        "出",
        "来"
      ],
      [
        "推",
        "广"
      ],
      [
        "的",
        "产品"
      ],
      [
        "内",
        "部"
      ],
      [
        "落",
        "实"
      ],
      [
        "创",
        "造"
      ],
      [
        "装",
        "置"
      ],
      [
        "类",
        "型"
      ],
      [
        "创",
        "业"
      ],
      [
        "联",
        "合"
      ],
      [
        "202",
        "1年"
      ],
      [
        "i",
        "s"
      ],
      [
        "移",
        "动"
      ],
      [
        "物",
        "流"
      ],
      [
        "的",
        "重要"
      ],
      [
        "上",
        "市"
      ],
      [
        "说",
        "明"
      ],
      [
        "用",
        "的"
      ],
      [
        "多",
        "的"
      ],
      [
        "收",
        "入"
      ],
      [
        "卫",
        "生"
      ],
      [
        "2",
        "4"
      ],
      [
        "音",
        "乐"
      ],
      [
        "成",
        "绩"
      ],
      [
        "升",
        "级"
      ],
      [
        "机",
        "制"
      ],
      [
        "厂",
        "家"
      ],
      [
        "e",
        "d"
      ],
      [
        "个",
        "月"
      ],
      [
        "物",
        "质"
      ],
      [
        "也",
        "可以"
      ],
      [
        "试",
        "验"
      ],
      [
        "欢",
        "迎"
      ],
      [
        "真",
        "正"
      ],
      [
        "反",
        "应"
      ],
      [
        "过",
        "去"
      ],
      [
        "理",
        "念"
      ],
      [
        "企业",
        "的"
      ],
      [
        "面",
        "的"
      ],
      [
        "无",
        "论"
      ],
      [
        "运",
        "输"
      ],
      [
        "8",
        "年"
      ],
      [
        "行",
        "政"
      ],
      [
        "良",
        "好的"
      ],
      [
        "行",
        "动"
      ],
      [
        "日",
        "常"
      ],
      [
        "电",
        "池"
      ],
      [
        "m",
        "m"
      ],
      [
        "特",
        "色"
      ],
      [
        "先",
        "进"
      ],
      [
        "流",
        "程"
      ],
      [
        "农",
        "业"
      ],
      [
        "公",
        "共"
      ],
      [
        "引",
        "起"
      ],
      [
        "o",
        "o"
      ],
      [
        "测",
        "量"
      ],
      [
        "生",
        "命"
      ],
      [
        "东",
        "西"
      ],
      [
        "美",
        "元"
      ],
      [
        "一定",
        "要"
      ],
      [
        "面",
        "对"
      ],
      [
        "发展",
        "的"
      ],
      [
        "全",
        "部"
      ],
      [
        "就",
        "可以"
      ],
      [
        "在",
        "线"
      ],
      [
        "本",
        "文"
      ],
      [
        "具",
        "备"
      ],
      [
        "故",
        "事"
      ],
      [
        "通",
        "知"
      ],
      [
        "办",
        "法"
      ],
      [
        "内",
        "的"
      ],
      [
        "监",
        "管"
      ],
      [
        "经",
        "理"
      ],
      [
        "优",
        "质"
      ],
      [
        "儿",
        "童"
      ],
      [
        "智",
        "慧"
      ],
      [
        "理",
        "解"
      ],
      [
        "样",
        "的"
      ],
      [
        "心",
        "理"
      ],
      [
        "正",
        "式"
      ],
      [
        "多",
        "种"
      ],
      [
        "加",
        "入"
      ],
      [
        "下",
        "来"
      ],
      [
        "必",
        "要"
      ],
      [
        "优",
        "秀"
      ],
      [
        "毕",
        "业"
      ],
      [
        "安",
        "排"
      ],
      [
        "实",
        "践"
      ],
      [
        "细",
        "胞"
      ],
      [
        "做",
        "到"
      ],
      [
        "委",
        "员"
      ],
      [
        "它",
        "的"
      ],
      [
        "深",
        "圳"
      ],
      [
        "特",
        "殊"
      ],
      [
        "现",
        "象"
      ],
      [
        "如",
        "此"
      ],
      [
        "展",
        "示"
      ],
      [
        "事",
        "业"
      ],
      [
        "本",
        "次"
      ],
      [
        "电",
        "话"
      ],
      [
        "协",
        "会"
      ],
      [
        "的",
        "时间"
      ],
      [
        "为",
        "什么"
      ],
      [
        "in",
        "g"
      ],
      [
        "意",
        "见"
      ],
      [
        "酒",
        "店"
      ],
      [
        "下",
        "的"
      ],
      [
        "度",
        "的"
      ],
      [
        "接",
        "触"
      ],
      [
        "集",
        "中"
      ],
      [
        "可能",
        "会"
      ],
      [
        "5",
        "年"
      ],
      [
        "力",
        "的"
      ],
      [
        "改",
        "革"
      ],
      [
        "下",
        "降"
      ],
      [
        "分",
        "为"
      ],
      [
        "调",
        "查"
      ],
      [
        "2020",
        "年"
      ],
      [
        "同",
        "学"
      ],
      [
        "r",
        "e"
      ],
      [
        "当",
        "地"
      ],
      [
        "连",
        "续"
      ],
      [
        "的",
        "小"
      ],
      [
        "多",
        "个"
      ],
      [
        "一",
        "点"
      ],
      [
        "公司",
        "的"
      ],
      [
        "机",
        "的"
      ],
      [
        "制",
        "定"
      ],
      [
        "深",
        "入"
      ],
      [
        "a",
        "c"
      ],
      [
        "证",
        "明"
      ],
      [
        "意",
        "识"
      ],
      [
        "成",
        "长"
      ],
      [
        "r",
        "o"
      ],
      [
        "力",
        "量"
      ],
      [
        "每",
        "天"
      ],
      [
        "氧",
        "化"
      ],
      [
        "它",
        "们"
      ],
      [
        "指",
        "出"
      ],
      [
        "意",
        "义"
      ],
      [
        "大",
        "多"
      ],
      [
        "清",
        "洗"
      ],
      [
        "的",
        "方式"
      ],
      [
        "增",
        "强"
      ],
      [
        "资",
        "格"
      ],
      [
        "不",
        "到"
      ],
      [
        "趋",
        "势"
      ],
      [
        "找",
        "到"
      ],
      [
        "数",
        "量"
      ],
      [
        "防",
        "止"
      ],
      [
        "复",
        "杂"
      ],
      [
        "医",
        "生"
      ],
      [
        "风",
        "格"
      ],
      [
        "相",
        "信"
      ],
      [
        "恢",
        "复"
      ],
      [
        "采",
        "取"
      ],
      [
        "最",
        "大"
      ],
      [
        "基",
        "于"
      ],
      [
        "防",
        "控"
      ],
      [
        "监",
        "督"
      ],
      [
        "an",
        "d"
      ],
      [
        "此",
        "次"
      ],
      [
        "大",
        "型"
      ],
      [
        "°",
        "C"
      ],
      [
        "联",
        "赛"
      ],
      [
        "电",
        "动"
      ],
      [
        "人",
        "工"
      ],
      [
        "状",
        "况"
      ],
      [
        "白",
        "斑"
      ],
      [
        "他们",
        "的"
      ],
      [
        "正",
        "确"
      ],
      [
        "真",
        "的"
      ],
      [
        "有",
        "所"
      ],
      [
        "吸",
        "引"
      ],
      [
        "强",
        "度"
      ],
      [
        "3",
        "年"
      ],
      [
        "管",
        "道"
      ],
      [
        "就",
        "业"
      ],
      [
        "告",
        "诉"
      ],
      [
        "统",
        "一"
      ],
      [
        "记",
        "录"
      ],
      [
        "训",
        "练"
      ],
      [
        "开",
        "放"
      ],
      [
        "可",
        "靠"
      ],
      [
        "车",
        "辆"
      ],
      [
        "文",
        "章"
      ],
      [
        "原",
        "则"
      ],
      [
        "1",
        "日"
      ],
      [
        "改",
        "善"
      ],
      [
        "语",
        "言"
      ],
      [
        "公",
        "开"
      ],
      [
        "解决",
        "方案"
      ],
      [
        "运",
        "用"
      ],
      [
        "垃",
        "圾"
      ],
      [
        "食",
        "物"
      ],
      [
        "新",
        "闻"
      ],
      [
        "成",
        "果"
      ],
      [
        "涉",
        "及"
      ],
      [
        "多",
        "少"
      ],
      [
        "等",
        "等"
      ],
      [
        "电",
        "影"
      ],
      [
        "进行",
        "了"
      ],
      [
        "协",
        "议"
      ],
      [
        "e",
        "t"
      ],
      [
        "消",
        "防"
      ],
      [
        "一定",
        "的"
      ],
      [
        "支",
        "付"
      ],
      [
        "流",
        "量"
      ],
      [
        "相",
        "应"
      ],
      [
        "相",
        "当"
      ],
      [
        "准",
        "确"
      ],
      [
        "投",
        "入"
      ],
      [
        "结",
        "束"
      ],
      [
        "9",
        "0"
      ],
      [
        "困",
        "难"
      ],
      [
        "这",
        "么"
      ],
      [
        "商",
        "标"
      ],
      [
        "有",
        "机"
      ],
      [
        "基",
        "地"
      ],
      [
        "重",
        "新"
      ],
      [
        "作",
        "业"
      ],
      [
        "配",
        "合"
      ],
      [
        "颜",
        "色"
      ],
      [
        "位",
        "于"
      ],
      [
        "融",
        "合"
      ],
      [
        "症",
        "状"
      ],
      [
        "广",
        "州"
      ],
      [
        "距",
        "离"
      ],
      [
        "启",
        "动"
      ],
      [
        "自",
        "由"
      ],
      [
        "统",
        "计"
      ],
      [
        "性",
        "和"
      ],
      [
        "评",
        "估"
      ],
      [
        "双",
        "方"
      ],
      [
        "以",
        "后"
      ],
      [
        "地",
        "产"
      ],
      [
        "下",
        "面"
      ],
      [
        "7",
        "年"
      ],
      [
        "技",
        "能"
      ],
      [
        "监",
        "测"
      ],
      [
        "推",
        "荐"
      ],
      [
        "展",
        "开"
      ],
      [
        "挑",
        "战"
      ],
      [
        "办",
        "理"
      ],
      [
        "器",
        "的"
      ],
      [
        "电",
        "视"
      ],
      [
        "举",
        "办"
      ],
      [
        "干",
        "燥"
      ],
      [
        "只",
        "能"
      ],
      [
        "再",
        "次"
      ],
      [
        "有",
        "一"
      ],
      [
        "认",
        "证"
      ],
      [
        "处",
        "于"
      ],
      [
        "另",
        "一"
      ],
      [
        "股",
        "份"
      ],
      [
        "然",
        "而"
      ],
      [
        "更多",
        "的"
      ],
      [
        "5",
        "00"
      ],
      [
        "相",
        "比"
      ],
      [
        "重",
        "视"
      ],
      [
        "之间",
        "的"
      ],
      [
        "实",
        "力"
      ],
      [
        "本",
        "身"
      ],
      [
        "7",
        "0"
      ],
      [
        "各",
        "类"
      ],
      [
        "高",
        "效"
      ],
      [
        "而",
        "是"
      ],
      [
        "寿",
        "命"
      ],
      [
        "大",
        "量"
      ],
      [
        "那",
        "些"
      ],
      [
        "即",
        "可"
      ],
      [
        "营",
        "养"
      ],
      [
        "n",
        "一"
      ],
      [
        "评",
        "价"
      ],
      [
        "年",
        "轻"
      ],
      [
        "室",
        "内"
      ],
      [
        "的",
        "影响"
      ],
      [
        "装",
        "饰"
      ],
      [
        "值",
        "得"
      ],
      [
        "采",
        "购"
      ],
      [
        "消",
        "息"
      ],
      [
        "认",
        "识"
      ],
      [
        "为",
        "主"
      ],
      [
        "逐",
        "渐"
      ],
      [
        "形",
        "象"
      ],
      [
        "更",
        "好"
      ],
      [
        "而",
        "言"
      ],
      [
        "信",
        "号"
      ],
      [
        "仍",
        "然"
      ],
      [
        "循",
        "环"
      ],
      [
        "是",
        "什么"
      ],
      [
        "固",
        "定"
      ],
      [
        "不",
        "足"
      ],
      [
        "免",
        "费"
      ],
      [
        "沟",
        "通"
      ],
      [
        "电",
        "力"
      ],
      [
        "家",
        "长"
      ],
      [
        "更",
        "新"
      ],
      [
        "会",
        "有"
      ],
      [
        "n",
        "6"
      ],
      [
        "保",
        "温"
      ],
      [
        "201",
        "9年"
      ],
      [
        "如",
        "今"
      ],
      [
        "加",
        "快"
      ],
      [
        "主",
        "任"
      ],
      [
        "线",
        "上"
      ],
      [
        "中",
        "小"
      ],
      [
        "清",
        "洁"
      ],
      [
        "8",
        "月"
      ],
      [
        "当",
        "前"
      ],
      [
        "配",
        "置"
      ],
      [
        "重",
        "大"
      ],
      [
        "适",
        "用于"
      ],
      [
        "常",
        "见"
      ],
      [
        "强",
        "化"
      ],
      [
        "有",
        "着"
      ],
      [
        "治",
        "理"
      ],
      [
        "证",
        "券"
      ],
      [
        "主",
        "动"
      ],
      [
        "l",
        "o"
      ],
      [
        "方面",
        "的"
      ],
      [
        "往",
        "往"
      ],
      [
        "报",
        "名"
      ],
      [
        "n",
        "这"
      ],
      [
        "2",
        "3"
      ],
      [
        "排",
        "名"
      ],
      [
        "不",
        "锈"
      ],
      [
        "c",
        "h"
      ],
      [
        "比",
        "例"
      ],
      [
        "详",
        "细"
      ],
      [
        "习",
        "惯"
      ],
      [
        "投资",
        "者"
      ],
      [
        "有",
        "了"
      ],
      [
        "玩",
        "家"
      ],
      [
        "9",
        "月"
      ],
      [
        "腐",
        "蚀"
      ],
      [
        "专业",
        "的"
      ],
      [
        "指",
        "标"
      ],
      [
        "从",
        "事"
      ],
      [
        "相",
        "同"
      ],
      [
        "加",
        "热"
      ],
      [
        "负责",
        "人"
      ],
      [
        "资",
        "本"
      ],
      [
        "环",
        "节"
      ],
      [
        "元",
        "素"
      ],
      [
        "场",
        "景"
      ]
    ]
  }
}