{
  "version": "1.0",
  "truncation": null,
  "padding": null,
  "added_tokens": [
    {
      "id": 0,
      "content": "[PAD]",
      "single_word": false,
      "lstrip": false,
      "rstrip": false,
      "normalized": false,
      "special": true
    },
    {
      "id": 1,
      "content": "[UNK]",
      "single_word": false,
      "lstrip": false,
      "rstrip": false,
      "normalized": false,
      "special": true
    },
    {
      "id": 2,
      "content": "[END]",
      "single_word": false,
      "lstrip": false,
      "rstrip": false,
      "normalized": false,
      "special": true
    },
    {
      "id": 3,
      "content": "[START]",
      "single_word": false,
      "lstrip": false,
      "rstrip": false,
      "normalized": false,
      "special": true
    }
  ],
  "normalizer": {
    "type": "NFKD"
  },
  "pre_tokenizer": {
    "type": "BertPreTokenizer"
  },
  "post_processor": null,
  "decoder": null,
  "model": {
    "type": "BPE",
    "dropout": null,
    "unk_token": "[UNK]",
    "continuing_subword_prefix": null,
    "end_of_word_suffix": null,
    "fuse_unk": false,
    "byte_fallback": false,
    "ignore_merges": false,
    "vocab": {
      "[PAD]": 0,
      "[UNK]": 1,
      "[END]": 2,
      "[START]": 3,
      "!": 4,
      "\"": 5,
      "#": 6,
      "$": 7,
      "%": 8,
      "&": 9,
      "'": 10,
      "(": 11,
      ")": 12,
      "*": 13,
      "+": 14,
      ",": 15,
      "-": 16,
      ".": 17,
      "/": 18,
      "0": 19,
      "1": 20,
      "2": 21,
      "3": 22,
      "4": 23,
      "5": 24,
      "6": 25,
      "7": 26,
      "8": 27,
      "9": 28,
      ":": 29,
      ";": 30,
      "<": 31,
      "=": 32,
      ">": 33,
      "?": 34,
      "@": 35,
      "A": 36,
      "B": 37,
      "C": 38,
      "D": 39,
      "E": 40,
      "F": 41,
      "G": 42,
      "H": 43,
      "I": 44,
      "J": 45,
      "K": 46,
      "L": 47,
      "M": 48,
      "N": 49,
      "O": 50,
      "P": 51,
      "Q": 52,
      "R": 53,
      "S": 54,
      "T": 55,
      "U": 56,
      "V": 57,
      "W": 58,
      "X": 59,
      "Y": 60,
      "Z": 61,
      "[": 62,
      "\\": 63,
      "]": 64,
      "^": 65,
      "_": 66,
      "a": 67,
      "b": 68,
      "c": 69,
      "d": 70,
      "e": 71,
      "f": 72,
      "g": 73,
      "h": 74,
      "i": 75,
      "j": 76,
      "k": 77,
      "l": 78,
      "m": 79,
      "n": 80,
      "o": 81,
      "p": 82,
      "q": 83,
      "r": 84,
      "s": 85,
      "t": 86,
      "u": 87,
      "v": 88,
      "w": 89,
      "x": 90,
      "y": 91,
      "z": 92,
      "{": 93,
      "|": 94,
      "}": 95,
      "~": 96,
      "®": 97,
      "°": 98,
      "±": 99,
      "·": 100,
      "×": 101,
      "̀": 102,
      "́": 103,
      "̄": 104,
      "̈": 105,
      "α": 106,
      "β": 107,
      "μ": 108,
      "​": 109,
      "‍": 110,
      "–": 111,
      "—": 112,
      "―": 113,
      "‘": 114,
      "’": 115,
      "“": 116,
      "”": 117,
      "•": 118,
      "‧": 119,
      "′": 120,
      "※": 121,
      "→": 122,
      "↓": 123,
      "∶": 124,
      "≤": 125,
      "≥": 126,
      "⋯": 127,
      "─": 128,
      "■": 129,
      "▲": 130,
      "◆": 131,
      "○": 132,
      "◎": 133,
      "●": 134,
      "★": 135,
      "、": 136,
      "。": 137,
      "〈": 138,
      "〉": 139,
      "《": 140,
      "》": 141,
      "【": 142,
      "】": 143,
      "〔": 144,
      "〕": 145,
      "か": 146,
      "し": 147,
      "て": 148,
      "の": 149,
      "゙": 150,
      "ン": 151,
      "・": 152,
      "ー": 153,
      "一": 154,
      "丁": 155,
      "七": 156,
      "万": 157,
      "丈": 158,
      "三": 159,
      "上": 160,
      "下": 161,
      "不": 162,
      "与": 163,
      "丑": 164,
      "专": 165,
      "且": 166,
      "世": 167,
      "丘": 168,
      "丙": 169,
      "业": 170,
      "丛": 171,
      "东": 172,
      "丝": 173,
      "丞": 174,
      "丢": 175,
      "两": 176,
      "严": 177,
      "丧": 178,
      "丨": 179,
      "个": 180,
      "中": 181,
      "丰": 182,
      "串": 183,
      "临": 184,
      "丸": 185,
      "丹": 186,
      "为": 187,
      "主": 188,
      "丽": 189,
      "举": 190,
      "乃": 191,
      "久": 192,
      "么": 193,
      "义": 194,
      "之": 195,
      "乌": 196,
      "乍": 197,
      "乎": 198,
      "乏": 199,
      "乐": 200,
      "乒": 201,
      "乓": 202,
      "乔": 203,
      "乖": 204,
      "乘": 205,
      "乙": 206,
      "九": 207,
      "乞": 208,
      "也": 209,
      "习": 210,
      "乡": 211,
      "书": 212,
      "买": 213,
      "乱": 214,
      "乳": 215,
      "乾": 216,
      "了": 217,
      "予": 218,
      "争": 219,
      "事": 220,
      "二": 221,
      "于": 222,
      "亏": 223,
      "云": 224,
      "互": 225,
      "五": 226,
      "井": 227,
      "亚": 228,
      "些": 229,
      "亟": 230,
      "亡": 231,
      "亢": 232,
      "交": 233,
      "亦": 234,
      "产": 235,
      "亨": 236,
      "亩": 237,
      "享": 238,
      "京": 239,
      "亭": 240,
      "亮": 241,
      "亲": 242,
      "人": 243,
      "亿": 244,
      "什": 245,
      "仁": 246,
      "仅": 247,
      "仆": 248,
      "仇": 249,
      "今": 250,
      "介": 251,
      "仍": 252,
      "从": 253,
      "仑": 254,
      "仓": 255,
      "仔": 256,
      "仕": 257,
      "他": 258,
      "仗": 259,
      "付": 260,
      "仙": 261,
      "代": 262,
      "令": 263,
      "以": 264,
      "仪": 265,
      "们": 266,
      "仰": 267,
      "仲": 268,
      "件": 269,
      "价": 270,
      "任": 271,
      "份": 272,
      "仿": 273,
      "企": 274,
      "伊": 275,
      "伍": 276,
      "伏": 277,
      "伐": 278,
      "休": 279,
      "众": 280,
      "优": 281,
      "伙": 282,
      "会": 283,
      "伞": 284,
      "伟": 285,
      "传": 286,
      "伤": 287,
      "伦": 288,
      "伪": 289,
      "伯": 290,
      "估": 291,
      "伴": 292,
      "伶": 293,
      "伸": 294,
      "伺": 295,
      "似": 296,
      "伽": 297,
      "但": 298,
      "位": 299,
      "低": 300,
      "住": 301,
      "佐": 302,
      "佑": 303,
      "体": 304,
      "何": 305,
      "余": 306,
      "佛": 307,
      "作": 308,
      "你": 309,
      "佣": 310,
      "佩": 311,
      "佬": 312,
      "佳": 313,
      "佼": 314,
      "使": 315,
      "侃": 316,
      "侈": 317,
      "例": 318,
      "侍": 319,
      "供": 320,
      "依": 321,
      "侠": 322,
      "侣": 323,
      "侥": 324,
      "侦": 325,
      "侧": 326,
      "侨": 327,
      "侯": 328,
      "侵": 329,
      "便": 330,
      "促": 331,
      "俄": 332,
      "俊": 333,
      "俏": 334,
      "俗": 335,
      "保": 336,
      "俞": 337,
      "信": 338,
      "俩": 339,
      "俭": 340,
      "修": 341,
      "俯": 342,
      "俱": 343,
      "倍": 344,
      "倒": 345,
      "倘": 346,
      "候": 347,
      "倚": 348,
      "借": 349,
      "倡": 350,
      "倦": 351,
      "倩": 352,
      "倪": 353,
      "债": 354,
      "值": 355,
      "倾": 356,
      "假": 357,
      "偏": 358,
      "做": 359,
      "停": 360,
      "健": 361,
      "偶": 362,
      "偷": 363,
      "偿": 364,
      "傅": 365,
      "傍": 366,
      "储": 367,
      "催": 368,
      "傲": 369,
      "傻": 370,
      "像": 371,
      "僧": 372,
      "僵": 373,
      "僻": 374,
      "儒": 375,
      "儿": 376,
      "允": 377,
      "元": 378,
      "兄": 379,
      "充": 380,
      "兆": 381,
      "先": 382,
      "光": 383,
      "克": 384,
      "免": 385,
      "兑": 386,
      "兔": 387,
      "党": 388,
      "兜": 389,
      "兢": 390,
      "入": 391,
      "全": 392,
      "八": 393,
      "公": 394,
      "六": 395,
      "兮": 396,
      "兰": 397,
      "共": 398,
      "关": 399,
      "兴": 400,
      "兵": 401,
      "其": 402,
      "具": 403,
      "典": 404,
      "兹": 405,
      "养": 406,
      "兼": 407,
      "兽": 408,
      "冀": 409,
      "内": 410,
      "冇": 411,
      "冈": 412,
      "冉": 413,
      "册": 414,
      "再": 415,
      "冒": 416,
      "冕": 417,
      "冗": 418,
      "写": 419,
      "军": 420,
      "农": 421,
      "冠": 422,
      "冤": 423,
      "冥": 424,
      "冬": 425,
      "冯": 426,
      "冰": 427,
      "冲": 428,
      "决": 429,
      "况": 430,
      "冶": 431,
      "冷": 432,
      "冻": 433,
      "净": 434,
      "凄": 435,
      "准": 436,
      "凉": 437,
      "凋": 438,
      "凌": 439,
      "减": 440,
      "凑": 441,
      "凝": 442,
      "几": 443,
      "凡": 444,
      "凤": 445,
      "凭": 446,
      "凯": 447,
      "凰": 448,
      "凳": 449,
      "凶": 450,
      "凸": 451,
      "凹": 452,
      "出": 453,
      "击": 454,
      "函": 455,
      "凿": 456,
      "刀": 457,
      "刃": 458,
      "分": 459,
      "切": 460,
      "刊": 461,
      "刑": 462,
      "划": 463,
      "列": 464,
      "刘": 465,
      "则": 466,
      "刚": 467,
      "创": 468,
      "初": 469,
      "删": 470,
      "判": 471,
      "刨": 472,
      "利": 473,
      "别": 474,
      "刮": 475,
      "到": 476,
      "制": 477,
      "刷": 478,
      "券": 479,
      "刹": 480,
      "刺": 481,
      "刻": 482,
      "剂": 483,
      "削": 484,
      "前": 485,
      "剑": 486,
      "剔": 487,
      "剖": 488,
      "剥": 489,
      "剧": 490,
      "剩": 491,
      "剪": 492,
      "副": 493,
      "割": 494,
      "劈": 495,
      "力": 496,
      "劝": 497,
      "办": 498,
      "功": 499,
      "加": 500,
      "务": 501,
      "劣": 502,
      "动": 503,
      "助": 504,
      "努": 505,
      "劫": 506,
      "励": 507,
      "劲": 508,
      "劳": 509,
      "势": 510,
      "勃": 511,
      "勇": 512,
      "勉": 513,
      "勋": 514,
      "勒": 515,
      "勘": 516,
      "募": 517,
      "勤": 518,
      "勺": 519,
      "勾": 520,
      "勿": 521,
      "匀": 522,
      "包": 523,
      "匆": 524,
      "匈": 525,
      "化": 526,
      "北": 527,
      "匙": 528,
      "匠": 529,
      "匣": 530,
      "匪": 531,
      "匮": 532,
      "匹": 533,
      "区": 534,
      "医": 535,
      "匿": 536,
      "十": 537,
      "千": 538,
      "升": 539,
      "午": 540,
      "卉": 541,
      "半": 542,
      "华": 543,
      "协": 544,
      "卑": 545,
      "卒": 546,
      "卓": 547,
      "单": 548,
      "卖": 549,
      "南": 550,
      "博": 551,
      "卜": 552,
      "占": 553,
      "卡": 554,
      "卢": 555,
      "卤": 556,
      "卦": 557,
      "卧": 558,
      "卫": 559,
      "卯": 560,
      "印": 561,
      "危": 562,
      "即": 563,
      "却": 564,
      "卵": 565,
      "卷": 566,
      "卸": 567,
      "卿": 568,
      "厂": 569,
      "厄": 570,
      "厅": 571,
      "历": 572,
      "厉": 573,
      "压": 574,
      "厌": 575,
      "厕": 576,
      "厘": 577,
      "厚": 578,
      "原": 579,
      "厢": 580,
      "厦": 581,
      "厨": 582,
      "去": 583,
      "县": 584,
      "参": 585,
      "又": 586,
      "叉": 587,
      "及": 588,
      "友": 589,
      "双": 590,
      "反": 591,
      "发": 592,
      "叔": 593,
      "取": 594,
      "受": 595,
      "变": 596,
      "叙": 597,
      "叛": 598,
      "叠": 599,
      "口": 600,
      "古": 601,
      "句": 602,
      "另": 603,
      "只": 604,
      "叫": 605,
      "召": 606,
      "叭": 607,
      "叮": 608,
      "可": 609,
      "台": 610,
      "史": 611,
      "右": 612,
      "叶": 613,
      "号": 614,
      "司": 615,
      "叹": 616,
      "吁": 617,
      "吃": 618,
      "各": 619,
      "合": 620,
      "吉": 621,
      "吊": 622,
      "吋": 623,
      "同": 624,
      "名": 625,
      "后": 626,
      "吏": 627,
      "吐": 628,
      "向": 629,
      "吓": 630,
      "吕": 631,
      "吗": 632,
      "君": 633,
      "吞": 634,
      "吟": 635,
      "否": 636,
      "吧": 637,
      "吨": 638,
      "含": 639,
      "听": 640,
      "启": 641,
      "吴": 642,
      "吵": 643,
      "吸": 644,
      "吹": 645,
      "吻": 646,
      "吼": 647,
      "吾": 648,
      "呀": 649,
      "呆": 650,
      "呈": 651,
      "告": 652,
      "呐": 653,
      "呕": 654,
      "员": 655,
      "呢": 656,
      "周": 657,
      "味": 658,
      "呵": 659,
      "呼": 660,
      "命": 661,
      "咀": 662,
      "咋": 663,
      "和": 664,
      "咏": 665,
      "咐": 666,
      "咒": 667,
      "咕": 668,
      "咖": 669,
      "咤": 670,
      "咨": 671,
      "咪": 672,
      "咬": 673,
      "咱": 674,
      "咳": 675,
      "咸": 676,
      "咽": 677,
      "哀": 678,
      "品": 679,
      "哄": 680,
      "哇": 681,
      "哈": 682,
      "哉": 683,
      "响": 684,
      "哎": 685,
      "哑": 686,
      "哗": 687,
      "哥": 688,
      "哦": 689,
      "哨": 690,
      "哩": 691,
      "哪": 692,
      "哭": 693,
      "哲": 694,
      "哺": 695,
      "唇": 696,
      "唐": 697,
      "唤": 698,
      "售": 699,
      "唯": 700,
      "唱": 701,
      "商": 702,
      "啊": 703,
      "啡": 704,
      "啤": 705,
      "啥": 706,
      "啦": 707,
      "啰": 708,
      "啸": 709,
      "喀": 710,
      "喂": 711,
      "善": 712,
      "喇": 713,
      "喉": 714,
      "喊": 715,
      "喔": 716,
      "喘": 717,
      "喜": 718,
      "喝": 719,
      "喧": 720,
      "喷": 721,
      "喻": 722,
      "嗅": 723,
      "嗓": 724,
      "嗜": 725,
      "嗨": 726,
      "嗯": 727,
      "嗽": 728,
      "嘅": 729,
      "嘉": 730,
      "嘛": 731,
      "嘱": 732,
      "嘲": 733,
      "嘴": 734,
      "嘻": 735,
      "器": 736,
      "噩": 737,
      "噪": 738,
      "噬": 739,
      "嚣": 740,
      "嚼": 741,
      "囊": 742,
      "四": 743,
      "回": 744,
      "因": 745,
      "团": 746,
      "囤": 747,
      "园": 748,
      "困": 749,
      "囱": 750,
      "围": 751,
      "固": 752,
      "国": 753,
      "图": 754,
      "圃": 755,
      "圆": 756,
      "圈": 757,
      "土": 758,
      "圣": 759,
      "在": 760,
      "圭": 761,
      "地": 762,
      "圳": 763,
      "场": 764,
      "圾": 765,
      "址": 766,
      "均": 767,
      "坊": 768,
      "坎": 769,
      "坏": 770,
      "坐": 771,
      "坑": 772,
      "块": 773,
      "坚": 774,
      "坛": 775,
      "坝": 776,
      "坞": 777,
      "坟": 778,
      "坠": 779,
      "坡": 780,
      "坤": 781,
      "坦": 782,
      "坪": 783,
      "坯": 784,
      "坷": 785,
      "垂": 786,
      "垃": 787,
      "垄": 788,
      "型": 789,
      "垒": 790,
      "垛": 791,
      "垢": 792,
      "垦": 793,
      "垫": 794,
      "垮": 795,
      "埃": 796,
      "埋": 797,
      "城": 798,
      "埔": 799,
      "域": 800,
      "埠": 801,
      "培": 802,
      "基": 803,
      "堂": 804,
      "堆": 805,
      "堕": 806,
      "堡": 807,
      "堤": 808,
      "堪": 809,
      "堰": 810,
      "堵": 811,
      "塌": 812,
      "塑": 813,
      "塔": 814,
      "塘": 815,
      "塞": 816,
      "填": 817,
      "境": 818,
      "墅": 819,
      "墓": 820,
      "墙": 821,
      "增": 822,
      "墨": 823,
      "墩": 824,
      "壁": 825,
      "壤": 826,
      "士": 827,
      "壮": 828,
      "声": 829,
      "壳": 830,
      "壶": 831,
      "壹": 832,
      "处": 833,
      "备": 834,
      "复": 835,
      "夏": 836,
      "夕": 837,
      "外": 838,
      "多": 839,
      "夜": 840,
      "够": 841,
      "大": 842,
      "天": 843,
      "太": 844,
      "夫": 845,
      "央": 846,
      "夯": 847,
      "失": 848,
      "头": 849,
      "夷": 850,
      "夸": 851,
      "夹": 852,
      "夺": 853,
      "奇": 854,
      "奈": 855,
      "奉": 856,
      "奋": 857,
      "奎": 858,
      "奏": 859,
      "契": 860,
      "奔": 861,
      "奕": 862,
      "奖": 863,
      "套": 864,
      "奠": 865,
      "奢": 866,
      "奥": 867,
      "女": 868,
      "奴": 869,
      "奶": 870,
      "奸": 871,
      "她": 872,
      "好": 873,
      "如": 874,
      "妃": 875,
      "妄": 876,
      "妆": 877,
      "妇": 878,
      "妈": 879,
      "妊": 880,
      "妍": 881,
      "妒": 882,
      "妖": 883,
      "妙": 884,
      "妥": 885,
      "妨": 886,
      "妮": 887,
      "妹": 888,
      "妻": 889,
      "姆": 890,
      "姊": 891,
      "始": 892,
      "姐": 893,
      "姑": 894,
      "姓": 895,
      "委": 896,
      "姚": 897,
      "姜": 898,
      "姥": 899,
      "姨": 900,
      "姬": 901,
      "姻": 902,
      "姿": 903,
      "威": 904,
      "娃": 905,
      "娄": 906,
      "娅": 907,
      "娇": 908,
      "娓": 909,
      "娘": 910,
      "娜": 911,
      "娟": 912,
      "娠": 913,
      "娥": 914,
      "娩": 915,
      "娱": 916,
      "娴": 917,
      "娶": 918,
      "婆": 919,
      "婉": 920,
      "婚": 921,
      "婴": 922,
      "婷": 923,
      "媒": 924,
      "媚": 925,
      "媛": 926,
      "媲": 927,
      "媳": 928,
      "嫁": 929,
      "嫂": 930,
      "嫌": 931,
      "嫩": 932,
      "嬉": 933,
      "嬷": 934,
      "子": 935,
      "孔": 936,
      "孕": 937,
      "字": 938,
      "存": 939,
      "孙": 940,
      "孚": 941,
      "孜": 942,
      "孝": 943,
      "孟": 944,
      "孢": 945,
      "季": 946,
      "孤": 947,
      "学": 948,
      "孩": 949,
      "孪": 950,
      "孵": 951,
      "宁": 952,
      "它": 953,
      "宅": 954,
      "宇": 955,
      "守": 956,
      "安": 957,
      "宋": 958,
      "完": 959,
      "宏": 960,
      "宕": 961,
      "宗": 962,
      "官": 963,
      "宙": 964,
      "定": 965,
      "宛": 966,
      "宜": 967,
      "宝": 968,
      "实": 969,
      "宠": 970,
      "审": 971,
      "客": 972,
      "宣": 973,
      "室": 974,
      "宪": 975,
      "宫": 976,
      "宰": 977,
      "害": 978,
      "宴": 979,
      "宵": 980,
      "家": 981,
      "容": 982,
      "宽": 983,
      "宾": 984,
      "宿": 985,
      "寂": 986,
      "寄": 987,
      "寅": 988,
      "密": 989,
      "富": 990,
      "寒": 991,
      "寓": 992,
      "寝": 993,
      "寞": 994,
      "察": 995,
      "寡": 996,
      "寥": 997,
      "寨": 998,
      "寸": 999,
      "对": 1000,
      "寺": 1001,
      "寻": 1002,
      "导": 1003,
      "寿": 1004,
      "封": 1005,
      "射": 1006,
      "将": 1007,
      "尉": 1008,
      "尊": 1009,
      "小": 1010,
      "少": 1011,
      "尔": 1012,
      "尖": 1013,
      "尘": 1014,
      "尚": 1015,
      "尝": 1016,
      "尤": 1017,
      "尧": 1018,
      "尬": 1019,
      "就": 1020,
      "尴": 1021,
      "尸": 1022,
      "尹": 1023,
      "尺": 1024,
      "尼": 1025,
      "尽": 1026,
      "尾": 1027,
      "尿": 1028,
      "局": 1029,
      "屁": 1030,
      "层": 1031,
      "居": 1032,
      "屈": 1033,
      "屉": 1034,
      "届": 1035,
      "屋": 1036,
      "屏": 1037,
      "屑": 1038,
      "展": 1039,
      "属": 1040,
      "屠": 1041,
      "屡": 1042,
      "履": 1043,
      "屯": 1044,
      "山": 1045,
      "屿": 1046,
      "岁": 1047,
      "岂": 1048,
      "岗": 1049,
      "岚": 1050,
      "岛": 1051,
      "岩": 1052,
      "岭": 1053,
      "岳": 1054,
      "岸": 1055,
      "峡": 1056,
      "峥": 1057,
      "峨": 1058,
      "峰": 1059,
      "峻": 1060,
      "崇": 1061,
      "崎": 1062,
      "崔": 1063,
      "崖": 1064,
      "崛": 1065,
      "崩": 1066,
      "崭": 1067,
      "嵌": 1068,
      "嵩": 1069,
      "巅": 1070,
      "巍": 1071,
      "川": 1072,
      "州": 1073,
      "巡": 1074,
      "巢": 1075,
      "工": 1076,
      "左": 1077,
      "巧": 1078,
      "巨": 1079,
      "巩": 1080,
      "巫": 1081,
      "差": 1082,
      "己": 1083,
      "已": 1084,
      "巴": 1085,
      "巷": 1086,
      "巾": 1087,
      "币": 1088,
      "市": 1089,
      "布": 1090,
      "帅": 1091,
      "帆": 1092,
      "师": 1093,
      "希": 1094,
      "帐": 1095,
      "帕": 1096,
      "帖": 1097,
      "帘": 1098,
      "帜": 1099,
      "帝": 1100,
      "带": 1101,
      "帧": 1102,
      "席": 1103,
      "帮": 1104,
      "帷": 1105,
      "常": 1106,
      "帽": 1107,
      "幅": 1108,
      "幕": 1109,
      "幢": 1110,
      "干": 1111,
      "平": 1112,
      "年": 1113,
      "并": 1114,
      "幸": 1115,
      "幺": 1116,
      "幻": 1117,
      "幼": 1118,
      "幽": 1119,
      "广": 1120,
      "庄": 1121,
      "庆": 1122,
      "床": 1123,
      "序": 1124,
      "庐": 1125,
      "库": 1126,
      "应": 1127,
      "底": 1128,
      "店": 1129,
      "庙": 1130,
      "庚": 1131,
      "府": 1132,
      "庞": 1133,
      "废": 1134,
      "度": 1135,
      "座": 1136,
      "庭": 1137,
      "康": 1138,
      "庸": 1139,
      "廉": 1140,
      "廊": 1141,
      "廓": 1142,
      "廖": 1143,
      "延": 1144,
      "廷": 1145,
      "建": 1146,
      "开": 1147,
      "异": 1148,
      "弃": 1149,
      "弄": 1150,
      "弈": 1151,
      "弊": 1152,
      "式": 1153,
      "弓": 1154,
      "引": 1155,
      "弗": 1156,
      "弘": 1157,
      "弛": 1158,
      "弟": 1159,
      "张": 1160,
      "弥": 1161,
      "弦": 1162,
      "弧": 1163,
      "弯": 1164,
      "弱": 1165,
      "弹": 1166,
      "强": 1167,
      "归": 1168,
      "当": 1169,
      "录": 1170,
      "形": 1171,
      "彤": 1172,
      "彦": 1173,
      "彩": 1174,
      "彬": 1175,
      "彭": 1176,
      "彰": 1177,
      "影": 1178,
      "役": 1179,
      "彻": 1180,
      "彼": 1181,
      "往": 1182,
      "征": 1183,
      "径": 1184,
      "待": 1185,
      "很": 1186,
      "徊": 1187,
      "律": 1188,
      "徐": 1189,
      "徒": 1190,
      "得": 1191,
      "徘": 1192,
      "御": 1193,
      "循": 1194,
      "微": 1195,
      "德": 1196,
      "徽": 1197,
      "心": 1198,
      "必": 1199,
      "忆": 1200,
      "忌": 1201,
      "忍": 1202,
      "忏": 1203,
      "志": 1204,
      "忘": 1205,
      "忙": 1206,
      "忠": 1207,
      "忧": 1208,
      "快": 1209,
      "忱": 1210,
      "念": 1211,
      "忽": 1212,
      "怀": 1213,
      "态": 1214,
      "怎": 1215,
      "怒": 1216,
      "怕": 1217,
      "怖": 1218,
      "怜": 1219,
      "思": 1220,
      "怠": 1221,
      "怡": 1222,
      "急": 1223,
      "性": 1224,
      "怨": 1225,
      "怪": 1226,
      "总": 1227,
      "恋": 1228,
      "恍": 1229,
      "恐": 1230,
      "恒": 1231,
      "恕": 1232,
      "恢": 1233,
      "恤": 1234,
      "恨": 1235,
      "恩": 1236,
      "恪": 1237,
      "恭": 1238,
      "息": 1239,
      "恰": 1240,
      "恳": 1241,
      "恶": 1242,
      "恼": 1243,
      "悄": 1244,
      "悉": 1245,
      "悍": 1246,
      "悔": 1247,
      "悟": 1248,
      "悠": 1249,
      "患": 1250,
      "悦": 1251,
      "您": 1252,
      "悬": 1253,
      "悲": 1254,
      "情": 1255,
      "惊": 1256,
      "惑": 1257,
      "惕": 1258,
      "惜": 1259,
      "惟": 1260,
      "惠": 1261,
      "惧": 1262,
      "惨": 1263,
      "惩": 1264,
      "惫": 1265,
      "惬": 1266,
      "惯": 1267,
      "惰": 1268,
      "想": 1269,
      "惹": 1270,
      "愁": 1271,
      "愈": 1272,
      "愉": 1273,
      "意": 1274,
      "愚": 1275,
      "感": 1276,
      "愣": 1277,
      "愤": 1278,
      "愧": 1279,
      "愿": 1280,
      "慈": 1281,
      "慌": 1282,
      "慎": 1283,
      "慑": 1284,
      "慕": 1285,
      "慢": 1286,
      "慧": 1287,
      "慨": 1288,
      "慰": 1289,
      "慷": 1290,
      "憧": 1291,
      "憩": 1292,
      "憬": 1293,
      "憾": 1294,
      "懂": 1295,
      "懈": 1296,
      "懒": 1297,
      "懵": 1298,
      "戈": 1299,
      "戎": 1300,
      "戏": 1301,
      "成": 1302,
      "我": 1303,
      "戒": 1304,
      "或": 1305,
      "战": 1306,
      "戚": 1307,
      "截": 1308,
      "戳": 1309,
      "戴": 1310,
      "户": 1311,
      "房": 1312,
      "所": 1313,
      "扁": 1314,
      "扇": 1315,
      "手": 1316,
      "才": 1317,
      "扎": 1318,
      "扑": 1319,
      "扒": 1320,
      "打": 1321,
      "扔": 1322,
      "托": 1323,
      "扛": 1324,
      "扣": 1325,
      "执": 1326,
      "扩": 1327,
      "扫": 1328,
      "扬": 1329,
      "扭": 1330,
      "扮": 1331,
      "扯": 1332,
      "扰": 1333,
      "扳": 1334,
      "扶": 1335,
      "批": 1336,
      "找": 1337,
      "承": 1338,
      "技": 1339,
      "抄": 1340,
      "抉": 1341,
      "把": 1342,
      "抑": 1343,
      "抒": 1344,
      "抓": 1345,
      "投": 1346,
      "抖": 1347,
      "抗": 1348,
      "折": 1349,
      "抚": 1350,
      "抛": 1351,
      "抢": 1352,
      "护": 1353,
      "报": 1354,
      "披": 1355,
      "抬": 1356,
      "抱": 1357,
      "抵": 1358,
      "抹": 1359,
      "押": 1360,
      "抽": 1361,
      "拂": 1362,
      "担": 1363,
      "拆": 1364,
      "拇": 1365,
      "拉": 1366,
      "拌": 1367,
      "拍": 1368,
      "拐": 1369,
      "拒": 1370,
      "拓": 1371,
      "拔": 1372,
      "拖": 1373,
      "拘": 1374,
      "拙": 1375,
      "招": 1376,
      "拜": 1377,
      "拟": 1378,
      "拢": 1379,
      "拣": 1380,
      "拥": 1381,
      "拦": 1382,
      "拧": 1383,
      "拨": 1384,
      "择": 1385,
      "括": 1386,
      "拭": 1387,
      "拯": 1388,
      "拱": 1389,
      "拳": 1390,
      "拷": 1391,
      "拼": 1392,
      "拽": 1393,
      "拾": 1394,
      "拿": 1395,
      "持": 1396,
      "挂": 1397,
      "指": 1398,
      "按": 1399,
      "挑": 1400,
      "挖": 1401,
      "挚": 1402,
      "挛": 1403,
      "挠": 1404,
      "挡": 1405,
      "挣": 1406,
      "挤": 1407,
      "挥": 1408,
      "挨": 1409,
      "挪": 1410,
      "挫": 1411,
      "振": 1412,
      "挺": 1413,
      "挽": 1414,
      "捆": 1415,
      "捉": 1416,
      "捏": 1417,
      "捐": 1418,
      "捕": 1419,
      "捞": 1420,
      "损": 1421,
      "捡": 1422,
      "换": 1423,
      "捣": 1424,
      "捧": 1425,
      "据": 1426,
      "捷": 1427,
      "掀": 1428,
      "授": 1429,
      "掉": 1430,
      "掌": 1431,
      "掏": 1432,
      "排": 1433,
      "掘": 1434,
      "掠": 1435,
      "探": 1436,
      "接": 1437,
      "控": 1438,
      "推": 1439,
      "掩": 1440,
      "措": 1441,
      "掷": 1442,
      "掺": 1443,
      "揉": 1444,
      "描": 1445,
      "提": 1446,
      "插": 1447,
      "握": 1448,
      "揣": 1449,
      "揭": 1450,
      "援": 1451,
      "揽": 1452,
      "搁": 1453,
      "搅": 1454,
      "搏": 1455,
      "搓": 1456,
      "搜": 1457,
      "搞": 1458,
      "搬": 1459,
      "搭": 1460,
      "携": 1461,
      "摄": 1462,
      "摆": 1463,
      "摇": 1464,
      "摊": 1465,
      "摒": 1466,
      "摔": 1467,
      "摘": 1468,
      "摧": 1469,
      "摩": 1470,
      "摸": 1471,
      "撑": 1472,
      "撒": 1473,
      "撕": 1474,
      "撞": 1475,
      "撤": 1476,
      "撬": 1477,
      "播": 1478,
      "撰": 1479,
      "撼": 1480,
      "擅": 1481,
      "操": 1482,
      "擎": 1483,
      "擦": 1484,
      "攀": 1485,
      "攒": 1486,
      "支": 1487,
      "收": 1488,
      "改": 1489,
      "攻": 1490,
      "放": 1491,
      "政": 1492,
      "故": 1493,
      "效": 1494,
      "敌": 1495,
      "敏": 1496,
      "救": 1497,
      "教": 1498,
      "敛": 1499,
      "敞": 1500,
      "敢": 1501,
      "散": 1502,
      "敦": 1503,
      "敬": 1504,
      "数": 1505,
      "敲": 1506,
      "整": 1507,
      "敷": 1508,
      "文": 1509,
      "斋": 1510,
      "斌": 1511,
      "斐": 1512,
      "斑": 1513,
      "斗": 1514,
      "料": 1515,
      "斜": 1516,
      "斤": 1517,
      "斥": 1518,
      "斧": 1519,
      "斩": 1520,
      "断": 1521,
      "斯": 1522,
      "新": 1523,
      "方": 1524,
      "施": 1525,
      "旁": 1526,
      "旅": 1527,
      "旋": 1528,
      "族": 1529,
      "旗": 1530,
      "无": 1531,
      "既": 1532,
      "日": 1533,
      "旦": 1534,
      "旧": 1535,
      "旨": 1536,
      "早": 1537,
      "旬": 1538,
      "旭": 1539,
      "旱": 1540,
      "时": 1541,
      "旷": 1542,
      "旺": 1543,
      "昂": 1544,
      "昆": 1545,
      "昊": 1546,
      "昌": 1547,
      "明": 1548,
      "昏": 1549,
      "易": 1550,
      "昔": 1551,
      "昕": 1552,
      "星": 1553,
      "映": 1554,
      "春": 1555,
      "昧": 1556,
      "昨": 1557,
      "昭": 1558,
      "是": 1559,
      "昱": 1560,
      "昵": 1561,
      "昼": 1562,
      "显": 1563,
      "晃": 1564,
      "晋": 1565,
      "晏": 1566,
      "晒": 1567,
      "晓": 1568,
      "晕": 1569,
      "晖": 1570,
      "晚": 1571,
      "晟": 1572,
      "晨": 1573,
      "普": 1574,
      "景": 1575,
      "晰": 1576,
      "晴": 1577,
      "晶": 1578,
      "智": 1579,
      "晾": 1580,
      "暂": 1581,
      "暇": 1582,
      "暑": 1583,
      "暖": 1584,
      "暗": 1585,
      "暨": 1586,
      "暮": 1587,
      "暴": 1588,
      "曙": 1589,
      "曝": 1590,
      "曦": 1591,
      "曰": 1592,
      "曲": 1593,
      "更": 1594,
      "曹": 1595,
      "曼": 1596,
      "曾": 1597,
      "替": 1598,
      "最": 1599,
      "月": 1600,
      "有": 1601,
      "朋": 1602,
      "服": 1603,
      "朔": 1604,
      "朗": 1605,
      "望": 1606,
      "朝": 1607,
      "期": 1608,
      "木": 1609,
      "未": 1610,
      "末": 1611,
      "本": 1612,
      "术": 1613,
      "朱": 1614,
      "朴": 1615,
      "朵": 1616,
      "机": 1617,
      "朽": 1618,
      "杀": 1619,
      "杂": 1620,
      "权": 1621,
      "杆": 1622,
      "杉": 1623,
      "李": 1624,
      "杏": 1625,
      "材": 1626,
      "村": 1627,
      "杖": 1628,
      "杜": 1629,
      "杞": 1630,
      "束": 1631,
      "杠": 1632,
      "条": 1633,
      "来": 1634,
      "杨": 1635,
      "杭": 1636,
      "杯": 1637,
      "杰": 1638,
      "松": 1639,
      "板": 1640,
      "极": 1641,
      "构": 1642,
      "枉": 1643,
      "析": 1644,
      "枕": 1645,
      "林": 1646,
      "枚": 1647,
      "果": 1648,
      "枝": 1649,
      "枢": 1650,
      "枣": 1651,
      "枪": 1652,
      "枫": 1653,
      "枯": 1654,
      "架": 1655,
      "枸": 1656,
      "柄": 1657,
      "柏": 1658,
      "某": 1659,
      "柑": 1660,
      "染": 1661,
      "柔": 1662,
      "柚": 1663,
      "柜": 1664,
      "柠": 1665,
      "查": 1666,
      "柬": 1667,
      "柯": 1668,
      "柱": 1669,
      "柳": 1670,
      "柴": 1671,
      "柿": 1672,
      "栅": 1673,
      "标": 1674,
      "栈": 1675,
      "栋": 1676,
      "栏": 1677,
      "树": 1678,
      "栓": 1679,
      "栖": 1680,
      "栗": 1681,
      "校": 1682,
      "栩": 1683,
      "株": 1684,
      "样": 1685,
      "核": 1686,
      "根": 1687,
      "格": 1688,
      "栽": 1689,
      "桂": 1690,
      "桃": 1691,
      "框": 1692,
      "案": 1693,
      "桌": 1694,
      "桐": 1695,
      "桑": 1696,
      "桓": 1697,
      "桔": 1698,
      "档": 1699,
      "桥": 1700,
      "桨": 1701,
      "桩": 1702,
      "桶": 1703,
      "梁": 1704,
      "梅": 1705,
      "梓": 1706,
      "梗": 1707,
      "梢": 1708,
      "梦": 1709,
      "梧": 1710,
      "梨": 1711,
      "梭": 1712,
      "梯": 1713,
      "械": 1714,
      "梳": 1715,
      "梵": 1716,
      "检": 1717,
      "棉": 1718,
      "棋": 1719,
      "棍": 1720,
      "棒": 1721,
      "棕": 1722,
      "棘": 1723,
      "棚": 1724,
      "棠": 1725,
      "森": 1726,
      "棱": 1727,
      "棵": 1728,
      "椅": 1729,
      "植": 1730,
      "椎": 1731,
      "椒": 1732,
      "椭": 1733,
      "椰": 1734,
      "楂": 1735,
      "楚": 1736,
      "楞": 1737,
      "楠": 1738,
      "楷": 1739,
      "楼": 1740,
      "概": 1741,
      "榄": 1742,
      "榆": 1743,
      "榕": 1744,
      "榜": 1745,
      "榨": 1746,
      "榴": 1747,
      "榻": 1748,
      "槛": 1749,
      "槟": 1750,
      "槽": 1751,
      "樊": 1752,
      "模": 1753,
      "横": 1754,
      "樱": 1755,
      "橄": 1756,
      "橘": 1757,
      "橙": 1758,
      "橡": 1759,
      "橱": 1760,
      "檀": 1761,
      "檐": 1762,
      "檬": 1763,
      "欠": 1764,
      "次": 1765,
      "欢": 1766,
      "欣": 1767,
      "欧": 1768,
      "欲": 1769,
      "欺": 1770,
      "款": 1771,
      "歇": 1772,
      "歉": 1773,
      "歌": 1774,
      "止": 1775,
      "正": 1776,
      "此": 1777,
      "步": 1778,
      "武": 1779,
      "歧": 1780,
      "歪": 1781,
      "死": 1782,
      "殊": 1783,
      "残": 1784,
      "殖": 1785,
      "殡": 1786,
      "段": 1787,
      "殷": 1788,
      "殿": 1789,
      "毁": 1790,
      "毂": 1791,
      "毅": 1792,
      "毋": 1793,
      "母": 1794,
      "每": 1795,
      "毒": 1796,
      "比": 1797,
      "毕": 1798,
      "毗": 1799,
      "毛": 1800,
      "毡": 1801,
      "毫": 1802,
      "毯": 1803,
      "氏": 1804,
      "民": 1805,
      "气": 1806,
      "氛": 1807,
      "氟": 1808,
      "氢": 1809,
      "氧": 1810,
      "氨": 1811,
      "氮": 1812,
      "氯": 1813,
      "氰": 1814,
      "水": 1815,
      "永": 1816,
      "汀": 1817,
      "汁": 1818,
      "求": 1819,
      "汇": 1820,
      "汉": 1821,
      "汕": 1822,
      "汗": 1823,
      "汛": 1824,
      "汝": 1825,
      "汞": 1826,
      "江": 1827,
      "池": 1828,
      "污": 1829,
      "汤": 1830,
      "汪": 1831,
      "汰": 1832,
      "汲": 1833,
      "汶": 1834,
      "汹": 1835,
      "汽": 1836,
      "汾": 1837,
      "沁": 1838,
      "沂": 1839,
      "沃": 1840,
      "沈": 1841,
      "沉": 1842,
      "沐": 1843,
      "沙": 1844,
      "沛": 1845,
      "沟": 1846,
      "没": 1847,
      "沥": 1848,
      "沦": 1849,
      "沧": 1850,
      "沪": 1851,
      "沫": 1852,
      "沮": 1853,
      "河": 1854,
      "沸": 1855,
      "油": 1856,
      "治": 1857,
      "沼": 1858,
      "沾": 1859,
      "沿": 1860,
      "泄": 1861,
      "泉": 1862,
      "泊": 1863,
      "泌": 1864,
      "法": 1865,
      "泛": 1866,
      "泡": 1867,
      "波": 1868,
      "泣": 1869,
      "泥": 1870,
      "注": 1871,
      "泪": 1872,
      "泰": 1873,
      "泳": 1874,
      "泵": 1875,
      "泸": 1876,
      "泻": 1877,
      "泼": 1878,
      "泽": 1879,
      "洁": 1880,
      "洋": 1881,
      "洒": 1882,
      "洗": 1883,
      "洛": 1884,
      "洞": 1885,
      "津": 1886,
      "洪": 1887,
      "洱": 1888,
      "洲": 1889,
      "活": 1890,
      "洼": 1891,
      "洽": 1892,
      "派": 1893,
      "流": 1894,
      "浅": 1895,
      "浆": 1896,
      "浇": 1897,
      "浊": 1898,
      "测": 1899,
      "济": 1900,
      "浏": 1901,
      "浑": 1902,
      "浓": 1903,
      "浙": 1904,
      "浦": 1905,
      "浩": 1906,
      "浪": 1907,
      "浮": 1908,
      "浴": 1909,
      "海": 1910,
      "浸": 1911,
      "涂": 1912,
      "涅": 1913,
      "消": 1914,
      "涉": 1915,
      "涌": 1916,
      "涛": 1917,
      "涝": 1918,
      "涡": 1919,
      "涤": 1920,
      "润": 1921,
      "涨": 1922,
      "涩": 1923,
      "涯": 1924,
      "液": 1925,
      "涵": 1926,
      "淀": 1927,
      "淄": 1928,
      "淆": 1929,
      "淇": 1930,
      "淋": 1931,
      "淌": 1932,
      "淑": 1933,
      "淘": 1934,
      "淡": 1935,
      "淤": 1936,
      "淬": 1937,
      "淮": 1938,
      "深": 1939,
      "淳": 1940,
      "混": 1941,
      "淹": 1942,
      "添": 1943,
      "清": 1944,
      "渊": 1945,
      "渍": 1946,
      "渐": 1947,
      "渔": 1948,
      "渗": 1949,
      "渝": 1950,
      "渠": 1951,
      "渡": 1952,
      "渣": 1953,
      "渤": 1954,
      "温": 1955,
      "渭": 1956,
      "港": 1957,
      "渲": 1958,
      "渴": 1959,
      "游": 1960,
      "渺": 1961,
      "湃": 1962,
      "湖": 1963,
      "湘": 1964,
      "湛": 1965,
      "湾": 1966,
      "湿": 1967,
      "溃": 1968,
      "溅": 1969,
      "溉": 1970,
      "源": 1971,
      "溜": 1972,
      "溢": 1973,
      "溪": 1974,
      "溯": 1975,
      "溶": 1976,
      "溺": 1977,
      "滋": 1978,
      "滑": 1979,
      "滔": 1980,
      "滕": 1981,
      "滚": 1982,
      "滞": 1983,
      "满": 1984,
      "滤": 1985,
      "滥": 1986,
      "滨": 1987,
      "滩": 1988,
      "滴": 1989,
      "漂": 1990,
      "漆": 1991,
      "漏": 1992,
      "漓": 1993,
      "演": 1994,
      "漠": 1995,
      "漫": 1996,
      "漱": 1997,
      "漳": 1998,
      "潇": 1999,
      "潍": 2000,
      "潘": 2001,
      "潜": 2002,
      "潢": 2003,
      "潭": 2004,
      "潮": 2005,
      "澄": 2006,
      "澈": 2007,
      "澎": 2008,
      "澜": 2009,
      "澡": 2010,
      "澳": 2011,
      "激": 2012,
      "瀑": 2013,
      "瀚": 2014,
      "灌": 2015,
      "火": 2016,
      "灭": 2017,
      "灯": 2018,
      "灰": 2019,
      "灵": 2020,
      "灶": 2021,
      "灸": 2022,
      "灼": 2023,
      "灾": 2024,
      "灿": 2025,
      "炉": 2026,
      "炎": 2027,
      "炒": 2028,
      "炖": 2029,
      "炙": 2030,
      "炜": 2031,
      "炫": 2032,
      "炬": 2033,
      "炭": 2034,
      "炮": 2035,
      "炳": 2036,
      "炸": 2037,
      "点": 2038,
      "炼": 2039,
      "炽": 2040,
      "烁": 2041,
      "烂": 2042,
      "烃": 2043,
      "烈": 2044,
      "烘": 2045,
      "烙": 2046,
      "烛": 2047,
      "烟": 2048,
      "烤": 2049,
      "烦": 2050,
      "烧": 2051,
      "烫": 2052,
      "热": 2053,
      "烯": 2054,
      "烷": 2055,
      "烹": 2056,
      "焉": 2057,
      "焊": 2058,
      "焕": 2059,
      "焙": 2060,
      "焚": 2061,
      "焦": 2062,
      "焰": 2063,
      "然": 2064,
      "煌": 2065,
      "煎": 2066,
      "煞": 2067,
      "煤": 2068,
      "照": 2069,
      "煮": 2070,
      "煲": 2071,
      "熄": 2072,
      "熊": 2073,
      "熏": 2074,
      "熔": 2075,
      "熙": 2076,
      "熟": 2077,
      "熠": 2078,
      "熬": 2079,
      "燃": 2080,
      "燕": 2081,
      "燥": 2082,
      "爆": 2083,
      "爪": 2084,
      "爬": 2085,
      "爱": 2086,
      "爵": 2087,
      "父": 2088,
      "爷": 2089,
      "爸": 2090,
      "爹": 2091,
      "爽": 2092,
      "片": 2093,
      "版": 2094,
      "牌": 2095,
      "牙": 2096,
      "牛": 2097,
      "牟": 2098,
      "牡": 2099,
      "牢": 2100,
      "牧": 2101,
      "物": 2102,
      "牲": 2103,
      "牵": 2104,
      "特": 2105,
      "牺": 2106,
      "犀": 2107,
      "犬": 2108,
      "犯": 2109,
      "状": 2110,
      "犹": 2111,
      "狂": 2112,
      "狄": 2113,
      "狐": 2114,
      "狗": 2115,
      "狠": 2116,
      "独": 2117,
      "狭": 2118,
      "狮": 2119,
      "狱": 2120,
      "狸": 2121,
      "狼": 2122,
      "猎": 2123,
      "猛": 2124,
      "猜": 2125,
      "猪": 2126,
      "猫": 2127,
      "献": 2128,
      "猴": 2129,
      "玄": 2130,
      "率": 2131,
      "玉": 2132,
      "王": 2133,
      "玛": 2134,
      "玩": 2135,
      "玫": 2136,
      "玮": 2137,
      "环": 2138,
      "现": 2139,
      "玲": 2140,
      "玺": 2141,
      "玻": 2142,
      "珀": 2143,
      "珊": 2144,
      "珍": 2145,
      "珠": 2146,
      "班": 2147,
      "球": 2148,
      "琅": 2149,
      "理": 2150,
      "琐": 2151,
      "琢": 2152,
      "琦": 2153,
      "琪": 2154,
      "琳": 2155,
      "琴": 2156,
      "琼": 2157,
      "瑕": 2158,
      "瑚": 2159,
      "瑜": 2160,
      "瑞": 2161,
      "瑟": 2162,
      "瑰": 2163,
      "瑶": 2164,
      "璀": 2165,
      "璃": 2166,
      "璐": 2167,
      "璨": 2168,
      "瓜": 2169,
      "瓣": 2170,
      "瓦": 2171,
      "瓶": 2172,
      "瓷": 2173,
      "甄": 2174,
      "甘": 2175,
      "甚": 2176,
      "甜": 2177,
      "生": 2178,
      "用": 2179,
      "甩": 2180,
      "甫": 2181,
      "田": 2182,
      "由": 2183,
      "甲": 2184,
      "申": 2185,
      "电": 2186,
      "男": 2187,
      "甸": 2188,
      "町": 2189,
      "画": 2190,
      "畅": 2191,
      "界": 2192,
      "畏": 2193,
      "畔": 2194,
      "留": 2195,
      "畜": 2196,
      "略": 2197,
      "番": 2198,
      "畴": 2199,
      "畸": 2200,
      "疆": 2201,
      "疏": 2202,
      "疑": 2203,
      "疗": 2204,
      "疡": 2205,
      "疣": 2206,
      "疤": 2207,
      "疫": 2208,
      "疮": 2209,
      "疯": 2210,
      "疱": 2211,
      "疲": 2212,
      "疵": 2213,
      "疹": 2214,
      "疼": 2215,
      "疾": 2216,
      "病": 2217,
      "症": 2218,
      "痊": 2219,
      "痒": 2220,
      "痔": 2221,
      "痕": 2222,
      "痘": 2223,
      "痛": 2224,
      "痣": 2225,
      "痤": 2226,
      "痫": 2227,
      "痰": 2228,
      "痴": 2229,
      "瘀": 2230,
      "瘙": 2231,
      "瘟": 2232,
      "瘤": 2233,
      "瘦": 2234,
      "瘫": 2235,
      "瘾": 2236,
      "癌": 2237,
      "癜": 2238,
      "癣": 2239,
      "癫": 2240,
      "登": 2241,
      "白": 2242,
      "百": 2243,
      "皂": 2244,
      "的": 2245,
      "皆": 2246,
      "皇": 2247,
      "皓": 2248,
      "皖": 2249,
      "皮": 2250,
      "皱": 2251,
      "皿": 2252,
      "盆": 2253,
      "盈": 2254,
      "益": 2255,
      "盎": 2256,
      "盏": 2257,
      "盐": 2258,
      "监": 2259,
      "盒": 2260,
      "盔": 2261,
      "盖": 2262,
      "盗": 2263,
      "盘": 2264,
      "盛": 2265,
      "盟": 2266,
      "目": 2267,
      "盯": 2268,
      "盲": 2269,
      "直": 2270,
      "相": 2271,
      "盼": 2272,
      "盾": 2273,
      "省": 2274,
      "眉": 2275,
      "看": 2276,
      "真": 2277,
      "眠": 2278,
      "眩": 2279,
      "眷": 2280,
      "眸": 2281,
      "眺": 2282,
      "眼": 2283,
      "着": 2284,
      "睁": 2285,
      "睐": 2286,
      "睛": 2287,
      "睡": 2288,
      "督": 2289,
      "睦": 2290,
      "睫": 2291,
      "睹": 2292,
      "睾": 2293,
      "睿": 2294,
      "瞄": 2295,
      "瞎": 2296,
      "瞒": 2297,
      "瞧": 2298,
      "瞩": 2299,
      "瞪": 2300,
      "瞬": 2301,
      "瞻": 2302,
      "矛": 2303,
      "矢": 2304,
      "矣": 2305,
      "知": 2306,
      "矩": 2307,
      "矫": 2308,
      "短": 2309,
      "矮": 2310,
      "石": 2311,
      "矶": 2312,
      "矿": 2313,
      "码": 2314,
      "砂": 2315,
      "砌": 2316,
      "砍": 2317,
      "研": 2318,
      "砖": 2319,
      "砥": 2320,
      "破": 2321,
      "砸": 2322,
      "砺": 2323,
      "础": 2324,
      "硅": 2325,
      "硒": 2326,
      "硕": 2327,
      "硝": 2328,
      "硫": 2329,
      "硬": 2330,
      "确": 2331,
      "硼": 2332,
      "碌": 2333,
      "碍": 2334,
      "碎": 2335,
      "碑": 2336,
      "碗": 2337,
      "碘": 2338,
      "碟": 2339,
      "碧": 2340,
      "碰": 2341,
      "碱": 2342,
      "碳": 2343,
      "碾": 2344,
      "磁": 2345,
      "磅": 2346,
      "磊": 2347,
      "磋": 2348,
      "磕": 2349,
      "磨": 2350,
      "磷": 2351,
      "磺": 2352,
      "礁": 2353,
      "示": 2354,
      "礼": 2355,
      "社": 2356,
      "祀": 2357,
      "祁": 2358,
      "祂": 2359,
      "祈": 2360,
      "祖": 2361,
      "祛": 2362,
      "祝": 2363,
      "神": 2364,
      "祠": 2365,
      "祥": 2366,
      "票": 2367,
      "祭": 2368,
      "祷": 2369,
      "祸": 2370,
      "祺": 2371,
      "禀": 2372,
      "禁": 2373,
      "禄": 2374,
      "禅": 2375,
      "福": 2376,
      "禧": 2377,
      "禹": 2378,
      "离": 2379,
      "禽": 2380,
      "禾": 2381,
      "秀": 2382,
      "私": 2383,
      "秆": 2384,
      "秉": 2385,
      "秋": 2386,
      "种": 2387,
      "科": 2388,
      "秒": 2389,
      "秘": 2390,
      "租": 2391,
      "秤": 2392,
      "秦": 2393,
      "秩": 2394,
      "积": 2395,
      "称": 2396,
      "秸": 2397,
      "移": 2398,
      "稀": 2399,
      "程": 2400,
      "稍": 2401,
      "税": 2402,
      "稚": 2403,
      "稠": 2404,
      "稣": 2405,
      "稳": 2406,
      "稻": 2407,
      "稽": 2408,
      "稿": 2409,
      "穆": 2410,
      "穗": 2411,
      "穴": 2412,
      "究": 2413,
      "穷": 2414,
      "空": 2415,
      "穿": 2416,
      "突": 2417,
      "窃": 2418,
      "窄": 2419,
      "窍": 2420,
      "窑": 2421,
      "窖": 2422,
      "窗": 2423,
      "窘": 2424,
      "窜": 2425,
      "窝": 2426,
      "窟": 2427,
      "窥": 2428,
      "窦": 2429,
      "立": 2430,
      "竖": 2431,
      "站": 2432,
      "竞": 2433,
      "竟": 2434,
      "章": 2435,
      "竣": 2436,
      "童": 2437,
      "竭": 2438,
      "端": 2439,
      "竹": 2440,
      "竿": 2441,
      "笃": 2442,
      "笋": 2443,
      "笑": 2444,
      "笔": 2445,
      "笛": 2446,
      "符": 2447,
      "笨": 2448,
      "第": 2449,
      "笼": 2450,
      "等": 2451,
      "筋": 2452,
      "筐": 2453,
      "筑": 2454,
      "筒": 2455,
      "答": 2456,
      "策": 2457,
      "筛": 2458,
      "筝": 2459,
      "筷": 2460,
      "筹": 2461,
      "签": 2462,
      "简": 2463,
      "箔": 2464,
      "算": 2465,
      "管": 2466,
      "箭": 2467,
      "箱": 2468,
      "篇": 2469,
      "篡": 2470,
      "篮": 2471,
      "篱": 2472,
      "篷": 2473,
      "簇": 2474,
      "簧": 2475,
      "簿": 2476,
      "籍": 2477,
      "米": 2478,
      "类": 2479,
      "籽": 2480,
      "粉": 2481,
      "粒": 2482,
      "粗": 2483,
      "粘": 2484,
      "粤": 2485,
      "粥": 2486,
      "粪": 2487,
      "粮": 2488,
      "粹": 2489,
      "粽": 2490,
      "精": 2491,
      "糊": 2492,
      "糕": 2493,
      "糖": 2494,
      "糙": 2495,
      "糟": 2496,
      "糯": 2497,
      "系": 2498,
      "紊": 2499,
      "素": 2500,
      "索": 2501,
      "紧": 2502,
      "紫": 2503,
      "累": 2504,
      "絮": 2505,
      "繁": 2506,
      "纠": 2507,
      "红": 2508,
      "纤": 2509,
      "约": 2510,
      "级": 2511,
      "纪": 2512,
      "纬": 2513,
      "纯": 2514,
      "纱": 2515,
      "纲": 2516,
      "纳": 2517,
      "纵": 2518,
      "纶": 2519,
      "纷": 2520,
      "纸": 2521,
      "纹": 2522,
      "纺": 2523,
      "纽": 2524,
      "纾": 2525,
      "线": 2526,
      "练": 2527,
      "组": 2528,
      "绅": 2529,
      "细": 2530,
      "织": 2531,
      "终": 2532,
      "绊": 2533,
      "绍": 2534,
      "绎": 2535,
      "经": 2536,
      "绑": 2537,
      "绒": 2538,
      "结": 2539,
      "绕": 2540,
      "绘": 2541,
      "给": 2542,
      "绚": 2543,
      "络": 2544,
      "绝": 2545,
      "绞": 2546,
      "统": 2547,
      "绣": 2548,
      "继": 2549,
      "绩": 2550,
      "绪": 2551,
      "续": 2552,
      "绳": 2553,
      "维": 2554,
      "绵": 2555,
      "绷": 2556,
      "绸": 2557,
      "综": 2558,
      "绽": 2559,
      "绿": 2560,
      "缀": 2561,
      "缅": 2562,
      "缆": 2563,
      "缓": 2564,
      "缔": 2565,
      "缕": 2566,
      "编": 2567,
      "缘": 2568,
      "缚": 2569,
      "缝": 2570,
      "缠": 2571,
      "缤": 2572,
      "缩": 2573,
      "缪": 2574,
      "缮": 2575,
      "缴": 2576,
      "缸": 2577,
      "缺": 2578,
      "罐": 2579,
      "网": 2580,
      "罕": 2581,
      "罗": 2582,
      "罚": 2583,
      "罢": 2584,
      "罩": 2585,
      "罪": 2586,
      "置": 2587,
      "署": 2588,
      "羁": 2589,
      "羊": 2590,
      "美": 2591,
      "羞": 2592,
      "羡": 2593,
      "群": 2594,
      "羯": 2595,
      "羽": 2596,
      "翁": 2597,
      "翅": 2598,
      "翔": 2599,
      "翘": 2600,
      "翟": 2601,
      "翠": 2602,
      "翡": 2603,
      "翩": 2604,
      "翰": 2605,
      "翻": 2606,
      "翼": 2607,
      "耀": 2608,
      "老": 2609,
      "考": 2610,
      "者": 2611,
      "而": 2612,
      "耍": 2613,
      "耐": 2614,
      "耕": 2615,
      "耗": 2616,
      "耘": 2617,
      "耦": 2618,
      "耳": 2619,
      "耶": 2620,
      "耸": 2621,
      "耻": 2622,
      "耽": 2623,
      "耿": 2624,
      "聆": 2625,
      "聊": 2626,
      "职": 2627,
      "联": 2628,
      "聘": 2629,
      "聚": 2630,
      "聪": 2631,
      "肃": 2632,
      "肆": 2633,
      "肇": 2634,
      "肉": 2635,
      "肋": 2636,
      "肌": 2637,
      "肖": 2638,
      "肘": 2639,
      "肚": 2640,
      "肛": 2641,
      "肝": 2642,
      "肠": 2643,
      "股": 2644,
      "肢": 2645,
      "肤": 2646,
      "肥": 2647,
      "肩": 2648,
      "肪": 2649,
      "肯": 2650,
      "育": 2651,
      "肴": 2652,
      "肺": 2653,
      "肽": 2654,
      "肾": 2655,
      "肿": 2656,
      "胀": 2657,
      "胁": 2658,
      "胃": 2659,
      "胆": 2660,
      "背": 2661,
      "胎": 2662,
      "胖": 2663,
      "胚": 2664,
      "胜": 2665,
      "胞": 2666,
      "胡": 2667,
      "胰": 2668,
      "胶": 2669,
      "胸": 2670,
      "胺": 2671,
      "能": 2672,
      "脂": 2673,
      "脆": 2674,
      "脉": 2675,
      "脊": 2676,
      "脏": 2677,
      "脐": 2678,
      "脑": 2679,
      "脓": 2680,
      "脖": 2681,
      "脚": 2682,
      "脱": 2683,
      "脸": 2684,
      "脾": 2685,
      "腊": 2686,
      "腋": 2687,
      "腌": 2688,
      "腐": 2689,
      "腑": 2690,
      "腔": 2691,
      "腕": 2692,
      "腥": 2693,
      "腰": 2694,
      "腹": 2695,
      "腺": 2696,
      "腻": 2697,
      "腾": 2698,
      "腿": 2699,
      "膀": 2700,
      "膏": 2701,
      "膛": 2702,
      "膜": 2703,
      "膝": 2704,
      "膨": 2705,
      "膳": 2706,
      "臀": 2707,
      "臂": 2708,
      "臣": 2709,
      "自": 2710,
      "臭": 2711,
      "至": 2712,
      "致": 2713,
      "臻": 2714,
      "舅": 2715,
      "舆": 2716,
      "舌": 2717,
      "舍": 2718,
      "舒": 2719,
      "舜": 2720,
      "舞": 2721,
      "舟": 2722,
      "航": 2723,
      "般": 2724,
      "舰": 2725,
      "舱": 2726,
      "舵": 2727,
      "舶": 2728,
      "船": 2729,
      "艇": 2730,
      "艘": 2731,
      "良": 2732,
      "艰": 2733,
      "色": 2734,
      "艳": 2735,
      "艺": 2736,
      "艾": 2737,
      "节": 2738,
      "芋": 2739,
      "芒": 2740,
      "芙": 2741,
      "芜": 2742,
      "芝": 2743,
      "芦": 2744,
      "芬": 2745,
      "芭": 2746,
      "芯": 2747,
      "花": 2748,
      "芳": 2749,
      "芸": 2750,
      "芹": 2751,
      "芽": 2752,
      "苍": 2753,
      "苏": 2754,
      "苑": 2755,
      "苔": 2756,
      "苗": 2757,
      "苛": 2758,
      "苟": 2759,
      "若": 2760,
      "苦": 2761,
      "苯": 2762,
      "英": 2763,
      "苹": 2764,
      "茁": 2765,
      "茂": 2766,
      "范": 2767,
      "茄": 2768,
      "茅": 2769,
      "茉": 2770,
      "茎": 2771,
      "茨": 2772,
      "茫": 2773,
      "茵": 2774,
      "茶": 2775,
      "茸": 2776,
      "茹": 2777,
      "荆": 2778,
      "草": 2779,
      "荐": 2780,
      "荒": 2781,
      "荔": 2782,
      "荟": 2783,
      "荡": 2784,
      "荣": 2785,
      "荧": 2786,
      "荨": 2787,
      "荫": 2788,
      "药": 2789,
      "荷": 2790,
      "荼": 2791,
      "莅": 2792,
      "莆": 2793,
      "莉": 2794,
      "莎": 2795,
      "莓": 2796,
      "莞": 2797,
      "莫": 2798,
      "莱": 2799,
      "莲": 2800,
      "获": 2801,
      "莹": 2802,
      "菁": 2803,
      "菇": 2804,
      "菊": 2805,
      "菌": 2806,
      "菏": 2807,
      "菜": 2808,
      "菠": 2809,
      "菩": 2810,
      "菱": 2811,
      "菲": 2812,
      "萃": 2813,
      "萄": 2814,
      "萌": 2815,
      "萍": 2816,
      "萎": 2817,
      "萝": 2818,
      "萤": 2819,
      "营": 2820,
      "萧": 2821,
      "萨": 2822,
      "落": 2823,
      "著": 2824,
      "葛": 2825,
      "葡": 2826,
      "董": 2827,
      "葫": 2828,
      "葬": 2829,
      "葱": 2830,
      "葵": 2831,
      "蒂": 2832,
      "蒋": 2833,
      "蒙": 2834,
      "蒜": 2835,
      "蒲": 2836,
      "蒸": 2837,
      "蓄": 2838,
      "蓉": 2839,
      "蓝": 2840,
      "蓬": 2841,
      "蔓": 2842,
      "蔗": 2843,
      "蔚": 2844,
      "蔡": 2845,
      "蔬": 2846,
      "蔽": 2847,
      "蕃": 2848,
      "蕉": 2849,
      "蕴": 2850,
      "蕾": 2851,
      "薄": 2852,
      "薇": 2853,
      "薛": 2854,
      "薪": 2855,
      "薯": 2856,
      "藉": 2857,
      "藏": 2858,
      "藕": 2859,
      "藤": 2860,
      "藻": 2861,
      "蘑": 2862,
      "蘸": 2863,
      "虎": 2864,
      "虐": 2865,
      "虑": 2866,
      "虚": 2867,
      "虞": 2868,
      "虫": 2869,
      "虹": 2870,
      "虽": 2871,
      "虾": 2872,
      "蚀": 2873,
      "蚁": 2874,
      "蚂": 2875,
      "蚊": 2876,
      "蚌": 2877,
      "蚕": 2878,
      "蛀": 2879,
      "蛇": 2880,
      "蛋": 2881,
      "蛙": 2882,
      "蛛": 2883,
      "蛮": 2884,
      "蜀": 2885,
      "蜂": 2886,
      "蜕": 2887,
      "蜗": 2888,
      "蜘": 2889,
      "蜜": 2890,
      "蜡": 2891,
      "蝇": 2892,
      "蝉": 2893,
      "蝎": 2894,
      "蝴": 2895,
      "蝶": 2896,
      "螃": 2897,
      "融": 2898,
      "螺": 2899,
      "蟠": 2900,
      "蟹": 2901,
      "蠕": 2902,
      "蠢": 2903,
      "血": 2904,
      "行": 2905,
      "衍": 2906,
      "衔": 2907,
      "街": 2908,
      "衡": 2909,
      "衣": 2910,
      "补": 2911,
      "表": 2912,
      "衫": 2913,
      "衬": 2914,
      "衰": 2915,
      "衷": 2916,
      "袁": 2917,
      "袋": 2918,
      "袍": 2919,
      "袖": 2920,
      "袜": 2921,
      "被": 2922,
      "袭": 2923,
      "裁": 2924,
      "裂": 2925,
      "装": 2926,
      "裔": 2927,
      "裕": 2928,
      "裙": 2929,
      "裤": 2930,
      "裴": 2931,
      "裸": 2932,
      "裹": 2933,
      "褐": 2934,
      "褪": 2935,
      "褶": 2936,
      "襄": 2937,
      "襟": 2938,
      "西": 2939,
      "要": 2940,
      "覆": 2941,
      "见": 2942,
      "观": 2943,
      "规": 2944,
      "觅": 2945,
      "视": 2946,
      "览": 2947,
      "觉": 2948,
      "觑": 2949,
      "角": 2950,
      "解": 2951,
      "触": 2952,
      "言": 2953,
      "詹": 2954,
      "誉": 2955,
      "誓": 2956,
      "警": 2957,
      "譬": 2958,
      "计": 2959,
      "订": 2960,
      "认": 2961,
      "讨": 2962,
      "让": 2963,
      "训": 2964,
      "议": 2965,
      "讯": 2966,
      "记": 2967,
      "讲": 2968,
      "讳": 2969,
      "讶": 2970,
      "许": 2971,
      "论": 2972,
      "讼": 2973,
      "讽": 2974,
      "设": 2975,
      "访": 2976,
      "诀": 2977,
      "证": 2978,
      "评": 2979,
      "识": 2980,
      "诈": 2981,
      "诉": 2982,
      "诊": 2983,
      "词": 2984,
      "诏": 2985,
      "译": 2986,
      "试": 2987,
      "诗": 2988,
      "诚": 2989,
      "话": 2990,
      "诞": 2991,
      "诠": 2992,
      "诡": 2993,
      "询": 2994,
      "该": 2995,
      "详": 2996,
      "诫": 2997,
      "语": 2998,
      "误": 2999,
      "诱": 3000,
      "说": 3001,
      "诵": 3002,
      "请": 3003,
      "诸": 3004,
      "诺": 3005,
      "读": 3006,
      "课": 3007,
      "谁": 3008,
      "调": 3009,
      "谅": 3010,
      "谈": 3011,
      "谊": 3012,
      "谋": 3013,
      "谎": 3014,
      "谐": 3015,
      "谓": 3016,
      "谛": 3017,
      "谜": 3018,
      "谢": 3019,
      "谣": 3020,
      "谦": 3021,
      "谨": 3022,
      "谭": 3023,
      "谱": 3024,
      "谷": 3025,
      "豁": 3026,
      "豆": 3027,
      "象": 3028,
      "豪": 3029,
      "豫": 3030,
      "豹": 3031,
      "貌": 3032,
      "贝": 3033,
      "贞": 3034,
      "负": 3035,
      "贡": 3036,
      "财": 3037,
      "责": 3038,
      "贤": 3039,
      "败": 3040,
      "账": 3041,
      "货": 3042,
      "质": 3043,
      "贩": 3044,
      "贪": 3045,
      "贫": 3046,
      "贬": 3047,
      "购": 3048,
      "贮": 3049,
      "贯": 3050,
      "贴": 3051,
      "贵": 3052,
      "贷": 3053,
      "贸": 3054,
      "费": 3055,
      "贺": 3056,
      "贼": 3057,
      "贾": 3058,
      "贿": 3059,
      "赁": 3060,
      "资": 3061,
      "赋": 3062,
      "赌": 3063,
      "赎": 3064,
      "赏": 3065,
      "赐": 3066,
      "赔": 3067,
      "赖": 3068,
      "赘": 3069,
      "赚": 3070,
      "赛": 3071,
      "赞": 3072,
      "赠": 3073,
      "赢": 3074,
      "赣": 3075,
      "赤": 3076,
      "赫": 3077,
      "走": 3078,
      "赴": 3079,
      "赵": 3080,
      "赶": 3081,
      "起": 3082,
      "趁": 3083,
      "超": 3084,
      "越": 3085,
      "趋": 3086,
      "趟": 3087,
      "趣": 3088,
      "足": 3089,
      "趴": 3090,
      "趾": 3091,
      "跃": 3092,
      "跌": 3093,
      "跑": 3094,
      "距": 3095,
      "跟": 3096,
      "跨": 3097,
      "跪": 3098,
      "路": 3099,
      "跳": 3100,
      "践": 3101,
      "跻": 3102,
      "踊": 3103,
      "踏": 3104,
      "踝": 3105,
      "踢": 3106,
      "踩": 3107,
      "踪": 3108,
      "蹄": 3109,
      "蹈": 3110,
      "蹦": 3111,
      "蹭": 3112,
      "蹲": 3113,
      "躁": 3114,
      "身": 3115,
      "躯": 3116,
      "躲": 3117,
      "躺": 3118,
      "车": 3119,
      "轧": 3120,
      "轨": 3121,
      "轩": 3122,
      "转": 3123,
      "轮": 3124,
      "软": 3125,
      "轰": 3126,
      "轴": 3127,
      "轻": 3128,
      "轼": 3129,
      "载": 3130,
      "轿": 3131,
      "较": 3132,
      "辄": 3133,
      "辅": 3134,
      "辆": 3135,
      "辈": 3136,
      "辉": 3137,
      "辊": 3138,
      "辐": 3139,
      "辑": 3140,
      "输": 3141,
      "辖": 3142,
      "辛": 3143,
      "辜": 3144,
      "辞": 3145,
      "辟": 3146,
      "辣": 3147,
      "辨": 3148,
      "辩": 3149,
      "辰": 3150,
      "辱": 3151,
      "边": 3152,
      "辽": 3153,
      "达": 3154,
      "迁": 3155,
      "迄": 3156,
      "迅": 3157,
      "过": 3158,
      "迈": 3159,
      "迎": 3160,
      "运": 3161,
      "近": 3162,
      "返": 3163,
      "还": 3164,
      "这": 3165,
      "进": 3166,
      "远": 3167,
      "违": 3168,
      "连": 3169,
      "迟": 3170,
      "迦": 3171,
      "迪": 3172,
      "迫": 3173,
      "迭": 3174,
      "述": 3175,
      "迷": 3176,
      "迹": 3177,
      "追": 3178,
      "退": 3179,
      "送": 3180,
      "适": 3181,
      "逃": 3182,
      "逅": 3183,
      "逆": 3184,
      "选": 3185,
      "逊": 3186,
      "逍": 3187,
      "透": 3188,
      "逐": 3189,
      "递": 3190,
      "途": 3191,
      "逗": 3192,
      "通": 3193,
      "逛": 3194,
      "逝": 3195,
      "速": 3196,
      "造": 3197,
      "逢": 3198,
      "逮": 3199,
      "逸": 3200,
      "逻": 3201,
      "逼": 3202,
      "逾": 3203,
      "遂": 3204,
      "遇": 3205,
      "遍": 3206,
      "遏": 3207,
      "道": 3208,
      "遗": 3209,
      "遣": 3210,
      "遥": 3211,
      "遭": 3212,
      "遮": 3213,
      "遴": 3214,
      "遵": 3215,
      "避": 3216,
      "邀": 3217,
      "邂": 3218,
      "邑": 3219,
      "邓": 3220,
      "邢": 3221,
      "那": 3222,
      "邦": 3223,
      "邪": 3224,
      "邮": 3225,
      "邯": 3226,
      "邱": 3227,
      "邵": 3228,
      "邹": 3229,
      "邻": 3230,
      "郁": 3231,
      "郊": 3232,
      "郎": 3233,
      "郑": 3234,
      "郝": 3235,
      "郡": 3236,
      "部": 3237,
      "郭": 3238,
      "郸": 3239,
      "都": 3240,
      "鄂": 3241,
      "酋": 3242,
      "酌": 3243,
      "配": 3244,
      "酒": 3245,
      "酚": 3246,
      "酥": 3247,
      "酪": 3248,
      "酬": 3249,
      "酮": 3250,
      "酯": 3251,
      "酰": 3252,
      "酱": 3253,
      "酵": 3254,
      "酶": 3255,
      "酷": 3256,
      "酸": 3257,
      "酿": 3258,
      "醇": 3259,
      "醉": 3260,
      "醋": 3261,
      "醒": 3262,
      "醚": 3263,
      "醛": 3264,
      "采": 3265,
      "釉": 3266,
      "释": 3267,
      "里": 3268,
      "重": 3269,
      "野": 3270,
      "量": 3271,
      "金": 3272,
      "釜": 3273,
      "鉴": 3274,
      "鑫": 3275,
      "针": 3276,
      "钉": 3277,
      "钓": 3278,
      "钙": 3279,
      "钛": 3280,
      "钝": 3281,
      "钟": 3282,
      "钠": 3283,
      "钢": 3284,
      "钣": 3285,
      "钥": 3286,
      "钦": 3287,
      "钧": 3288,
      "钨": 3289,
      "钩": 3290,
      "钮": 3291,
      "钱": 3292,
      "钳": 3293,
      "钴": 3294,
      "钻": 3295,
      "钼": 3296,
      "钾": 3297,
      "铁": 3298,
      "铂": 3299,
      "铃": 3300,
      "铅": 3301,
      "铆": 3302,
      "铜": 3303,
      "铝": 3304,
      "铣": 3305,
      "铬": 3306,
      "铭": 3307,
      "铰": 3308,
      "铲": 3309,
      "铵": 3310,
      "银": 3311,
      "铸": 3312,
      "铺": 3313,
      "链": 3314,
      "销": 3315,
      "锁": 3316,
      "锂": 3317,
      "锅": 3318,
      "锆": 3319,
      "锈": 3320,
      "锋": 3321,
      "锌": 3322,
      "锐": 3323,
      "错": 3324,
      "锚": 3325,
      "锡": 3326,
      "锣": 3327,
      "锤": 3328,
      "锥": 3329,
      "锦": 3330,
      "锭": 3331,
      "键": 3332,
      "锯": 3333,
      "锰": 3334,
      "锻": 3335,
      "镀": 3336,
      "镁": 3337,
      "镂": 3338,
      "镇": 3339,
      "镍": 3340,
      "镑": 3341,
      "镖": 3342,
      "镜": 3343,
      "镶": 3344,
      "长": 3345,
      "门": 3346,
      "闪": 3347,
      "闫": 3348,
      "闭": 3349,
      "问": 3350,
      "闯": 3351,
      "闲": 3352,
      "间": 3353,
      "闵": 3354,
      "闷": 3355,
      "闸": 3356,
      "闹": 3357,
      "闺": 3358,
      "闻": 3359,
      "闽": 3360,
      "阀": 3361,
      "阁": 3362,
      "阅": 3363,
      "阐": 3364,
      "阔": 3365,
      "阜": 3366,
      "队": 3367,
      "阪": 3368,
      "阮": 3369,
      "阱": 3370,
      "防": 3371,
      "阳": 3372,
      "阴": 3373,
      "阵": 3374,
      "阶": 3375,
      "阻": 3376,
      "阿": 3377,
      "陀": 3378,
      "附": 3379,
      "际": 3380,
      "陆": 3381,
      "陇": 3382,
      "陈": 3383,
      "陋": 3384,
      "陌": 3385,
      "降": 3386,
      "限": 3387,
      "陕": 3388,
      "陡": 3389,
      "院": 3390,
      "除": 3391,
      "险": 3392,
      "陪": 3393,
      "陵": 3394,
      "陶": 3395,
      "陷": 3396,
      "隆": 3397,
      "随": 3398,
      "隐": 3399,
      "隔": 3400,
      "隙": 3401,
      "障": 3402,
      "隧": 3403,
      "隶": 3404,
      "难": 3405,
      "雀": 3406,
      "雁": 3407,
      "雄": 3408,
      "雅": 3409,
      "集": 3410,
      "雇": 3411,
      "雌": 3412,
      "雍": 3413,
      "雏": 3414,
      "雕": 3415,
      "雨": 3416,
      "雪": 3417,
      "雯": 3418,
      "零": 3419,
      "雷": 3420,
      "雾": 3421,
      "需": 3422,
      "霄": 3423,
      "霆": 3424,
      "震": 3425,
      "霉": 3426,
      "霍": 3427,
      "霖": 3428,
      "霜": 3429,
      "霞": 3430,
      "露": 3431,
      "霸": 3432,
      "霾": 3433,
      "青": 3434,
      "靓": 3435,
      "靖": 3436,
      "静": 3437,
      "非": 3438,
      "靠": 3439,
      "靡": 3440,
      "面": 3441,
      "革": 3442,
      "靴": 3443,
      "靶": 3444,
      "鞋": 3445,
      "鞍": 3446,
      "鞭": 3447,
      "韦": 3448,
      "韧": 3449,
      "韩": 3450,
      "韭": 3451,
      "音": 3452,
      "韵": 3453,
      "韶": 3454,
      "页": 3455,
      "顶": 3456,
      "顷": 3457,
      "项": 3458,
      "顺": 3459,
      "须": 3460,
      "顽": 3461,
      "顾": 3462,
      "顿": 3463,
      "颁": 3464,
      "颂": 3465,
      "预": 3466,
      "颅": 3467,
      "领": 3468,
      "颇": 3469,
      "颈": 3470,
      "颊": 3471,
      "颐": 3472,
      "频": 3473,
      "颓": 3474,
      "颖": 3475,
      "颗": 3476,
      "题": 3477,
      "颜": 3478,
      "额": 3479,
      "颠": 3480,
      "颤": 3481,
      "风": 3482,
      "飘": 3483,
      "飙": 3484,
      "飞": 3485,
      "食": 3486,
      "餐": 3487,
      "饥": 3488,
      "饪": 3489,
      "饭": 3490,
      "饮": 3491,
      "饰": 3492,
      "饱": 3493,
      "饲": 3494,
      "饵": 3495,
      "饶": 3496,
      "饺": 3497,
      "饼": 3498,
      "饿": 3499,
      "馅": 3500,
      "馆": 3501,
      "馈": 3502,
      "馏": 3503,
      "馒": 3504,
      "首": 3505,
      "香": 3506,
      "馨": 3507,
      "马": 3508,
      "驭": 3509,
      "驯": 3510,
      "驰": 3511,
      "驱": 3512,
      "驳": 3513,
      "驴": 3514,
      "驶": 3515,
      "驻": 3516,
      "驼": 3517,
      "驾": 3518,
      "驿": 3519,
      "骁": 3520,
      "骂": 3521,
      "骄": 3522,
      "骆": 3523,
      "验": 3524,
      "骏": 3525,
      "骑": 3526,
      "骗": 3527,
      "骚": 3528,
      "骤": 3529,
      "骨": 3530,
      "骼": 3531,
      "髓": 3532,
      "高": 3533,
      "髦": 3534,
      "鬼": 3535,
      "魁": 3536,
      "魂": 3537,
      "魄": 3538,
      "魅": 3539,
      "魏": 3540,
      "魔": 3541,
      "鱼": 3542,
      "鲁": 3543,
      "鲍": 3544,
      "鲜": 3545,
      "鲤": 3546,
      "鲨": 3547,
      "鲸": 3548,
      "鳄": 3549,
      "鳞": 3550,
      "鸟": 3551,
      "鸡": 3552,
      "鸣": 3553,
      "鸦": 3554,
      "鸭": 3555,
      "鸽": 3556,
      "鸿": 3557,
      "鹅": 3558,
      "鹏": 3559,
      "鹤": 3560,
      "鹰": 3561,
      "鹿": 3562,
      "麒": 3563,
      "麓": 3564,
      "麟": 3565,
      "麦": 3566,
      "麻": 3567,
      "黄": 3568,
      "黎": 3569,
      "黏": 3570,
      "黑": 3571,
      "黔": 3572,
      "默": 3573,
      "黛": 3574,
      "黯": 3575,
      "鼎": 3576,
      "鼓": 3577,
      "鼠": 3578,
      "鼻": 3579,
      "齐": 3580,
      "齿": 3581,
      "龄": 3582,
      "龈": 3583,
      "龙": 3584,
      "龚": 3585,
      "龟": 3586,
      "�": 3587,
      "20": 3588,
      "可以": 3589,
      "我们": 3590,
      "公司": 3591,
      "一个": 3592,
      "企业": 3593,
      "工作": 3594,
      "进行": 3595,
      "00": 3596,
      "产品": 3597,
      "发展": 3598,
      "服务": 3599,
      "使用": 3600,
      "技术": 3601,
      "自己": 3602,
      "管理": 3603,
      "中国": 3604,
      "需要": 3605,
      "市场": 3606,
      "通过": 3607,
      "时间": 3608,
      "设计": 3609,
      "没有": 3610,
      "系统": 3611,
      "问题": 3612,
      "提供": 3613,
      "生产": 3614,
      "如果": 3615,
      "就是": 3616,
      "项目": 3617,
      "设备": 3618,
      "安全": 3619,
      "10": 3620,
      "可能": 3621,
      "行业": 3622,
      "数据": 3623,
      "他们": 3624,
      "情况": 3625,
      "信息": 3626,
      "什么": 3627,
      "主要": 3628,
      "要求": 3629,
      "201": 3630,
      "因为": 3631,
      "不同": 3632,
      "这个": 3633,
      "同时": 3634,
      "以及": 3635,
      "专业": 3636,
      "选择": 3637,
      "影响": 3638,
      "方面": 3639,
      "好的": 3640,
      "环境": 3641,
      "生活": 3642,
      "建设": 3643,
      "重要": 3644,
      "所以": 3645,
      "研究": 3646,
      "人员": 3647,
      "很多": 3648,
      "活动": 3649,
      "相关": 3650,
      "国家": 3651,
      "一些": 3652,
      "对于": 3653,
      "处理": 3654,
      "质量": 3655,
      "具有": 3656,
      "非常": 3657,
      "方式": 3658,
      "大家": 3659,
      "中的": 3660,
      "能力": 3661,
      "过程": 3662,
      "已经": 3663,
      "材料": 3664,
      "品牌": 3665,
      "这些": 3666,
      "根据": 3667,
      "应用": 3668,
      "是一": 3669,
      "经济": 3670,
      "时候": 3671,
      "作为": 3672,
      "用户": 3673,
      "这样": 3674,
      "投资": 3675,
      "202": 3676,
      "客户": 3677,
      "工程": 3678,
      "大的": 3679,
      "其他": 3680,
      "能够": 3681,
      "治疗": 3682,
      "中心": 3683,
      "部分": 3684,
      "教育": 3685,
      "目前": 3686,
      "出现": 3687,
      "er": 3688,
      "标准": 3689,
      "的人": 3690,
      "学生": 3691,
      "平台": 3692,
      "也是": 3693,
      "产业": 3694,
      "实现": 3695,
      "成为": 3696,
      "但是": 3697,
      "内容": 3698,
      "一定": 3699,
      "提高": 3700,
      "方法": 3701,
      "不是": 3702,
      "世界": 3703,
      "开始": 3704,
      "社会": 3705,
      "网站": 3706,
      "的一": 3707,
      "in": 3708,
      "采用": 3709,
      "现在": 3710,
      "功能": 3711,
      "了解": 3712,
      "控制": 3713,
      "比较": 3714,
      "需求": 3715,
      "n1": 3716,
      "因此": 3717,
      "包括": 3718,
      "自己的": 3719,
      "消费": 3720,
      "一般": 3721,
      "还是": 3722,
      "的是": 3723,
      "科技": 3724,
      "都是": 3725,
      "第一": 3726,
      "个人": 3727,
      "癜风": 3728,
      "白癜风": 3729,
      "所有": 3730,
      "学习": 3731,
      "创新": 3732,
      "患者": 3733,
      "提升": 3734,
      "合作": 3735,
      "或者": 3736,
      "国际": 3737,
      "表示": 3738,
      "智能": 3739,
      "价格": 3740,
      "由于": 3741,
      "文化": 3742,
      "上的": 3743,
      "组织": 3744,
      "孩子": 3745,
      "到了": 3746,
      "结构": 3747,
      "不能": 3748,
      "有限": 3749,
      "不会": 3750,
      "这种": 3751,
      "解决": 3752,
      "12": 3753,
      "n2": 3754,
      "单位": 3755,
      "用于": 3756,
      "健康": 3757,
      "机构": 3758,
      "n在": 3759,
      "分析": 3760,
      "an": 3761,
      "人的": 3762,
      "获得": 3763,
      "完成": 3764,
      "开发": 3765,
      "那么": 3766,
      "作用": 3767,
      "部门": 3768,
      "城市": 3769,
      "30": 3770,
      "发生": 3771,
      "网络": 3772,
      "基础": 3773,
      "资源": 3774,
      "必须": 3775,
      "效果": 3776,
      "如何": 3777,
      "业务": 3778,
      "不断": 3779,
      "更多": 3780,
      "的时候": 3781,
      "各种": 3782,
      "建筑": 3783,
      "领域": 3784,
      "政府": 3785,
      "注意": 3786,
      "为了": 3787,
      "有效": 3788,
      "发现": 3789,
      "产生": 3790,
      "而且": 3791,
      "工业": 3792,
      "之后": 3793,
      "大学": 3794,
      "50": 3795,
      "知道": 3796,
      "来的": 3797,
      "利用": 3798,
      "11": 3799,
      "方案": 3800,
      "on": 3801,
      "其中": 3802,
      "以上": 3803,
      "学校": 3804,
      "规定": 3805,
      "增加": 3806,
      "保护": 3807,
      "医院": 3808,
      "n3": 3809,
      "一步": 3810,
      "支持": 3811,
      "操作": 3812,
      "直接": 3813,
      "集团": 3814,
      "有限公司": 3815,
      "还有": 3816,
      "任何": 3817,
      "开展": 3818,
      "希望": 3819,
      "自动": 3820,
      "国内": 3821,
      "制造": 3822,
      "帮助": 3823,
      "来说": 3824,
      "申请": 3825,
      "政策": 3826,
      "空间": 3827,
      "汽车": 3828,
      "游戏": 3829,
      "19": 3830,
      "新的": 3831,
      "200": 3832,
      "电子": 3833,
      "性能": 3834,
      "安装": 3835,
      "一起": 3836,
      "达到": 3837,
      "检测": 3838,
      "这一": 3839,
      "基本": 3840,
      "应该": 3841,
      "持续": 3842,
      "特别": 3843,
      "导致": 3844,
      "计划": 3845,
      "存在": 3846,
      "成本": 3847,
      "100": 3848,
      "容易": 3849,
      "15": 3850,
      "经营": 3851,
      "水平": 3852,
      "美国": 3853,
      "模式": 3854,
      "销售": 3855,
      "进入": 3856,
      "科学": 3857,
      "传统": 3858,
      "随着": 3859,
      "介绍": 3860,
      "北京": 3861,
      "认为": 3862,
      "过程中": 3863,
      "不仅": 3864,
      "实际": 3865,
      "年的": 3866,
      "知识": 3867,
      "第二": 3868,
      "条件": 3869,
      "比赛": 3870,
      "是否": 3871,
      "有关": 3872,
      "目标": 3873,
      "检查": 3874,
      "系列": 3875,
      "交易": 3876,
      "积极": 3877,
      "之间": 3878,
      "虽然": 3879,
      "显示": 3880,
      "了一": 3881,
      "造成": 3882,
      "更加": 3883,
      "加工": 3884,
      "增长": 3885,
      "负责": 3886,
      "保证": 3887,
      "我们的": 3888,
      "未来": 3889,
      "价值": 3890,
      "数字": 3891,
      "全国": 3892,
      "自然": 3893,
      "稳定": 3894,
      "疫情": 3895,
      "形成": 3896,
      "全球": 3897,
      "地区": 3898,
      "温度": 3899,
      "关系": 3900,
      "拥有": 3901,
      "这是": 3902,
      "人民": 3903,
      "发布": 3904,
      "结合": 3905,
      "成功": 3906,
      "代表": 3907,
      "en": 3908,
      "综合": 3909,
      "原因": 3910,
      "结果": 3911,
      "ar": 3912,
      "范围": 3913,
      "保持": 3914,
      "团队": 3915,
      "压力": 3916,
      "进一步": 3917,
      "责任": 3918,
      "简单": 3919,
      "地方": 3920,
      "施工": 3921,
      "关于": 3922,
      "不要": 3923,
      "超过": 3924,
      "or": 3925,
      "2022": 3926,
      "无法": 3927,
      "风险": 3928,
      "你的": 3929,
      "及时": 3930,
      "实施": 3931,
      "许多": 3932,
      "优势": 3933,
      "培训": 3934,
      "以下": 3935,
      "th": 3936,
      "今年": 3937,
      "然后": 3938,
      "现场": 3939,
      "关键": 3940,
      "最后": 3941,
      "朋友": 3942,
      "体系": 3943,
      "我国": 3944,
      "一样": 3945,
      "建立": 3946,
      "重点": 3947,
      "减少": 3948,
      "不过": 3949,
      "怎么": 3950,
      "一直": 3951,
      "并且": 3952,
      "经验": 3953,
      "研发": 3954,
      "月2": 3955,
      "参与": 3956,
      "能源": 3957,
      "按照": 3958,
      "变化": 3959,
      "工艺": 3960,
      "其实": 3961,
      "运动": 3962,
      "艺术": 3963,
      "18": 3964,
      "运行": 3965,
      "体验": 3966,
      "快速": 3967,
      "机械": 3968,
      "性的": 3969,
      "一种": 3970,
      "之一": 3971,
      "消费者": 3972,
      "继续": 3973,
      "起来": 3974,
      "联网": 3975,
      "n4": 3976,
      "甚至": 3977,
      "满足": 3978,
      "基金": 3979,
      "建议": 3980,
      "上海": 3981,
      "才能": 3982,
      "一次": 3983,
      "只有": 3984,
      "保障": 3985,
      "参加": 3986,
      "经过": 3987,
      "计算": 3988,
      "体的": 3989,
      "降低": 3990,
      "表面": 3991,
      "看到": 3992,
      "人们": 3993,
      "不同的": 3994,
      "金融": 3995,
      "确保": 3996,
      "全面": 3997,
      "员工": 3998,
      "两个": 3999,
      "会议": 4000,
      "食品": 4001,
      "得到": 4002,
      "加强": 4003,
      "1年": 4004,
      "16": 4005,
      "精神": 4006,
      "状态": 4007,
      "表现": 4008,
      "le": 4009,
      "规划": 4010,
      "分钟": 4011,
      "提出": 4012,
      "除了": 4013,
      "教学": 4014,
      "报告": 4015,
      "避免": 4016,
      "第三": 4017,
      "行为": 4018,
      "at": 4019,
      "考虑": 4020,
      "关注": 4021,
      "学院": 4022,
      "金属": 4023,
      "专家": 4024,
      "医疗": 4025,
      "阶段": 4026,
      "做好": 4027,
      "调整": 4028,
      "正在": 4029,
      "软件": 4030,
      "的大": 4031,
      "资金": 4032,
      "制作": 4033,
      "这里": 4034,
      "规模": 4035,
      "竞争": 4036,
      "效率": 4037,
      "银行": 4038,
      "带来": 4039,
      "执行": 4040,
      "推动": 4041,
      "是在": 4042,
      "期间": 4043,
      "测试": 4044,
      "针对": 4045,
      "之前": 4046,
      "皮肤": 4047,
      "就会": 4048,
      "生态": 4049,
      "交流": 4050,
      "完全": 4051,
      "喜欢": 4052,
      "球队": 4053,
      "一下": 4054,
      "从而": 4055,
      "区域": 4056,
      "程序": 4057,
      "记者": 4058,
      "丰富": 4059,
      "身体": 4060,
      "特点": 4061,
      "量的": 4062,
      "正常": 4063,
      "措施": 4064,
      "取得": 4065,
      "核心": 4066,
      "旅游": 4067,
      "符合": 4068,
      "环保": 4069,
      "老师": 4070,
      "的问题": 4071,
      "充分": 4072,
      "的情况": 4073,
      "因素": 4074,
      "机会": 4075,
      "13": 4076,
      "法律": 4077,
      "亿元": 4078,
      "有的": 4079,
      "空气": 4080,
      "受到": 4081,
      "交通": 4082,
      "14": 4083,
      "小时": 4084,
      "al": 4085,
      "职业": 4086,
      "高的": 4087,
      "今天": 4088,
      "万元": 4089,
      "es": 4090,
      "打造": 4091,
      "污染": 4092,
      "文件": 4093,
      "时代": 4094,
      "化的": 4095
    },
    "merges": [
      [
        "2",
        "0"
      ],
      [
        "可",
        "以"
      ],
      [
        "我",
        "们"
      ],
      [
        "公",
        "司"
      ],
      [
        "一",
        "个"
      ],
      [
        "企",
        "业"
      ],
      [
        "工",
        "作"
      ],
      [
        "进",
        "行"
      ],
      [
        "0",
        "0"
      ],
      [
        "产",
        "品"
      ],
      [
        "发",
        "展"
      ],
      [
        "服",
        "务"
      ],
      [
        "使",
        "用"
      ],
      [
        "技",
        "术"
      ],
      [
        "自",
        "己"
      ],
      [
        "管",
        "理"
      ],
      [
        "中",
        "国"
      ],
      [
        "需",
        "要"
      ],
      [
        "市",
        "场"
      ],
      [
        "通",
        "过"
      ],
      [
        "时",
        "间"
      ],
      [
        "设",
        "计"
      ],
      [
        "没",
        "有"
      ],
      [
        "系",
        "统"
      ],
      [
        "问",
        "题"
      ],
      [
        "提",
        "供"
      ],
      [
        "生",
        "产"
      ],
      [
        "如",
        "果"
      ],
      [
        "就",
        "是"
      ],
      [
        "项",
        "目"
      ],
      [
        "设",
        "备"
      ],
      [
        "安",
        "全"
      ],
      [
        "1",
        "0"
      ],
      [
        "可",
        "能"
      ],
      [
        "行",
        "业"
      ],
      [
        "数",
        "据"
      ],
      [
        "他",
        "们"
      ],
      [
        "情",
        "况"
      ],
      [
        "信",
        "息"
      ],
      [
        "什",
        "么"
      ],
      [
        "主",
        "要"
      ],
      [
        "要",
        "求"
      ],
      [
        "20",
        "1"
      ],
      [
        "因",
        "为"
      ],
      [
        "不",
        "同"
      ],
      [
        "这",
        "个"
      ],
      [
        "同",
        "时"
      ],
      [
        "以",
        "及"
      ],
      [
        "专",
        "业"
      ],
      [
        "选",
        "择"
      ],
      [
        "影",
        "响"
      ],
      [
        "方",
        "面"
      ],
      [
        "好",
        "的"
      ],
      [
        "环",
        "境"
      ],
      [
        "生",
        "活"
      ],
      [
        "建",
        "设"
      ],
      [
        "重",
        "要"
      ],
      [
        "所",
        "以"
      ],
      [
        "研",
        "究"
      ],
      [
        "人",
        "员"
      ],
      [
        "很",
        "多"
      ],
      [
        "活",
        "动"
      ],
      [
        "相",
        "关"
      ],
      [
        "国",
        "家"
      ],
      [
        "一",
        "些"
      ],
      [
        "对",
        "于"
      ],
      [
        "处",
        "理"
      ],
      [
        "质",
        "量"
      ],
      [
        "具",
        "有"
      ],
      [
        "非",
        "常"
      ],
      [
        "方",
        "式"
      ],
      [
        "大",
        "家"
      ],
      [
        "中",
        "的"
      ],
      [
        "能",
        "力"
      ],
      [
        "过",
        "程"
      ],
      [
        "已",
        "经"
      ],
      [
        "材",
        "料"
      ],
      [
        "品",
        "牌"
      ],
      [
        "这",
        "些"
      ],
      [
        "根",
        "据"
      ],
      [
        "应",
        "用"
      ],
      [
        "是",
        "一"
      ],
      [
        "经",
        "济"
      ],
      [
        "时",
        "候"
      ],
      [
        "作",
        "为"
      ],
      [
        "用",
        "户"
      ],
      [
        "这",
        "样"
      ],
      [
        "投",
        "资"
      ],
      [
        "20",
        "2"
      ],
      [
        "客",
        "户"
      ],
      [
        "工",
        "程"
      ],
      [
        "大",
        "的"
      ],
      [
        "其",
        "他"
      ],
      [
        "能",
        "够"
      ],
      [
        "治",
        "疗"
      ],
      [
        "中",
        "心"
      ],
      [
        "部",
        "分"
      ],
      [
        "教",
        "育"
      ],
      [
        "目",
        "前"
      ],
      [
        "出",
        "现"
      ],
      [
        "e",
        "r"
      ],
      [
        "标",
        "准"
      ],
      [
        "的",
        "人"
      ],
      [
        "学",
        "生"
      ],
      [
        "平",
        "台"
      ],
      [
        "也",
        "是"
      ],
      [
        "产",
        "业"
      ],
      [
        "实",
        "现"
      ],
      [
        "成",
        "为"
      ],
      [
        "但",
        "是"
      ],
      [
        "内",
        "容"
      ],
      [
        "一",
        "定"
      ],
      [
        "提",
        "高"
      ],
      [
        "方",
        "法"
      ],
      [
        "不",
        "是"
      ],
      [
        "世",
        "界"
      ],
      [
        "开",
        "始"
      ],
      [
        "社",
        "会"
      ],
      [
        "网",
        "站"
      ],
      [
        "的",
        "一"
      ],
      [
        "i",
        "n"
      ],
      [
        "采",
        "用"
      ],
      [
        "现",
        "在"
      ],
      [
        "功",
        "能"
      ],
      [
        "了",
        "解"
      ],
      [
        "控",
        "制"
      ],
      [
        "比",
        "较"
      ],
      [
        "需",
        "求"
      ],
      [
        "n",
        "1"
      ],
      [
        "因",
        "此"
      ],
      [
        "包",
        "括"
      ],
      [
        "自己",
        "的"
      ],
      [
        "消",
        "费"
      ],
      [
        "一",
        "般"
      ],
      [
        "还",
        "是"
      ],
      [
        "的",
        "是"
      ],
      [
        "科",
        "技"
      ],
      [
        "都",
        "是"
      ],
      [
        "第",
        "一"
      ],
      [
        "个",
        "人"
      ],
      [
        "癜",
        "风"
      ],
      [
        "白",
        "癜风"
      ],
      [
        "所",
        "有"
      ],
      [
        "学",
        "习"
      ],
      [
        "创",
        "新"
      ],
      [
        "患",
        "者"
      ],
      [
        "提",
        "升"
      ],
      [
        "合",
        "作"
      ],
      [
        "或",
        "者"
      ],
      [
        "国",
        "际"
      ],
      [
        "表",
        "示"
      ],
      [
        "智",
        "能"
      ],
      [
        "价",
        "格"
      ],
      [
        "由",
        "于"
      ],
      [
        "文",
        "化"
      ],
      [
        "上",
        "的"
      ],
      [
        "组",
        "织"
      ],
      [
        "孩",
        "子"
      ],
      [
        "到",
        "了"
      ],
      [
        "结",
        "构"
      ],
      [
        "不",
        "能"
      ],
      [
        "有",
        "限"
      ],
      [
        "不",
        "会"
      ],
      [
        "这",
        "种"
      ],
      [
        "解",
        "决"
      ],
      [
        "1",
        "2"
      ],
      [
        "n",
        "2"
      ],
      [
        "单",
        "位"
      ],
      [
        "用",
        "于"
      ],
      [
        "健",
        "康"
      ],
      [
        "机",
        "构"
      ],
      [
        "n",
        "在"
      ],
      [
        "分",
        "析"
      ],
      [
        "a",
        "n"
      ],
      [
        "人",
        "的"
      ],
      [
        "获",
        "得"
      ],
      [
        "完",
        "成"
      ],
      [
        "开",
        "发"
      ],
      [
        "那",
        "么"
      ],
      [
        "作",
        "用"
      ],
      [
        "部",
        "门"
      ],
      [
        "城",
        "市"
      ],
      [
        "3",
        "0"
      ],
      [
        "发",
        "生"
      ],
      [
        "网",
        "络"
      ],
      [
        "基",
        "础"
      ],
      [
        "资",
        "源"
      ],
      [
        "必",
        "须"
      ],
      [
        "效",
        "果"
      ],
      [
        "如",
        "何"
      ],
      [
        "业",
        "务"
      ],
      [
        "不",
        "断"
      ],
      [
        "更",
        "多"
      ],
      [
        "的",
        "时候"
      ],
      [
        "各",
        "种"
      ],
      [
        "建",
        "筑"
      ],
      [
        "领",
        "域"
      ],
      [
        "政",
        "府"
      ],
      [
        "注",
        "意"
      ],
      [
        "为",
        "了"
      ],
      [
        "有",
        "效"
      ],
      [
        "发",
        "现"
      ],
      [
        "产",
        "生"
      ],
      [
        "而",
        "且"
      ],
      [
        "工",
        "业"
      ],
      [
        "之",
        "后"
      ],
      [
        "大",
        "学"
      ],
      [
        "5",
        "0"
      ],
      [
        "知",
        "道"
      ],
      [
        "来",
        "的"
      ],
      [
        "利",
        "用"
      ],
      [
        "1",
        "1"
      ],
      [
        "方",
        "案"
      ],
      [
        "o",
        "n"
      ],
      [
        "其",
        "中"
      ],
      [
        "以",
        "上"
      ],
      [
        "学",
        "校"
      ],
      [
        "规",
        "定"
      ],
      [
        "增",
        "加"
      ],
      [
        "保",
        "护"
      ],
      [
        "医",
        "院"
      ],
      [
        "n",
        "3"
      ],
      [
        "一",
        "步"
      ],
      [
        "支",
        "持"
      ],
      [
        "操",
        "作"
      ],
      [
        "直",
        "接"
      ],
      [
        "集",
        "团"
      ],
      [
        "有限",
        "公司"
      ],
      [
        "还",
        "有"
      ],
      [
        "任",
        "何"
      ],
      [
        "开",
        "展"
      ],
      [
        "希",
        "望"
      ],
      [
        "自",
        "动"
      ],
      [
        "国",
        "内"
      ],
      [
        "制",
        "造"
      ],
      [
        "帮",
        "助"
      ],
      [
        "来",
        "说"
      ],
      [
        "申",
        "请"
      ],
      [
        "政",
        "策"
      ],
      [
        "空",
        "间"
      ],
      [
        "汽",
        "车"
      ],
      [
        "游",
        "戏"
      ],
      [
        "1",
        "9"
      ],
      [
        "新",
        "的"
      ],
      [
        "20",
        "0"
      ],
      [
        "电",
        "子"
      ],
      [
        "性",
        "能"
      ],
      [
        "安",
        "装"
      ],
      [
        "一",
        "起"
      ],
      [
        "达",
        "到"
      ],
      [
        "检",
        "测"
      ],
      [
        "这",
        "一"
      ],
      [
        "基",
        "本"
      ],
      [
        "应",
        "该"
      ],
      [
        "持",
        "续"
      ],
      [
        "特",
        "别"
      ],
      [
        "导",
        "致"
      ],
      [
        "计",
        "划"
      ],
      [
        "存",
        "在"
      ],
      [
        "成",
        "本"
      ],
      [
        "1",
        "00"
      ],
      [
        "容",
        "易"
      ],
      [
        "1",
        "5"
      ],
      [
        "经",
        "营"
      ],
      [
        "水",
        "平"
      ],
      [
        "美",
        "国"
      ],
      [
        "模",
        "式"
      ],
      [
        "销",
        "售"
      ],
      [
        "进",
        "入"
      ],
      [
        "科",
        "学"
      ],
      [
        "传",
        "统"
      ],
      [
        "随",
        "着"
      ],
      [
        "介",
        "绍"
      ],
      [
        "北",
        "京"
      ],
      [
        "认",
        "为"
      ],
      [
        "过程",
        "中"
      ],
      [
        "不",
        "仅"
      ],
      [
        "实",
        "际"
      ],
      [
        "年",
        "的"
      ],
      [
        "知",
        "识"
      ],
      [
        "第",
        "二"
      ],
      [
        "条",
        "件"
      ],
      [
        "比",
        "赛"
      ],
      [
        "是",
        "否"
      ],
      [
        "有",
        "关"
      ],
      [
        "目",
        "标"
      ],
      [
        "检",
        "查"
      ],
      [
        "系",
        "列"
      ],
      [
        "交",
        "易"
      ],
      [
        "积",
        "极"
      ],
      [
        "之",
        "间"
      ],
      [
        "虽",
        "然"
      ],
      [
        "显",
        "示"
      ],
      [
        "了",
        "一"
      ],
      [
        "造",
        "成"
      ],
      [
        "更",
        "加"
      ],
      [
        "加",
        "工"
      ],
      [
        "增",
        "长"
      ],
      [
        "负",
        "责"
      ],
      [
        "保",
        "证"
      ],
      [
        "我们",
        "的"
      ],
      [
        "未",
        "来"
      ],
      [
        "价",
        "值"
      ],
      [
        "数",
        "字"
      ],
      [
        "全",
        "国"
      ],
      [
        "自",
        "然"
      ],
      [
        "稳",
        "定"
      ],
      [
        "疫",
        "情"
      ],
      [
        "形",
        "成"
      ],
      [
        "全",
        "球"
      ],
      [
        "地",
        "区"
      ],
      [
        "温",
        "度"
      ],
      [
        "关",
        "系"
      ],
      [
        "拥",
        "有"
      ],
      [
        "这",
        "是"
      ],
      [
        "人",
        "民"
      ],
      [
        "发",
        "布"
      ],
      [
        "结",
        "合"
      ],
      [
        "成",
        "功"
      ],
      [
        "代",
        "表"
      ],
      [
        "e",
        "n"
      ],
      [
        "综",
        "合"
      ],
      [
        "原",
        "因"
      ],
      [
        "结",
        "果"
      ],
      [
        "a",
        "r"
      ],
      [
        "范",
        "围"
      ],
      [
        "保",
        "持"
      ],
      [
        "团",
        "队"
      ],
      [
        "压",
        "力"
      ],
      [
        "进",
        "一步"
      ],
      [
        "责",
        "任"
      ],
      [
        "简",
        "单"
      ],
      [
        "地",
        "方"
      ],
      [
        "施",
        "工"
      ],
      [
        "关",
        "于"
      ],
      [
        "不",
        "要"
      ],
      [
        "超",
        "过"
      ],
      [
        "o",
        "r"
      ],
      [
        "202",
        "2"
      ],
      [
        "无",
        "法"
      ],
      [
        "风",
        "险"
      ],
      [
        "你",
        "的"
      ],
      [
        "及",
        "时"
      ],
      [
        "实",
        "施"
      ],
      [
        "许",
        "多"
      ],
      [
        "优",
        "势"
      ],
      [
        "培",
        "训"
      ],
      [
        "以",
        "下"
      ],
      [
        "t",
        "h"
      ],
      [
        "今",
        "年"
      ],
      [
        "然",
        "后"
      ],
      [
        "现",
        "场"
      ],
      [
        "关",
        "键"
      ],
      [
        "最",
        "后"
      ],
      [
        "朋",
        "友"
      ],
      [
        "体",
        "系"
      ],
      [
        "我",
        "国"
      ],
      [
        "一",
        "样"
      ],
      [
        "建",
        "立"
      ],
      [
        "重",
        "点"
      ],
      [
        "减",
        "少"
      ],
      [
        "不",
        "过"
      ],
      [
        "怎",
        "么"
      ],
      [
        "一",
        "直"
      ],
      [
        "并",
        "且"
      ],
      [
        "经",
        "验"
      ],
      [
        "研",
        "发"
      ],
      [
        "月",
        "2"
      ],
      [
        "参",
        "与"
      ],
      [
        "能",
        "源"
      ],
      [
        "按",
        "照"
      ],
      [
        "变",
        "化"
      ],
      [
        "工",
        "艺"
      ],
      [
        "其",
        "实"
      ],
      [
        "运",
        "动"
      ],
      [
        "艺",
        "术"
      ],
      [
        "1",
        "8"
      ],
      [
        "运",
        "行"
      ],
      [
        "体",
        "验"
      ],
      [
        "快",
        "速"
      ],
      [
        "机",
        "械"
      ],
      [
        "性",
        "的"
      ],
      [
        "一",
        "种"
      ],
      [
        "之",
        "一"
      ],
      [
        "消费",
        "者"
      ],
      [
        "继",
        "续"
      ],
      [
        "起",
        "来"
      ],
      [
        "联",
        "网"
      ],
      [
        "n",
        "4"
      ],
      [
        "甚",
        "至"
      ],
      [
        "满",
        "足"
      ],
      [
        "基",
        "金"
      ],
      [
        "建",
        "议"
      ],
      [
        "上",
        "海"
      ],
      [
        "才",
        "能"
      ],
      [
        "一",
        "次"
      ],
      [
        "只",
        "有"
      ],
      [
        "保",
        "障"
      ],
      [
        "参",
        "加"
      ],
      [
        "经",
        "过"
      ],
      [
        "计",
        "算"
      ],
      [
        "体",
        "的"
      ],
      [
        "降",
        "低"
      ],
      [
        "表",
        "面"
      ],
      [
        "看",
        "到"
      ],
      [
        "人",
        "们"
      ],
      [
        "不同",
        "的"
      ],
      [
        "金",
        "融"
      ],
      [
        "确",
        "保"
      ],
      [
        "全",
        "面"
      ],
      [
        "员",
        "工"
      ],
      [
        "两",
        "个"
      ],
      [
        "会",
        "议"
      ],
      [
        "食",
        "品"
      ],
      [
        "得",
        "到"
      ],
      [
        "加",
        "强"
      ],
      [
        "1",
        "年"
      ],
      [
        "1",
        "6"
      ],
      [
        "精",
        "神"
      ],
      [
        "状",
        "态"
      ],
      [
        "表",
        "现"
      ],
      [
        "l",
        "e"
      ],
      [
        "规",
        "划"
      ],
      [
        "分",
        "钟"
      ],
      [
        "提",
        "出"
      ],
      [
        "除",
        "了"
      ],
      [
        "教",
        "学"
      ],
      [
        "报",
        "告"
      ],
      [
        "避",
        "免"
      ],
      [
        "第",
        "三"
      ],
      [
        "行",
        "为"
      ],
      [
        "a",
        "t"
      ],
      [
        "考",
        "虑"
      ],
      [
        "关",
        "注"
      ],
      [
        "学",
        "院"
      ],
      [
        "金",
        "属"
      ],
      [
        "专",
        "家"
      ],
      [
        "医",
        "疗"
      ],
      [
        "阶",
        "段"
      ],
      [
        "做",
        "好"
      ],
      [
        "调",
        "整"
      ],
      [
        "正",
        "在"
      ],
      [
        "软",
        "件"
      ],
      [
        "的",
        "大"
      ],
      [
        "资",
        "金"
      ],
      [
        "制",
        "作"
      ],
      [
        "这",
        "里"
      ],
      [
        "规",
        "模"
      ],
      [
        "竞",
        "争"
      ],
      [
        "效",
        "率"
      ],
      [
        "银",
        "行"
      ],
      [
        "带",
        "来"
      ],
      [
        "执",
        "行"
      ],
      [
        "推",
        "动"
      ],
      [
        "是",
        "在"
      ],
      [
        "期",
        "间"
      ],
      [
        "测",
        "试"
      ],
      [
        "针",
        "对"
      ],
      [
        "之",
        "前"
      ],
      [
        "皮",
        "肤"
      ],
      [
        "就",
        "会"
      ],
      [
        "生",
        "态"
      ],
      [
        "交",
        "流"
      ],
      [
        "完",
        "全"
      ],
      [
        "喜",
        "欢"
      ],
      [
        "球",
        "队"
      ],
      [
        "一",
        "下"
      ],
      [
        "从",
        "而"
      ],
      [
        "区",
        "域"
      ],
      [
        "程",
        "序"
      ],
      [
        "记",
        "者"
      ],
      [
        "丰",
        "富"
      ],
      [
        "身",
        "体"
      ],
      [
        "特",
        "点"
      ],
      [
        "量",
        "的"
      ],
      [
        "正",
        "常"
      ],
      [
        "措",
        "施"
      ],
      [
        "取",
        "得"
      ],
      [
        "核",
        "心"
      ],
      [
        "旅",
        "游"
      ],
      [
        "符",
        "合"
      ],
      [
        "环",
        "保"
      ],
      [
        "老",
        "师"
      ],
      [
        "的",
        "问题"
      ],
      [
        "充",
        "分"
      ],
      [
        "的",
        "情况"
      ],
      [
        "因",
        "素"
      ],
      [
        "机",
        "会"
      ],
      [
        "1",
        "3"
      ],
      [
        "法",
        "律"
      ],
      [
        "亿",
        "元"
      ],
      [
        "有",
        "的"
      ],
      [
        "空",
        "气"
      ],
      [
        "受",
        "到"
      ],
      [
        "交",
        "通"
      ],
      [
        "1",
        "4"
      ],
      [
        "小",
        "时"
      ],
      [
        "a",
        "l"
      ],
      [
        "职",
        "业"
      ],
      [
        "高",
        "的"
      ],
      [
        "今",
        "天"
      ],
      [
        "万",
        "元"
      ],
      [
        "e",
        "s"
      ],
      [
        "打",
        "造"
      ],
      [
        "污",
        "染"
      ],
      [
        "文",
        "件"
      ],
      [
        "时",
        "代"
      ],
      [
        "化",
        "的"
      ]
    ]
  }
}