{
  "version": "1.0",
  "truncation": null,
  "padding": null,
  "added_tokens": [
    {
      "id": 0,
      "content": "[PAD]",
      "single_word": false,
      "lstrip": false,
      "rstrip": false,
      "normalized": false,
      "special": true
    },
    {
      "id": 1,
      "content": "[UNK]",
      "single_word": false,
      "lstrip": false,
      "rstrip": false,
      "normalized": false,
      "special": true
    },
    {
      "id": 2,
      "content": "[END]",
      "single_word": false,
      "lstrip": false,
      "rstrip": false,
      "normalized": false,
      "special": true
    },
    {
      "id": 3,
      "content": "[START]",
      "single_word": false,
      "lstrip": false,
      "rstrip": false,
      "normalized": false,
      "special": true
    }
  ],
  "normalizer": {
    "type": "NFKD"
  },
  "pre_tokenizer": {
    "type": "BertPreTokenizer"
  },
  "post_processor": null,
  "decoder": null,
  "model": {
    "type": "BPE",
    "dropout": null,
    "unk_token": "[UNK]",
    "continuing_subword_prefix": null,
    "end_of_word_suffix": null,
    "fuse_unk": false,
    "byte_fallback": false,
    "ignore_merges": false,
    "vocab": {
      "[PAD]": 0,
      "[UNK]": 1,
      "[END]": 2,
      "[START]": 3,
      "!": 4,
      "\"": 5,
      "#": 6,
      "$": 7,
      "%": 8,
      "&": 9,
      "'": 10,
      "(": 11,
      ")": 12,
      "*": 13,
      "+": 14,
      ",": 15,
      "-": 16,
      ".": 17,
      "/": 18,
      "0": 19,
      "1": 20,
      "2": 21,
      "3": 22,
      "4": 23,
      "5": 24,
      "6": 25,
      "7": 26,
      "8": 27,
      "9": 28,
      ":": 29,
      ";": 30,
      "<": 31,
      "=": 32,
      ">": 33,
      "?": 34,
      "@": 35,
      "A": 36,
      "B": 37,
      "C": 38,
      "D": 39,
      "E": 40,
      "F": 41,
      "G": 42,
      "H": 43,
      "I": 44,
      "J": 45,
      "K": 46,
      "L": 47,
      "M": 48,
      "N": 49,
      "O": 50,
      "P": 51,
      "Q": 52,
      "R": 53,
      "S": 54,
      "T": 55,
      "U": 56,
      "V": 57,
      "W": 58,
      "X": 59,
      "Y": 60,
      "Z": 61,
      "[": 62,
      "\\": 63,
      "]": 64,
      "^": 65,
      "_": 66,
      "`": 67,
      "a": 68,
      "b": 69,
      "c": 70,
      "d": 71,
      "e": 72,
      "f": 73,
      "g": 74,
      "h": 75,
      "i": 76,
      "j": 77,
      "k": 78,
      "l": 79,
      "m": 80,
      "n": 81,
      "o": 82,
      "p": 83,
      "q": 84,
      "r": 85,
      "s": 86,
      "t": 87,
      "u": 88,
      "v": 89,
      "w": 90,
      "x": 91,
      "y": 92,
      "z": 93,
      "{": 94,
      "|": 95,
      "}": 96,
      "~": 97,
      "£": 98,
      "¥": 99,
      "©": 100,
      "­": 101,
      "®": 102,
      "°": 103,
      "±": 104,
      "·": 105,
      "×": 106,
      "Ø": 107,
      "÷": 108,
      "̀": 109,
      "́": 110,
      "̂": 111,
      "̃": 112,
      "̄": 113,
      "̆": 114,
      "̇": 115,
      "̈": 116,
      "̊": 117,
      "̌": 118,
      "̧": 119,
      "Δ": 120,
      "Φ": 121,
      "Ω": 122,
      "α": 123,
      "β": 124,
      "γ": 125,
      "δ": 126,
      "ε": 127,
      "θ": 128,
      "λ": 129,
      "μ": 130,
      "π": 131,
      "ρ": 132,
      "σ": 133,
      "φ": 134,
      "ω": 135,
      "Ф": 136,
      "а": 137,
      "в": 138,
      "е": 139,
      "и": 140,
      "к": 141,
      "л": 142,
      "н": 143,
      "о": 144,
      "р": 145,
      "с": 146,
      "т": 147,
      "у": 148,
      "ф": 149,
      "ا": 150,
      "ب": 151,
      "ر": 152,
      "ل": 153,
      "ي": 154,
      "َ": 155,
      "ۖ": 156,
      "ۣ": 157,
      "ิ": 158,
      "ᄀ": 159,
      "ᄂ": 160,
      "ᄃ": 161,
      "ᄅ": 162,
      "ᄆ": 163,
      "ᄇ": 164,
      "ᄉ": 165,
      "ᄋ": 166,
      "ᄌ": 167,
      "ᄒ": 168,
      "ᅠ": 169,
      "ᅡ": 170,
      "ᅢ": 171,
      "ᅥ": 172,
      "ᅦ": 173,
      "ᅧ": 174,
      "ᅩ": 175,
      "ᅮ": 176,
      "ᅳ": 177,
      "ᅵ": 178,
      "ᆨ": 179,
      "ᆫ": 180,
      "ᆯ": 181,
      "ᆷ": 182,
      "ᆼ": 183,
      "ា": 184,
      "្": 185,
      "​": 186,
      "‌": 187,
      "‍": 188,
      "‎": 189,
      "–": 190,
      "—": 191,
      "―": 192,
      "‘": 193,
      "’": 194,
      "“": 195,
      "”": 196,
      "•": 197,
      "‧": 198,
      "‰": 199,
      "′": 200,
      "※": 201,
      "⁄": 202,
      "⃣": 203,
      "←": 204,
      "↑": 205,
      "→": 206,
      "↓": 207,
      "∕": 208,
      "√": 209,
      "∞": 210,
      "∩": 211,
      "∶": 212,
      "≤": 213,
      "≥": 214,
      "⊙": 215,
      "⋯": 216,
      "─": 217,
      "│": 218,
      "╱": 219,
      "█": 220,
      "▍": 221,
      "■": 222,
      "▪": 223,
      "▲": 224,
      "△": 225,
      "▶": 226,
      "►": 227,
      "▼": 228,
      "◆": 229,
      "◇": 230,
      "○": 231,
      "◎": 232,
      "●": 233,
      "★": 234,
      "☆": 235,
      "♦": 236,
      "✔": 237,
      "❤": 238,
      "➢": 239,
      "⠀": 240,
      "、": 241,
      "。": 242,
      "々": 243,
      "〇": 244,
      "〈": 245,
      "〉": 246,
      "《": 247,
      "》": 248,
      "【": 249,
      "】": 250,
      "〓": 251,
      "〔": 252,
      "〕": 253,
      "〖": 254,
      "〗": 255,
      "〜": 256,
      "〞": 257,
      "あ": 258,
      "い": 259,
      "う": 260,
      "え": 261,
      "お": 262,
      "か": 263,
      "き": 264,
      "く": 265,
      "け": 266,
      "こ": 267,
      "さ": 268,
      "し": 269,
      "す": 270,
      "そ": 271,
      "た": 272,
      "ち": 273,
      "っ": 274,
      "つ": 275,
      "て": 276,
      "と": 277,
      "な": 278,
      "に": 279,
      "の": 280,
      "は": 281,
      "ひ": 282,
      "ふ": 283,
      "ほ": 284,
      "ま": 285,
      "み": 286,
      "め": 287,
      "も": 288,
      "や": 289,
      "よ": 290,
      "ら": 291,
      "り": 292,
      "る": 293,
      "れ": 294,
      "ろ": 295,
      "わ": 296,
      "を": 297,
      "ん": 298,
      "゙": 299,
      "゚": 300,
      "ア": 301,
      "ィ": 302,
      "イ": 303,
      "ウ": 304,
      "エ": 305,
      "オ": 306,
      "カ": 307,
      "キ": 308,
      "ク": 309,
      "ケ": 310,
      "コ": 311,
      "サ": 312,
      "シ": 313,
      "ス": 314,
      "タ": 315,
      "チ": 316,
      "ッ": 317,
      "テ": 318,
      "ト": 319,
      "ニ": 320,
      "ハ": 321,
      "ヒ": 322,
      "フ": 323,
      "ヘ": 324,
      "ホ": 325,
      "マ": 326,
      "ミ": 327,
      "ム": 328,
      "メ": 329,
      "ャ": 330,
      "ュ": 331,
      "ョ": 332,
      "ラ": 333,
      "リ": 334,
      "ル": 335,
      "レ": 336,
      "ロ": 337,
      "ン": 338,
      "・": 339,
      "ー": 340,
      "ㄧ": 341,
      "ㄨ": 342,
      "一": 343,
      "丁": 344,
      "七": 345,
      "万": 346,
      "丈": 347,
      "三": 348,
      "上": 349,
      "下": 350,
      "不": 351,
      "与": 352,
      "丐": 353,
      "丑": 354,
      "专": 355,
      "且": 356,
      "丕": 357,
      "世": 358,
      "丘": 359,
      "丙": 360,
      "业": 361,
      "丛": 362,
      "东": 363,
      "丝": 364,
      "丞": 365,
      "丢": 366,
      "两": 367,
      "严": 368,
      "丧": 369,
      "丨": 370,
      "个": 371,
      "丫": 372,
      "中": 373,
      "丰": 374,
      "串": 375,
      "临": 376,
      "丶": 377,
      "丸": 378,
      "丹": 379,
      "为": 380,
      "主": 381,
      "丼": 382,
      "丽": 383,
      "举": 384,
      "乃": 385,
      "久": 386,
      "么": 387,
      "义": 388,
      "之": 389,
      "乌": 390,
      "乍": 391,
      "乎": 392,
      "乏": 393,
      "乐": 394,
      "乒": 395,
      "乓": 396,
      "乔": 397,
      "乖": 398,
      "乘": 399,
      "乙": 400,
      "九": 401,
      "乞": 402,
      "也": 403,
      "习": 404,
      "乡": 405,
      "书": 406,
      "买": 407,
      "乱": 408,
      "乳": 409,
      "乾": 410,
      "了": 411,
      "予": 412,
      "争": 413,
      "事": 414,
      "二": 415,
      "于": 416,
      "亏": 417,
      "云": 418,
      "互": 419,
      "五": 420,
      "井": 421,
      "亘": 422,
      "亚": 423,
      "些": 424,
      "亟": 425,
      "亡": 426,
      "亢": 427,
      "交": 428,
      "亥": 429,
      "亦": 430,
      "产": 431,
      "亨": 432,
      "亩": 433,
      "享": 434,
      "京": 435,
      "亭": 436,
      "亮": 437,
      "亰": 438,
      "亲": 439,
      "亳": 440,
      "亵": 441,
      "人": 442,
      "亿": 443,
      "什": 444,
      "仁": 445,
      "仄": 446,
      "仅": 447,
      "仆": 448,
      "仇": 449,
      "今": 450,
      "介": 451,
      "仍": 452,
      "从": 453,
      "仑": 454,
      "仓": 455,
      "仔": 456,
      "仕": 457,
      "他": 458,
      "仗": 459,
      "付": 460,
      "仙": 461,
      "仞": 462,
      "仟": 463,
      "代": 464,
      "令": 465,
      "以": 466,
      "仨": 467,
      "仪": 468,
      "们": 469,
      "仰": 470,
      "仲": 471,
      "仳": 472,
      "件": 473,
      "价": 474,
      "任": 475,
      "份": 476,
      "仿": 477,
      "企": 478,
      "伉": 479,
      "伊": 480,
      "伍": 481,
      "伎": 482,
      "伏": 483,
      "伐": 484,
      "休": 485,
      "众": 486,
      "优": 487,
      "伙": 488,
      "会": 489,
      "伞": 490,
      "伟": 491,
      "传": 492,
      "伤": 493,
      "伦": 494,
      "伪": 495,
      "伫": 496,
      "伯": 497,
      "估": 498,
      "伴": 499,
      "伶": 500,
      "伸": 501,
      "伺": 502,
      "似": 503,
      "伽": 504,
      "但": 505,
      "位": 506,
      "低": 507,
      "住": 508,
      "佐": 509,
      "佑": 510,
      "体": 511,
      "何": 512,
      "佗": 513,
      "佘": 514,
      "余": 515,
      "佛": 516,
      "作": 517,
      "佝": 518,
      "佞": 519,
      "佟": 520,
      "你": 521,
      "佢": 522,
      "佣": 523,
      "佩": 524,
      "佬": 525,
      "佯": 526,
      "佰": 527,
      "佳": 528,
      "佼": 529,
      "使": 530,
      "侂": 531,
      "侃": 532,
      "侄": 533,
      "侈": 534,
      "例": 535,
      "侍": 536,
      "侏": 537,
      "侑": 538,
      "侗": 539,
      "供": 540,
      "依": 541,
      "侠": 542,
      "侣": 543,
      "侥": 544,
      "侦": 545,
      "侧": 546,
      "侨": 547,
      "侪": 548,
      "侬": 549,
      "侮": 550,
      "侯": 551,
      "侵": 552,
      "便": 553,
      "促": 554,
      "俄": 555,
      "俊": 556,
      "俏": 557,
      "俐": 558,
      "俑": 559,
      "俗": 560,
      "俘": 561,
      "保": 562,
      "俞": 563,
      "俟": 564,
      "信": 565,
      "俨": 566,
      "俩": 567,
      "俪": 568,
      "俭": 569,
      "修": 570,
      "俯": 571,
      "俱": 572,
      "俸": 573,
      "俺": 574,
      "俾": 575,
      "倍": 576,
      "倏": 577,
      "倒": 578,
      "倔": 579,
      "倘": 580,
      "候": 581,
      "倚": 582,
      "借": 583,
      "倡": 584,
      "倦": 585,
      "倩": 586,
      "倪": 587,
      "倭": 588,
      "债": 589,
      "值": 590,
      "倾": 591,
      "偃": 592,
      "假": 593,
      "偈": 594,
      "偌": 595,
      "偎": 596,
      "偏": 597,
      "偕": 598,
      "做": 599,
      "停": 600,
      "健": 601,
      "偶": 602,
      "偷": 603,
      "偻": 604,
      "偿": 605,
      "傀": 606,
      "傅": 607,
      "傍": 608,
      "傣": 609,
      "储": 610,
      "催": 611,
      "傲": 612,
      "傻": 613,
      "像": 614,
      "僖": 615,
      "僚": 616,
      "僧": 617,
      "僭": 618,
      "僵": 619,
      "僻": 620,
      "儋": 621,
      "儒": 622,
      "儡": 623,
      "儿": 624,
      "兀": 625,
      "允": 626,
      "元": 627,
      "兄": 628,
      "充": 629,
      "兆": 630,
      "先": 631,
      "光": 632,
      "克": 633,
      "免": 634,
      "兑": 635,
      "兔": 636,
      "兖": 637,
      "党": 638,
      "兜": 639,
      "兢": 640,
      "入": 641,
      "全": 642,
      "八": 643,
      "公": 644,
      "六": 645,
      "兮": 646,
      "兰": 647,
      "共": 648,
      "关": 649,
      "兴": 650,
      "兵": 651,
      "其": 652,
      "具": 653,
      "典": 654,
      "兹": 655,
      "养": 656,
      "兼": 657,
      "兽": 658,
      "冀": 659,
      "内": 660,
      "冇": 661,
      "冈": 662,
      "冉": 663,
      "册": 664,
      "再": 665,
      "冒": 666,
      "冕": 667,
      "冗": 668,
      "写": 669,
      "军": 670,
      "农": 671,
      "冠": 672,
      "冢": 673,
      "冤": 674,
      "冥": 675,
      "冬": 676,
      "冯": 677,
      "冰": 678,
      "冲": 679,
      "决": 680,
      "况": 681,
      "冶": 682,
      "冷": 683,
      "冻": 684,
      "冼": 685,
      "冽": 686,
      "净": 687,
      "凄": 688,
      "准": 689,
      "凇": 690,
      "凉": 691,
      "凋": 692,
      "凌": 693,
      "减": 694,
      "凑": 695,
      "凛": 696,
      "凝": 697,
      "几": 698,
      "凡": 699,
      "凤": 700,
      "凭": 701,
      "凯": 702,
      "凰": 703,
      "凳": 704,
      "凶": 705,
      "凸": 706,
      "凹": 707,
      "出": 708,
      "击": 709,
      "函": 710,
      "凿": 711,
      "刀": 712,
      "刁": 713,
      "刃": 714,
      "分": 715,
      "切": 716,
      "刈": 717,
      "刊": 718,
      "刍": 719,
      "刑": 720,
      "划": 721,
      "列": 722,
      "刘": 723,
      "则": 724,
      "刚": 725,
      "创": 726,
      "初": 727,
      "删": 728,
      "判": 729,
      "刨": 730,
      "利": 731,
      "别": 732,
      "刮": 733,
      "到": 734,
      "制": 735,
      "刷": 736,
      "券": 737,
      "刹": 738,
      "刺": 739,
      "刻": 740,
      "剁": 741,
      "剂": 742,
      "剃": 743,
      "削": 744,
      "剌": 745,
      "前": 746,
      "剐": 747,
      "剑": 748,
      "剔": 749,
      "剖": 750,
      "剥": 751,
      "剧": 752,
      "剩": 753,
      "剪": 754,
      "副": 755,
      "割": 756,
      "剽": 757,
      "剿": 758,
      "劈": 759,
      "力": 760,
      "劝": 761,
      "办": 762,
      "功": 763,
      "加": 764,
      "务": 765,
      "劣": 766,
      "动": 767,
      "助": 768,
      "努": 769,
      "劫": 770,
      "劭": 771,
      "励": 772,
      "劲": 773,
      "劳": 774,
      "劵": 775,
      "劾": 776,
      "势": 777,
      "勃": 778,
      "勇": 779,
      "勉": 780,
      "勋": 781,
      "勐": 782,
      "勒": 783,
      "勘": 784,
      "募": 785,
      "勠": 786,
      "勤": 787,
      "勺": 788,
      "勾": 789,
      "勿": 790,
      "匀": 791,
      "包": 792,
      "匆": 793,
      "匈": 794,
      "匍": 795,
      "匐": 796,
      "匕": 797,
      "化": 798,
      "北": 799,
      "匙": 800,
      "匝": 801,
      "匠": 802,
      "匡": 803,
      "匣": 804,
      "匪": 805,
      "匮": 806,
      "匹": 807,
      "区": 808,
      "医": 809,
      "匾": 810,
      "匿": 811,
      "十": 812,
      "千": 813,
      "升": 814,
      "午": 815,
      "卉": 816,
      "半": 817,
      "华": 818,
      "协": 819,
      "卑": 820,
      "卒": 821,
      "卓": 822,
      "单": 823,
      "卖": 824,
      "南": 825,
      "博": 826,
      "卜": 827,
      "卞": 828,
      "占": 829,
      "卡": 830,
      "卢": 831,
      "卤": 832,
      "卦": 833,
      "卧": 834,
      "卫": 835,
      "卯": 836,
      "印": 837,
      "危": 838,
      "即": 839,
      "却": 840,
      "卵": 841,
      "卷": 842,
      "卸": 843,
      "卿": 844,
      "厂": 845,
      "厄": 846,
      "厅": 847,
      "历": 848,
      "厉": 849,
      "压": 850,
      "厌": 851,
      "厕": 852,
      "厘": 853,
      "厚": 854,
      "厝": 855,
      "原": 856,
      "厢": 857,
      "厥": 858,
      "厦": 859,
      "厨": 860,
      "厩": 861,
      "厮": 862,
      "去": 863,
      "县": 864,
      "叁": 865,
      "参": 866,
      "又": 867,
      "叉": 868,
      "及": 869,
      "友": 870,
      "双": 871,
      "反": 872,
      "发": 873,
      "叔": 874,
      "取": 875,
      "受": 876,
      "变": 877,
      "叙": 878,
      "叛": 879,
      "叟": 880,
      "叠": 881,
      "口": 882,
      "古": 883,
      "句": 884,
      "另": 885,
      "叨": 886,
      "叩": 887,
      "只": 888,
      "叫": 889,
      "召": 890,
      "叭": 891,
      "叮": 892,
      "可": 893,
      "台": 894,
      "叱": 895,
      "史": 896,
      "右": 897,
      "叶": 898,
      "号": 899,
      "司": 900,
      "叹": 901,
      "叻": 902,
      "叼": 903,
      "叽": 904,
      "吁": 905,
      "吃": 906,
      "各": 907,
      "吆": 908,
      "合": 909,
      "吉": 910,
      "吊": 911,
      "吋": 912,
      "同": 913,
      "名": 914,
      "后": 915,
      "吏": 916,
      "吐": 917,
      "向": 918,
      "吓": 919,
      "吕": 920,
      "吗": 921,
      "君": 922,
      "吝": 923,
      "吞": 924,
      "吟": 925,
      "吠": 926,
      "吡": 927,
      "否": 928,
      "吧": 929,
      "吨": 930,
      "吩": 931,
      "含": 932,
      "听": 933,
      "吭": 934,
      "吮": 935,
      "启": 936,
      "吱": 937,
      "吲": 938,
      "吴": 939,
      "吵": 940,
      "吸": 941,
      "吹": 942,
      "吻": 943,
      "吼": 944,
      "吾": 945,
      "呀": 946,
      "呃": 947,
      "呆": 948,
      "呈": 949,
      "告": 950,
      "呋": 951,
      "呎": 952,
      "呐": 953,
      "呕": 954,
      "呗": 955,
      "员": 956,
      "呛": 957,
      "呜": 958,
      "呢": 959,
      "呤": 960,
      "呦": 961,
      "周": 962,
      "呱": 963,
      "味": 964,
      "呵": 965,
      "呷": 966,
      "呻": 967,
      "呼": 968,
      "命": 969,
      "咀": 970,
      "咁": 971,
      "咄": 972,
      "咆": 973,
      "咋": 974,
      "和": 975,
      "咎": 976,
      "咏": 977,
      "咐": 978,
      "咒": 979,
      "咔": 980,
      "咕": 981,
      "咖": 982,
      "咗": 983,
      "咙": 984,
      "咚": 985,
      "咛": 986,
      "咤": 987,
      "咦": 988,
      "咧": 989,
      "咨": 990,
      "咩": 991,
      "咪": 992,
      "咫": 993,
      "咬": 994,
      "咯": 995,
      "咱": 996,
      "咲": 997,
      "咳": 998,
      "咸": 999,
      "咽": 1000,
      "咿": 1001,
      "哀": 1002,
      "品": 1003,
      "哄": 1004,
      "哆": 1005,
      "哇": 1006,
      "哈": 1007,
      "哉": 1008,
      "哋": 1009,
      "响": 1010,
      "哎": 1011,
      "哑": 1012,
      "哒": 1013,
      "哔": 1014,
      "哗": 1015,
      "哚": 1016,
      "哟": 1017,
      "哥": 1018,
      "哦": 1019,
      "哨": 1020,
      "哩": 1021,
      "哪": 1022,
      "哭": 1023,
      "哮": 1024,
      "哲": 1025,
      "哺": 1026,
      "哼": 1027,
      "哽": 1028,
      "唆": 1029,
      "唇": 1030,
      "唉": 1031,
      "唏": 1032,
      "唐": 1033,
      "唑": 1034,
      "唔": 1035,
      "唠": 1036,
      "唤": 1037,
      "唧": 1038,
      "唬": 1039,
      "售": 1040,
      "唯": 1041,
      "唰": 1042,
      "唱": 1043,
      "唷": 1044,
      "唾": 1045,
      "啃": 1046,
      "啄": 1047,
      "商": 1048,
      "啉": 1049,
      "啊": 1050,
      "啖": 1051,
      "啜": 1052,
      "啡": 1053,
      "啤": 1054,
      "啥": 1055,
      "啦": 1056,
      "啧": 1057,
      "啪": 1058,
      "啫": 1059,
      "啬": 1060,
      "啮": 1061,
      "啰": 1062,
      "啲": 1063,
      "啶": 1064,
      "啸": 1065,
      "啼": 1066,
      "啾": 1067,
      "喀": 1068,
      "喂": 1069,
      "喃": 1070,
      "善": 1071,
      "喆": 1072,
      "喇": 1073,
      "喉": 1074,
      "喊": 1075,
      "喋": 1076,
      "喔": 1077,
      "喘": 1078,
      "喙": 1079,
      "喜": 1080,
      "喝": 1081,
      "喧": 1082,
      "喱": 1083,
      "喳": 1084,
      "喵": 1085,
      "喷": 1086,
      "喹": 1087,
      "喺": 1088,
      "喻": 1089,
      "喽": 1090,
      "嗅": 1091,
      "嗑": 1092,
      "嗒": 1093,
      "嗓": 1094,
      "嗔": 1095,
      "嗖": 1096,
      "嗜": 1097,
      "嗝": 1098,
      "嗟": 1099,
      "嗡": 1100,
      "嗣": 1101,
      "嗤": 1102,
      "嗦": 1103,
      "嗨": 1104,
      "嗪": 1105,
      "嗬": 1106,
      "嗯": 1107,
      "嗲": 1108,
      "嗷": 1109,
      "嗽": 1110,
      "嘀": 1111,
      "嘅": 1112,
      "嘈": 1113,
      "嘉": 1114,
      "嘌": 1115,
      "嘎": 1116,
      "嘘": 1117,
      "嘛": 1118,
      "嘟": 1119,
      "嘧": 1120,
      "嘱": 1121,
      "嘲": 1122,
      "嘴": 1123,
      "嘶": 1124,
      "嘹": 1125,
      "嘻": 1126,
      "嘿": 1127,
      "噌": 1128,
      "噎": 1129,
      "噗": 1130,
      "噜": 1131,
      "噢": 1132,
      "器": 1133,
      "噩": 1134,
      "噪": 1135,
      "噬": 1136,
      "噱": 1137,
      "噶": 1138,
      "噻": 1139,
      "噼": 1140,
      "嚎": 1141,
      "嚏": 1142,
      "嚓": 1143,
      "嚟": 1144,
      "嚣": 1145,
      "嚷": 1146,
      "嚼": 1147,
      "囊": 1148,
      "囗": 1149,
      "囚": 1150,
      "四": 1151,
      "回": 1152,
      "因": 1153,
      "囡": 1154,
      "团": 1155,
      "囤": 1156,
      "囧": 1157,
      "园": 1158,
      "困": 1159,
      "囱": 1160,
      "围": 1161,
      "固": 1162,
      "国": 1163,
      "图": 1164,
      "囿": 1165,
      "圃": 1166,
      "圆": 1167,
      "圈": 1168,
      "土": 1169,
      "圣": 1170,
      "在": 1171,
      "圩": 1172,
      "圭": 1173,
      "地": 1174,
      "圳": 1175,
      "场": 1176,
      "圾": 1177,
      "址": 1178,
      "坂": 1179,
      "均": 1180,
      "坊": 1181,
      "坍": 1182,
      "坎": 1183,
      "坏": 1184,
      "坐": 1185,
      "坑": 1186,
      "块": 1187,
      "坚": 1188,
      "坛": 1189,
      "坜": 1190,
      "坝": 1191,
      "坞": 1192,
      "坟": 1193,
      "坠": 1194,
      "坡": 1195,
      "坤": 1196,
      "坦": 1197,
      "坨": 1198,
      "坩": 1199,
      "坪": 1200,
      "坯": 1201,
      "坳": 1202,
      "坷": 1203,
      "垂": 1204,
      "垃": 1205,
      "垄": 1206,
      "垅": 1207,
      "型": 1208,
      "垒": 1209,
      "垚": 1210,
      "垛": 1211,
      "垠": 1212,
      "垢": 1213,
      "垣": 1214,
      "垦": 1215,
      "垩": 1216,
      "垫": 1217,
      "垭": 1218,
      "垮": 1219,
      "埂": 1220,
      "埃": 1221,
      "埋": 1222,
      "城": 1223,
      "埔": 1224,
      "埕": 1225,
      "埗": 1226,
      "埚": 1227,
      "域": 1228,
      "埠": 1229,
      "埭": 1230,
      "埸": 1231,
      "培": 1232,
      "基": 1233,
      "堂": 1234,
      "堆": 1235,
      "堇": 1236,
      "堑": 1237,
      "堕": 1238,
      "堡": 1239,
      "堤": 1240,
      "堪": 1241,
      "堰": 1242,
      "堵": 1243,
      "堿": 1244,
      "塌": 1245,
      "塑": 1246,
      "塔": 1247,
      "塘": 1248,
      "塞": 1249,
      "填": 1250,
      "塬": 1251,
      "境": 1252,
      "墅": 1253,
      "墒": 1254,
      "墓": 1255,
      "墙": 1256,
      "增": 1257,
      "墟": 1258,
      "墨": 1259,
      "墩": 1260,
      "壁": 1261,
      "壅": 1262,
      "壑": 1263,
      "壕": 1264,
      "壤": 1265,
      "士": 1266,
      "壬": 1267,
      "壮": 1268,
      "声": 1269,
      "壳": 1270,
      "壶": 1271,
      "壹": 1272,
      "处": 1273,
      "备": 1274,
      "复": 1275,
      "夏": 1276,
      "夔": 1277,
      "夕": 1278,
      "外": 1279,
      "夙": 1280,
      "多": 1281,
      "夜": 1282,
      "够": 1283,
      "大": 1284,
      "天": 1285,
      "太": 1286,
      "夫": 1287,
      "夭": 1288,
      "央": 1289,
      "夯": 1290,
      "失": 1291,
      "头": 1292,
      "夷": 1293,
      "夸": 1294,
      "夹": 1295,
      "夺": 1296,
      "奂": 1297,
      "奄": 1298,
      "奇": 1299,
      "奈": 1300,
      "奉": 1301,
      "奋": 1302,
      "奎": 1303,
      "奏": 1304,
      "契": 1305,
      "奔": 1306,
      "奕": 1307,
      "奖": 1308,
      "套": 1309,
      "奘": 1310,
      "奚": 1311,
      "奠": 1312,
      "奢": 1313,
      "奥": 1314,
      "女": 1315,
      "奴": 1316,
      "奶": 1317,
      "奸": 1318,
      "她": 1319,
      "好": 1320,
      "如": 1321,
      "妃": 1322,
      "妄": 1323,
      "妆": 1324,
      "妇": 1325,
      "妈": 1326,
      "妊": 1327,
      "妍": 1328,
      "妒": 1329,
      "妓": 1330,
      "妖": 1331,
      "妙": 1332,
      "妞": 1333,
      "妤": 1334,
      "妥": 1335,
      "妨": 1336,
      "妩": 1337,
      "妮": 1338,
      "妲": 1339,
      "妹": 1340,
      "妻": 1341,
      "妾": 1342,
      "姆": 1343,
      "姊": 1344,
      "始": 1345,
      "姐": 1346,
      "姑": 1347,
      "姓": 1348,
      "委": 1349,
      "姗": 1350,
      "姚": 1351,
      "姜": 1352,
      "姝": 1353,
      "姣": 1354,
      "姥": 1355,
      "姨": 1356,
      "姬": 1357,
      "姹": 1358,
      "姻": 1359,
      "姿": 1360,
      "威": 1361,
      "娃": 1362,
      "娄": 1363,
      "娅": 1364,
      "娆": 1365,
      "娇": 1366,
      "娑": 1367,
      "娓": 1368,
      "娘": 1369,
      "娜": 1370,
      "娟": 1371,
      "娠": 1372,
      "娣": 1373,
      "娥": 1374,
      "娩": 1375,
      "娱": 1376,
      "娲": 1377,
      "娴": 1378,
      "娶": 1379,
      "娼": 1380,
      "婀": 1381,
      "婆": 1382,
      "婉": 1383,
      "婕": 1384,
      "婚": 1385,
      "婢": 1386,
      "婧": 1387,
      "婪": 1388,
      "婴": 1389,
      "婵": 1390,
      "婶": 1391,
      "婷": 1392,
      "婺": 1393,
      "婿": 1394,
      "媒": 1395,
      "媚": 1396,
      "媛": 1397,
      "媲": 1398,
      "媳": 1399,
      "嫁": 1400,
      "嫂": 1401,
      "嫉": 1402,
      "嫌": 1403,
      "嫔": 1404,
      "嫖": 1405,
      "嫡": 1406,
      "嫣": 1407,
      "嫦": 1408,
      "嫩": 1409,
      "嬉": 1410,
      "嬛": 1411,
      "嬴": 1412,
      "嬷": 1413,
      "子": 1414,
      "孑": 1415,
      "孔": 1416,
      "孕": 1417,
      "字": 1418,
      "存": 1419,
      "孙": 1420,
      "孚": 1421,
      "孜": 1422,
      "孝": 1423,
      "孟": 1424,
      "孢": 1425,
      "季": 1426,
      "孤": 1427,
      "学": 1428,
      "孩": 1429,
      "孪": 1430,
      "孰": 1431,
      "孱": 1432,
      "孳": 1433,
      "孵": 1434,
      "孺": 1435,
      "孽": 1436,
      "宁": 1437,
      "它": 1438,
      "宅": 1439,
      "宇": 1440,
      "守": 1441,
      "安": 1442,
      "宋": 1443,
      "完": 1444,
      "宏": 1445,
      "宕": 1446,
      "宗": 1447,
      "官": 1448,
      "宙": 1449,
      "定": 1450,
      "宛": 1451,
      "宜": 1452,
      "宝": 1453,
      "实": 1454,
      "宠": 1455,
      "审": 1456,
      "客": 1457,
      "宣": 1458,
      "室": 1459,
      "宥": 1460,
      "宦": 1461,
      "宪": 1462,
      "宫": 1463,
      "宰": 1464,
      "害": 1465,
      "宴": 1466,
      "宵": 1467,
      "家": 1468,
      "宸": 1469,
      "容": 1470,
      "宽": 1471,
      "宾": 1472,
      "宿": 1473,
      "寂": 1474,
      "寄": 1475,
      "寅": 1476,
      "密": 1477,
      "寇": 1478,
      "富": 1479,
      "寐": 1480,
      "寒": 1481,
      "寓": 1482,
      "寝": 1483,
      "寞": 1484,
      "察": 1485,
      "寡": 1486,
      "寥": 1487,
      "寨": 1488,
      "寮": 1489,
      "寰": 1490,
      "寸": 1491,
      "对": 1492,
      "寺": 1493,
      "寻": 1494,
      "导": 1495,
      "寿": 1496,
      "封": 1497,
      "射": 1498,
      "将": 1499,
      "尉": 1500,
      "尊": 1501,
      "小": 1502,
      "少": 1503,
      "尔": 1504,
      "尕": 1505,
      "尖": 1506,
      "尘": 1507,
      "尚": 1508,
      "尝": 1509,
      "尤": 1510,
      "尧": 1511,
      "尬": 1512,
      "就": 1513,
      "尴": 1514,
      "尸": 1515,
      "尹": 1516,
      "尺": 1517,
      "尼": 1518,
      "尽": 1519,
      "尾": 1520,
      "尿": 1521,
      "局": 1522,
      "屁": 1523,
      "层": 1524,
      "居": 1525,
      "屈": 1526,
      "屉": 1527,
      "届": 1528,
      "屋": 1529,
      "屌": 1530,
      "屎": 1531,
      "屏": 1532,
      "屑": 1533,
      "展": 1534,
      "属": 1535,
      "屠": 1536,
      "屡": 1537,
      "履": 1538,
      "屯": 1539,
      "山": 1540,
      "屹": 1541,
      "屿": 1542,
      "岀": 1543,
      "岁": 1544,
      "岂": 1545,
      "岌": 1546,
      "岐": 1547,
      "岑": 1548,
      "岔": 1549,
      "岖": 1550,
      "岗": 1551,
      "岘": 1552,
      "岙": 1553,
      "岚": 1554,
      "岛": 1555,
      "岩": 1556,
      "岭": 1557,
      "岱": 1558,
      "岳": 1559,
      "岷": 1560,
      "岸": 1561,
      "峇": 1562,
      "峋": 1563,
      "峙": 1564,
      "峡": 1565,
      "峥": 1566,
      "峦": 1567,
      "峨": 1568,
      "峪": 1569,
      "峭": 1570,
      "峰": 1571,
      "峻": 1572,
      "崀": 1573,
      "崁": 1574,
      "崂": 1575,
      "崇": 1576,
      "崎": 1577,
      "崔": 1578,
      "崖": 1579,
      "崛": 1580,
      "崧": 1581,
      "崩": 1582,
      "崭": 1583,
      "崴": 1584,
      "崽": 1585,
      "嵇": 1586,
      "嵌": 1587,
      "嵘": 1588,
      "嵩": 1589,
      "嶂": 1590,
      "巅": 1591,
      "巍": 1592,
      "川": 1593,
      "州": 1594,
      "巡": 1595,
      "巢": 1596,
      "工": 1597,
      "左": 1598,
      "巧": 1599,
      "巨": 1600,
      "巩": 1601,
      "巫": 1602,
      "差": 1603,
      "己": 1604,
      "已": 1605,
      "巳": 1606,
      "巴": 1607,
      "巷": 1608,
      "巽": 1609,
      "巾": 1610,
      "巿": 1611,
      "币": 1612,
      "市": 1613,
      "布": 1614,
      "帅": 1615,
      "帆": 1616,
      "师": 1617,
      "希": 1618,
      "帐": 1619,
      "帕": 1620,
      "帖": 1621,
      "帘": 1622,
      "帚": 1623,
      "帛": 1624,
      "帜": 1625,
      "帝": 1626,
      "带": 1627,
      "帧": 1628,
      "席": 1629,
      "帮": 1630,
      "帷": 1631,
      "常": 1632,
      "帼": 1633,
      "帽": 1634,
      "幂": 1635,
      "幄": 1636,
      "幅": 1637,
      "幌": 1638,
      "幔": 1639,
      "幕": 1640,
      "幡": 1641,
      "幢": 1642,
      "干": 1643,
      "平": 1644,
      "年": 1645,
      "并": 1646,
      "幸": 1647,
      "幺": 1648,
      "幻": 1649,
      "幼": 1650,
      "幽": 1651,
      "广": 1652,
      "庄": 1653,
      "庆": 1654,
      "庇": 1655,
      "床": 1656,
      "序": 1657,
      "庐": 1658,
      "库": 1659,
      "应": 1660,
      "底": 1661,
      "庖": 1662,
      "店": 1663,
      "庙": 1664,
      "庚": 1665,
      "府": 1666,
      "庞": 1667,
      "废": 1668,
      "度": 1669,
      "座": 1670,
      "庭": 1671,
      "庵": 1672,
      "庶": 1673,
      "康": 1674,
      "庸": 1675,
      "庾": 1676,
      "廉": 1677,
      "廊": 1678,
      "廓": 1679,
      "廖": 1680,
      "延": 1681,
      "廷": 1682,
      "建": 1683,
      "廿": 1684,
      "开": 1685,
      "弁": 1686,
      "异": 1687,
      "弃": 1688,
      "弄": 1689,
      "弈": 1690,
      "弊": 1691,
      "弋": 1692,
      "式": 1693,
      "弑": 1694,
      "弓": 1695,
      "引": 1696,
      "弗": 1697,
      "弘": 1698,
      "弛": 1699,
      "弟": 1700,
      "张": 1701,
      "弥": 1702,
      "弦": 1703,
      "弧": 1704,
      "弩": 1705,
      "弭": 1706,
      "弯": 1707,
      "弱": 1708,
      "弹": 1709,
      "强": 1710,
      "弼": 1711,
      "归": 1712,
      "当": 1713,
      "录": 1714,
      "彗": 1715,
      "彝": 1716,
      "形": 1717,
      "彤": 1718,
      "彦": 1719,
      "彧": 1720,
      "彩": 1721,
      "彪": 1722,
      "彬": 1723,
      "彭": 1724,
      "彰": 1725,
      "影": 1726,
      "彷": 1727,
      "役": 1728,
      "彻": 1729,
      "彼": 1730,
      "往": 1731,
      "征": 1732,
      "径": 1733,
      "待": 1734,
      "徇": 1735,
      "很": 1736,
      "徉": 1737,
      "徊": 1738,
      "律": 1739,
      "徐": 1740,
      "徒": 1741,
      "徕": 1742,
      "得": 1743,
      "徘": 1744,
      "徙": 1745,
      "徜": 1746,
      "御": 1747,
      "徨": 1748,
      "循": 1749,
      "微": 1750,
      "德": 1751,
      "徽": 1752,
      "心": 1753,
      "必": 1754,
      "忆": 1755,
      "忌": 1756,
      "忍": 1757,
      "忏": 1758,
      "忐": 1759,
      "忑": 1760,
      "忒": 1761,
      "忖": 1762,
      "志": 1763,
      "忘": 1764,
      "忙": 1765,
      "忠": 1766,
      "忡": 1767,
      "忤": 1768,
      "忧": 1769,
      "快": 1770,
      "忱": 1771,
      "念": 1772,
      "忻": 1773,
      "忽": 1774,
      "忿": 1775,
      "怀": 1776,
      "态": 1777,
      "怂": 1778,
      "怅": 1779,
      "怎": 1780,
      "怒": 1781,
      "怔": 1782,
      "怕": 1783,
      "怖": 1784,
      "怙": 1785,
      "怜": 1786,
      "思": 1787,
      "怠": 1788,
      "怡": 1789,
      "急": 1790,
      "怦": 1791,
      "性": 1792,
      "怨": 1793,
      "怪": 1794,
      "怯": 1795,
      "怵": 1796,
      "总": 1797,
      "怼": 1798,
      "恂": 1799,
      "恃": 1800,
      "恋": 1801,
      "恍": 1802,
      "恐": 1803,
      "恒": 1804,
      "恕": 1805,
      "恙": 1806,
      "恚": 1807,
      "恢": 1808,
      "恣": 1809,
      "恤": 1810,
      "恨": 1811,
      "恩": 1812,
      "恪": 1813,
      "恬": 1814,
      "恭": 1815,
      "息": 1816,
      "恰": 1817,
      "恳": 1818,
      "恶": 1819,
      "恸": 1820,
      "恺": 1821,
      "恻": 1822,
      "恼": 1823,
      "悄": 1824,
      "悉": 1825,
      "悍": 1826,
      "悔": 1827,
      "悖": 1828,
      "悚": 1829,
      "悟": 1830,
      "悠": 1831,
      "患": 1832,
      "悦": 1833,
      "您": 1834,
      "悬": 1835,
      "悭": 1836,
      "悯": 1837,
      "悲": 1838,
      "悴": 1839,
      "悸": 1840,
      "悼": 1841,
      "情": 1842,
      "惆": 1843,
      "惇": 1844,
      "惊": 1845,
      "惋": 1846,
      "惑": 1847,
      "惕": 1848,
      "惘": 1849,
      "惚": 1850,
      "惜": 1851,
      "惟": 1852,
      "惠": 1853,
      "惦": 1854,
      "惧": 1855,
      "惨": 1856,
      "惩": 1857,
      "惫": 1858,
      "惬": 1859,
      "惭": 1860,
      "惮": 1861,
      "惯": 1862,
      "惰": 1863,
      "想": 1864,
      "惴": 1865,
      "惶": 1866,
      "惹": 1867,
      "惺": 1868,
      "愁": 1869,
      "愈": 1870,
      "愉": 1871,
      "意": 1872,
      "愕": 1873,
      "愚": 1874,
      "感": 1875,
      "愣": 1876,
      "愤": 1877,
      "愧": 1878,
      "愫": 1879,
      "愿": 1880,
      "慈": 1881,
      "慌": 1882,
      "慎": 1883,
      "慑": 1884,
      "慕": 1885,
      "慜": 1886,
      "慢": 1887,
      "慧": 1888,
      "慨": 1889,
      "慰": 1890,
      "慵": 1891,
      "慷": 1892,
      "憋": 1893,
      "憎": 1894,
      "憔": 1895,
      "憧": 1896,
      "憨": 1897,
      "憩": 1898,
      "憬": 1899,
      "憾": 1900,
      "懂": 1901,
      "懈": 1902,
      "懊": 1903,
      "懋": 1904,
      "懒": 1905,
      "懦": 1906,
      "懵": 1907,
      "懿": 1908,
      "戈": 1909,
      "戊": 1910,
      "戌": 1911,
      "戍": 1912,
      "戎": 1913,
      "戏": 1914,
      "成": 1915,
      "我": 1916,
      "戒": 1917,
      "或": 1918,
      "战": 1919,
      "戚": 1920,
      "戛": 1921,
      "戟": 1922,
      "截": 1923,
      "戬": 1924,
      "戮": 1925,
      "戳": 1926,
      "戴": 1927,
      "户": 1928,
      "戾": 1929,
      "房": 1930,
      "所": 1931,
      "扁": 1932,
      "扇": 1933,
      "扈": 1934,
      "扉": 1935,
      "手": 1936,
      "才": 1937,
      "扎": 1938,
      "扑": 1939,
      "扒": 1940,
      "打": 1941,
      "扔": 1942,
      "托": 1943,
      "扛": 1944,
      "扣": 1945,
      "扦": 1946,
      "执": 1947,
      "扩": 1948,
      "扪": 1949,
      "扫": 1950,
      "扬": 1951,
      "扭": 1952,
      "扮": 1953,
      "扯": 1954,
      "扰": 1955,
      "扳": 1956,
      "扶": 1957,
      "批": 1958,
      "扼": 1959,
      "找": 1960,
      "承": 1961,
      "技": 1962,
      "抄": 1963,
      "抉": 1964,
      "把": 1965,
      "抑": 1966,
      "抒": 1967,
      "抓": 1968,
      "投": 1969,
      "抖": 1970,
      "抗": 1971,
      "折": 1972,
      "抚": 1973,
      "抛": 1974,
      "抠": 1975,
      "抡": 1976,
      "抢": 1977,
      "护": 1978,
      "报": 1979,
      "抨": 1980,
      "披": 1981,
      "抬": 1982,
      "抱": 1983,
      "抵": 1984,
      "抹": 1985,
      "押": 1986,
      "抽": 1987,
      "抿": 1988,
      "拂": 1989,
      "拄": 1990,
      "担": 1991,
      "拆": 1992,
      "拇": 1993,
      "拈": 1994,
      "拉": 1995,
      "拌": 1996,
      "拍": 1997,
      "拎": 1998,
      "拐": 1999,
      "拒": 2000,
      "拓": 2001,
      "拔": 2002,
      "拖": 2003,
      "拗": 2004,
      "拘": 2005,
      "拙": 2006,
      "招": 2007,
      "拜": 2008,
      "拟": 2009,
      "拢": 2010,
      "拣": 2011,
      "拥": 2012,
      "拦": 2013,
      "拧": 2014,
      "拨": 2015,
      "择": 2016,
      "括": 2017,
      "拭": 2018,
      "拮": 2019,
      "拯": 2020,
      "拱": 2021,
      "拳": 2022,
      "拴": 2023,
      "拷": 2024,
      "拼": 2025,
      "拽": 2026,
      "拾": 2027,
      "拿": 2028,
      "持": 2029,
      "挂": 2030,
      "指": 2031,
      "按": 2032,
      "挎": 2033,
      "挑": 2034,
      "挖": 2035,
      "挚": 2036,
      "挛": 2037,
      "挝": 2038,
      "挞": 2039,
      "挟": 2040,
      "挠": 2041,
      "挡": 2042,
      "挣": 2043,
      "挤": 2044,
      "挥": 2045,
      "挨": 2046,
      "挪": 2047,
      "挫": 2048,
      "振": 2049,
      "挹": 2050,
      "挺": 2051,
      "挽": 2052,
      "捂": 2053,
      "捅": 2054,
      "捆": 2055,
      "捉": 2056,
      "捋": 2057,
      "捍": 2058,
      "捎": 2059,
      "捏": 2060,
      "捐": 2061,
      "捕": 2062,
      "捞": 2063,
      "损": 2064,
      "捡": 2065,
      "换": 2066,
      "捣": 2067,
      "捧": 2068,
      "据": 2069,
      "捶": 2070,
      "捷": 2071,
      "捺": 2072,
      "捻": 2073,
      "掀": 2074,
      "掂": 2075,
      "掇": 2076,
      "授": 2077,
      "掉": 2078,
      "掌": 2079,
      "掏": 2080,
      "掐": 2081,
      "排": 2082,
      "掖": 2083,
      "掘": 2084,
      "掠": 2085,
      "探": 2086,
      "掣": 2087,
      "接": 2088,
      "控": 2089,
      "推": 2090,
      "掩": 2091,
      "措": 2092,
      "掬": 2093,
      "掮": 2094,
      "掰": 2095,
      "掳": 2096,
      "掷": 2097,
      "掸": 2098,
      "掺": 2099,
      "揉": 2100,
      "揍": 2101,
      "描": 2102,
      "提": 2103,
      "插": 2104,
      "揖": 2105,
      "握": 2106,
      "揣": 2107,
      "揪": 2108,
      "揭": 2109,
      "援": 2110,
      "揽": 2111,
      "揾": 2112,
      "搀": 2113,
      "搁": 2114,
      "搂": 2115,
      "搅": 2116,
      "搏": 2117,
      "搐": 2118,
      "搓": 2119,
      "搔": 2120,
      "搜": 2121,
      "搞": 2122,
      "搪": 2123,
      "搬": 2124,
      "搭": 2125,
      "携": 2126,
      "搽": 2127,
      "摁": 2128,
      "摄": 2129,
      "摆": 2130,
      "摇": 2131,
      "摈": 2132,
      "摊": 2133,
      "摒": 2134,
      "摔": 2135,
      "摘": 2136,
      "摞": 2137,
      "摧": 2138,
      "摩": 2139,
      "摸": 2140,
      "摹": 2141,
      "撂": 2142,
      "撇": 2143,
      "撑": 2144,
      "撒": 2145,
      "撕": 2146,
      "撞": 2147,
      "撤": 2148,
      "撩": 2149,
      "撬": 2150,
      "播": 2151,
      "撮": 2152,
      "撰": 2153,
      "撵": 2154,
      "撷": 2155,
      "撸": 2156,
      "撼": 2157,
      "擀": 2158,
      "擂": 2159,
      "擅": 2160,
      "操": 2161,
      "擎": 2162,
      "擒": 2163,
      "擘": 2164,
      "擞": 2165,
      "擢": 2166,
      "擦": 2167,
      "攀": 2168,
      "攒": 2169,
      "攘": 2170,
      "攥": 2171,
      "攫": 2172,
      "支": 2173,
      "收": 2174,
      "攸": 2175,
      "改": 2176,
      "攻": 2177,
      "放": 2178,
      "政": 2179,
      "故": 2180,
      "效": 2181,
      "敌": 2182,
      "敏": 2183,
      "救": 2184,
      "敕": 2185,
      "敖": 2186,
      "教": 2187,
      "敛": 2188,
      "敝": 2189,
      "敞": 2190,
      "敢": 2191,
      "散": 2192,
      "敦": 2193,
      "敬": 2194,
      "数": 2195,
      "敲": 2196,
      "整": 2197,
      "敷": 2198,
      "文": 2199,
      "斋": 2200,
      "斌": 2201,
      "斐": 2202,
      "斑": 2203,
      "斓": 2204,
      "斗": 2205,
      "料": 2206,
      "斛": 2207,
      "斜": 2208,
      "斟": 2209,
      "斡": 2210,
      "斤": 2211,
      "斥": 2212,
      "斧": 2213,
      "斩": 2214,
      "斫": 2215,
      "断": 2216,
      "斯": 2217,
      "新": 2218,
      "方": 2219,
      "施": 2220,
      "旁": 2221,
      "旅": 2222,
      "旋": 2223,
      "旌": 2224,
      "旎": 2225,
      "族": 2226,
      "旖": 2227,
      "旗": 2228,
      "无": 2229,
      "既": 2230,
      "日": 2231,
      "旦": 2232,
      "旧": 2233,
      "旨": 2234,
      "早": 2235,
      "旬": 2236,
      "旭": 2237,
      "旮": 2238,
      "旱": 2239,
      "时": 2240,
      "旷": 2241,
      "旸": 2242,
      "旺": 2243,
      "旻": 2244,
      "昀": 2245,
      "昂": 2246,
      "昆": 2247,
      "昉": 2248,
      "昊": 2249,
      "昌": 2250,
      "明": 2251,
      "昏": 2252,
      "易": 2253,
      "昔": 2254,
      "昕": 2255,
      "昙": 2256,
      "星": 2257,
      "映": 2258,
      "春": 2259,
      "昧": 2260,
      "昨": 2261,
      "昭": 2262,
      "是": 2263,
      "昱": 2264,
      "昵": 2265,
      "昶": 2266,
      "昼": 2267,
      "显": 2268,
      "晁": 2269,
      "晃": 2270,
      "晋": 2271,
      "晌": 2272,
      "晏": 2273,
      "晒": 2274,
      "晓": 2275,
      "晔": 2276,
      "晕": 2277,
      "晖": 2278,
      "晗": 2279,
      "晚": 2280,
      "晞": 2281,
      "晟": 2282,
      "晤": 2283,
      "晦": 2284,
      "晨": 2285,
      "普": 2286,
      "景": 2287,
      "晰": 2288,
      "晴": 2289,
      "晶": 2290,
      "智": 2291,
      "晾": 2292,
      "暂": 2293,
      "暄": 2294,
      "暇": 2295,
      "暑": 2296,
      "暖": 2297,
      "暗": 2298,
      "暧": 2299,
      "暨": 2300,
      "暮": 2301,
      "暴": 2302,
      "暹": 2303,
      "曙": 2304,
      "曜": 2305,
      "曝": 2306,
      "曦": 2307,
      "曩": 2308,
      "曰": 2309,
      "曲": 2310,
      "曳": 2311,
      "更": 2312,
      "曹": 2313,
      "曼": 2314,
      "曾": 2315,
      "替": 2316,
      "最": 2317,
      "月": 2318,
      "有": 2319,
      "朊": 2320,
      "朋": 2321,
      "服": 2322,
      "朐": 2323,
      "朔": 2324,
      "朕": 2325,
      "朗": 2326,
      "望": 2327,
      "朝": 2328,
      "期": 2329,
      "朦": 2330,
      "木": 2331,
      "未": 2332,
      "末": 2333,
      "本": 2334,
      "札": 2335,
      "术": 2336,
      "朱": 2337,
      "朴": 2338,
      "朵": 2339,
      "机": 2340,
      "朽": 2341,
      "杀": 2342,
      "杂": 2343,
      "权": 2344,
      "杆": 2345,
      "杉": 2346,
      "李": 2347,
      "杏": 2348,
      "材": 2349,
      "村": 2350,
      "杖": 2351,
      "杜": 2352,
      "杞": 2353,
      "束": 2354,
      "杠": 2355,
      "条": 2356,
      "来": 2357,
      "杨": 2358,
      "杭": 2359,
      "杯": 2360,
      "杰": 2361,
      "杳": 2362,
      "杵": 2363,
      "杷": 2364,
      "松": 2365,
      "板": 2366,
      "极": 2367,
      "构": 2368,
      "枇": 2369,
      "枉": 2370,
      "枋": 2371,
      "析": 2372,
      "枕": 2373,
      "林": 2374,
      "枚": 2375,
      "果": 2376,
      "枝": 2377,
      "枢": 2378,
      "枣": 2379,
      "枪": 2380,
      "枫": 2381,
      "枭": 2382,
      "枯": 2383,
      "枳": 2384,
      "架": 2385,
      "枷": 2386,
      "枸": 2387,
      "柄": 2388,
      "柏": 2389,
      "某": 2390,
      "柑": 2391,
      "柒": 2392,
      "染": 2393,
      "柔": 2394,
      "柘": 2395,
      "柚": 2396,
      "柜": 2397,
      "柞": 2398,
      "柠": 2399,
      "柢": 2400,
      "查": 2401,
      "柬": 2402,
      "柯": 2403,
      "柱": 2404,
      "柳": 2405,
      "柴": 2406,
      "柿": 2407,
      "栀": 2408,
      "栅": 2409,
      "标": 2410,
      "栈": 2411,
      "栉": 2412,
      "栋": 2413,
      "栎": 2414,
      "栏": 2415,
      "树": 2416,
      "栓": 2417,
      "栖": 2418,
      "栗": 2419,
      "校": 2420,
      "栩": 2421,
      "株": 2422,
      "样": 2423,
      "核": 2424,
      "根": 2425,
      "格": 2426,
      "栽": 2427,
      "栾": 2428,
      "桀": 2429,
      "桁": 2430,
      "桂": 2431,
      "桃": 2432,
      "桅": 2433,
      "框": 2434,
      "案": 2435,
      "桉": 2436,
      "桌": 2437,
      "桎": 2438,
      "桐": 2439,
      "桑": 2440,
      "桓": 2441,
      "桔": 2442,
      "桡": 2443,
      "桢": 2444,
      "档": 2445,
      "桥": 2446,
      "桦": 2447,
      "桧": 2448,
      "桨": 2449,
      "桩": 2450,
      "桶": 2451,
      "梁": 2452,
      "梅": 2453,
      "梆": 2454,
      "梏": 2455,
      "梓": 2456,
      "梗": 2457,
      "梢": 2458,
      "梦": 2459,
      "梧": 2460,
      "梨": 2461,
      "梭": 2462,
      "梯": 2463,
      "械": 2464,
      "梳": 2465,
      "梵": 2466,
      "检": 2467,
      "棂": 2468,
      "棉": 2469,
      "棋": 2470,
      "棍": 2471,
      "棒": 2472,
      "棕": 2473,
      "棘": 2474,
      "棚": 2475,
      "棠": 2476,
      "棣": 2477,
      "森": 2478,
      "棱": 2479,
      "棵": 2480,
      "棺": 2481,
      "椅": 2482,
      "植": 2483,
      "椎": 2484,
      "椒": 2485,
      "椭": 2486,
      "椰": 2487,
      "椹": 2488,
      "椿": 2489,
      "楂": 2490,
      "楔": 2491,
      "楚": 2492,
      "楞": 2493,
      "楠": 2494,
      "楣": 2495,
      "楫": 2496,
      "楷": 2497,
      "楹": 2498,
      "楼": 2499,
      "概": 2500,
      "榄": 2501,
      "榆": 2502,
      "榈": 2503,
      "榉": 2504,
      "榔": 2505,
      "榕": 2506,
      "榛": 2507,
      "榜": 2508,
      "榨": 2509,
      "榫": 2510,
      "榭": 2511,
      "榴": 2512,
      "榷": 2513,
      "榻": 2514,
      "槃": 2515,
      "槌": 2516,
      "槐": 2517,
      "槛": 2518,
      "槟": 2519,
      "槽": 2520,
      "槿": 2521,
      "樊": 2522,
      "樟": 2523,
      "模": 2524,
      "横": 2525,
      "樱": 2526,
      "樵": 2527,
      "樽": 2528,
      "樾": 2529,
      "橄": 2530,
      "橇": 2531,
      "橘": 2532,
      "橙": 2533,
      "橡": 2534,
      "橱": 2535,
      "檀": 2536,
      "檐": 2537,
      "檩": 2538,
      "檬": 2539,
      "欠": 2540,
      "次": 2541,
      "欢": 2542,
      "欣": 2543,
      "欧": 2544,
      "欲": 2545,
      "欺": 2546,
      "款": 2547,
      "歆": 2548,
      "歇": 2549,
      "歉": 2550,
      "歌": 2551,
      "歙": 2552,
      "止": 2553,
      "正": 2554,
      "此": 2555,
      "步": 2556,
      "武": 2557,
      "歧": 2558,
      "歪": 2559,
      "歹": 2560,
      "死": 2561,
      "歼": 2562,
      "殃": 2563,
      "殆": 2564,
      "殇": 2565,
      "殉": 2566,
      "殊": 2567,
      "残": 2568,
      "殒": 2569,
      "殖": 2570,
      "殡": 2571,
      "殴": 2572,
      "段": 2573,
      "殷": 2574,
      "殿": 2575,
      "毁": 2576,
      "毂": 2577,
      "毅": 2578,
      "毋": 2579,
      "母": 2580,
      "每": 2581,
      "毒": 2582,
      "毓": 2583,
      "比": 2584,
      "毕": 2585,
      "毗": 2586,
      "毘": 2587,
      "毙": 2588,
      "毛": 2589,
      "毡": 2590,
      "毫": 2591,
      "毯": 2592,
      "毽": 2593,
      "氏": 2594,
      "氐": 2595,
      "民": 2596,
      "氓": 2597,
      "气": 2598,
      "氖": 2599,
      "気": 2600,
      "氙": 2601,
      "氛": 2602,
      "氟": 2603,
      "氡": 2604,
      "氢": 2605,
      "氤": 2606,
      "氦": 2607,
      "氧": 2608,
      "氨": 2609,
      "氩": 2610,
      "氪": 2611,
      "氮": 2612,
      "氯": 2613,
      "氰": 2614,
      "氲": 2615,
      "水": 2616,
      "永": 2617,
      "氿": 2618,
      "汀": 2619,
      "汁": 2620,
      "求": 2621,
      "汇": 2622,
      "汉": 2623,
      "汐": 2624,
      "汕": 2625,
      "汗": 2626,
      "汛": 2627,
      "汝": 2628,
      "汞": 2629,
      "江": 2630,
      "池": 2631,
      "污": 2632,
      "汤": 2633,
      "汩": 2634,
      "汪": 2635,
      "汰": 2636,
      "汲": 2637,
      "汴": 2638,
      "汶": 2639,
      "汹": 2640,
      "汽": 2641,
      "汾": 2642,
      "沁": 2643,
      "沂": 2644,
      "沃": 2645,
      "沅": 2646,
      "沈": 2647,
      "沉": 2648,
      "沌": 2649,
      "沏": 2650,
      "沐": 2651,
      "沓": 2652,
      "沙": 2653,
      "沛": 2654,
      "沟": 2655,
      "没": 2656,
      "沣": 2657,
      "沥": 2658,
      "沦": 2659,
      "沧": 2660,
      "沪": 2661,
      "沫": 2662,
      "沭": 2663,
      "沮": 2664,
      "沱": 2665,
      "河": 2666,
      "沸": 2667,
      "油": 2668,
      "治": 2669,
      "沼": 2670,
      "沽": 2671,
      "沾": 2672,
      "沿": 2673,
      "泄": 2674,
      "泉": 2675,
      "泊": 2676,
      "泌": 2677,
      "泓": 2678,
      "泔": 2679,
      "法": 2680,
      "泗": 2681,
      "泛": 2682,
      "泞": 2683,
      "泠": 2684,
      "泡": 2685,
      "波": 2686,
      "泣": 2687,
      "泥": 2688,
      "注": 2689,
      "泪": 2690,
      "泯": 2691,
      "泰": 2692,
      "泱": 2693,
      "泳": 2694,
      "泵": 2695,
      "泷": 2696,
      "泸": 2697,
      "泻": 2698,
      "泼": 2699,
      "泽": 2700,
      "泾": 2701,
      "洁": 2702,
      "洄": 2703,
      "洋": 2704,
      "洒": 2705,
      "洗": 2706,
      "洙": 2707,
      "洛": 2708,
      "洞": 2709,
      "津": 2710,
      "洪": 2711,
      "洮": 2712,
      "洱": 2713,
      "洲": 2714,
      "洸": 2715,
      "活": 2716,
      "洼": 2717,
      "洽": 2718,
      "派": 2719,
      "流": 2720,
      "浃": 2721,
      "浅": 2722,
      "浆": 2723,
      "浇": 2724,
      "浉": 2725,
      "浊": 2726,
      "测": 2727,
      "济": 2728,
      "浏": 2729,
      "浑": 2730,
      "浒": 2731,
      "浓": 2732,
      "浔": 2733,
      "浙": 2734,
      "浚": 2735,
      "浛": 2736,
      "浜": 2737,
      "浠": 2738,
      "浣": 2739,
      "浦": 2740,
      "浩": 2741,
      "浪": 2742,
      "浮": 2743,
      "浯": 2744,
      "浴": 2745,
      "海": 2746,
      "浸": 2747,
      "涂": 2748,
      "涅": 2749,
      "消": 2750,
      "涉": 2751,
      "涌": 2752,
      "涎": 2753,
      "涓": 2754,
      "涕": 2755,
      "涛": 2756,
      "涝": 2757,
      "涞": 2758,
      "涟": 2759,
      "涠": 2760,
      "涡": 2761,
      "涣": 2762,
      "涤": 2763,
      "润": 2764,
      "涧": 2765,
      "涨": 2766,
      "涩": 2767,
      "涪": 2768,
      "涮": 2769,
      "涯": 2770,
      "液": 2771,
      "涵": 2772,
      "涸": 2773,
      "涿": 2774,
      "淀": 2775,
      "淄": 2776,
      "淅": 2777,
      "淆": 2778,
      "淇": 2779,
      "淋": 2780,
      "淌": 2781,
      "淑": 2782,
      "淖": 2783,
      "淘": 2784,
      "淙": 2785,
      "淞": 2786,
      "淡": 2787,
      "淤": 2788,
      "淦": 2789,
      "淫": 2790,
      "淬": 2791,
      "淮": 2792,
      "深": 2793,
      "淳": 2794,
      "混": 2795,
      "淹": 2796,
      "添": 2797,
      "淼": 2798,
      "清": 2799,
      "渊": 2800,
      "渍": 2801,
      "渎": 2802,
      "渐": 2803,
      "渔": 2804,
      "渗": 2805,
      "渚": 2806,
      "渝": 2807,
      "渠": 2808,
      "渡": 2809,
      "渣": 2810,
      "渤": 2811,
      "渥": 2812,
      "温": 2813,
      "渭": 2814,
      "港": 2815,
      "渲": 2816,
      "渴": 2817,
      "游": 2818,
      "渺": 2819,
      "湃": 2820,
      "湄": 2821,
      "湍": 2822,
      "湖": 2823,
      "湘": 2824,
      "湛": 2825,
      "湟": 2826,
      "湮": 2827,
      "湾": 2828,
      "湿": 2829,
      "溃": 2830,
      "溅": 2831,
      "溉": 2832,
      "溏": 2833,
      "源": 2834,
      "溜": 2835,
      "溢": 2836,
      "溥": 2837,
      "溧": 2838,
      "溪": 2839,
      "溯": 2840,
      "溴": 2841,
      "溶": 2842,
      "溺": 2843,
      "滁": 2844,
      "滇": 2845,
      "滋": 2846,
      "滑": 2847,
      "滓": 2848,
      "滔": 2849,
      "滕": 2850,
      "滘": 2851,
      "滚": 2852,
      "滞": 2853,
      "满": 2854,
      "滢": 2855,
      "滤": 2856,
      "滥": 2857,
      "滦": 2858,
      "滨": 2859,
      "滩": 2860,
      "滴": 2861,
      "漂": 2862,
      "漆": 2863,
      "漉": 2864,
      "漏": 2865,
      "漓": 2866,
      "演": 2867,
      "漕": 2868,
      "漠": 2869,
      "漩": 2870,
      "漪": 2871,
      "漫": 2872,
      "漯": 2873,
      "漱": 2874,
      "漳": 2875,
      "漾": 2876,
      "潇": 2877,
      "潍": 2878,
      "潘": 2879,
      "潜": 2880,
      "潞": 2881,
      "潢": 2882,
      "潦": 2883,
      "潭": 2884,
      "潮": 2885,
      "潸": 2886,
      "潺": 2887,
      "潼": 2888,
      "澄": 2889,
      "澈": 2890,
      "澍": 2891,
      "澎": 2892,
      "澜": 2893,
      "澡": 2894,
      "澧": 2895,
      "澳": 2896,
      "澹": 2897,
      "激": 2898,
      "濑": 2899,
      "濒": 2900,
      "濠": 2901,
      "濡": 2902,
      "濮": 2903,
      "濯": 2904,
      "瀑": 2905,
      "瀚": 2906,
      "瀛": 2907,
      "灌": 2908,
      "灏": 2909,
      "灞": 2910,
      "火": 2911,
      "灭": 2912,
      "灯": 2913,
      "灰": 2914,
      "灵": 2915,
      "灶": 2916,
      "灸": 2917,
      "灼": 2918,
      "灾": 2919,
      "灿": 2920,
      "炀": 2921,
      "炅": 2922,
      "炆": 2923,
      "炉": 2924,
      "炊": 2925,
      "炎": 2926,
      "炒": 2927,
      "炔": 2928,
      "炕": 2929,
      "炖": 2930,
      "炙": 2931,
      "炜": 2932,
      "炝": 2933,
      "炫": 2934,
      "炬": 2935,
      "炭": 2936,
      "炮": 2937,
      "炯": 2938,
      "炳": 2939,
      "炷": 2940,
      "炸": 2941,
      "点": 2942,
      "炼": 2943,
      "炽": 2944,
      "烁": 2945,
      "烂": 2946,
      "烃": 2947,
      "烈": 2948,
      "烊": 2949,
      "烘": 2950,
      "烙": 2951,
      "烛": 2952,
      "烟": 2953,
      "烤": 2954,
      "烦": 2955,
      "烧": 2956,
      "烨": 2957,
      "烩": 2958,
      "烫": 2959,
      "烬": 2960,
      "热": 2961,
      "烯": 2962,
      "烷": 2963,
      "烹": 2964,
      "烽": 2965,
      "焉": 2966,
      "焊": 2967,
      "焓": 2968,
      "焕": 2969,
      "焖": 2970,
      "焗": 2971,
      "焙": 2972,
      "焚": 2973,
      "焦": 2974,
      "焯": 2975,
      "焰": 2976,
      "焱": 2977,
      "然": 2978,
      "煅": 2979,
      "煊": 2980,
      "煌": 2981,
      "煎": 2982,
      "煜": 2983,
      "煞": 2984,
      "煤": 2985,
      "煦": 2986,
      "照": 2987,
      "煨": 2988,
      "煮": 2989,
      "煲": 2990,
      "煸": 2991,
      "煽": 2992,
      "熄": 2993,
      "熊": 2994,
      "熏": 2995,
      "熔": 2996,
      "熙": 2997,
      "熟": 2998,
      "熠": 2999,
      "熨": 3000,
      "熬": 3001,
      "熵": 3002,
      "熹": 3003,
      "燃": 3004,
      "燊": 3005,
      "燎": 3006,
      "燕": 3007,
      "燥": 3008,
      "燧": 3009,
      "燮": 3010,
      "爆": 3011,
      "爪": 3012,
      "爬": 3013,
      "爰": 3014,
      "爱": 3015,
      "爵": 3016,
      "父": 3017,
      "爷": 3018,
      "爸": 3019,
      "爹": 3020,
      "爻": 3021,
      "爽": 3022,
      "片": 3023,
      "版": 3024,
      "牌": 3025,
      "牍": 3026,
      "牒": 3027,
      "牙": 3028,
      "牛": 3029,
      "牟": 3030,
      "牡": 3031,
      "牢": 3032,
      "牦": 3033,
      "牧": 3034,
      "物": 3035,
      "牲": 3036,
      "牵": 3037,
      "特": 3038,
      "牺": 3039,
      "犀": 3040,
      "犁": 3041,
      "犊": 3042,
      "犒": 3043,
      "犬": 3044,
      "犯": 3045,
      "状": 3046,
      "犷": 3047,
      "犹": 3048,
      "狂": 3049,
      "狄": 3050,
      "狈": 3051,
      "狐": 3052,
      "狗": 3053,
      "狙": 3054,
      "狞": 3055,
      "狠": 3056,
      "狡": 3057,
      "狩": 3058,
      "独": 3059,
      "狭": 3060,
      "狮": 3061,
      "狰": 3062,
      "狱": 3063,
      "狸": 3064,
      "狼": 3065,
      "猎": 3066,
      "猕": 3067,
      "猖": 3068,
      "猛": 3069,
      "猜": 3070,
      "猝": 3071,
      "猥": 3072,
      "猩": 3073,
      "猪": 3074,
      "猫": 3075,
      "猬": 3076,
      "献": 3077,
      "猴": 3078,
      "猾": 3079,
      "猿": 3080,
      "獐": 3081,
      "獗": 3082,
      "獭": 3083,
      "玄": 3084,
      "率": 3085,
      "玉": 3086,
      "王": 3087,
      "玑": 3088,
      "玖": 3089,
      "玛": 3090,
      "玟": 3091,
      "玥": 3092,
      "玩": 3093,
      "玫": 3094,
      "玮": 3095,
      "环": 3096,
      "现": 3097,
      "玲": 3098,
      "玷": 3099,
      "玺": 3100,
      "玻": 3101,
      "珀": 3102,
      "珂": 3103,
      "珈": 3104,
      "珉": 3105,
      "珊": 3106,
      "珍": 3107,
      "珏": 3108,
      "珐": 3109,
      "珑": 3110,
      "珞": 3111,
      "珠": 3112,
      "珥": 3113,
      "珩": 3114,
      "班": 3115,
      "珮": 3116,
      "珲": 3117,
      "珺": 3118,
      "球": 3119,
      "琅": 3120,
      "理": 3121,
      "琉": 3122,
      "琊": 3123,
      "琍": 3124,
      "琐": 3125,
      "琛": 3126,
      "琢": 3127,
      "琥": 3128,
      "琦": 3129,
      "琨": 3130,
      "琪": 3131,
      "琬": 3132,
      "琮": 3133,
      "琰": 3134,
      "琳": 3135,
      "琴": 3136,
      "琵": 3137,
      "琶": 3138,
      "琼": 3139,
      "瑀": 3140,
      "瑄": 3141,
      "瑕": 3142,
      "瑙": 3143,
      "瑚": 3144,
      "瑛": 3145,
      "瑜": 3146,
      "瑞": 3147,
      "瑟": 3148,
      "瑰": 3149,
      "瑶": 3150,
      "瑾": 3151,
      "璀": 3152,
      "璃": 3153,
      "璇": 3154,
      "璋": 3155,
      "璎": 3156,
      "璐": 3157,
      "璜": 3158,
      "璞": 3159,
      "璟": 3160,
      "璧": 3161,
      "璨": 3162,
      "瓒": 3163,
      "瓜": 3164,
      "瓢": 3165,
      "瓣": 3166,
      "瓤": 3167,
      "瓦": 3168,
      "瓮": 3169,
      "瓯": 3170,
      "瓴": 3171,
      "瓶": 3172,
      "瓷": 3173,
      "甄": 3174,
      "甘": 3175,
      "甙": 3176,
      "甚": 3177,
      "甜": 3178,
      "生": 3179,
      "甥": 3180,
      "用": 3181,
      "甩": 3182,
      "甫": 3183,
      "甬": 3184,
      "甭": 3185,
      "田": 3186,
      "由": 3187,
      "甲": 3188,
      "申": 3189,
      "电": 3190,
      "男": 3191,
      "甸": 3192,
      "町": 3193,
      "画": 3194,
      "甾": 3195,
      "畅": 3196,
      "畈": 3197,
      "界": 3198,
      "畏": 3199,
      "畔": 3200,
      "留": 3201,
      "畜": 3202,
      "略": 3203,
      "畦": 3204,
      "番": 3205,
      "畴": 3206,
      "畸": 3207,
      "畿": 3208,
      "疆": 3209,
      "疏": 3210,
      "疑": 3211,
      "疗": 3212,
      "疙": 3213,
      "疚": 3214,
      "疝": 3215,
      "疟": 3216,
      "疡": 3217,
      "疣": 3218,
      "疤": 3219,
      "疫": 3220,
      "疮": 3221,
      "疯": 3222,
      "疱": 3223,
      "疲": 3224,
      "疵": 3225,
      "疸": 3226,
      "疹": 3227,
      "疼": 3228,
      "疽": 3229,
      "疾": 3230,
      "痂": 3231,
      "病": 3232,
      "症": 3233,
      "痈": 3234,
      "痉": 3235,
      "痊": 3236,
      "痒": 3237,
      "痔": 3238,
      "痕": 3239,
      "痘": 3240,
      "痛": 3241,
      "痞": 3242,
      "痢": 3243,
      "痣": 3244,
      "痤": 3245,
      "痧": 3246,
      "痪": 3247,
      "痫": 3248,
      "痰": 3249,
      "痱": 3250,
      "痴": 3251,
      "痹": 3252,
      "痿": 3253,
      "瘀": 3254,
      "瘁": 3255,
      "瘙": 3256,
      "瘟": 3257,
      "瘠": 3258,
      "瘢": 3259,
      "瘤": 3260,
      "瘦": 3261,
      "瘩": 3262,
      "瘪": 3263,
      "瘫": 3264,
      "瘴": 3265,
      "瘸": 3266,
      "瘾": 3267,
      "癌": 3268,
      "癖": 3269,
      "癜": 3270,
      "癞": 3271,
      "癣": 3272,
      "癫": 3273,
      "癸": 3274,
      "登": 3275,
      "白": 3276,
      "百": 3277,
      "皂": 3278,
      "的": 3279,
      "皆": 3280,
      "皇": 3281,
      "皈": 3282,
      "皋": 3283,
      "皎": 3284,
      "皑": 3285,
      "皓": 3286,
      "皖": 3287,
      "皙": 3288,
      "皮": 3289,
      "皱": 3290,
      "皿": 3291,
      "盂": 3292,
      "盅": 3293,
      "盆": 3294,
      "盈": 3295,
      "益": 3296,
      "盎": 3297,
      "盏": 3298,
      "盐": 3299,
      "监": 3300,
      "盒": 3301,
      "盔": 3302,
      "盖": 3303,
      "盗": 3304,
      "盘": 3305,
      "盛": 3306,
      "盟": 3307,
      "盥": 3308,
      "目": 3309,
      "盯": 3310,
      "盱": 3311,
      "盲": 3312,
      "直": 3313,
      "相": 3314,
      "盹": 3315,
      "盼": 3316,
      "盾": 3317,
      "省": 3318,
      "眈": 3319,
      "眉": 3320,
      "看": 3321,
      "眙": 3322,
      "真": 3323,
      "眠": 3324,
      "眨": 3325,
      "眩": 3326,
      "眯": 3327,
      "眶": 3328,
      "眷": 3329,
      "眸": 3330,
      "眺": 3331,
      "眼": 3332,
      "着": 3333,
      "睁": 3334,
      "睇": 3335,
      "睐": 3336,
      "睑": 3337,
      "睛": 3338,
      "睡": 3339,
      "睢": 3340,
      "督": 3341,
      "睦": 3342,
      "睫": 3343,
      "睬": 3344,
      "睹": 3345,
      "睽": 3346,
      "睾": 3347,
      "睿": 3348,
      "瞄": 3349,
      "瞅": 3350,
      "瞋": 3351,
      "瞌": 3352,
      "瞎": 3353,
      "瞒": 3354,
      "瞠": 3355,
      "瞥": 3356,
      "瞧": 3357,
      "瞩": 3358,
      "瞪": 3359,
      "瞬": 3360,
      "瞭": 3361,
      "瞰": 3362,
      "瞳": 3363,
      "瞻": 3364,
      "瞿": 3365,
      "矗": 3366,
      "矛": 3367,
      "矜": 3368,
      "矢": 3369,
      "矣": 3370,
      "知": 3371,
      "矩": 3372,
      "矫": 3373,
      "短": 3374,
      "矮": 3375,
      "石": 3376,
      "矶": 3377,
      "矸": 3378,
      "矾": 3379,
      "矿": 3380,
      "码": 3381,
      "砂": 3382,
      "砌": 3383,
      "砍": 3384,
      "研": 3385,
      "砖": 3386,
      "砚": 3387,
      "砜": 3388,
      "砝": 3389,
      "砥": 3390,
      "砧": 3391,
      "砰": 3392,
      "破": 3393,
      "砷": 3394,
      "砸": 3395,
      "砺": 3396,
      "砼": 3397,
      "砾": 3398,
      "础": 3399,
      "硅": 3400,
      "硒": 3401,
      "硕": 3402,
      "硝": 3403,
      "硫": 3404,
      "硬": 3405,
      "确": 3406,
      "硼": 3407,
      "碁": 3408,
      "碌": 3409,
      "碍": 3410,
      "碎": 3411,
      "碑": 3412,
      "碗": 3413,
      "碘": 3414,
      "碚": 3415,
      "碟": 3416,
      "碣": 3417,
      "碧": 3418,
      "碰": 3419,
      "碱": 3420,
      "碳": 3421,
      "碴": 3422,
      "碾": 3423,
      "磁": 3424,
      "磅": 3425,
      "磊": 3426,
      "磋": 3427,
      "磐": 3428,
      "磕": 3429,
      "磨": 3430,
      "磷": 3431,
      "磺": 3432,
      "礁": 3433,
      "礴": 3434,
      "示": 3435,
      "礼": 3436,
      "社": 3437,
      "祀": 3438,
      "祁": 3439,
      "祂": 3440,
      "祇": 3441,
      "祈": 3442,
      "祉": 3443,
      "祎": 3444,
      "祐": 3445,
      "祖": 3446,
      "祗": 3447,
      "祚": 3448,
      "祛": 3449,
      "祜": 3450,
      "祝": 3451,
      "神": 3452,
      "祟": 3453,
      "祠": 3454,
      "祢": 3455,
      "祥": 3456,
      "票": 3457,
      "祭": 3458,
      "祯": 3459,
      "祷": 3460,
      "祸": 3461,
      "祺": 3462,
      "禀": 3463,
      "禁": 3464,
      "禄": 3465,
      "禅": 3466,
      "福": 3467,
      "禧": 3468,
      "禳": 3469,
      "禹": 3470,
      "禺": 3471,
      "离": 3472,
      "禽": 3473,
      "禾": 3474,
      "秀": 3475,
      "私": 3476,
      "秃": 3477,
      "秆": 3478,
      "秉": 3479,
      "秋": 3480,
      "种": 3481,
      "科": 3482,
      "秒": 3483,
      "秘": 3484,
      "租": 3485,
      "秤": 3486,
      "秦": 3487,
      "秧": 3488,
      "秩": 3489,
      "秭": 3490,
      "积": 3491,
      "称": 3492,
      "秸": 3493,
      "移": 3494,
      "秽": 3495,
      "稀": 3496,
      "程": 3497,
      "稍": 3498,
      "税": 3499,
      "稔": 3500,
      "稚": 3501,
      "稞": 3502,
      "稠": 3503,
      "稣": 3504,
      "稳": 3505,
      "稷": 3506,
      "稻": 3507,
      "稼": 3508,
      "稽": 3509,
      "稿": 3510,
      "穆": 3511,
      "穗": 3512,
      "穴": 3513,
      "究": 3514,
      "穷": 3515,
      "穹": 3516,
      "空": 3517,
      "穿": 3518,
      "突": 3519,
      "窃": 3520,
      "窄": 3521,
      "窈": 3522,
      "窍": 3523,
      "窑": 3524,
      "窒": 3525,
      "窖": 3526,
      "窗": 3527,
      "窘": 3528,
      "窜": 3529,
      "窝": 3530,
      "窟": 3531,
      "窠": 3532,
      "窥": 3533,
      "窦": 3534,
      "窨": 3535,
      "窿": 3536,
      "立": 3537,
      "竖": 3538,
      "站": 3539,
      "竞": 3540,
      "竟": 3541,
      "章": 3542,
      "竣": 3543,
      "童": 3544,
      "竭": 3545,
      "端": 3546,
      "竹": 3547,
      "竺": 3548,
      "竽": 3549,
      "竿": 3550,
      "笃": 3551,
      "笆": 3552,
      "笈": 3553,
      "笋": 3554,
      "笏": 3555,
      "笑": 3556,
      "笔": 3557,
      "笙": 3558,
      "笛": 3559,
      "笠": 3560,
      "符": 3561,
      "笨": 3562,
      "第": 3563,
      "笱": 3564,
      "笺": 3565,
      "笼": 3566,
      "等": 3567,
      "筋": 3568,
      "筏": 3569,
      "筐": 3570,
      "筑": 3571,
      "筒": 3572,
      "答": 3573,
      "策": 3574,
      "筛": 3575,
      "筝": 3576,
      "筠": 3577,
      "筱": 3578,
      "筵": 3579,
      "筷": 3580,
      "筹": 3581,
      "签": 3582,
      "简": 3583,
      "箍": 3584,
      "箐": 3585,
      "箓": 3586,
      "箔": 3587,
      "箕": 3588,
      "算": 3589,
      "管": 3590,
      "箩": 3591,
      "箫": 3592,
      "箭": 3593,
      "箱": 3594,
      "箴": 3595,
      "篆": 3596,
      "篇": 3597,
      "篑": 3598,
      "篓": 3599,
      "篝": 3600,
      "篡": 3601,
      "篦": 3602,
      "篮": 3603,
      "篱": 3604,
      "篷": 3605,
      "簇": 3606,
      "簋": 3607,
      "簌": 3608,
      "簧": 3609,
      "簪": 3610,
      "簸": 3611,
      "簿": 3612,
      "籁": 3613,
      "籍": 3614,
      "米": 3615,
      "类": 3616,
      "籼": 3617,
      "籽": 3618,
      "粉": 3619,
      "粑": 3620,
      "粒": 3621,
      "粕": 3622,
      "粗": 3623,
      "粘": 3624,
      "粟": 3625,
      "粤": 3626,
      "粥": 3627,
      "粪": 3628,
      "粮": 3629,
      "粱": 3630,
      "粳": 3631,
      "粹": 3632,
      "粼": 3633,
      "粽": 3634,
      "精": 3635,
      "粿": 3636,
      "糅": 3637,
      "糊": 3638,
      "糕": 3639,
      "糖": 3640,
      "糙": 3641,
      "糜": 3642,
      "糟": 3643,
      "糠": 3644,
      "糯": 3645,
      "糸": 3646,
      "系": 3647,
      "紊": 3648,
      "素": 3649,
      "索": 3650,
      "紧": 3651,
      "紫": 3652,
      "累": 3653,
      "絮": 3654,
      "綦": 3655,
      "繁": 3656,
      "纂": 3657,
      "纠": 3658,
      "红": 3659,
      "纣": 3660,
      "纤": 3661,
      "约": 3662,
      "级": 3663,
      "纨": 3664,
      "纪": 3665,
      "纫": 3666,
      "纬": 3667,
      "纭": 3668,
      "纯": 3669,
      "纰": 3670,
      "纱": 3671,
      "纲": 3672,
      "纳": 3673,
      "纵": 3674,
      "纶": 3675,
      "纷": 3676,
      "纸": 3677,
      "纹": 3678,
      "纺": 3679,
      "纽": 3680,
      "纾": 3681,
      "线": 3682,
      "练": 3683,
      "组": 3684,
      "绅": 3685,
      "细": 3686,
      "织": 3687,
      "终": 3688,
      "绊": 3689,
      "绌": 3690,
      "绍": 3691,
      "绎": 3692,
      "经": 3693,
      "绑": 3694,
      "绒": 3695,
      "结": 3696,
      "绔": 3697,
      "绕": 3698,
      "绘": 3699,
      "给": 3700,
      "绚": 3701,
      "绛": 3702,
      "络": 3703,
      "绝": 3704,
      "绞": 3705,
      "统": 3706,
      "绢": 3707,
      "绣": 3708,
      "绥": 3709,
      "继": 3710,
      "绩": 3711,
      "绪": 3712,
      "绫": 3713,
      "续": 3714,
      "绮": 3715,
      "绯": 3716,
      "绰": 3717,
      "绳": 3718,
      "维": 3719,
      "绵": 3720,
      "绶": 3721,
      "绷": 3722,
      "绸": 3723,
      "绻": 3724,
      "综": 3725,
      "绽": 3726,
      "绾": 3727,
      "绿": 3728,
      "缀": 3729,
      "缂": 3730,
      "缄": 3731,
      "缅": 3732,
      "缆": 3733,
      "缇": 3734,
      "缈": 3735,
      "缉": 3736,
      "缎": 3737,
      "缓": 3738,
      "缔": 3739,
      "缕": 3740,
      "编": 3741,
      "缘": 3742,
      "缙": 3743,
      "缚": 3744,
      "缜": 3745,
      "缝": 3746,
      "缠": 3747,
      "缤": 3748,
      "缥": 3749,
      "缨": 3750,
      "缩": 3751,
      "缪": 3752,
      "缭": 3753,
      "缮": 3754,
      "缰": 3755,
      "缱": 3756,
      "缴": 3757,
      "缸": 3758,
      "缺": 3759,
      "罄": 3760,
      "罐": 3761,
      "网": 3762,
      "罔": 3763,
      "罕": 3764,
      "罗": 3765,
      "罚": 3766,
      "罡": 3767,
      "罢": 3768,
      "罩": 3769,
      "罪": 3770,
      "置": 3771,
      "署": 3772,
      "罹": 3773,
      "羁": 3774,
      "羊": 3775,
      "羌": 3776,
      "美": 3777,
      "羔": 3778,
      "羚": 3779,
      "羞": 3780,
      "羟": 3781,
      "羡": 3782,
      "群": 3783,
      "羧": 3784,
      "羯": 3785,
      "羲": 3786,
      "羸": 3787,
      "羹": 3788,
      "羽": 3789,
      "羿": 3790,
      "翁": 3791,
      "翅": 3792,
      "翊": 3793,
      "翌": 3794,
      "翎": 3795,
      "翔": 3796,
      "翘": 3797,
      "翟": 3798,
      "翠": 3799,
      "翡": 3800,
      "翦": 3801,
      "翩": 3802,
      "翰": 3803,
      "翱": 3804,
      "翳": 3805,
      "翻": 3806,
      "翼": 3807,
      "耀": 3808,
      "老": 3809,
      "考": 3810,
      "者": 3811,
      "耆": 3812,
      "而": 3813,
      "耍": 3814,
      "耐": 3815,
      "耕": 3816,
      "耗": 3817,
      "耘": 3818,
      "耙": 3819,
      "耦": 3820,
      "耳": 3821,
      "耶": 3822,
      "耸": 3823,
      "耻": 3824,
      "耽": 3825,
      "耿": 3826,
      "聂": 3827,
      "聆": 3828,
      "聊": 3829,
      "聋": 3830,
      "职": 3831,
      "联": 3832,
      "聘": 3833,
      "聚": 3834,
      "聪": 3835,
      "聿": 3836,
      "肃": 3837,
      "肆": 3838,
      "肇": 3839,
      "肉": 3840,
      "肋": 3841,
      "肌": 3842,
      "肓": 3843,
      "肖": 3844,
      "肘": 3845,
      "肚": 3846,
      "肛": 3847,
      "肝": 3848,
      "肠": 3849,
      "股": 3850,
      "肢": 3851,
      "肤": 3852,
      "肥": 3853,
      "肩": 3854,
      "肪": 3855,
      "肮": 3856,
      "肯": 3857,
      "肱": 3858,
      "育": 3859,
      "肴": 3860,
      "肺": 3861,
      "肽": 3862,
      "肾": 3863,
      "肿": 3864,
      "胀": 3865,
      "胁": 3866,
      "胃": 3867,
      "胄": 3868,
      "胆": 3869,
      "背": 3870,
      "胎": 3871,
      "胖": 3872,
      "胚": 3873,
      "胛": 3874,
      "胜": 3875,
      "胞": 3876,
      "胡": 3877,
      "胤": 3878,
      "胥": 3879,
      "胧": 3880,
      "胫": 3881,
      "胭": 3882,
      "胯": 3883,
      "胰": 3884,
      "胱": 3885,
      "胳": 3886,
      "胶": 3887,
      "胸": 3888,
      "胺": 3889,
      "能": 3890,
      "脂": 3891,
      "脆": 3892,
      "脉": 3893,
      "脊": 3894,
      "脍": 3895,
      "脏": 3896,
      "脐": 3897,
      "脑": 3898,
      "脓": 3899,
      "脖": 3900,
      "脘": 3901,
      "脚": 3902,
      "脯": 3903,
      "脱": 3904,
      "脲": 3905,
      "脸": 3906,
      "脾": 3907,
      "腆": 3908,
      "腈": 3909,
      "腊": 3910,
      "腋": 3911,
      "腌": 3912,
      "腐": 3913,
      "腑": 3914,
      "腓": 3915,
      "腔": 3916,
      "腕": 3917,
      "腥": 3918,
      "腩": 3919,
      "腭": 3920,
      "腮": 3921,
      "腰": 3922,
      "腱": 3923,
      "腴": 3924,
      "腹": 3925,
      "腺": 3926,
      "腻": 3927,
      "腼": 3928,
      "腾": 3929,
      "腿": 3930,
      "膀": 3931,
      "膈": 3932,
      "膊": 3933,
      "膏": 3934,
      "膘": 3935,
      "膛": 3936,
      "膜": 3937,
      "膝": 3938,
      "膦": 3939,
      "膨": 3940,
      "膳": 3941,
      "膺": 3942,
      "臀": 3943,
      "臂": 3944,
      "臃": 3945,
      "臆": 3946,
      "臊": 3947,
      "臣": 3948,
      "臧": 3949,
      "自": 3950,
      "臭": 3951,
      "至": 3952,
      "致": 3953,
      "臻": 3954,
      "臼": 3955,
      "臾": 3956,
      "舀": 3957,
      "舅": 3958,
      "舆": 3959,
      "舌": 3960,
      "舍": 3961,
      "舒": 3962,
      "舔": 3963,
      "舜": 3964,
      "舞": 3965,
      "舟": 3966,
      "航": 3967,
      "舫": 3968,
      "般": 3969,
      "舰": 3970,
      "舱": 3971,
      "舵": 3972,
      "舶": 3973,
      "舷": 3974,
      "舸": 3975,
      "船": 3976,
      "艇": 3977,
      "艘": 3978,
      "艮": 3979,
      "良": 3980,
      "艰": 3981,
      "色": 3982,
      "艳": 3983,
      "艺": 3984,
      "艾": 3985,
      "节": 3986,
      "芃": 3987,
      "芊": 3988,
      "芋": 3989,
      "芍": 3990,
      "芎": 3991,
      "芒": 3992,
      "芙": 3993,
      "芜": 3994,
      "芝": 3995,
      "芡": 3996,
      "芥": 3997,
      "芦": 3998,
      "芩": 3999,
      "芪": 4000,
      "芫": 4001,
      "芬": 4002,
      "芭": 4003,
      "芮": 4004,
      "芯": 4005,
      "花": 4006,
      "芳": 4007,
      "芷": 4008,
      "芸": 4009,
      "芹": 4010,
      "芽": 4011,
      "芾": 4012,
      "苄": 4013,
      "苇": 4014,
      "苋": 4015,
      "苌": 4016,
      "苍": 4017,
      "苏": 4018,
      "苑": 4019,
      "苒": 4020,
      "苓": 4021,
      "苔": 4022,
      "苗": 4023,
      "苛": 4024,
      "苜": 4025,
      "苞": 4026,
      "苟": 4027,
      "苡": 4028,
      "苣": 4029,
      "若": 4030,
      "苦": 4031,
      "苫": 4032,
      "苯": 4033,
      "英": 4034,
      "苷": 4035,
      "苹": 4036,
      "苻": 4037,
      "茁": 4038,
      "茂": 4039,
      "范": 4040,
      "茄": 4041,
      "茅": 4042,
      "茉": 4043,
      "茎": 4044,
      "茗": 4045,
      "茜": 4046,
      "茧": 4047,
      "茨": 4048,
      "茫": 4049,
      "茬": 4050,
      "茭": 4051,
      "茯": 4052,
      "茱": 4053,
      "茴": 4054,
      "茵": 4055,
      "茶": 4056,
      "茸": 4057,
      "茹": 4058,
      "荀": 4059,
      "荃": 4060,
      "荆": 4061,
      "草": 4062,
      "荏": 4063,
      "荐": 4064,
      "荒": 4065,
      "荔": 4066,
      "荖": 4067,
      "荚": 4068,
      "荞": 4069,
      "荟": 4070,
      "荠": 4071,
      "荡": 4072,
      "荣": 4073,
      "荤": 4074,
      "荥": 4075,
      "荧": 4076,
      "荨": 4077,
      "荫": 4078,
      "药": 4079,
      "荷": 4080,
      "荻": 4081,
      "荼": 4082,
      "荽": 4083,
      "莅": 4084,
      "莆": 4085,
      "莉": 4086,
      "莎": 4087,
      "莒": 4088,
      "莓": 4089,
      "莘": 4090,
      "莞": 4091,
      "莠": 4092,
      "莪": 4093,
      "莫": 4094,
      "莱": 4095,
      "莲": 4096,
      "莳": 4097,
      "莴": 4098,
      "获": 4099,
      "莹": 4100,
      "莺": 4101,
      "莽": 4102,
      "菁": 4103,
      "菅": 4104,
      "菇": 4105,
      "菊": 4106,
      "菌": 4107,
      "菏": 4108,
      "菓": 4109,
      "菜": 4110,
      "菠": 4111,
      "菩": 4112,
      "菱": 4113,
      "菲": 4114,
      "萃": 4115,
      "萄": 4116,
      "萋": 4117,
      "萌": 4118,
      "萍": 4119,
      "萎": 4120,
      "萘": 4121,
      "萜": 4122,
      "萝": 4123,
      "萤": 4124,
      "营": 4125,
      "萦": 4126,
      "萧": 4127,
      "萨": 4128,
      "萱": 4129,
      "萸": 4130,
      "萼": 4131,
      "落": 4132,
      "葆": 4133,
      "著": 4134,
      "葚": 4135,
      "葛": 4136,
      "葡": 4137,
      "董": 4138,
      "葩": 4139,
      "葫": 4140,
      "葬": 4141,
      "葭": 4142,
      "葱": 4143,
      "葵": 4144,
      "葺": 4145,
      "蒂": 4146,
      "蒋": 4147,
      "蒙": 4148,
      "蒜": 4149,
      "蒡": 4150,
      "蒲": 4151,
      "蒸": 4152,
      "蒽": 4153,
      "蒿": 4154,
      "蓁": 4155,
      "蓄": 4156,
      "蓉": 4157,
      "蓑": 4158,
      "蓓": 4159,
      "蓝": 4160,
      "蓟": 4161,
      "蓦": 4162,
      "蓬": 4163,
      "蓿": 4164,
      "蔑": 4165,
      "蔓": 4166,
      "蔗": 4167,
      "蔚": 4168,
      "蔡": 4169,
      "蔫": 4170,
      "蔬": 4171,
      "蔷": 4172,
      "蔺": 4173,
      "蔻": 4174,
      "蔼": 4175,
      "蔽": 4176,
      "蕃": 4177,
      "蕉": 4178,
      "蕊": 4179,
      "蕙": 4180,
      "蕞": 4181,
      "蕨": 4182,
      "蕲": 4183,
      "蕴": 4184,
      "蕾": 4185,
      "薄": 4186,
      "薅": 4187,
      "薇": 4188,
      "薏": 4189,
      "薛": 4190,
      "薪": 4191,
      "薯": 4192,
      "薰": 4193,
      "藉": 4194,
      "藏": 4195,
      "藐": 4196,
      "藓": 4197,
      "藕": 4198,
      "藜": 4199,
      "藤": 4200,
      "藩": 4201,
      "藻": 4202,
      "藿": 4203,
      "蘑": 4204,
      "蘖": 4205,
      "蘸": 4206,
      "虎": 4207,
      "虏": 4208,
      "虐": 4209,
      "虑": 4210,
      "虔": 4211,
      "虚": 4212,
      "虞": 4213,
      "虫": 4214,
      "虬": 4215,
      "虱": 4216,
      "虹": 4217,
      "虽": 4218,
      "虾": 4219,
      "蚀": 4220,
      "蚁": 4221,
      "蚂": 4222,
      "蚊": 4223,
      "蚌": 4224,
      "蚓": 4225,
      "蚕": 4226,
      "蚜": 4227,
      "蚝": 4228,
      "蚣": 4229,
      "蚤": 4230,
      "蚧": 4231,
      "蚩": 4232,
      "蚪": 4233,
      "蚯": 4234,
      "蛀": 4235,
      "蛇": 4236,
      "蛊": 4237,
      "蛋": 4238,
      "蛎": 4239,
      "蛐": 4240,
      "蛔": 4241,
      "蛙": 4242,
      "蛛": 4243,
      "蛟": 4244,
      "蛤": 4245,
      "蛭": 4246,
      "蛮": 4247,
      "蛰": 4248,
      "蛳": 4249,
      "蛹": 4250,
      "蛾": 4251,
      "蜀": 4252,
      "蜂": 4253,
      "蜃": 4254,
      "蜇": 4255,
      "蜈": 4256,
      "蜊": 4257,
      "蜒": 4258,
      "蜓": 4259,
      "蜕": 4260,
      "蜗": 4261,
      "蜘": 4262,
      "蜚": 4263,
      "蜜": 4264,
      "蜡": 4265,
      "蜢": 4266,
      "蜥": 4267,
      "蜱": 4268,
      "蜴": 4269,
      "蜷": 4270,
      "蜻": 4271,
      "蜿": 4272,
      "蝇": 4273,
      "蝉": 4274,
      "蝌": 4275,
      "蝎": 4276,
      "蝗": 4277,
      "蝙": 4278,
      "蝠": 4279,
      "蝴": 4280,
      "蝶": 4281,
      "螂": 4282,
      "螃": 4283,
      "融": 4284,
      "螨": 4285,
      "螫": 4286,
      "螯": 4287,
      "螳": 4288,
      "螺": 4289,
      "蟀": 4290,
      "蟆": 4291,
      "蟋": 4292,
      "蟑": 4293,
      "蟒": 4294,
      "蟠": 4295,
      "蟹": 4296,
      "蟾": 4297,
      "蠊": 4298,
      "蠕": 4299,
      "蠡": 4300,
      "蠢": 4301,
      "蠹": 4302,
      "血": 4303,
      "衅": 4304,
      "行": 4305,
      "衍": 4306,
      "衔": 4307,
      "街": 4308,
      "衙": 4309,
      "衡": 4310,
      "衢": 4311,
      "衣": 4312,
      "补": 4313,
      "表": 4314,
      "衫": 4315,
      "衬": 4316,
      "衰": 4317,
      "衷": 4318,
      "衹": 4319,
      "袁": 4320,
      "袂": 4321,
      "袄": 4322,
      "袅": 4323,
      "袋": 4324,
      "袍": 4325,
      "袒": 4326,
      "袖": 4327,
      "袜": 4328,
      "袤": 4329,
      "被": 4330,
      "袭": 4331,
      "袱": 4332,
      "裁": 4333,
      "裂": 4334,
      "装": 4335,
      "裔": 4336,
      "裕": 4337,
      "裘": 4338,
      "裙": 4339,
      "裤": 4340,
      "裨": 4341,
      "裱": 4342,
      "裳": 4343,
      "裴": 4344,
      "裸": 4345,
      "裹": 4346,
      "褂": 4347,
      "褐": 4348,
      "褒": 4349,
      "褚": 4350,
      "褥": 4351,
      "褪": 4352,
      "褶": 4353,
      "襄": 4354,
      "襟": 4355,
      "西": 4356,
      "要": 4357,
      "覃": 4358,
      "覆": 4359,
      "见": 4360,
      "观": 4361,
      "规": 4362,
      "觅": 4363,
      "视": 4364,
      "览": 4365,
      "觉": 4366,
      "觊": 4367,
      "觎": 4368,
      "觐": 4369,
      "觑": 4370,
      "角": 4371,
      "觞": 4372,
      "解": 4373,
      "触": 4374,
      "言": 4375,
      "詹": 4376,
      "誉": 4377,
      "誊": 4378,
      "誓": 4379,
      "警": 4380,
      "譬": 4381,
      "计": 4382,
      "订": 4383,
      "认": 4384,
      "讥": 4385,
      "讧": 4386,
      "讨": 4387,
      "让": 4388,
      "讪": 4389,
      "讫": 4390,
      "训": 4391,
      "议": 4392,
      "讯": 4393,
      "记": 4394,
      "讲": 4395,
      "讳": 4396,
      "讴": 4397,
      "讶": 4398,
      "讷": 4399,
      "许": 4400,
      "讹": 4401,
      "论": 4402,
      "讼": 4403,
      "讽": 4404,
      "设": 4405,
      "访": 4406,
      "诀": 4407,
      "证": 4408,
      "诃": 4409,
      "评": 4410,
      "诅": 4411,
      "识": 4412,
      "诈": 4413,
      "诉": 4414,
      "诊": 4415,
      "诋": 4416,
      "词": 4417,
      "诏": 4418,
      "译": 4419,
      "试": 4420,
      "诗": 4421,
      "诘": 4422,
      "诙": 4423,
      "诚": 4424,
      "诛": 4425,
      "话": 4426,
      "诞": 4427,
      "诟": 4428,
      "诠": 4429,
      "诡": 4430,
      "询": 4431,
      "诣": 4432,
      "诤": 4433,
      "该": 4434,
      "详": 4435,
      "诧": 4436,
      "诩": 4437,
      "诫": 4438,
      "诬": 4439,
      "语": 4440,
      "误": 4441,
      "诰": 4442,
      "诱": 4443,
      "诲": 4444,
      "说": 4445,
      "诵": 4446,
      "诶": 4447,
      "请": 4448,
      "诸": 4449,
      "诺": 4450,
      "读": 4451,
      "诽": 4452,
      "课": 4453,
      "诿": 4454,
      "谁": 4455,
      "调": 4456,
      "谅": 4457,
      "谆": 4458,
      "谈": 4459,
      "谊": 4460,
      "谋": 4461,
      "谌": 4462,
      "谍": 4463,
      "谎": 4464,
      "谏": 4465,
      "谐": 4466,
      "谑": 4467,
      "谒": 4468,
      "谓": 4469,
      "谕": 4470,
      "谗": 4471,
      "谙": 4472,
      "谚": 4473,
      "谛": 4474,
      "谜": 4475,
      "谟": 4476,
      "谢": 4477,
      "谣": 4478,
      "谤": 4479,
      "谥": 4480,
      "谦": 4481,
      "谧": 4482,
      "谨": 4483,
      "谩": 4484,
      "谪": 4485,
      "谬": 4486,
      "谭": 4487,
      "谯": 4488,
      "谱": 4489,
      "谲": 4490,
      "谴": 4491,
      "谷": 4492,
      "豁": 4493,
      "豆": 4494,
      "豇": 4495,
      "豉": 4496,
      "豌": 4497,
      "豚": 4498,
      "象": 4499,
      "豪": 4500,
      "豫": 4501,
      "豹": 4502,
      "貂": 4503,
      "貌": 4504,
      "貔": 4505,
      "贝": 4506,
      "贞": 4507,
      "负": 4508,
      "贡": 4509,
      "财": 4510,
      "责": 4511,
      "贤": 4512,
      "败": 4513,
      "账": 4514,
      "货": 4515,
      "质": 4516,
      "贩": 4517,
      "贪": 4518,
      "贫": 4519,
      "贬": 4520,
      "购": 4521,
      "贮": 4522,
      "贯": 4523,
      "贰": 4524,
      "贱": 4525,
      "贲": 4526,
      "贴": 4527,
      "贵": 4528,
      "贷": 4529,
      "贸": 4530,
      "费": 4531,
      "贺": 4532,
      "贻": 4533,
      "贼": 4534,
      "贾": 4535,
      "贿": 4536,
      "赁": 4537,
      "赂": 4538,
      "赃": 4539,
      "资": 4540,
      "赅": 4541,
      "赈": 4542,
      "赊": 4543,
      "赋": 4544,
      "赌": 4545,
      "赎": 4546,
      "赏": 4547,
      "赐": 4548,
      "赓": 4549,
      "赔": 4550,
      "赖": 4551,
      "赘": 4552,
      "赚": 4553,
      "赛": 4554,
      "赝": 4555,
      "赞": 4556,
      "赟": 4557,
      "赠": 4558,
      "赡": 4559,
      "赢": 4560,
      "赣": 4561,
      "赤": 4562,
      "赦": 4563,
      "赧": 4564,
      "赫": 4565,
      "赭": 4566,
      "走": 4567,
      "赴": 4568,
      "赵": 4569,
      "赶": 4570,
      "起": 4571,
      "趁": 4572,
      "超": 4573,
      "越": 4574,
      "趋": 4575,
      "趟": 4576,
      "趣": 4577,
      "足": 4578,
      "趴": 4579,
      "趸": 4580,
      "趾": 4581,
      "跃": 4582,
      "跄": 4583,
      "跆": 4584,
      "跋": 4585,
      "跌": 4586,
      "跎": 4587,
      "跑": 4588,
      "跖": 4589,
      "跚": 4590,
      "跛": 4591,
      "距": 4592,
      "跟": 4593,
      "跤": 4594,
      "跨": 4595,
      "跪": 4596,
      "路": 4597,
      "跳": 4598,
      "践": 4599,
      "跷": 4600,
      "跺": 4601,
      "跻": 4602,
      "踉": 4603,
      "踊": 4604,
      "踌": 4605,
      "踏": 4606,
      "踔": 4607,
      "踝": 4608,
      "踞": 4609,
      "踢": 4610,
      "踩": 4611,
      "踪": 4612,
      "踮": 4613,
      "踱": 4614,
      "踵": 4615,
      "踹": 4616,
      "蹄": 4617,
      "蹈": 4618,
      "蹉": 4619,
      "蹊": 4620,
      "蹋": 4621,
      "蹒": 4622,
      "蹙": 4623,
      "蹦": 4624,
      "蹬": 4625,
      "蹭": 4626,
      "蹲": 4627,
      "蹴": 4628,
      "蹶": 4629,
      "蹿": 4630,
      "躁": 4631,
      "躇": 4632,
      "身": 4633,
      "躬": 4634,
      "躯": 4635,
      "躲": 4636,
      "躺": 4637,
      "车": 4638,
      "轧": 4639,
      "轨": 4640,
      "轩": 4641,
      "转": 4642,
      "轭": 4643,
      "轮": 4644,
      "软": 4645,
      "轰": 4646,
      "轲": 4647,
      "轴": 4648,
      "轶": 4649,
      "轸": 4650,
      "轻": 4651,
      "轼": 4652,
      "载": 4653,
      "轿": 4654,
      "较": 4655,
      "辄": 4656,
      "辅": 4657,
      "辆": 4658,
      "辈": 4659,
      "辉": 4660,
      "辊": 4661,
      "辋": 4662,
      "辍": 4663,
      "辐": 4664,
      "辑": 4665,
      "输": 4666,
      "辕": 4667,
      "辖": 4668,
      "辗": 4669,
      "辘": 4670,
      "辙": 4671,
      "辛": 4672,
      "辜": 4673,
      "辞": 4674,
      "辟": 4675,
      "辣": 4676,
      "辨": 4677,
      "辩": 4678,
      "辫": 4679,
      "辰": 4680,
      "辱": 4681,
      "边": 4682,
      "辽": 4683,
      "达": 4684,
      "迁": 4685,
      "迂": 4686,
      "迄": 4687,
      "迅": 4688,
      "过": 4689,
      "迈": 4690,
      "迎": 4691,
      "运": 4692,
      "近": 4693,
      "返": 4694,
      "还": 4695,
      "这": 4696,
      "进": 4697,
      "远": 4698,
      "违": 4699,
      "连": 4700,
      "迟": 4701,
      "迢": 4702,
      "迤": 4703,
      "迥": 4704,
      "迦": 4705,
      "迩": 4706,
      "迪": 4707,
      "迫": 4708,
      "迭": 4709,
      "述": 4710,
      "迳": 4711,
      "迷": 4712,
      "迸": 4713,
      "迹": 4714,
      "追": 4715,
      "退": 4716,
      "送": 4717,
      "适": 4718,
      "逃": 4719,
      "逅": 4720,
      "逆": 4721,
      "选": 4722,
      "逊": 4723,
      "逍": 4724,
      "透": 4725,
      "逐": 4726,
      "递": 4727,
      "途": 4728,
      "逗": 4729,
      "通": 4730,
      "逛": 4731,
      "逝": 4732,
      "逞": 4733,
      "速": 4734,
      "造": 4735,
      "逢": 4736,
      "逮": 4737,
      "逵": 4738,
      "逸": 4739,
      "逻": 4740,
      "逼": 4741,
      "逾": 4742,
      "遁": 4743,
      "遂": 4744,
      "遇": 4745,
      "遍": 4746,
      "遏": 4747,
      "遐": 4748,
      "遑": 4749,
      "遒": 4750,
      "道": 4751,
      "遗": 4752,
      "遛": 4753,
      "遢": 4754,
      "遣": 4755,
      "遥": 4756,
      "遨": 4757,
      "遭": 4758,
      "遮": 4759,
      "遴": 4760,
      "遵": 4761,
      "遽": 4762,
      "避": 4763,
      "邀": 4764,
      "邂": 4765,
      "邃": 4766,
      "邈": 4767,
      "邋": 4768,
      "邑": 4769,
      "邓": 4770,
      "邕": 4771,
      "邛": 4772,
      "邝": 4773,
      "邢": 4774,
      "那": 4775,
      "邦": 4776,
      "邨": 4777,
      "邪": 4778,
      "邬": 4779,
      "邮": 4780,
      "邯": 4781,
      "邱": 4782,
      "邳": 4783,
      "邵": 4784,
      "邸": 4785,
      "邹": 4786,
      "邺": 4787,
      "邻": 4788,
      "邾": 4789,
      "郁": 4790,
      "郃": 4791,
      "郅": 4792,
      "郊": 4793,
      "郎": 4794,
      "郑": 4795,
      "郜": 4796,
      "郝": 4797,
      "郡": 4798,
      "部": 4799,
      "郫": 4800,
      "郭": 4801,
      "郴": 4802,
      "郸": 4803,
      "都": 4804,
      "鄂": 4805,
      "鄙": 4806,
      "鄞": 4807,
      "鄱": 4808,
      "酉": 4809,
      "酋": 4810,
      "酌": 4811,
      "配": 4812,
      "酐": 4813,
      "酒": 4814,
      "酗": 4815,
      "酚": 4816,
      "酝": 4817,
      "酣": 4818,
      "酥": 4819,
      "酩": 4820,
      "酪": 4821,
      "酬": 4822,
      "酮": 4823,
      "酯": 4824,
      "酰": 4825,
      "酱": 4826,
      "酵": 4827,
      "酶": 4828,
      "酷": 4829,
      "酸": 4830,
      "酿": 4831,
      "醇": 4832,
      "醉": 4833,
      "醋": 4834,
      "醌": 4835,
      "醍": 4836,
      "醒": 4837,
      "醚": 4838,
      "醛": 4839,
      "醴": 4840,
      "醺": 4841,
      "釆": 4842,
      "采": 4843,
      "釉": 4844,
      "释": 4845,
      "里": 4846,
      "重": 4847,
      "野": 4848,
      "量": 4849,
      "金": 4850,
      "釜": 4851,
      "鉴": 4852,
      "銮": 4853,
      "鎏": 4854,
      "鏖": 4855,
      "鑫": 4856,
      "针": 4857,
      "钉": 4858,
      "钊": 4859,
      "钍": 4860,
      "钎": 4861,
      "钒": 4862,
      "钓": 4863,
      "钕": 4864,
      "钗": 4865,
      "钙": 4866,
      "钛": 4867,
      "钝": 4868,
      "钞": 4869,
      "钟": 4870,
      "钠": 4871,
      "钡": 4872,
      "钢": 4873,
      "钣": 4874,
      "钥": 4875,
      "钦": 4876,
      "钧": 4877,
      "钨": 4878,
      "钩": 4879,
      "钮": 4880,
      "钯": 4881,
      "钰": 4882,
      "钱": 4883,
      "钳": 4884,
      "钴": 4885,
      "钵": 4886,
      "钹": 4887,
      "钻": 4888,
      "钼": 4889,
      "钽": 4890,
      "钾": 4891,
      "钿": 4892,
      "铀": 4893,
      "铁": 4894,
      "铂": 4895,
      "铃": 4896,
      "铅": 4897,
      "铆": 4898,
      "铉": 4899,
      "铋": 4900,
      "铌": 4901,
      "铍": 4902,
      "铎": 4903,
      "铐": 4904,
      "铑": 4905,
      "铛": 4906,
      "铜": 4907,
      "铝": 4908,
      "铟": 4909,
      "铠": 4910,
      "铡": 4911,
      "铢": 4912,
      "铣": 4913,
      "铤": 4914,
      "铨": 4915,
      "铬": 4916,
      "铭": 4917,
      "铮": 4918,
      "铰": 4919,
      "铱": 4920,
      "铲": 4921,
      "铵": 4922,
      "银": 4923,
      "铸": 4924,
      "铺": 4925,
      "链": 4926,
      "铿": 4927,
      "销": 4928,
      "锁": 4929,
      "锂": 4930,
      "锄": 4931,
      "锅": 4932,
      "锆": 4933,
      "锈": 4934,
      "锉": 4935,
      "锋": 4936,
      "锌": 4937,
      "锏": 4938,
      "锐": 4939,
      "锑": 4940,
      "锗": 4941,
      "错": 4942,
      "锚": 4943,
      "锡": 4944,
      "锢": 4945,
      "锣": 4946,
      "锤": 4947,
      "锥": 4948,
      "锦": 4949,
      "锭": 4950,
      "键": 4951,
      "锯": 4952,
      "锰": 4953,
      "锲": 4954,
      "锵": 4955,
      "锶": 4956,
      "锹": 4957,
      "锻": 4958,
      "锾": 4959,
      "镀": 4960,
      "镁": 4961,
      "镂": 4962,
      "镇": 4963,
      "镉": 4964,
      "镊": 4965,
      "镌": 4966,
      "镍": 4967,
      "镐": 4968,
      "镑": 4969,
      "镓": 4970,
      "镖": 4971,
      "镗": 4972,
      "镜": 4973,
      "镦": 4974,
      "镭": 4975,
      "镯": 4976,
      "镰": 4977,
      "镳": 4978,
      "镶": 4979,
      "长": 4980,
      "门": 4981,
      "闪": 4982,
      "闫": 4983,
      "闭": 4984,
      "问": 4985,
      "闯": 4986,
      "闰": 4987,
      "闱": 4988,
      "闲": 4989,
      "间": 4990,
      "闵": 4991,
      "闷": 4992,
      "闸": 4993,
      "闹": 4994,
      "闺": 4995,
      "闻": 4996,
      "闽": 4997,
      "闾": 4998,
      "阀": 4999,
      "阁": 5000,
      "阂": 5001,
      "阅": 5002,
      "阆": 5003,
      "阇": 5004,
      "阈": 5005,
      "阎": 5006,
      "阐": 5007,
      "阑": 5008,
      "阔": 5009,
      "阕": 5010,
      "阖": 5011,
      "阙": 5012,
      "阚": 5013,
      "阜": 5014,
      "队": 5015,
      "阡": 5016,
      "阪": 5017,
      "阮": 5018,
      "阱": 5019,
      "防": 5020,
      "阳": 5021,
      "阴": 5022,
      "阵": 5023,
      "阶": 5024,
      "阻": 5025,
      "阿": 5026,
      "陀": 5027,
      "陂": 5028,
      "附": 5029,
      "际": 5030,
      "陆": 5031,
      "陇": 5032,
      "陈": 5033,
      "陋": 5034,
      "陌": 5035,
      "降": 5036,
      "限": 5037,
      "陕": 5038,
      "陛": 5039,
      "陟": 5040,
      "陡": 5041,
      "院": 5042,
      "除": 5043,
      "陨": 5044,
      "险": 5045,
      "陪": 5046,
      "陲": 5047,
      "陵": 5048,
      "陶": 5049,
      "陷": 5050,
      "隅": 5051,
      "隆": 5052,
      "隋": 5053,
      "隍": 5054,
      "随": 5055,
      "隐": 5056,
      "隔": 5057,
      "隘": 5058,
      "隙": 5059,
      "障": 5060,
      "隧": 5061,
      "隶": 5062,
      "隼": 5063,
      "隽": 5064,
      "难": 5065,
      "雀": 5066,
      "雁": 5067,
      "雄": 5068,
      "雅": 5069,
      "集": 5070,
      "雇": 5071,
      "雉": 5072,
      "雌": 5073,
      "雍": 5074,
      "雏": 5075,
      "雕": 5076,
      "雨": 5077,
      "雪": 5078,
      "雯": 5079,
      "雳": 5080,
      "零": 5081,
      "雷": 5082,
      "雹": 5083,
      "雾": 5084,
      "需": 5085,
      "霁": 5086,
      "霄": 5087,
      "霆": 5088,
      "震": 5089,
      "霉": 5090,
      "霍": 5091,
      "霎": 5092,
      "霏": 5093,
      "霓": 5094,
      "霖": 5095,
      "霜": 5096,
      "霞": 5097,
      "霭": 5098,
      "露": 5099,
      "霸": 5100,
      "霹": 5101,
      "霾": 5102,
      "青": 5103,
      "靓": 5104,
      "靖": 5105,
      "静": 5106,
      "靛": 5107,
      "非": 5108,
      "靠": 5109,
      "靡": 5110,
      "面": 5111,
      "革": 5112,
      "靳": 5113,
      "靴": 5114,
      "靶": 5115,
      "鞋": 5116,
      "鞍": 5117,
      "鞘": 5118,
      "鞠": 5119,
      "鞣": 5120,
      "鞭": 5121,
      "韦": 5122,
      "韧": 5123,
      "韩": 5124,
      "韬": 5125,
      "韭": 5126,
      "音": 5127,
      "韵": 5128,
      "韶": 5129,
      "页": 5130,
      "顶": 5131,
      "顷": 5132,
      "项": 5133,
      "顺": 5134,
      "须": 5135,
      "顽": 5136,
      "顾": 5137,
      "顿": 5138,
      "颁": 5139,
      "颂": 5140,
      "预": 5141,
      "颅": 5142,
      "领": 5143,
      "颇": 5144,
      "颈": 5145,
      "颉": 5146,
      "颊": 5147,
      "颌": 5148,
      "颍": 5149,
      "颐": 5150,
      "频": 5151,
      "颓": 5152,
      "颔": 5153,
      "颖": 5154,
      "颗": 5155,
      "题": 5156,
      "颚": 5157,
      "颜": 5158,
      "额": 5159,
      "颞": 5160,
      "颠": 5161,
      "颢": 5162,
      "颤": 5163,
      "颦": 5164,
      "颧": 5165,
      "风": 5166,
      "飒": 5167,
      "飓": 5168,
      "飕": 5169,
      "飘": 5170,
      "飙": 5171,
      "飚": 5172,
      "飞": 5173,
      "食": 5174,
      "飨": 5175,
      "餐": 5176,
      "餮": 5177,
      "饕": 5178,
      "饥": 5179,
      "饨": 5180,
      "饪": 5181,
      "饭": 5182,
      "饮": 5183,
      "饯": 5184,
      "饰": 5185,
      "饱": 5186,
      "饲": 5187,
      "饴": 5188,
      "饵": 5189,
      "饶": 5190,
      "饷": 5191,
      "饺": 5192,
      "饼": 5193,
      "饽": 5194,
      "饿": 5195,
      "馁": 5196,
      "馄": 5197,
      "馅": 5198,
      "馆": 5199,
      "馈": 5200,
      "馋": 5201,
      "馍": 5202,
      "馏": 5203,
      "馒": 5204,
      "馔": 5205,
      "首": 5206,
      "香": 5207,
      "馥": 5208,
      "馨": 5209,
      "駅": 5210,
      "驒": 5211,
      "马": 5212,
      "驭": 5213,
      "驮": 5214,
      "驯": 5215,
      "驰": 5216,
      "驱": 5217,
      "驳": 5218,
      "驴": 5219,
      "驶": 5220,
      "驹": 5221,
      "驻": 5222,
      "驼": 5223,
      "驾": 5224,
      "驿": 5225,
      "骁": 5226,
      "骂": 5227,
      "骄": 5228,
      "骅": 5229,
      "骆": 5230,
      "骇": 5231,
      "骊": 5232,
      "骋": 5233,
      "验": 5234,
      "骏": 5235,
      "骐": 5236,
      "骑": 5237,
      "骗": 5238,
      "骘": 5239,
      "骚": 5240,
      "骛": 5241,
      "骞": 5242,
      "骡": 5243,
      "骤": 5244,
      "骥": 5245,
      "骨": 5246,
      "骰": 5247,
      "骶": 5248,
      "骷": 5249,
      "骸": 5250,
      "骼": 5251,
      "髂": 5252,
      "髅": 5253,
      "髋": 5254,
      "髌": 5255,
      "髓": 5256,
      "高": 5257,
      "髙": 5258,
      "髦": 5259,
      "髯": 5260,
      "髻": 5261,
      "鬃": 5262,
      "鬓": 5263,
      "鬟": 5264,
      "鬼": 5265,
      "魁": 5266,
      "魂": 5267,
      "魄": 5268,
      "魅": 5269,
      "魇": 5270,
      "魏": 5271,
      "魔": 5272,
      "鱼": 5273,
      "鱿": 5274,
      "鲁": 5275,
      "鲈": 5276,
      "鲍": 5277,
      "鲑": 5278,
      "鲔": 5279,
      "鲜": 5280,
      "鲢": 5281,
      "鲤": 5282,
      "鲨": 5283,
      "鲫": 5284,
      "鲱": 5285,
      "鲲": 5286,
      "鲳": 5287,
      "鲶": 5288,
      "鲷": 5289,
      "鲸": 5290,
      "鳃": 5291,
      "鳄": 5292,
      "鳅": 5293,
      "鳌": 5294,
      "鳍": 5295,
      "鳕": 5296,
      "鳖": 5297,
      "鳗": 5298,
      "鳜": 5299,
      "鳝": 5300,
      "鳞": 5301,
      "鸟": 5302,
      "鸠": 5303,
      "鸡": 5304,
      "鸢": 5305,
      "鸣": 5306,
      "鸥": 5307,
      "鸦": 5308,
      "鸭": 5309,
      "鸯": 5310,
      "鸳": 5311,
      "鸵": 5312,
      "鸽": 5313,
      "鸾": 5314,
      "鸿": 5315,
      "鹃": 5316,
      "鹄": 5317,
      "鹅": 5318,
      "鹈": 5319,
      "鹉": 5320,
      "鹊": 5321,
      "鹌": 5322,
      "鹏": 5323,
      "鹑": 5324,
      "鹕": 5325,
      "鹜": 5326,
      "鹤": 5327,
      "鹦": 5328,
      "鹫": 5329,
      "鹭": 5330,
      "鹰": 5331,
      "鹿": 5332,
      "麂": 5333,
      "麋": 5334,
      "麒": 5335,
      "麓": 5336,
      "麝": 5337,
      "麟": 5338,
      "麦": 5339,
      "麸": 5340,
      "麻": 5341,
      "麾": 5342,
      "黄": 5343,
      "黍": 5344,
      "黎": 5345,
      "黏": 5346,
      "黑": 5347,
      "黔": 5348,
      "默": 5349,
      "黛": 5350,
      "黜": 5351,
      "黝": 5352,
      "黠": 5353,
      "黯": 5354,
      "鼎": 5355,
      "鼓": 5356,
      "鼠": 5357,
      "鼻": 5358,
      "鼾": 5359,
      "齐": 5360,
      "齿": 5361,
      "龄": 5362,
      "龈": 5363,
      "龋": 5364,
      "龙": 5365,
      "龚": 5366,
      "龛": 5367,
      "龟": 5368,
      "": 5369,
      "": 5370,
      "": 5371,
      "": 5372,
      "": 5373,
      "": 5374,
      "️": 5375,
      "﻿": 5376,
      "￼": 5377,
      "�": 5378,
      "𬀩": 5379,
      "20": 5380,
      "可以": 5381,
      "我们": 5382,
      "公司": 5383,
      "一个": 5384,
      "企业": 5385,
      "工作": 5386,
      "进行": 5387,
      "00": 5388,
      "产品": 5389,
      "发展": 5390,
      "服务": 5391,
      "使用": 5392,
      "技术": 5393,
      "自己": 5394,
      "管理": 5395,
      "中国": 5396,
      "需要": 5397,
      "市场": 5398,
      "通过": 5399,
      "时间": 5400,
      "设计": 5401,
      "没有": 5402,
      "系统": 5403,
      "问题": 5404,
      "提供": 5405,
      "生产": 5406,
      "如果": 5407,
      "就是": 5408,
      "项目": 5409,
      "设备": 5410,
      "安全": 5411,
      "10": 5412,
      "可能": 5413,
      "行业": 5414,
      "数据": 5415,
      "他们": 5416,
      "情况": 5417,
      "信息": 5418,
      "什么": 5419,
      "主要": 5420,
      "要求": 5421,
      "201": 5422,
      "因为": 5423,
      "不同": 5424,
      "这个": 5425,
      "同时": 5426,
      "以及": 5427,
      "专业": 5428,
      "选择": 5429,
      "影响": 5430,
      "方面": 5431,
      "好的": 5432,
      "环境": 5433,
      "生活": 5434,
      "建设": 5435,
      "重要": 5436,
      "所以": 5437,
      "研究": 5438,
      "人员": 5439,
      "很多": 5440,
      "活动": 5441,
      "相关": 5442,
      "国家": 5443,
      "一些": 5444,
      "对于": 5445,
      "处理": 5446,
      "质量": 5447,
      "具有": 5448,
      "非常": 5449,
      "方式": 5450,
      "大家": 5451,
      "中的": 5452,
      "能力": 5453,
      "过程": 5454,
      "已经": 5455,
      "材料": 5456,
      "品牌": 5457,
      "这些": 5458,
      "根据": 5459,
      "应用": 5460,
      "是一": 5461,
      "经济": 5462,
      "时候": 5463,
      "作为": 5464,
      "用户": 5465,
      "这样": 5466,
      "投资": 5467,
      "202": 5468,
      "客户": 5469,
      "工程": 5470,
      "大的": 5471,
      "其他": 5472,
      "能够": 5473,
      "治疗": 5474,
      "中心": 5475,
      "部分": 5476,
      "教育": 5477,
      "目前": 5478,
      "出现": 5479,
      "er": 5480,
      "标准": 5481,
      "学生": 5482,
      "的人": 5483,
      "平台": 5484,
      "也是": 5485,
      "产业": 5486,
      "实现": 5487,
      "成为": 5488,
      "但是": 5489,
      "内容": 5490,
      "一定": 5491,
      "提高": 5492,
      "方法": 5493,
      "不是": 5494,
      "世界": 5495,
      "开始": 5496,
      "社会": 5497,
      "网站": 5498,
      "的一": 5499,
      "in": 5500,
      "采用": 5501,
      "现在": 5502,
      "功能": 5503,
      "了解": 5504,
      "控制": 5505,
      "比较": 5506,
      "需求": 5507,
      "n1": 5508,
      "因此": 5509,
      "包括": 5510,
      "自己的": 5511,
      "消费": 5512,
      "一般": 5513,
      "还是": 5514,
      "的是": 5515,
      "科技": 5516,
      "都是": 5517,
      "第一": 5518,
      "个人": 5519,
      "癜风": 5520,
      "白癜风": 5521,
      "所有": 5522,
      "学习": 5523,
      "创新": 5524,
      "患者": 5525,
      "提升": 5526,
      "合作": 5527,
      "或者": 5528,
      "国际": 5529,
      "表示": 5530,
      "智能": 5531,
      "价格": 5532,
      "由于": 5533,
      "文化": 5534,
      "组织": 5535,
      "上的": 5536,
      "孩子": 5537,
      "到了": 5538,
      "结构": 5539,
      "不能": 5540,
      "有限": 5541,
      "不会": 5542,
      "这种": 5543,
      "解决": 5544,
      "12": 5545,
      "n2": 5546,
      "单位": 5547,
      "用于": 5548,
      "健康": 5549,
      "机构": 5550,
      "n在": 5551,
      "分析": 5552,
      "an": 5553,
      "人的": 5554,
      "获得": 5555,
      "完成": 5556,
      "开发": 5557,
      "那么": 5558,
      "作用": 5559,
      "部门": 5560,
      "城市": 5561,
      "30": 5562,
      "发生": 5563,
      "网络": 5564,
      "基础": 5565,
      "资源": 5566,
      "必须": 5567,
      "效果": 5568,
      "如何": 5569,
      "业务": 5570,
      "不断": 5571,
      "更多": 5572,
      "的时候": 5573,
      "各种": 5574,
      "建筑": 5575,
      "领域": 5576,
      "政府": 5577,
      "注意": 5578,
      "为了": 5579,
      "有效": 5580,
      "发现": 5581,
      "产生": 5582,
      "而且": 5583,
      "工业": 5584,
      "之后": 5585,
      "大学": 5586,
      "50": 5587,
      "知道": 5588,
      "来的": 5589,
      "利用": 5590,
      "11": 5591,
      "方案": 5592,
      "on": 5593,
      "其中": 5594,
      "以上": 5595,
      "学校": 5596,
      "规定": 5597,
      "增加": 5598,
      "保护": 5599,
      "医院": 5600,
      "n3": 5601,
      "一步": 5602,
      "支持": 5603,
      "操作": 5604,
      "直接": 5605,
      "集团": 5606,
      "有限公司": 5607,
      "还有": 5608,
      "任何": 5609,
      "开展": 5610,
      "希望": 5611,
      "自动": 5612,
      "国内": 5613,
      "制造": 5614,
      "帮助": 5615,
      "来说": 5616,
      "申请": 5617,
      "政策": 5618,
      "空间": 5619,
      "汽车": 5620,
      "游戏": 5621,
      "19": 5622,
      "新的": 5623,
      "200": 5624,
      "电子": 5625,
      "性能": 5626,
      "安装": 5627,
      "一起": 5628,
      "达到": 5629,
      "检测": 5630,
      "这一": 5631,
      "基本": 5632,
      "应该": 5633,
      "持续": 5634,
      "特别": 5635,
      "导致": 5636,
      "计划": 5637,
      "存在": 5638,
      "成本": 5639,
      "100": 5640,
      "容易": 5641,
      "15": 5642,
      "经营": 5643,
      "水平": 5644,
      "美国": 5645,
      "模式": 5646,
      "销售": 5647,
      "进入": 5648,
      "科学": 5649,
      "传统": 5650,
      "随着": 5651,
      "介绍": 5652,
      "北京": 5653,
      "认为": 5654,
      "过程中": 5655,
      "不仅": 5656,
      "实际": 5657,
      "年的": 5658,
      "知识": 5659,
      "第二": 5660,
      "条件": 5661,
      "比赛": 5662,
      "是否": 5663,
      "有关": 5664,
      "目标": 5665,
      "检查": 5666,
      "系列": 5667,
      "交易": 5668,
      "积极": 5669,
      "之间": 5670,
      "虽然": 5671,
      "显示": 5672,
      "了一": 5673,
      "造成": 5674,
      "更加": 5675,
      "加工": 5676,
      "增长": 5677,
      "负责": 5678,
      "保证": 5679,
      "我们的": 5680,
      "未来": 5681,
      "价值": 5682,
      "数字": 5683,
      "全国": 5684,
      "自然": 5685,
      "稳定": 5686,
      "疫情": 5687,
      "形成": 5688,
      "全球": 5689,
      "地区": 5690,
      "温度": 5691,
      "关系": 5692,
      "拥有": 5693,
      "这是": 5694,
      "人民": 5695,
      "发布": 5696,
      "结合": 5697,
      "成功": 5698,
      "代表": 5699,
      "en": 5700,
      "综合": 5701,
      "原因": 5702,
      "结果": 5703,
      "ar": 5704,
      "范围": 5705,
      "保持": 5706,
      "团队": 5707,
      "压力": 5708,
      "进一步": 5709,
      "责任": 5710,
      "简单": 5711,
      "地方": 5712,
      "施工": 5713,
      "关于": 5714,
      "不要": 5715,
      "超过": 5716,
      "or": 5717,
      "2022": 5718,
      "无法": 5719,
      "风险": 5720,
      "你的": 5721,
      "及时": 5722,
      "实施": 5723,
      "许多": 5724,
      "优势": 5725,
      "培训": 5726,
      "以下": 5727,
      "th": 5728,
      "今年": 5729,
      "然后": 5730,
      "现场": 5731,
      "关键": 5732,
      "最后": 5733,
      "朋友": 5734,
      "体系": 5735,
      "我国": 5736,
      "一样": 5737,
      "建立": 5738,
      "重点": 5739,
      "减少": 5740,
      "不过": 5741,
      "怎么": 5742,
      "一直": 5743,
      "并且": 5744,
      "经验": 5745,
      "研发": 5746,
      "月2": 5747,
      "参与": 5748,
      "能源": 5749,
      "按照": 5750,
      "变化": 5751,
      "工艺": 5752,
      "其实": 5753,
      "运动": 5754,
      "艺术": 5755,
      "18": 5756,
      "运行": 5757,
      "体验": 5758,
      "机械": 5759,
      "快速": 5760,
      "一种": 5761,
      "性的": 5762,
      "之一": 5763,
      "消费者": 5764,
      "继续": 5765,
      "起来": 5766,
      "联网": 5767,
      "n4": 5768,
      "甚至": 5769,
      "满足": 5770,
      "基金": 5771,
      "建议": 5772,
      "上海": 5773,
      "才能": 5774,
      "一次": 5775,
      "只有": 5776,
      "保障": 5777,
      "参加": 5778,
      "经过": 5779,
      "计算": 5780,
      "体的": 5781,
      "降低": 5782,
      "表面": 5783,
      "看到": 5784,
      "人们": 5785,
      "不同的": 5786,
      "金融": 5787,
      "确保": 5788,
      "全面": 5789,
      "员工": 5790,
      "两个": 5791,
      "会议": 5792,
      "食品": 5793,
      "得到": 5794,
      "加强": 5795,
      "1年": 5796,
      "16": 5797,
      "精神": 5798,
      "状态": 5799,
      "表现": 5800,
      "le": 5801,
      "规划": 5802,
      "分钟": 5803,
      "提出": 5804,
      "除了": 5805,
      "教学": 5806,
      "报告": 5807,
      "避免": 5808,
      "第三": 5809,
      "行为": 5810,
      "at": 5811,
      "考虑": 5812,
      "关注": 5813,
      "学院": 5814,
      "金属": 5815,
      "专家": 5816,
      "医疗": 5817,
      "阶段": 5818,
      "做好": 5819,
      "调整": 5820,
      "正在": 5821,
      "软件": 5822,
      "资金": 5823,
      "的大": 5824,
      "制作": 5825,
      "这里": 5826,
      "规模": 5827,
      "竞争": 5828,
      "效率": 5829,
      "银行": 5830,
      "带来": 5831,
      "执行": 5832,
      "推动": 5833,
      "是在": 5834,
      "期间": 5835,
      "测试": 5836,
      "针对": 5837,
      "之前": 5838,
      "皮肤": 5839,
      "就会": 5840,
      "生态": 5841,
      "交流": 5842,
      "完全": 5843,
      "喜欢": 5844,
      "球队": 5845,
      "一下": 5846,
      "从而": 5847,
      "区域": 5848,
      "程序": 5849,
      "记者": 5850,
      "丰富": 5851,
      "身体": 5852,
      "特点": 5853,
      "量的": 5854,
      "正常": 5855,
      "措施": 5856,
      "取得": 5857,
      "核心": 5858,
      "旅游": 5859,
      "符合": 5860,
      "环保": 5861,
      "老师": 5862,
      "的问题": 5863,
      "充分": 5864,
      "的情况": 5865,
      "因素": 5866,
      "机会": 5867,
      "13": 5868,
      "法律": 5869,
      "亿元": 5870,
      "有的": 5871,
      "空气": 5872,
      "受到": 5873,
      "交通": 5874,
      "14": 5875,
      "小时": 5876,
      "al": 5877,
      "职业": 5878,
      "今天": 5879,
      "高的": 5880,
      "万元": 5881,
      "es": 5882,
      "打造": 5883,
      "污染": 5884,
      "文件": 5885,
      "时代": 5886,
      "化的": 5887,
      "方便": 5888,
      "家庭": 5889,
      "形式": 5890,
      "商业": 5891,
      "决定": 5892,
      "运营": 5893,
      "现代": 5894,
      "广泛": 5895,
      "生物": 5896,
      "资料": 5897,
      "整个": 5898,
      "来越": 5899,
      "共同": 5900,
      "我的": 5901,
      "历史": 5902,
      "是一种": 5903,
      "手机": 5904,
      "注册": 5905,
      "越来越": 5906,
      "供应": 5907,
      "速度": 5908,
      "视频": 5909,
      "设施": 5910,
      "适合": 5911,
      "的话": 5912,
      "比如": 5913,
      "的高": 5914,
      "疾病": 5915,
      "领导": 5916,
      "也有": 5917,
      "整体": 5918,
      "课程": 5919,
      "000": 5920,
      "的发展": 5921,
      "咨询": 5922,
      "方向": 5923,
      "具体": 5924,
      "长期": 5925,
      "努力": 5926,
      "程度": 5927,
      "媒体": 5928,
      "确定": 5929,
      "严重": 5930,
      "他的": 5931,
      "互联网": 5932,
      "的事": 5933,
      "不可": 5934,
      "60": 5935,
      "接受": 5936,
      "是一个": 5937,
      "40": 5938,
      "准备": 5939,
      "推进": 5940,
      "人才": 5941,
      "费用": 5942,
      "坚持": 5943,
      "都有": 5944,
      "左右": 5945,
      "规范": 5946,
      "以来": 5947,
      "不得": 5948,
      "促进": 5949,
      "it": 5950,
      "广告": 5951,
      "办公": 5952,
      "的新": 5953,
      "宣传": 5954,
      "目的": 5955,
      "合理": 5956,
      "2022年": 5957,
      "发挥": 5958,
      "明显": 5959,
      "位置": 5960,
      "来看": 5961,
      "2020": 5962,
      "球员": 5963,
      "属于": 5964,
      "觉得": 5965,
      "包装": 5966,
      "联系": 5967,
      "都会": 5968,
      "作品": 5969,
      "购买": 5970,
      "维护": 5971,
      "战略": 5972,
      "十分": 5973,
      "也不": 5974,
      "只是": 5975,
      "连接": 5976,
      "ou": 5977,
      "分别": 5978,
      "应当": 5979,
      "实验": 5980,
      "25": 5981,
      "首先": 5982,
      "感觉": 5983,
      "面积": 5984,
      "保险": 5985,
      "的工作": 5986,
      "17": 5987,
      "资产": 5988,
      "来自": 5989,
      "体育": 5990,
      "另外": 5991,
      "品质": 5992,
      "制度": 5993,
      "也会": 5994,
      "您的": 5995,
      "出了": 5996,
      "营销": 5997,
      "明确": 5998,
      "这样的": 5999,
      "as": 6000,
      "指导": 6001,
      "教师": 6002,
      "成立": 6003,
      "赛季": 6004,
      "最终": 6005,
      "并不": 6006,
      "绿色": 6007,
      "合同": 6008,
      "哪些": 6009,
      "年来": 6010,
      "设置": 6011,
      "玻璃": 6012,
      "日本": 6013,
      "组成": 6014,
      "改变": 6015,
      "有些": 6016,
      "工具": 6017,
      "主题": 6018,
      "el": 6019,
      "想要": 6020,
      "出的": 6021,
      "n5": 6022,
      "通常": 6023,
      "每个": 6024,
      "完善": 6025,
      "不少": 6026,
      "尤其": 6027,
      "此外": 6028,
      "9年": 6029,
      "考试": 6030,
      "当然": 6031,
      "社区": 6032,
      "只要": 6033,
      "机器": 6034,
      "80": 6035,
      "自身": 6036,
      "商品": 6037,
      "电机": 6038,
      "优化": 6039,
      "重要的": 6040,
      "后的": 6041,
      "经常": 6042,
      "ic": 6043,
      "产品的": 6044,
      "任务": 6045,
      "相对": 6046,
      "化学": 6047,
      "例如": 6048,
      "严格": 6049,
      "分享": 6050,
      "普通": 6051,
      "培养": 6052,
      "动力": 6053,
      "出来": 6054,
      "推广": 6055,
      "的产品": 6056,
      "内部": 6057,
      "落实": 6058,
      "创造": 6059,
      "装置": 6060,
      "类型": 6061,
      "创业": 6062,
      "联合": 6063,
      "2021年": 6064,
      "is": 6065,
      "移动": 6066,
      "物流": 6067,
      "的重要": 6068,
      "上市": 6069,
      "说明": 6070,
      "用的": 6071,
      "多的": 6072,
      "收入": 6073,
      "卫生": 6074,
      "24": 6075,
      "音乐": 6076,
      "成绩": 6077,
      "升级": 6078,
      "机制": 6079,
      "厂家": 6080,
      "ed": 6081,
      "个月": 6082,
      "物质": 6083,
      "也可以": 6084,
      "试验": 6085,
      "欢迎": 6086,
      "真正": 6087,
      "反应": 6088,
      "过去": 6089,
      "理念": 6090,
      "企业的": 6091,
      "面的": 6092,
      "无论": 6093,
      "运输": 6094,
      "8年": 6095,
      "行政": 6096,
      "良好的": 6097,
      "行动": 6098,
      "日常": 6099,
      "电池": 6100,
      "mm": 6101,
      "特色": 6102,
      "先进": 6103,
      "流程": 6104,
      "农业": 6105,
      "公共": 6106,
      "引起": 6107,
      "oo": 6108,
      "测量": 6109,
      "生命": 6110,
      "东西": 6111,
      "美元": 6112,
      "一定要": 6113,
      "面对": 6114,
      "发展的": 6115,
      "全部": 6116,
      "就可以": 6117,
      "在线": 6118,
      "本文": 6119,
      "具备": 6120,
      "故事": 6121,
      "通知": 6122,
      "办法": 6123,
      "内的": 6124,
      "监管": 6125,
      "经理": 6126,
      "优质": 6127,
      "儿童": 6128,
      "智慧": 6129,
      "理解": 6130,
      "样的": 6131,
      "心理": 6132,
      "正式": 6133,
      "多种": 6134,
      "加入": 6135,
      "下来": 6136,
      "必要": 6137,
      "优秀": 6138,
      "毕业": 6139,
      "安排": 6140,
      "实践": 6141,
      "细胞": 6142,
      "做到": 6143
    },
    "merges": [
      [
        "2",
        "0"
      ],
      [
        "可",
        "以"
      ],
      [
        "我",
        "们"
      ],
      [
        "公",
        "司"
      ],
      [
        "一",
        "个"
      ],
      [
        "企",
        "业"
      ],
      [
        "工",
        "作"
      ],
      [
        "进",
        "行"
      ],
      [
        "0",
        "0"
      ],
      [
        "产",
        "品"
      ],
      [
        "发",
        "展"
      ],
      [
        "服",
        "务"
      ],
      [
        "使",
        "用"
      ],
      [
        "技",
        "术"
      ],
      [
        "自",
        "己"
      ],
      [
        "管",
        "理"
      ],
      [
        "中",
        "国"
      ],
      [
        "需",
        "要"
      ],
      [
        "市",
        "场"
      ],
      [
        "通",
        "过"
      ],
      [
        "时",
        "间"
      ],
      [
        "设",
        "计"
      ],
      [
        "没",
        "有"
      ],
      [
        "系",
        "统"
      ],
      [
        "问",
        "题"
      ],
      [
        "提",
        "供"
      ],
      [
        "生",
        "产"
      ],
      [
        "如",
        "果"
      ],
      [
        "就",
        "是"
      ],
      [
        "项",
        "目"
      ],
      [
        "设",
        "备"
      ],
      [
        "安",
        "全"
      ],
      [
        "1",
        "0"
      ],
      [
        "可",
        "能"
      ],
      [
        "行",
        "业"
      ],
      [
        "数",
        "据"
      ],
      [
        "他",
        "们"
      ],
      [
        "情",
        "况"
      ],
      [
        "信",
        "息"
      ],
      [
        "什",
        "么"
      ],
      [
        "主",
        "要"
      ],
      [
        "要",
        "求"
      ],
      [
        "20",
        "1"
      ],
      [
        "因",
        "为"
      ],
      [
        "不",
        "同"
      ],
      [
        "这",
        "个"
      ],
      [
        "同",
        "时"
      ],
      [
        "以",
        "及"
      ],
      [
        "专",
        "业"
      ],
      [
        "选",
        "择"
      ],
      [
        "影",
        "响"
      ],
      [
        "方",
        "面"
      ],
      [
        "好",
        "的"
      ],
      [
        "环",
        "境"
      ],
      [
        "生",
        "活"
      ],
      [
        "建",
        "设"
      ],
      [
        "重",
        "要"
      ],
      [
        "所",
        "以"
      ],
      [
        "研",
        "究"
      ],
      [
        "人",
        "员"
      ],
      [
        "很",
        "多"
      ],
      [
        "活",
        "动"
      ],
      [
        "相",
        "关"
      ],
      [
        "国",
        "家"
      ],
      [
        "一",
        "些"
      ],
      [
        "对",
        "于"
      ],
      [
        "处",
        "理"
      ],
      [
        "质",
        "量"
      ],
      [
        "具",
        "有"
      ],
      [
        "非",
        "常"
      ],
      [
        "方",
        "式"
      ],
      [
        "大",
        "家"
      ],
      [
        "中",
        "的"
      ],
      [
        "能",
        "力"
      ],
      [
        "过",
        "程"
      ],
      [
        "已",
        "经"
      ],
      [
        "材",
        "料"
      ],
      [
        "品",
        "牌"
      ],
      [
        "这",
        "些"
      ],
      [
        "根",
        "据"
      ],
      [
        "应",
        "用"
      ],
      [
        "是",
        "一"
      ],
      [
        "经",
        "济"
      ],
      [
        "时",
        "候"
      ],
      [
        "作",
        "为"
      ],
      [
        "用",
        "户"
      ],
      [
        "这",
        "样"
      ],
      [
        "投",
        "资"
      ],
      [
        "20",
        "2"
      ],
      [
        "客",
        "户"
      ],
      [
        "工",
        "程"
      ],
      [
        "大",
        "的"
      ],
      [
        "其",
        "他"
      ],
      [
        "能",
        "够"
      ],
      [
        "治",
        "疗"
      ],
      [
        "中",
        "心"
      ],
      [
        "部",
        "分"
      ],
      [
        "教",
        "育"
      ],
      [
        "目",
        "前"
      ],
      [
        "出",
        "现"
      ],
      [
        "e",
        "r"
      ],
      [
        "标",
        "准"
      ],
      [
        "学",
        "生"
      ],
      [
        "的",
        "人"
      ],
      [
        "平",
        "台"
      ],
      [
        "也",
        "是"
      ],
      [
        "产",
        "业"
      ],
      [
        "实",
        "现"
      ],
      [
        "成",
        "为"
      ],
      [
        "但",
        "是"
      ],
      [
        "内",
        "容"
      ],
      [
        "一",
        "定"
      ],
      [
        "提",
        "高"
      ],
      [
        "方",
        "法"
      ],
      [
        "不",
        "是"
      ],
      [
        "世",
        "界"
      ],
      [
        "开",
        "始"
      ],
      [
        "社",
        "会"
      ],
      [
        "网",
        "站"
      ],
      [
        "的",
        "一"
      ],
      [
        "i",
        "n"
      ],
      [
        "采",
        "用"
      ],
      [
        "现",
        "在"
      ],
      [
        "功",
        "能"
      ],
      [
        "了",
        "解"
      ],
      [
        "控",
        "制"
      ],
      [
        "比",
        "较"
      ],
      [
        "需",
        "求"
      ],
      [
        "n",
        "1"
      ],
      [
        "因",
        "此"
      ],
      [
        "包",
        "括"
      ],
      [
        "自己",
        "的"
      ],
      [
        "消",
        "费"
      ],
      [
        "一",
        "般"
      ],
      [
        "还",
        "是"
      ],
      [
        "的",
        "是"
      ],
      [
        "科",
        "技"
      ],
      [
        "都",
        "是"
      ],
      [
        "第",
        "一"
      ],
      [
        "个",
        "人"
      ],
      [
        "癜",
        "风"
      ],
      [
        "白",
        "癜风"
      ],
      [
        "所",
        "有"
      ],
      [
        "学",
        "习"
      ],
      [
        "创",
        "新"
      ],
      [
        "患",
        "者"
      ],
      [
        "提",
        "升"
      ],
      [
        "合",
        "作"
      ],
      [
        "或",
        "者"
      ],
      [
        "国",
        "际"
      ],
      [
        "表",
        "示"
      ],
      [
        "智",
        "能"
      ],
      [
        "价",
        "格"
      ],
      [
        "由",
        "于"
      ],
      [
        "文",
        "化"
      ],
      [
        "组",
        "织"
      ],
      [
        "上",
        "的"
      ],
      [
        "孩",
        "子"
      ],
      [
        "到",
        "了"
      ],
      [
        "结",
        "构"
      ],
      [
        "不",
        "能"
      ],
      [
        "有",
        "限"
      ],
      [
        "不",
        "会"
      ],
      [
        "这",
        "种"
      ],
      [
        "解",
        "决"
      ],
      [
        "1",
        "2"
      ],
      [
        "n",
        "2"
      ],
      [
        "单",
        "位"
      ],
      [
        "用",
        "于"
      ],
      [
        "健",
        "康"
      ],
      [
        "机",
        "构"
      ],
      [
        "n",
        "在"
      ],
      [
        "分",
        "析"
      ],
      [
        "a",
        "n"
      ],
      [
        "人",
        "的"
      ],
      [
        "获",
        "得"
      ],
      [
        "完",
        "成"
      ],
      [
        "开",
        "发"
      ],
      [
        "那",
        "么"
      ],
      [
        "作",
        "用"
      ],
      [
        "部",
        "门"
      ],
      [
        "城",
        "市"
      ],
      [
        "3",
        "0"
      ],
      [
        "发",
        "生"
      ],
      [
        "网",
        "络"
      ],
      [
        "基",
        "础"
      ],
      [
        "资",
        "源"
      ],
      [
        "必",
        "须"
      ],
      [
        "效",
        "果"
      ],
      [
        "如",
        "何"
      ],
      [
        "业",
        "务"
      ],
      [
        "不",
        "断"
      ],
      [
        "更",
        "多"
      ],
      [
        "的",
        "时候"
      ],
      [
        "各",
        "种"
      ],
      [
        "建",
        "筑"
      ],
      [
        "领",
        "域"
      ],
      [
        "政",
        "府"
      ],
      [
        "注",
        "意"
      ],
      [
        "为",
        "了"
      ],
      [
        "有",
        "效"
      ],
      [
        "发",
        "现"
      ],
      [
        "产",
        "生"
      ],
      [
        "而",
        "且"
      ],
      [
        "工",
        "业"
      ],
      [
        "之",
        "后"
      ],
      [
        "大",
        "学"
      ],
      [
        "5",
        "0"
      ],
      [
        "知",
        "道"
      ],
      [
        "来",
        "的"
      ],
      [
        "利",
        "用"
      ],
      [
        "1",
        "1"
      ],
      [
        "方",
        "案"
      ],
      [
        "o",
        "n"
      ],
      [
        "其",
        "中"
      ],
      [
        "以",
        "上"
      ],
      [
        "学",
        "校"
      ],
      [
        "规",
        "定"
      ],
      [
        "增",
        "加"
      ],
      [
        "保",
        "护"
      ],
      [
        "医",
        "院"
      ],
      [
        "n",
        "3"
      ],
      [
        "一",
        "步"
      ],
      [
        "支",
        "持"
      ],
      [
        "操",
        "作"
      ],
      [
        "直",
        "接"
      ],
      [
        "集",
        "团"
      ],
      [
        "有限",
        "公司"
      ],
      [
        "还",
        "有"
      ],
      [
        "任",
        "何"
      ],
      [
        "开",
        "展"
      ],
      [
        "希",
        "望"
      ],
      [
        "自",
        "动"
      ],
      [
        "国",
        "内"
      ],
      [
        "制",
        "造"
      ],
      [
        "帮",
        "助"
      ],
      [
        "来",
        "说"
      ],
      [
        "申",
        "请"
      ],
      [
        "政",
        "策"
      ],
      [
        "空",
        "间"
      ],
      [
        "汽",
        "车"
      ],
      [
        "游",
        "戏"
      ],
      [
        "1",
        "9"
      ],
      [
        "新",
        "的"
      ],
      [
        "20",
        "0"
      ],
      [
        "电",
        "子"
      ],
      [
        "性",
        "能"
      ],
      [
        "安",
        "装"
      ],
      [
        "一",
        "起"
      ],
      [
        "达",
        "到"
      ],
      [
        "检",
        "测"
      ],
      [
        "这",
        "一"
      ],
      [
        "基",
        "本"
      ],
      [
        "应",
        "该"
      ],
      [
        "持",
        "续"
      ],
      [
        "特",
        "别"
      ],
      [
        "导",
        "致"
      ],
      [
        "计",
        "划"
      ],
      [
        "存",
        "在"
      ],
      [
        "成",
        "本"
      ],
      [
        "1",
        "00"
      ],
      [
        "容",
        "易"
      ],
      [
        "1",
        "5"
      ],
      [
        "经",
        "营"
      ],
      [
        "水",
        "平"
      ],
      [
        "美",
        "国"
      ],
      [
        "模",
        "式"
      ],
      [
        "销",
        "售"
      ],
      [
        "进",
        "入"
      ],
      [
        "科",
        "学"
      ],
      [
        "传",
        "统"
      ],
      [
        "随",
        "着"
      ],
      [
        "介",
        "绍"
      ],
      [
        "北",
        "京"
      ],
      [
        "认",
        "为"
      ],
      [
        "过程",
        "中"
      ],
      [
        "不",
        "仅"
      ],
      [
        "实",
        "际"
      ],
      [
        "年",
        "的"
      ],
      [
        "知",
        "识"
      ],
      [
        "第",
        "二"
      ],
      [
        "条",
        "件"
      ],
      [
        "比",
        "赛"
      ],
      [
        "是",
        "否"
      ],
      [
        "有",
        "关"
      ],
      [
        "目",
        "标"
      ],
      [
        "检",
        "查"
      ],
      [
        "系",
        "列"
      ],
      [
        "交",
        "易"
      ],
      [
        "积",
        "极"
      ],
      [
        "之",
        "间"
      ],
      [
        "虽",
        "然"
      ],
      [
        "显",
        "示"
      ],
      [
        "了",
        "一"
      ],
      [
        "造",
        "成"
      ],
      [
        "更",
        "加"
      ],
      [
        "加",
        "工"
      ],
      [
        "增",
        "长"
      ],
      [
        "负",
        "责"
      ],
      [
        "保",
        "证"
      ],
      [
        "我们",
        "的"
      ],
      [
        "未",
        "来"
      ],
      [
        "价",
        "值"
      ],
      [
        "数",
        "字"
      ],
      [
        "全",
        "国"
      ],
      [
        "自",
        "然"
      ],
      [
        "稳",
        "定"
      ],
      [
        "疫",
        "情"
      ],
      [
        "形",
        "成"
      ],
      [
        "全",
        "球"
      ],
      [
        "地",
        "区"
      ],
      [
        "温",
        "度"
      ],
      [
        "关",
        "系"
      ],
      [
        "拥",
        "有"
      ],
      [
        "这",
        "是"
      ],
      [
        "人",
        "民"
      ],
      [
        "发",
        "布"
      ],
      [
        "结",
        "合"
      ],
      [
        "成",
        "功"
      ],
      [
        "代",
        "表"
      ],
      [
        "e",
        "n"
      ],
      [
        "综",
        "合"
      ],
      [
        "原",
        "因"
      ],
      [
        "结",
        "果"
      ],
      [
        "a",
        "r"
      ],
      [
        "范",
        "围"
      ],
      [
        "保",
        "持"
      ],
      [
        "团",
        "队"
      ],
      [
        "压",
        "力"
      ],
      [
        "进",
        "一步"
      ],
      [
        "责",
        "任"
      ],
      [
        "简",
        "单"
      ],
      [
        "地",
        "方"
      ],
      [
        "施",
        "工"
      ],
      [
        "关",
        "于"
      ],
      [
        "不",
        "要"
      ],
      [
        "超",
        "过"
      ],
      [
        "o",
        "r"
      ],
      [
        "202",
        "2"
      ],
      [
        "无",
        "法"
      ],
      [
        "风",
        "险"
      ],
      [
        "你",
        "的"
      ],
      [
        "及",
        "时"
      ],
      [
        "实",
        "施"
      ],
      [
        "许",
        "多"
      ],
      [
        "优",
        "势"
      ],
      [
        "培",
        "训"
      ],
      [
        "以",
        "下"
      ],
      [
        "t",
        "h"
      ],
      [
        "今",
        "年"
      ],
      [
        "然",
        "后"
      ],
      [
        "现",
        "场"
      ],
      [
        "关",
        "键"
      ],
      [
        "最",
        "后"
      ],
      [
        "朋",
        "友"
      ],
      [
        "体",
        "系"
      ],
      [
        "我",
        "国"
      ],
      [
        "一",
        "样"
      ],
      [
        "建",
        "立"
      ],
      [
        "重",
        "点"
      ],
      [
        "减",
        "少"
      ],
      [
        "不",
        "过"
      ],
      [
        "怎",
        "么"
      ],
      [
        "一",
        "直"
      ],
      [
        "并",
        "且"
      ],
      [
        "经",
        "验"
      ],
      [
        "研",
        "发"
      ],
      [
        "月",
        "2"
      ],
      [
        "参",
        "与"
      ],
      [
        "能",
        "源"
      ],
      [
        "按",
        "照"
      ],
      [
        "变",
        "化"
      ],
      [
        "工",
        "艺"
      ],
      [
        "其",
        "实"
      ],
      [
        "运",
        "动"
      ],
      [
        "艺",
        "术"
      ],
      [
        "1",
        "8"
      ],
      [
        "运",
        "行"
      ],
      [
        "体",
        "验"
      ],
      [
        "机",
        "械"
      ],
      [
        "快",
        "速"
      ],
      [
        "一",
        "种"
      ],
      [
        "性",
        "的"
      ],
      [
        "之",
        "一"
      ],
      [
        "消费",
        "者"
      ],
      [
        "继",
        "续"
      ],
      [
        "起",
        "来"
      ],
      [
        "联",
        "网"
      ],
      [
        "n",
        "4"
      ],
      [
        "甚",
        "至"
      ],
      [
        "满",
        "足"
      ],
      [
        "基",
        "金"
      ],
      [
        "建",
        "议"
      ],
      [
        "上",
        "海"
      ],
      [
        "才",
        "能"
      ],
      [
        "一",
        "次"
      ],
      [
        "只",
        "有"
      ],
      [
        "保",
        "障"
      ],
      [
        "参",
        "加"
      ],
      [
        "经",
        "过"
      ],
      [
        "计",
        "算"
      ],
      [
        "体",
        "的"
      ],
      [
        "降",
        "低"
      ],
      [
        "表",
        "面"
      ],
      [
        "看",
        "到"
      ],
      [
        "人",
        "们"
      ],
      [
        "不同",
        "的"
      ],
      [
        "金",
        "融"
      ],
      [
        "确",
        "保"
      ],
      [
        "全",
        "面"
      ],
      [
        "员",
        "工"
      ],
      [
        "两",
        "个"
      ],
      [
        "会",
        "议"
      ],
      [
        "食",
        "品"
      ],
      [
        "得",
        "到"
      ],
      [
        "加",
        "强"
      ],
      [
        "1",
        "年"
      ],
      [
        "1",
        "6"
      ],
      [
        "精",
        "神"
      ],
      [
        "状",
        "态"
      ],
      [
        "表",
        "现"
      ],
      [
        "l",
        "e"
      ],
      [
        "规",
        "划"
      ],
      [
        "分",
        "钟"
      ],
      [
        "提",
        "出"
      ],
      [
        "除",
        "了"
      ],
      [
        "教",
        "学"
      ],
      [
        "报",
        "告"
      ],
      [
        "避",
        "免"
      ],
      [
        "第",
        "三"
      ],
      [
        "行",
        "为"
      ],
      [
        "a",
        "t"
      ],
      [
        "考",
        "虑"
      ],
      [
        "关",
        "注"
      ],
      [
        "学",
        "院"
      ],
      [
        "金",
        "属"
      ],
      [
        "专",
        "家"
      ],
      [
        "医",
        "疗"
      ],
      [
        "阶",
        "段"
      ],
      [
        "做",
        "好"
      ],
      [
        "调",
        "整"
      ],
      [
        "正",
        "在"
      ],
      [
        "软",
        "件"
      ],
      [
        "资",
        "金"
      ],
      [
        "的",
        "大"
      ],
      [
        "制",
        "作"
      ],
      [
        "这",
        "里"
      ],
      [
        "规",
        "模"
      ],
      [
        "竞",
        "争"
      ],
      [
        "效",
        "率"
      ],
      [
        "银",
        "行"
      ],
      [
        "带",
        "来"
      ],
      [
        "执",
        "行"
      ],
      [
        "推",
        "动"
      ],
      [
        "是",
        "在"
      ],
      [
        "期",
        "间"
      ],
      [
        "测",
        "试"
      ],
      [
        "针",
        "对"
      ],
      [
        "之",
        "前"
      ],
      [
        "皮",
        "肤"
      ],
      [
        "就",
        "会"
      ],
      [
        "生",
        "态"
      ],
      [
        "交",
        "流"
      ],
      [
        "完",
        "全"
      ],
      [
        "喜",
        "欢"
      ],
      [
        "球",
        "队"
      ],
      [
        "一",
        "下"
      ],
      [
        "从",
        "而"
      ],
      [
        "区",
        "域"
      ],
      [
        "程",
        "序"
      ],
      [
        "记",
        "者"
      ],
      [
        "丰",
        "富"
      ],
      [
        "身",
        "体"
      ],
      [
        "特",
        "点"
      ],
      [
        "量",
        "的"
      ],
      [
        "正",
        "常"
      ],
      [
        "措",
        "施"
      ],
      [
        "取",
        "得"
      ],
      [
        "核",
        "心"
      ],
      [
        "旅",
        "游"
      ],
      [
        "符",
        "合"
      ],
      [
        "环",
        "保"
      ],
      [
        "老",
        "师"
      ],
      [
        "的",
        "问题"
      ],
      [
        "充",
        "分"
      ],
      [
        "的",
        "情况"
      ],
      [
        "因",
        "素"
      ],
      [
        "机",
        "会"
      ],
      [
        "1",
        "3"
      ],
      [
        "法",
        "律"
      ],
      [
        "亿",
        "元"
      ],
      [
        "有",
        "的"
      ],
      [
        "空",
        "气"
      ],
      [
        "受",
        "到"
      ],
      [
        "交",
        "通"
      ],
      [
        "1",
        "4"
      ],
      [
        "小",
        "时"
      ],
      [
        "a",
        "l"
      ],
      [
        "职",
        "业"
      ],
      [
        "今",
        "天"
      ],
      [
        "高",
        "的"
      ],
      [
        "万",
        "元"
      ],
      [
        "e",
        "s"
      ],
      [
        "打",
        "造"
      ],
      [
        "污",
        "染"
      ],
      [
        "文",
        "件"
      ],
      [
        "时",
        "代"
      ],
      [
        "化",
        "的"
      ],
      [
        "方",
        "便"
      ],
      [
        "家",
        "庭"
      ],
      [
        "形",
        "式"
      ],
      [
        "商",
        "业"
      ],
      [
        "决",
        "定"
      ],
      [
        "运",
        "营"
      ],
      [
        "现",
        "代"
      ],
      [
        "广",
        "泛"
      ],
      [
        "生",
        "物"
      ],
      [
        "资",
        "料"
      ],
      [
        "整",
        "个"
      ],
      [
        "来",
        "越"
      ],
      [
        "共",
        "同"
      ],
      [
        "我",
        "的"
      ],
      [
        "历",
        "史"
      ],
      [
        "是一",
        "种"
      ],
      [
        "手",
        "机"
      ],
      [
        "注",
        "册"
      ],
      [
        "越",
        "来越"
      ],
      [
        "供",
        "应"
      ],
      [
        "速",
        "度"
      ],
      [
        "视",
        "频"
      ],
      [
        "设",
        "施"
      ],
      [
        "适",
        "合"
      ],
      [
        "的",
        "话"
      ],
      [
        "比",
        "如"
      ],
      [
        "的",
        "高"
      ],
      [
        "疾",
        "病"
      ],
      [
        "领",
        "导"
      ],
      [
        "也",
        "有"
      ],
      [
        "整",
        "体"
      ],
      [
        "课",
        "程"
      ],
      [
        "00",
        "0"
      ],
      [
        "的",
        "发展"
      ],
      [
        "咨",
        "询"
      ],
      [
        "方",
        "向"
      ],
      [
        "具",
        "体"
      ],
      [
        "长",
        "期"
      ],
      [
        "努",
        "力"
      ],
      [
        "程",
        "度"
      ],
      [
        "媒",
        "体"
      ],
      [
        "确",
        "定"
      ],
      [
        "严",
        "重"
      ],
      [
        "他",
        "的"
      ],
      [
        "互",
        "联网"
      ],
      [
        "的",
        "事"
      ],
      [
        "不",
        "可"
      ],
      [
        "6",
        "0"
      ],
      [
        "接",
        "受"
      ],
      [
        "是",
        "一个"
      ],
      [
        "4",
        "0"
      ],
      [
        "准",
        "备"
      ],
      [
        "推",
        "进"
      ],
      [
        "人",
        "才"
      ],
      [
        "费",
        "用"
      ],
      [
        "坚",
        "持"
      ],
      [
        "都",
        "有"
      ],
      [
        "左",
        "右"
      ],
      [
        "规",
        "范"
      ],
      [
        "以",
        "来"
      ],
      [
        "不",
        "得"
      ],
      [
        "促",
        "进"
      ],
      [
        "i",
        "t"
      ],
      [
        "广",
        "告"
      ],
      [
        "办",
        "公"
      ],
      [
        "的",
        "新"
      ],
      [
        "宣",
        "传"
      ],
      [
        "目",
        "的"
      ],
      [
        "合",
        "理"
      ],
      [
        "2022",
        "年"
      ],
      [
        "发",
        "挥"
      ],
      [
        "明",
        "显"
      ],
      [
        "位",
        "置"
      ],
      [
        "来",
        "看"
      ],
      [
        "20",
        "20"
      ],
      [
        "球",
        "员"
      ],
      [
        "属",
        "于"
      ],
      [
        "觉",
        "得"
      ],
      [
        "包",
        "装"
      ],
      [
        "联",
        "系"
      ],
      [
        "都",
        "会"
      ],
      [
        "作",
        "品"
      ],
      [
        "购",
        "买"
      ],
      [
        "维",
        "护"
      ],
      [
        "战",
        "略"
      ],
      [
        "十",
        "分"
      ],
      [
        "也",
        "不"
      ],
      [
        "只",
        "是"
      ],
      [
        "连",
        "接"
      ],
      [
        "o",
        "u"
      ],
      [
        "分",
        "别"
      ],
      [
        "应",
        "当"
      ],
      [
        "实",
        "验"
      ],
      [
        "2",
        "5"
      ],
      [
        "首",
        "先"
      ],
      [
        "感",
        "觉"
      ],
      [
        "面",
        "积"
      ],
      [
        "保",
        "险"
      ],
      [
        "的",
        "工作"
      ],
      [
        "1",
        "7"
      ],
      [
        "资",
        "产"
      ],
      [
        "来",
        "自"
      ],
      [
        "体",
        "育"
      ],
      [
        "另",
        "外"
      ],
      [
        "品",
        "质"
      ],
      [
        "制",
        "度"
      ],
      [
        "也",
        "会"
      ],
      [
        "您",
        "的"
      ],
      [
        "出",
        "了"
      ],
      [
        "营",
        "销"
      ],
      [
        "明",
        "确"
      ],
      [
        "这样",
        "的"
      ],
      [
        "a",
        "s"
      ],
      [
        "指",
        "导"
      ],
      [
        "教",
        "师"
      ],
      [
        "成",
        "立"
      ],
      [
        "赛",
        "季"
      ],
      [
        "最",
        "终"
      ],
      [
        "并",
        "不"
      ],
      [
        "绿",
        "色"
      ],
      [
        "合",
        "同"
      ],
      [
        "哪",
        "些"
      ],
      [
        "年",
        "来"
      ],
      [
        "设",
        "置"
      ],
      [
        "玻",
        "璃"
      ],
      [
        "日",
        "本"
      ],
      [
        "组",
        "成"
      ],
      [
        "改",
        "变"
      ],
      [
        "有",
        "些"
      ],
      [
        "工",
        "具"
      ],
      [
        "主",
        "题"
      ],
      [
        "e",
        "l"
      ],
      [
        "想",
        "要"
      ],
      [
        "出",
        "的"
      ],
      [
        "n",
        "5"
      ],
      [
        "通",
        "常"
      ],
      [
        "每",
        "个"
      ],
      [
        "完",
        "善"
      ],
      [
        "不",
        "少"
      ],
      [
        "尤",
        "其"
      ],
      [
        "此",
        "外"
      ],
      [
        "9",
        "年"
      ],
      [
        "考",
        "试"
      ],
      [
        "当",
        "然"
      ],
      [
        "社",
        "区"
      ],
      [
        "只",
        "要"
      ],
      [
        "机",
        "器"
      ],
      [
        "8",
        "0"
      ],
      [
        "自",
        "身"
      ],
      [
        "商",
        "品"
      ],
      [
        "电",
        "机"
      ],
      [
        "优",
        "化"
      ],
      [
        "重要",
        "的"
      ],
      [
        "后",
        "的"
      ],
      [
        "经",
        "常"
      ],
      [
        "i",
        "c"
      ],
      [
        "产品",
        "的"
      ],
      [
        "任",
        "务"
      ],
      [
        "相",
        "对"
      ],
      [
        "化",
        "学"
      ],
      [
        "例",
        "如"
      ],
      [
        "严",
        "格"
      ],
      [
        "分",
        "享"
      ],
      [
        "普",
        "通"
      ],
      [
        "培",
        "养"
      ],
      [
        "动",
        "力"
      ],
      [
        "出",
        "来"
      ],
      [
        "推",
        "广"
      ],
      [
        "的",
        "产品"
      ],
      [
        "内",
        "部"
      ],
      [
        "落",
        "实"
      ],
      [
        "创",
        "造"
      ],
      [
        "装",
        "置"
      ],
      [
        "类",
        "型"
      ],
      [
        "创",
        "业"
      ],
      [
        "联",
        "合"
      ],
      [
        "202",
        "1年"
      ],
      [
        "i",
        "s"
      ],
      [
        "移",
        "动"
      ],
      [
        "物",
        "流"
      ],
      [
        "的",
        "重要"
      ],
      [
        "上",
        "市"
      ],
      [
        "说",
        "明"
      ],
      [
        "用",
        "的"
      ],
      [
        "多",
        "的"
      ],
      [
        "收",
        "入"
      ],
      [
        "卫",
        "生"
      ],
      [
        "2",
        "4"
      ],
      [
        "音",
        "乐"
      ],
      [
        "成",
        "绩"
      ],
      [
        "升",
        "级"
      ],
      [
        "机",
        "制"
      ],
      [
        "厂",
        "家"
      ],
      [
        "e",
        "d"
      ],
      [
        "个",
        "月"
      ],
      [
        "物",
        "质"
      ],
      [
        "也",
        "可以"
      ],
      [
        "试",
        "验"
      ],
      [
        "欢",
        "迎"
      ],
      [
        "真",
        "正"
      ],
      [
        "反",
        "应"
      ],
      [
        "过",
        "去"
      ],
      [
        "理",
        "念"
      ],
      [
        "企业",
        "的"
      ],
      [
        "面",
        "的"
      ],
      [
        "无",
        "论"
      ],
      [
        "运",
        "输"
      ],
      [
        "8",
        "年"
      ],
      [
        "行",
        "政"
      ],
      [
        "良",
        "好的"
      ],
      [
        "行",
        "动"
      ],
      [
        "日",
        "常"
      ],
      [
        "电",
        "池"
      ],
      [
        "m",
        "m"
      ],
      [
        "特",
        "色"
      ],
      [
        "先",
        "进"
      ],
      [
        "流",
        "程"
      ],
      [
        "农",
        "业"
      ],
      [
        "公",
        "共"
      ],
      [
        "引",
        "起"
      ],
      [
        "o",
        "o"
      ],
      [
        "测",
        "量"
      ],
      [
        "生",
        "命"
      ],
      [
        "东",
        "西"
      ],
      [
        "美",
        "元"
      ],
      [
        "一定",
        "要"
      ],
      [
        "面",
        "对"
      ],
      [
        "发展",
        "的"
      ],
      [
        "全",
        "部"
      ],
      [
        "就",
        "可以"
      ],
      [
        "在",
        "线"
      ],
      [
        "本",
        "文"
      ],
      [
        "具",
        "备"
      ],
      [
        "故",
        "事"
      ],
      [
        "通",
        "知"
      ],
      [
        "办",
        "法"
      ],
      [
        "内",
        "的"
      ],
      [
        "监",
        "管"
      ],
      [
        "经",
        "理"
      ],
      [
        "优",
        "质"
      ],
      [
        "儿",
        "童"
      ],
      [
        "智",
        "慧"
      ],
      [
        "理",
        "解"
      ],
      [
        "样",
        "的"
      ],
      [
        "心",
        "理"
      ],
      [
        "正",
        "式"
      ],
      [
        "多",
        "种"
      ],
      [
        "加",
        "入"
      ],
      [
        "下",
        "来"
      ],
      [
        "必",
        "要"
      ],
      [
        "优",
        "秀"
      ],
      [
        "毕",
        "业"
      ],
      [
        "安",
        "排"
      ],
      [
        "实",
        "践"
      ],
      [
        "细",
        "胞"
      ],
      [
        "做",
        "到"
      ]
    ]
  }
}