{
  "version": "1.0",
  "truncation": null,
  "padding": null,
  "added_tokens": [
    {
      "id": 0,
      "content": "[PAD]",
      "single_word": false,
      "lstrip": false,
      "rstrip": false,
      "normalized": false,
      "special": true
    },
    {
      "id": 1,
      "content": "[UNK]",
      "single_word": false,
      "lstrip": false,
      "rstrip": false,
      "normalized": false,
      "special": true
    },
    {
      "id": 2,
      "content": "[END]",
      "single_word": false,
      "lstrip": false,
      "rstrip": false,
      "normalized": false,
      "special": true
    },
    {
      "id": 3,
      "content": "[START]",
      "single_word": false,
      "lstrip": false,
      "rstrip": false,
      "normalized": false,
      "special": true
    }
  ],
  "normalizer": {
    "type": "NFKD"
  },
  "pre_tokenizer": {
    "type": "BertPreTokenizer"
  },
  "post_processor": null,
  "decoder": null,
  "model": {
    "type": "BPE",
    "dropout": null,
    "unk_token": "[UNK]",
    "continuing_subword_prefix": null,
    "end_of_word_suffix": null,
    "fuse_unk": false,
    "byte_fallback": false,
    "ignore_merges": false,
    "vocab": {
      "[PAD]": 0,
      "[UNK]": 1,
      "[END]": 2,
      "[START]": 3,
      "!": 4,
      "\"": 5,
      "#": 6,
      "$": 7,
      "%": 8,
      "&": 9,
      "'": 10,
      "(": 11,
      ")": 12,
      "*": 13,
      "+": 14,
      ",": 15,
      "-": 16,
      ".": 17,
      "/": 18,
      "0": 19,
      "1": 20,
      "2": 21,
      "3": 22,
      "4": 23,
      "5": 24,
      "6": 25,
      "7": 26,
      "8": 27,
      "9": 28,
      ":": 29,
      ";": 30,
      "<": 31,
      "=": 32,
      ">": 33,
      "?": 34,
      "@": 35,
      "A": 36,
      "B": 37,
      "C": 38,
      "D": 39,
      "E": 40,
      "F": 41,
      "G": 42,
      "H": 43,
      "I": 44,
      "J": 45,
      "K": 46,
      "L": 47,
      "M": 48,
      "N": 49,
      "O": 50,
      "P": 51,
      "Q": 52,
      "R": 53,
      "S": 54,
      "T": 55,
      "U": 56,
      "V": 57,
      "W": 58,
      "X": 59,
      "Y": 60,
      "Z": 61,
      "[": 62,
      "\\": 63,
      "]": 64,
      "^": 65,
      "_": 66,
      "`": 67,
      "a": 68,
      "b": 69,
      "c": 70,
      "d": 71,
      "e": 72,
      "f": 73,
      "g": 74,
      "h": 75,
      "i": 76,
      "j": 77,
      "k": 78,
      "l": 79,
      "m": 80,
      "n": 81,
      "o": 82,
      "p": 83,
      "q": 84,
      "r": 85,
      "s": 86,
      "t": 87,
      "u": 88,
      "v": 89,
      "w": 90,
      "x": 91,
      "y": 92,
      "z": 93,
      "{": 94,
      "|": 95,
      "}": 96,
      "~": 97,
      "¥": 98,
      "©": 99,
      "®": 100,
      "°": 101,
      "±": 102,
      "·": 103,
      "»": 104,
      "×": 105,
      "÷": 106,
      "̀": 107,
      "́": 108,
      "̂": 109,
      "̄": 110,
      "̆": 111,
      "̈": 112,
      "̌": 113,
      "Φ": 114,
      "Ω": 115,
      "α": 116,
      "β": 117,
      "γ": 118,
      "μ": 119,
      "φ": 120,
      "а": 121,
      "в": 122,
      "д": 123,
      "е": 124,
      "з": 125,
      "и": 126,
      "к": 127,
      "л": 128,
      "м": 129,
      "н": 130,
      "о": 131,
      "п": 132,
      "р": 133,
      "с": 134,
      "т": 135,
      "у": 136,
      "ы": 137,
      "я": 138,
      "ا": 139,
      "ر": 140,
      "ل": 141,
      "م": 142,
      "ن": 143,
      "و": 144,
      "ي": 145,
      "َ": 146,
      "ᄀ": 147,
      "ᄃ": 148,
      "ᄉ": 149,
      "ᄋ": 150,
      "ᄌ": 151,
      "ᄒ": 152,
      "ᅡ": 153,
      "ᅥ": 154,
      "ᅩ": 155,
      "ᅮ": 156,
      "ᅳ": 157,
      "ᅵ": 158,
      "ᆫ": 159,
      "ᆼ": 160,
      "​": 161,
      "‍": 162,
      "–": 163,
      "—": 164,
      "―": 165,
      "‘": 166,
      "’": 167,
      "“": 168,
      "”": 169,
      "•": 170,
      "‧": 171,
      "‬": 172,
      "‰": 173,
      "′": 174,
      "※": 175,
      "€": 176,
      "↑": 177,
      "→": 178,
      "↓": 179,
      "√": 180,
      "∶": 181,
      "≤": 182,
      "≥": 183,
      "⊙": 184,
      "⋯": 185,
      "─": 186,
      "■": 187,
      "□": 188,
      "▪": 189,
      "▲": 190,
      "△": 191,
      "▶": 192,
      "►": 193,
      "▼": 194,
      "▽": 195,
      "◆": 196,
      "◇": 197,
      "○": 198,
      "◎": 199,
      "●": 200,
      "★": 201,
      "☆": 202,
      "♀": 203,
      "✦": 204,
      "、": 205,
      "。": 206,
      "〇": 207,
      "〈": 208,
      "〉": 209,
      "《": 210,
      "》": 211,
      "「": 212,
      "」": 213,
      "『": 214,
      "』": 215,
      "【": 216,
      "】": 217,
      "〔": 218,
      "〕": 219,
      "い": 220,
      "う": 221,
      "か": 222,
      "き": 223,
      "こ": 224,
      "さ": 225,
      "し": 226,
      "す": 227,
      "た": 228,
      "て": 229,
      "と": 230,
      "な": 231,
      "に": 232,
      "の": 233,
      "は": 234,
      "ま": 235,
      "る": 236,
      "を": 237,
      "゙": 238,
      "゚": 239,
      "ア": 240,
      "イ": 241,
      "ク": 242,
      "シ": 243,
      "ス": 244,
      "タ": 245,
      "ト": 246,
      "フ": 247,
      "ラ": 248,
      "リ": 249,
      "ル": 250,
      "ン": 251,
      "・": 252,
      "ー": 253,
      "一": 254,
      "丁": 255,
      "七": 256,
      "万": 257,
      "丈": 258,
      "三": 259,
      "上": 260,
      "下": 261,
      "不": 262,
      "与": 263,
      "丐": 264,
      "丑": 265,
      "专": 266,
      "且": 267,
      "世": 268,
      "丘": 269,
      "丙": 270,
      "业": 271,
      "丛": 272,
      "东": 273,
      "丝": 274,
      "丞": 275,
      "丢": 276,
      "两": 277,
      "严": 278,
      "丧": 279,
      "丨": 280,
      "个": 281,
      "丫": 282,
      "中": 283,
      "丰": 284,
      "串": 285,
      "临": 286,
      "丶": 287,
      "丸": 288,
      "丹": 289,
      "为": 290,
      "主": 291,
      "丽": 292,
      "举": 293,
      "乃": 294,
      "久": 295,
      "么": 296,
      "义": 297,
      "之": 298,
      "乌": 299,
      "乍": 300,
      "乎": 301,
      "乏": 302,
      "乐": 303,
      "乒": 304,
      "乓": 305,
      "乔": 306,
      "乖": 307,
      "乘": 308,
      "乙": 309,
      "九": 310,
      "乞": 311,
      "也": 312,
      "习": 313,
      "乡": 314,
      "书": 315,
      "买": 316,
      "乱": 317,
      "乳": 318,
      "乾": 319,
      "了": 320,
      "予": 321,
      "争": 322,
      "事": 323,
      "二": 324,
      "于": 325,
      "亏": 326,
      "云": 327,
      "互": 328,
      "五": 329,
      "井": 330,
      "亘": 331,
      "亚": 332,
      "些": 333,
      "亟": 334,
      "亡": 335,
      "亢": 336,
      "交": 337,
      "亥": 338,
      "亦": 339,
      "产": 340,
      "亨": 341,
      "亩": 342,
      "享": 343,
      "京": 344,
      "亭": 345,
      "亮": 346,
      "亲": 347,
      "亳": 348,
      "人": 349,
      "亿": 350,
      "什": 351,
      "仁": 352,
      "仄": 353,
      "仅": 354,
      "仆": 355,
      "仇": 356,
      "今": 357,
      "介": 358,
      "仍": 359,
      "从": 360,
      "仑": 361,
      "仓": 362,
      "仔": 363,
      "仕": 364,
      "他": 365,
      "仗": 366,
      "付": 367,
      "仙": 368,
      "仟": 369,
      "代": 370,
      "令": 371,
      "以": 372,
      "仪": 373,
      "们": 374,
      "仰": 375,
      "仲": 376,
      "件": 377,
      "价": 378,
      "任": 379,
      "份": 380,
      "仿": 381,
      "企": 382,
      "伊": 383,
      "伍": 384,
      "伏": 385,
      "伐": 386,
      "休": 387,
      "众": 388,
      "优": 389,
      "伙": 390,
      "会": 391,
      "伞": 392,
      "伟": 393,
      "传": 394,
      "伤": 395,
      "伦": 396,
      "伪": 397,
      "伯": 398,
      "估": 399,
      "伴": 400,
      "伶": 401,
      "伸": 402,
      "伺": 403,
      "似": 404,
      "伽": 405,
      "但": 406,
      "位": 407,
      "低": 408,
      "住": 409,
      "佐": 410,
      "佑": 411,
      "体": 412,
      "何": 413,
      "余": 414,
      "佛": 415,
      "作": 416,
      "佟": 417,
      "你": 418,
      "佣": 419,
      "佩": 420,
      "佬": 421,
      "佰": 422,
      "佳": 423,
      "佼": 424,
      "使": 425,
      "侃": 426,
      "侄": 427,
      "來": 428,
      "侈": 429,
      "例": 430,
      "侍": 431,
      "侏": 432,
      "侗": 433,
      "供": 434,
      "依": 435,
      "侠": 436,
      "侣": 437,
      "侥": 438,
      "侦": 439,
      "侧": 440,
      "侨": 441,
      "侪": 442,
      "侬": 443,
      "侮": 444,
      "侯": 445,
      "侵": 446,
      "便": 447,
      "促": 448,
      "俄": 449,
      "俊": 450,
      "俏": 451,
      "俐": 452,
      "俑": 453,
      "俗": 454,
      "俘": 455,
      "保": 456,
      "俞": 457,
      "信": 458,
      "俨": 459,
      "俩": 460,
      "俪": 461,
      "俭": 462,
      "修": 463,
      "俯": 464,
      "俱": 465,
      "個": 466,
      "倍": 467,
      "們": 468,
      "倒": 469,
      "倔": 470,
      "倘": 471,
      "候": 472,
      "倚": 473,
      "借": 474,
      "倡": 475,
      "倦": 476,
      "倩": 477,
      "倪": 478,
      "债": 479,
      "值": 480,
      "倾": 481,
      "假": 482,
      "偏": 483,
      "做": 484,
      "停": 485,
      "健": 486,
      "偶": 487,
      "偷": 488,
      "偿": 489,
      "傅": 490,
      "傍": 491,
      "備": 492,
      "储": 493,
      "催": 494,
      "傲": 495,
      "傳": 496,
      "傻": 497,
      "僅": 498,
      "像": 499,
      "僚": 500,
      "僧": 501,
      "僵": 502,
      "價": 503,
      "僻": 504,
      "儀": 505,
      "儋": 506,
      "儒": 507,
      "優": 508,
      "儿": 509,
      "兀": 510,
      "允": 511,
      "元": 512,
      "兄": 513,
      "充": 514,
      "兆": 515,
      "先": 516,
      "光": 517,
      "克": 518,
      "免": 519,
      "兑": 520,
      "兔": 521,
      "兖": 522,
      "党": 523,
      "兜": 524,
      "兢": 525,
      "入": 526,
      "內": 527,
      "全": 528,
      "兩": 529,
      "八": 530,
      "公": 531,
      "六": 532,
      "兮": 533,
      "兰": 534,
      "共": 535,
      "关": 536,
      "兴": 537,
      "兵": 538,
      "其": 539,
      "具": 540,
      "典": 541,
      "兹": 542,
      "养": 543,
      "兼": 544,
      "兽": 545,
      "冀": 546,
      "内": 547,
      "冈": 548,
      "冉": 549,
      "册": 550,
      "再": 551,
      "冒": 552,
      "冕": 553,
      "冗": 554,
      "写": 555,
      "军": 556,
      "农": 557,
      "冠": 558,
      "冢": 559,
      "冤": 560,
      "冥": 561,
      "冬": 562,
      "冯": 563,
      "冰": 564,
      "冲": 565,
      "决": 566,
      "况": 567,
      "冶": 568,
      "冷": 569,
      "冻": 570,
      "净": 571,
      "凄": 572,
      "准": 573,
      "凈": 574,
      "凉": 575,
      "凋": 576,
      "凌": 577,
      "减": 578,
      "凑": 579,
      "凛": 580,
      "凝": 581,
      "几": 582,
      "凡": 583,
      "凤": 584,
      "凭": 585,
      "凯": 586,
      "凰": 587,
      "凳": 588,
      "凶": 589,
      "凸": 590,
      "凹": 591,
      "出": 592,
      "击": 593,
      "函": 594,
      "凿": 595,
      "刀": 596,
      "刁": 597,
      "刃": 598,
      "分": 599,
      "切": 600,
      "刊": 601,
      "刑": 602,
      "划": 603,
      "列": 604,
      "刘": 605,
      "则": 606,
      "刚": 607,
      "创": 608,
      "初": 609,
      "删": 610,
      "判": 611,
      "別": 612,
      "刨": 613,
      "利": 614,
      "别": 615,
      "刮": 616,
      "到": 617,
      "制": 618,
      "刷": 619,
      "券": 620,
      "刹": 621,
      "刺": 622,
      "刻": 623,
      "剁": 624,
      "剂": 625,
      "剃": 626,
      "則": 627,
      "削": 628,
      "前": 629,
      "剑": 630,
      "剔": 631,
      "剖": 632,
      "剥": 633,
      "剧": 634,
      "剩": 635,
      "剪": 636,
      "副": 637,
      "割": 638,
      "創": 639,
      "劃": 640,
      "劈": 641,
      "劑": 642,
      "力": 643,
      "劝": 644,
      "办": 645,
      "功": 646,
      "加": 647,
      "务": 648,
      "劣": 649,
      "动": 650,
      "助": 651,
      "努": 652,
      "劫": 653,
      "励": 654,
      "劲": 655,
      "劳": 656,
      "势": 657,
      "勃": 658,
      "勇": 659,
      "勉": 660,
      "勋": 661,
      "勒": 662,
      "動": 663,
      "勘": 664,
      "務": 665,
      "募": 666,
      "勢": 667,
      "勤": 668,
      "勺": 669,
      "勾": 670,
      "勿": 671,
      "匀": 672,
      "包": 673,
      "匆": 674,
      "匈": 675,
      "化": 676,
      "北": 677,
      "匙": 678,
      "匝": 679,
      "匠": 680,
      "匡": 681,
      "匣": 682,
      "匪": 683,
      "匮": 684,
      "匹": 685,
      "区": 686,
      "医": 687,
      "匾": 688,
      "匿": 689,
      "區": 690,
      "十": 691,
      "千": 692,
      "升": 693,
      "午": 694,
      "卉": 695,
      "半": 696,
      "华": 697,
      "协": 698,
      "卑": 699,
      "卒": 700,
      "卓": 701,
      "協": 702,
      "单": 703,
      "卖": 704,
      "南": 705,
      "博": 706,
      "卜": 707,
      "占": 708,
      "卡": 709,
      "卢": 710,
      "卤": 711,
      "卦": 712,
      "卧": 713,
      "卫": 714,
      "卯": 715,
      "印": 716,
      "危": 717,
      "即": 718,
      "却": 719,
      "卵": 720,
      "卷": 721,
      "卸": 722,
      "卿": 723,
      "厂": 724,
      "厄": 725,
      "厅": 726,
      "历": 727,
      "厉": 728,
      "压": 729,
      "厌": 730,
      "厕": 731,
      "厘": 732,
      "厚": 733,
      "厝": 734,
      "原": 735,
      "厢": 736,
      "厥": 737,
      "厦": 738,
      "厨": 739,
      "厮": 740,
      "去": 741,
      "县": 742,
      "叁": 743,
      "参": 744,
      "參": 745,
      "又": 746,
      "叉": 747,
      "及": 748,
      "友": 749,
      "双": 750,
      "反": 751,
      "发": 752,
      "叔": 753,
      "取": 754,
      "受": 755,
      "变": 756,
      "叙": 757,
      "叛": 758,
      "叠": 759,
      "口": 760,
      "古": 761,
      "句": 762,
      "另": 763,
      "叨": 764,
      "叩": 765,
      "只": 766,
      "叫": 767,
      "召": 768,
      "叭": 769,
      "叮": 770,
      "可": 771,
      "台": 772,
      "史": 773,
      "右": 774,
      "叶": 775,
      "号": 776,
      "司": 777,
      "叹": 778,
      "叽": 779,
      "吁": 780,
      "吃": 781,
      "各": 782,
      "合": 783,
      "吉": 784,
      "吊": 785,
      "吋": 786,
      "同": 787,
      "名": 788,
      "后": 789,
      "吏": 790,
      "吐": 791,
      "向": 792,
      "吒": 793,
      "吓": 794,
      "吕": 795,
      "吗": 796,
      "君": 797,
      "吝": 798,
      "吞": 799,
      "吟": 800,
      "吡": 801,
      "否": 802,
      "吧": 803,
      "吨": 804,
      "吩": 805,
      "含": 806,
      "听": 807,
      "启": 808,
      "吴": 809,
      "吵": 810,
      "吸": 811,
      "吹": 812,
      "吻": 813,
      "吼": 814,
      "吾": 815,
      "呀": 816,
      "呆": 817,
      "呈": 818,
      "告": 819,
      "呎": 820,
      "呐": 821,
      "呕": 822,
      "呗": 823,
      "员": 824,
      "呜": 825,
      "呢": 826,
      "呤": 827,
      "呦": 828,
      "周": 829,
      "呱": 830,
      "味": 831,
      "呵": 832,
      "呼": 833,
      "命": 834,
      "咀": 835,
      "咋": 836,
      "和": 837,
      "咎": 838,
      "咏": 839,
      "咐": 840,
      "咒": 841,
      "咔": 842,
      "咕": 843,
      "咖": 844,
      "咙": 845,
      "咚": 846,
      "咤": 847,
      "咧": 848,
      "咨": 849,
      "咪": 850,
      "咫": 851,
      "咬": 852,
      "咯": 853,
      "咱": 854,
      "咳": 855,
      "咸": 856,
      "咽": 857,
      "哀": 858,
      "品": 859,
      "哄": 860,
      "哆": 861,
      "哇": 862,
      "哈": 863,
      "哉": 864,
      "响": 865,
      "哎": 866,
      "哑": 867,
      "哒": 868,
      "哔": 869,
      "哗": 870,
      "哟": 871,
      "員": 872,
      "哥": 873,
      "哦": 874,
      "哨": 875,
      "哩": 876,
      "哪": 877,
      "哭": 878,
      "哮": 879,
      "哲": 880,
      "哺": 881,
      "哼": 882,
      "唇": 883,
      "唉": 884,
      "唐": 885,
      "唑": 886,
      "唔": 887,
      "唠": 888,
      "唤": 889,
      "售": 890,
      "唯": 891,
      "唱": 892,
      "唾": 893,
      "啃": 894,
      "商": 895,
      "啊": 896,
      "問": 897,
      "啡": 898,
      "啤": 899,
      "啥": 900,
      "啦": 901,
      "啧": 902,
      "啪": 903,
      "啬": 904,
      "啮": 905,
      "啰": 906,
      "啶": 907,
      "啸": 908,
      "啼": 909,
      "喀": 910,
      "喂": 911,
      "喃": 912,
      "善": 913,
      "喇": 914,
      "喉": 915,
      "喊": 916,
      "喔": 917,
      "喘": 918,
      "喜": 919,
      "喝": 920,
      "喧": 921,
      "單": 922,
      "喵": 923,
      "喷": 924,
      "喻": 925,
      "喽": 926,
      "嗅": 927,
      "嗓": 928,
      "嗜": 929,
      "嗡": 930,
      "嗣": 931,
      "嗦": 932,
      "嗨": 933,
      "嗯": 934,
      "嗽": 935,
      "嘀": 936,
      "嘅": 937,
      "嘈": 938,
      "嘉": 939,
      "嘌": 940,
      "嘎": 941,
      "嘘": 942,
      "嘛": 943,
      "嘟": 944,
      "嘱": 945,
      "嘲": 946,
      "嘴": 947,
      "嘶": 948,
      "嘻": 949,
      "嘿": 950,
      "噜": 951,
      "噢": 952,
      "器": 953,
      "噩": 954,
      "噪": 955,
      "噬": 956,
      "噱": 957,
      "噴": 958,
      "嚏": 959,
      "嚣": 960,
      "嚴": 961,
      "嚼": 962,
      "囊": 963,
      "囚": 964,
      "四": 965,
      "回": 966,
      "因": 967,
      "团": 968,
      "囤": 969,
      "园": 970,
      "困": 971,
      "囱": 972,
      "围": 973,
      "固": 974,
      "国": 975,
      "图": 976,
      "圃": 977,
      "圆": 978,
      "圈": 979,
      "國": 980,
      "圍": 981,
      "園": 982,
      "圖": 983,
      "團": 984,
      "土": 985,
      "圣": 986,
      "在": 987,
      "圩": 988,
      "圭": 989,
      "地": 990,
      "圳": 991,
      "场": 992,
      "圾": 993,
      "址": 994,
      "坂": 995,
      "均": 996,
      "坊": 997,
      "坍": 998,
      "坎": 999,
      "坏": 1000,
      "坐": 1001,
      "坑": 1002,
      "块": 1003,
      "坚": 1004,
      "坛": 1005,
      "坝": 1006,
      "坞": 1007,
      "坟": 1008,
      "坠": 1009,
      "坡": 1010,
      "坤": 1011,
      "坦": 1012,
      "坪": 1013,
      "坯": 1014,
      "坷": 1015,
      "垂": 1016,
      "垃": 1017,
      "垄": 1018,
      "型": 1019,
      "垒": 1020,
      "垛": 1021,
      "垢": 1022,
      "垣": 1023,
      "垦": 1024,
      "垫": 1025,
      "垮": 1026,
      "埃": 1027,
      "埋": 1028,
      "城": 1029,
      "埔": 1030,
      "域": 1031,
      "埠": 1032,
      "培": 1033,
      "基": 1034,
      "堂": 1035,
      "堅": 1036,
      "堆": 1037,
      "堕": 1038,
      "堡": 1039,
      "堤": 1040,
      "堪": 1041,
      "堰": 1042,
      "報": 1043,
      "場": 1044,
      "堵": 1045,
      "塊": 1046,
      "塌": 1047,
      "塑": 1048,
      "塔": 1049,
      "塘": 1050,
      "塞": 1051,
      "填": 1052,
      "塵": 1053,
      "境": 1054,
      "墅": 1055,
      "墓": 1056,
      "墙": 1057,
      "增": 1058,
      "墟": 1059,
      "墨": 1060,
      "墩": 1061,
      "墻": 1062,
      "壁": 1063,
      "壑": 1064,
      "壓": 1065,
      "壤": 1066,
      "士": 1067,
      "壬": 1068,
      "壮": 1069,
      "声": 1070,
      "壳": 1071,
      "壶": 1072,
      "壹": 1073,
      "处": 1074,
      "备": 1075,
      "复": 1076,
      "夏": 1077,
      "夕": 1078,
      "外": 1079,
      "多": 1080,
      "夜": 1081,
      "够": 1082,
      "夠": 1083,
      "大": 1084,
      "天": 1085,
      "太": 1086,
      "夫": 1087,
      "夭": 1088,
      "央": 1089,
      "夯": 1090,
      "失": 1091,
      "头": 1092,
      "夷": 1093,
      "夸": 1094,
      "夹": 1095,
      "夺": 1096,
      "奇": 1097,
      "奈": 1098,
      "奉": 1099,
      "奋": 1100,
      "奎": 1101,
      "奏": 1102,
      "契": 1103,
      "奔": 1104,
      "奕": 1105,
      "奖": 1106,
      "套": 1107,
      "奚": 1108,
      "奠": 1109,
      "奢": 1110,
      "奥": 1111,
      "女": 1112,
      "奴": 1113,
      "奶": 1114,
      "奸": 1115,
      "她": 1116,
      "好": 1117,
      "如": 1118,
      "妃": 1119,
      "妄": 1120,
      "妆": 1121,
      "妇": 1122,
      "妈": 1123,
      "妊": 1124,
      "妍": 1125,
      "妒": 1126,
      "妖": 1127,
      "妙": 1128,
      "妞": 1129,
      "妥": 1130,
      "妨": 1131,
      "妮": 1132,
      "妹": 1133,
      "妻": 1134,
      "妾": 1135,
      "姆": 1136,
      "姊": 1137,
      "始": 1138,
      "姐": 1139,
      "姑": 1140,
      "姓": 1141,
      "委": 1142,
      "姗": 1143,
      "姚": 1144,
      "姜": 1145,
      "姣": 1146,
      "姥": 1147,
      "姨": 1148,
      "姬": 1149,
      "姻": 1150,
      "姿": 1151,
      "威": 1152,
      "娃": 1153,
      "娄": 1154,
      "娅": 1155,
      "娇": 1156,
      "娓": 1157,
      "娘": 1158,
      "娜": 1159,
      "娟": 1160,
      "娠": 1161,
      "娥": 1162,
      "娩": 1163,
      "娱": 1164,
      "娲": 1165,
      "娴": 1166,
      "娶": 1167,
      "婆": 1168,
      "婉": 1169,
      "婕": 1170,
      "婚": 1171,
      "婧": 1172,
      "婪": 1173,
      "婴": 1174,
      "婶": 1175,
      "婷": 1176,
      "婺": 1177,
      "婿": 1178,
      "媒": 1179,
      "媚": 1180,
      "媛": 1181,
      "媲": 1182,
      "媳": 1183,
      "嫁": 1184,
      "嫂": 1185,
      "嫉": 1186,
      "嫌": 1187,
      "嫡": 1188,
      "嫣": 1189,
      "嫦": 1190,
      "嫩": 1191,
      "嬉": 1192,
      "子": 1193,
      "孔": 1194,
      "孕": 1195,
      "字": 1196,
      "存": 1197,
      "孙": 1198,
      "孚": 1199,
      "孜": 1200,
      "孝": 1201,
      "孟": 1202,
      "孢": 1203,
      "季": 1204,
      "孤": 1205,
      "学": 1206,
      "孩": 1207,
      "孪": 1208,
      "孰": 1209,
      "孵": 1210,
      "學": 1211,
      "孽": 1212,
      "宁": 1213,
      "它": 1214,
      "宅": 1215,
      "宇": 1216,
      "守": 1217,
      "安": 1218,
      "宋": 1219,
      "完": 1220,
      "宏": 1221,
      "宕": 1222,
      "宗": 1223,
      "官": 1224,
      "宙": 1225,
      "定": 1226,
      "宛": 1227,
      "宜": 1228,
      "宝": 1229,
      "实": 1230,
      "宠": 1231,
      "审": 1232,
      "客": 1233,
      "宣": 1234,
      "室": 1235,
      "宦": 1236,
      "宪": 1237,
      "宫": 1238,
      "宰": 1239,
      "害": 1240,
      "宴": 1241,
      "宵": 1242,
      "家": 1243,
      "宸": 1244,
      "容": 1245,
      "宽": 1246,
      "宾": 1247,
      "宿": 1248,
      "寂": 1249,
      "寄": 1250,
      "寅": 1251,
      "密": 1252,
      "寇": 1253,
      "富": 1254,
      "寐": 1255,
      "寒": 1256,
      "寓": 1257,
      "寝": 1258,
      "寞": 1259,
      "察": 1260,
      "寡": 1261,
      "寥": 1262,
      "實": 1263,
      "寨": 1264,
      "寮": 1265,
      "寰": 1266,
      "寶": 1267,
      "寸": 1268,
      "对": 1269,
      "寺": 1270,
      "寻": 1271,
      "导": 1272,
      "寿": 1273,
      "封": 1274,
      "射": 1275,
      "将": 1276,
      "將": 1277,
      "專": 1278,
      "尉": 1279,
      "尊": 1280,
      "對": 1281,
      "導": 1282,
      "小": 1283,
      "少": 1284,
      "尔": 1285,
      "尖": 1286,
      "尘": 1287,
      "尚": 1288,
      "尝": 1289,
      "尤": 1290,
      "尧": 1291,
      "尬": 1292,
      "就": 1293,
      "尴": 1294,
      "尸": 1295,
      "尹": 1296,
      "尺": 1297,
      "尼": 1298,
      "尽": 1299,
      "尾": 1300,
      "尿": 1301,
      "局": 1302,
      "屁": 1303,
      "层": 1304,
      "居": 1305,
      "屈": 1306,
      "屉": 1307,
      "届": 1308,
      "屋": 1309,
      "屎": 1310,
      "屏": 1311,
      "屑": 1312,
      "展": 1313,
      "属": 1314,
      "屠": 1315,
      "屡": 1316,
      "層": 1317,
      "履": 1318,
      "屬": 1319,
      "屯": 1320,
      "山": 1321,
      "屹": 1322,
      "屿": 1323,
      "岁": 1324,
      "岂": 1325,
      "岌": 1326,
      "岐": 1327,
      "岑": 1328,
      "岔": 1329,
      "岖": 1330,
      "岗": 1331,
      "岚": 1332,
      "岛": 1333,
      "岩": 1334,
      "岭": 1335,
      "岱": 1336,
      "岳": 1337,
      "岷": 1338,
      "岸": 1339,
      "峙": 1340,
      "峡": 1341,
      "峥": 1342,
      "峦": 1343,
      "峨": 1344,
      "峪": 1345,
      "峭": 1346,
      "峰": 1347,
      "峻": 1348,
      "崇": 1349,
      "崎": 1350,
      "崔": 1351,
      "崖": 1352,
      "崛": 1353,
      "崩": 1354,
      "崭": 1355,
      "嵌": 1356,
      "嵘": 1357,
      "嵩": 1358,
      "巅": 1359,
      "巍": 1360,
      "川": 1361,
      "州": 1362,
      "巡": 1363,
      "巢": 1364,
      "工": 1365,
      "左": 1366,
      "巧": 1367,
      "巨": 1368,
      "巩": 1369,
      "巫": 1370,
      "差": 1371,
      "己": 1372,
      "已": 1373,
      "巳": 1374,
      "巴": 1375,
      "巷": 1376,
      "巾": 1377,
      "币": 1378,
      "市": 1379,
      "布": 1380,
      "帅": 1381,
      "帆": 1382,
      "师": 1383,
      "希": 1384,
      "帐": 1385,
      "帕": 1386,
      "帖": 1387,
      "帘": 1388,
      "帛": 1389,
      "帜": 1390,
      "帝": 1391,
      "带": 1392,
      "帧": 1393,
      "師": 1394,
      "席": 1395,
      "帮": 1396,
      "帶": 1397,
      "帷": 1398,
      "常": 1399,
      "帼": 1400,
      "帽": 1401,
      "幂": 1402,
      "幅": 1403,
      "幌": 1404,
      "幕": 1405,
      "幢": 1406,
      "干": 1407,
      "平": 1408,
      "年": 1409,
      "并": 1410,
      "幸": 1411,
      "幺": 1412,
      "幻": 1413,
      "幼": 1414,
      "幽": 1415,
      "幾": 1416,
      "广": 1417,
      "庄": 1418,
      "庆": 1419,
      "庇": 1420,
      "床": 1421,
      "序": 1422,
      "庐": 1423,
      "库": 1424,
      "应": 1425,
      "底": 1426,
      "店": 1427,
      "庙": 1428,
      "庚": 1429,
      "府": 1430,
      "庞": 1431,
      "废": 1432,
      "度": 1433,
      "座": 1434,
      "庫": 1435,
      "庭": 1436,
      "庵": 1437,
      "庶": 1438,
      "康": 1439,
      "庸": 1440,
      "廉": 1441,
      "廊": 1442,
      "廓": 1443,
      "廖": 1444,
      "廠": 1445,
      "廣": 1446,
      "延": 1447,
      "廷": 1448,
      "建": 1449,
      "廿": 1450,
      "开": 1451,
      "异": 1452,
      "弃": 1453,
      "弄": 1454,
      "弈": 1455,
      "弊": 1456,
      "式": 1457,
      "弓": 1458,
      "引": 1459,
      "弗": 1460,
      "弘": 1461,
      "弛": 1462,
      "弟": 1463,
      "张": 1464,
      "弥": 1465,
      "弦": 1466,
      "弧": 1467,
      "弯": 1468,
      "弱": 1469,
      "張": 1470,
      "強": 1471,
      "弹": 1472,
      "强": 1473,
      "归": 1474,
      "当": 1475,
      "录": 1476,
      "彗": 1477,
      "彝": 1478,
      "形": 1479,
      "彤": 1480,
      "彦": 1481,
      "彩": 1482,
      "彪": 1483,
      "彬": 1484,
      "彭": 1485,
      "彰": 1486,
      "影": 1487,
      "彷": 1488,
      "役": 1489,
      "彻": 1490,
      "彼": 1491,
      "往": 1492,
      "征": 1493,
      "径": 1494,
      "待": 1495,
      "很": 1496,
      "徉": 1497,
      "徊": 1498,
      "律": 1499,
      "後": 1500,
      "徐": 1501,
      "徒": 1502,
      "徕": 1503,
      "得": 1504,
      "徘": 1505,
      "徙": 1506,
      "徜": 1507,
      "從": 1508,
      "御": 1509,
      "復": 1510,
      "循": 1511,
      "微": 1512,
      "德": 1513,
      "徽": 1514,
      "心": 1515,
      "必": 1516,
      "忆": 1517,
      "忌": 1518,
      "忍": 1519,
      "忏": 1520,
      "志": 1521,
      "忘": 1522,
      "忙": 1523,
      "忠": 1524,
      "忧": 1525,
      "快": 1526,
      "忱": 1527,
      "念": 1528,
      "忻": 1529,
      "忽": 1530,
      "怀": 1531,
      "态": 1532,
      "怅": 1533,
      "怎": 1534,
      "怒": 1535,
      "怕": 1536,
      "怖": 1537,
      "怜": 1538,
      "思": 1539,
      "怠": 1540,
      "怡": 1541,
      "急": 1542,
      "性": 1543,
      "怨": 1544,
      "怪": 1545,
      "怯": 1546,
      "总": 1547,
      "怼": 1548,
      "恃": 1549,
      "恋": 1550,
      "恍": 1551,
      "恐": 1552,
      "恒": 1553,
      "恕": 1554,
      "恢": 1555,
      "恣": 1556,
      "恤": 1557,
      "恨": 1558,
      "恩": 1559,
      "恪": 1560,
      "恬": 1561,
      "恭": 1562,
      "息": 1563,
      "恰": 1564,
      "恳": 1565,
      "恶": 1566,
      "恺": 1567,
      "恼": 1568,
      "悄": 1569,
      "悉": 1570,
      "悍": 1571,
      "悔": 1572,
      "悖": 1573,
      "悚": 1574,
      "悟": 1575,
      "悠": 1576,
      "患": 1577,
      "悦": 1578,
      "您": 1579,
      "悬": 1580,
      "悯": 1581,
      "悲": 1582,
      "悸": 1583,
      "悼": 1584,
      "情": 1585,
      "惊": 1586,
      "惋": 1587,
      "惑": 1588,
      "惕": 1589,
      "惜": 1590,
      "惟": 1591,
      "惠": 1592,
      "惧": 1593,
      "惨": 1594,
      "惩": 1595,
      "惫": 1596,
      "惬": 1597,
      "惮": 1598,
      "惯": 1599,
      "惰": 1600,
      "想": 1601,
      "惶": 1602,
      "惹": 1603,
      "愁": 1604,
      "愈": 1605,
      "愉": 1606,
      "意": 1607,
      "愚": 1608,
      "愛": 1609,
      "感": 1610,
      "愣": 1611,
      "愤": 1612,
      "愧": 1613,
      "愿": 1614,
      "慈": 1615,
      "態": 1616,
      "慌": 1617,
      "慎": 1618,
      "慑": 1619,
      "慕": 1620,
      "慜": 1621,
      "慢": 1622,
      "慧": 1623,
      "慨": 1624,
      "慰": 1625,
      "慷": 1626,
      "憋": 1627,
      "憎": 1628,
      "憧": 1629,
      "憨": 1630,
      "憩": 1631,
      "憬": 1632,
      "憾": 1633,
      "懂": 1634,
      "懈": 1635,
      "應": 1636,
      "懊": 1637,
      "懒": 1638,
      "懦": 1639,
      "懵": 1640,
      "懿": 1641,
      "戈": 1642,
      "戊": 1643,
      "戌": 1644,
      "戎": 1645,
      "戏": 1646,
      "成": 1647,
      "我": 1648,
      "戒": 1649,
      "或": 1650,
      "战": 1651,
      "戚": 1652,
      "戛": 1653,
      "戟": 1654,
      "截": 1655,
      "戮": 1656,
      "戰": 1657,
      "戲": 1658,
      "戳": 1659,
      "戴": 1660,
      "戶": 1661,
      "户": 1662,
      "房": 1663,
      "所": 1664,
      "扁": 1665,
      "扇": 1666,
      "扉": 1667,
      "手": 1668,
      "才": 1669,
      "扎": 1670,
      "扑": 1671,
      "扒": 1672,
      "打": 1673,
      "扔": 1674,
      "托": 1675,
      "扛": 1676,
      "扣": 1677,
      "扦": 1678,
      "执": 1679,
      "扩": 1680,
      "扫": 1681,
      "扬": 1682,
      "扭": 1683,
      "扮": 1684,
      "扯": 1685,
      "扰": 1686,
      "扳": 1687,
      "扶": 1688,
      "批": 1689,
      "扼": 1690,
      "找": 1691,
      "承": 1692,
      "技": 1693,
      "抄": 1694,
      "抉": 1695,
      "把": 1696,
      "抑": 1697,
      "抒": 1698,
      "抓": 1699,
      "投": 1700,
      "抖": 1701,
      "抗": 1702,
      "折": 1703,
      "抚": 1704,
      "抛": 1705,
      "抠": 1706,
      "抢": 1707,
      "护": 1708,
      "报": 1709,
      "抨": 1710,
      "披": 1711,
      "抬": 1712,
      "抱": 1713,
      "抵": 1714,
      "抹": 1715,
      "押": 1716,
      "抽": 1717,
      "拂": 1718,
      "担": 1719,
      "拆": 1720,
      "拇": 1721,
      "拉": 1722,
      "拌": 1723,
      "拍": 1724,
      "拎": 1725,
      "拐": 1726,
      "拒": 1727,
      "拓": 1728,
      "拔": 1729,
      "拖": 1730,
      "拘": 1731,
      "拙": 1732,
      "招": 1733,
      "拜": 1734,
      "拟": 1735,
      "拢": 1736,
      "拣": 1737,
      "拥": 1738,
      "拦": 1739,
      "拧": 1740,
      "拨": 1741,
      "择": 1742,
      "括": 1743,
      "拭": 1744,
      "拮": 1745,
      "拯": 1746,
      "拱": 1747,
      "拳": 1748,
      "拷": 1749,
      "拼": 1750,
      "拽": 1751,
      "拾": 1752,
      "拿": 1753,
      "持": 1754,
      "挂": 1755,
      "指": 1756,
      "按": 1757,
      "挑": 1758,
      "挖": 1759,
      "挚": 1760,
      "挛": 1761,
      "挝": 1762,
      "挟": 1763,
      "挠": 1764,
      "挡": 1765,
      "挣": 1766,
      "挤": 1767,
      "挥": 1768,
      "挨": 1769,
      "挪": 1770,
      "挫": 1771,
      "振": 1772,
      "挺": 1773,
      "挽": 1774,
      "捂": 1775,
      "捆": 1776,
      "捉": 1777,
      "捍": 1778,
      "捏": 1779,
      "捐": 1780,
      "捕": 1781,
      "捞": 1782,
      "损": 1783,
      "捡": 1784,
      "换": 1785,
      "捣": 1786,
      "捧": 1787,
      "据": 1788,
      "捷": 1789,
      "捻": 1790,
      "掀": 1791,
      "授": 1792,
      "掉": 1793,
      "掌": 1794,
      "掏": 1795,
      "掐": 1796,
      "排": 1797,
      "掖": 1798,
      "掘": 1799,
      "掠": 1800,
      "探": 1801,
      "接": 1802,
      "控": 1803,
      "推": 1804,
      "掩": 1805,
      "措": 1806,
      "掰": 1807,
      "掷": 1808,
      "掺": 1809,
      "揉": 1810,
      "描": 1811,
      "提": 1812,
      "插": 1813,
      "換": 1814,
      "握": 1815,
      "揣": 1816,
      "揪": 1817,
      "揭": 1818,
      "援": 1819,
      "揽": 1820,
      "搁": 1821,
      "搅": 1822,
      "損": 1823,
      "搏": 1824,
      "搐": 1825,
      "搓": 1826,
      "搜": 1827,
      "搞": 1828,
      "搪": 1829,
      "搬": 1830,
      "搭": 1831,
      "携": 1832,
      "摄": 1833,
      "摆": 1834,
      "摇": 1835,
      "摊": 1836,
      "摒": 1837,
      "摔": 1838,
      "摘": 1839,
      "摧": 1840,
      "摩": 1841,
      "摸": 1842,
      "摹": 1843,
      "撇": 1844,
      "撑": 1845,
      "撒": 1846,
      "撕": 1847,
      "撞": 1848,
      "撤": 1849,
      "撩": 1850,
      "撬": 1851,
      "播": 1852,
      "撮": 1853,
      "撰": 1854,
      "撸": 1855,
      "撼": 1856,
      "擁": 1857,
      "擂": 1858,
      "擅": 1859,
      "擇": 1860,
      "擊": 1861,
      "操": 1862,
      "擎": 1863,
      "擒": 1864,
      "據": 1865,
      "擦": 1866,
      "攀": 1867,
      "攒": 1868,
      "攘": 1869,
      "支": 1870,
      "收": 1871,
      "攸": 1872,
      "改": 1873,
      "攻": 1874,
      "放": 1875,
      "政": 1876,
      "故": 1877,
      "效": 1878,
      "敌": 1879,
      "敏": 1880,
      "救": 1881,
      "敖": 1882,
      "教": 1883,
      "敛": 1884,
      "敞": 1885,
      "敢": 1886,
      "散": 1887,
      "敦": 1888,
      "敬": 1889,
      "数": 1890,
      "敲": 1891,
      "整": 1892,
      "敷": 1893,
      "數": 1894,
      "文": 1895,
      "斋": 1896,
      "斌": 1897,
      "斐": 1898,
      "斑": 1899,
      "斓": 1900,
      "斗": 1901,
      "料": 1902,
      "斛": 1903,
      "斜": 1904,
      "斟": 1905,
      "斤": 1906,
      "斥": 1907,
      "斧": 1908,
      "斩": 1909,
      "断": 1910,
      "斯": 1911,
      "新": 1912,
      "斷": 1913,
      "方": 1914,
      "於": 1915,
      "施": 1916,
      "旁": 1917,
      "旅": 1918,
      "旋": 1919,
      "族": 1920,
      "旗": 1921,
      "无": 1922,
      "既": 1923,
      "日": 1924,
      "旦": 1925,
      "旧": 1926,
      "旨": 1927,
      "早": 1928,
      "旬": 1929,
      "旭": 1930,
      "旱": 1931,
      "时": 1932,
      "旷": 1933,
      "旺": 1934,
      "昀": 1935,
      "昂": 1936,
      "昆": 1937,
      "昊": 1938,
      "昌": 1939,
      "明": 1940,
      "昏": 1941,
      "易": 1942,
      "昔": 1943,
      "昕": 1944,
      "星": 1945,
      "映": 1946,
      "春": 1947,
      "昧": 1948,
      "昨": 1949,
      "昭": 1950,
      "是": 1951,
      "昱": 1952,
      "昵": 1953,
      "昼": 1954,
      "显": 1955,
      "時": 1956,
      "晃": 1957,
      "晋": 1958,
      "晏": 1959,
      "晒": 1960,
      "晓": 1961,
      "晕": 1962,
      "晖": 1963,
      "晗": 1964,
      "晚": 1965,
      "晟": 1966,
      "晤": 1967,
      "晦": 1968,
      "晨": 1969,
      "普": 1970,
      "景": 1971,
      "晰": 1972,
      "晴": 1973,
      "晶": 1974,
      "智": 1975,
      "晾": 1976,
      "暂": 1977,
      "暇": 1978,
      "暑": 1979,
      "暖": 1980,
      "暗": 1981,
      "暧": 1982,
      "暨": 1983,
      "暮": 1984,
      "暴": 1985,
      "曙": 1986,
      "曜": 1987,
      "曝": 1988,
      "曦": 1989,
      "曰": 1990,
      "曲": 1991,
      "曳": 1992,
      "更": 1993,
      "書": 1994,
      "曹": 1995,
      "曼": 1996,
      "曾": 1997,
      "替": 1998,
      "最": 1999,
      "會": 2000,
      "月": 2001,
      "有": 2002,
      "朋": 2003,
      "服": 2004,
      "朔": 2005,
      "朗": 2006,
      "望": 2007,
      "朝": 2008,
      "期": 2009,
      "朦": 2010,
      "木": 2011,
      "未": 2012,
      "末": 2013,
      "本": 2014,
      "札": 2015,
      "术": 2016,
      "朱": 2017,
      "朴": 2018,
      "朵": 2019,
      "机": 2020,
      "朽": 2021,
      "杀": 2022,
      "杂": 2023,
      "权": 2024,
      "杆": 2025,
      "杉": 2026,
      "李": 2027,
      "杏": 2028,
      "材": 2029,
      "村": 2030,
      "杖": 2031,
      "杜": 2032,
      "杞": 2033,
      "束": 2034,
      "杠": 2035,
      "条": 2036,
      "来": 2037,
      "杨": 2038,
      "杭": 2039,
      "杯": 2040,
      "杰": 2041,
      "東": 2042,
      "杷": 2043,
      "松": 2044,
      "板": 2045,
      "极": 2046,
      "构": 2047,
      "枇": 2048,
      "枉": 2049,
      "析": 2050,
      "枕": 2051,
      "林": 2052,
      "枚": 2053,
      "果": 2054,
      "枝": 2055,
      "枢": 2056,
      "枣": 2057,
      "枪": 2058,
      "枫": 2059,
      "枭": 2060,
      "枯": 2061,
      "架": 2062,
      "枸": 2063,
      "柄": 2064,
      "柏": 2065,
      "某": 2066,
      "柑": 2067,
      "柒": 2068,
      "染": 2069,
      "柔": 2070,
      "柚": 2071,
      "柜": 2072,
      "柠": 2073,
      "查": 2074,
      "柬": 2075,
      "柯": 2076,
      "柱": 2077,
      "柳": 2078,
      "柴": 2079,
      "柿": 2080,
      "栀": 2081,
      "栅": 2082,
      "标": 2083,
      "栈": 2084,
      "栋": 2085,
      "栏": 2086,
      "树": 2087,
      "栓": 2088,
      "栖": 2089,
      "栗": 2090,
      "校": 2091,
      "栩": 2092,
      "株": 2093,
      "样": 2094,
      "核": 2095,
      "根": 2096,
      "格": 2097,
      "栽": 2098,
      "栾": 2099,
      "桁": 2100,
      "桂": 2101,
      "桃": 2102,
      "框": 2103,
      "案": 2104,
      "桌": 2105,
      "桐": 2106,
      "桑": 2107,
      "桓": 2108,
      "桔": 2109,
      "档": 2110,
      "桥": 2111,
      "桦": 2112,
      "桨": 2113,
      "桩": 2114,
      "桶": 2115,
      "梁": 2116,
      "梅": 2117,
      "梓": 2118,
      "梗": 2119,
      "條": 2120,
      "梢": 2121,
      "梦": 2122,
      "梧": 2123,
      "梨": 2124,
      "梭": 2125,
      "梯": 2126,
      "械": 2127,
      "梳": 2128,
      "梵": 2129,
      "检": 2130,
      "棉": 2131,
      "棋": 2132,
      "棍": 2133,
      "棒": 2134,
      "棕": 2135,
      "棘": 2136,
      "棚": 2137,
      "棠": 2138,
      "棣": 2139,
      "森": 2140,
      "棱": 2141,
      "棵": 2142,
      "棺": 2143,
      "椅": 2144,
      "植": 2145,
      "椎": 2146,
      "椒": 2147,
      "椭": 2148,
      "椰": 2149,
      "椿": 2150,
      "楂": 2151,
      "楔": 2152,
      "楚": 2153,
      "楞": 2154,
      "楠": 2155,
      "業": 2156,
      "極": 2157,
      "楷": 2158,
      "楹": 2159,
      "楼": 2160,
      "概": 2161,
      "榄": 2162,
      "榆": 2163,
      "榈": 2164,
      "榔": 2165,
      "榕": 2166,
      "榜": 2167,
      "榨": 2168,
      "榭": 2169,
      "榴": 2170,
      "榻": 2171,
      "槃": 2172,
      "構": 2173,
      "槐": 2174,
      "槛": 2175,
      "槟": 2176,
      "槽": 2177,
      "樂": 2178,
      "樊": 2179,
      "標": 2180,
      "樟": 2181,
      "模": 2182,
      "樣": 2183,
      "横": 2184,
      "樱": 2185,
      "樹": 2186,
      "橄": 2187,
      "橘": 2188,
      "橙": 2189,
      "機": 2190,
      "橡": 2191,
      "橱": 2192,
      "檀": 2193,
      "檐": 2194,
      "檢": 2195,
      "檬": 2196,
      "權": 2197,
      "欠": 2198,
      "次": 2199,
      "欢": 2200,
      "欣": 2201,
      "欧": 2202,
      "欲": 2203,
      "欺": 2204,
      "款": 2205,
      "歇": 2206,
      "歉": 2207,
      "歌": 2208,
      "歡": 2209,
      "止": 2210,
      "正": 2211,
      "此": 2212,
      "步": 2213,
      "武": 2214,
      "歧": 2215,
      "歪": 2216,
      "歷": 2217,
      "歹": 2218,
      "死": 2219,
      "歼": 2220,
      "殆": 2221,
      "殊": 2222,
      "残": 2223,
      "殖": 2224,
      "殡": 2225,
      "殴": 2226,
      "段": 2227,
      "殷": 2228,
      "殿": 2229,
      "毁": 2230,
      "毂": 2231,
      "毅": 2232,
      "毋": 2233,
      "母": 2234,
      "每": 2235,
      "毒": 2236,
      "毓": 2237,
      "比": 2238,
      "毕": 2239,
      "毗": 2240,
      "毙": 2241,
      "毛": 2242,
      "毡": 2243,
      "毫": 2244,
      "毯": 2245,
      "氏": 2246,
      "民": 2247,
      "气": 2248,
      "氛": 2249,
      "氟": 2250,
      "氢": 2251,
      "氣": 2252,
      "氦": 2253,
      "氧": 2254,
      "氨": 2255,
      "氪": 2256,
      "氮": 2257,
      "氯": 2258,
      "氰": 2259,
      "水": 2260,
      "永": 2261,
      "汀": 2262,
      "汁": 2263,
      "求": 2264,
      "汇": 2265,
      "汉": 2266,
      "汐": 2267,
      "汕": 2268,
      "汗": 2269,
      "汛": 2270,
      "汝": 2271,
      "汞": 2272,
      "江": 2273,
      "池": 2274,
      "污": 2275,
      "汤": 2276,
      "汪": 2277,
      "汰": 2278,
      "汲": 2279,
      "汴": 2280,
      "汶": 2281,
      "汹": 2282,
      "決": 2283,
      "汽": 2284,
      "汾": 2285,
      "沁": 2286,
      "沂": 2287,
      "沃": 2288,
      "沅": 2289,
      "沈": 2290,
      "沉": 2291,
      "沌": 2292,
      "沐": 2293,
      "沒": 2294,
      "沓": 2295,
      "沖": 2296,
      "沙": 2297,
      "沛": 2298,
      "沟": 2299,
      "没": 2300,
      "沥": 2301,
      "沦": 2302,
      "沧": 2303,
      "沪": 2304,
      "沫": 2305,
      "沮": 2306,
      "沱": 2307,
      "河": 2308,
      "沸": 2309,
      "油": 2310,
      "治": 2311,
      "沼": 2312,
      "沽": 2313,
      "沾": 2314,
      "沿": 2315,
      "況": 2316,
      "泄": 2317,
      "泉": 2318,
      "泊": 2319,
      "泌": 2320,
      "泓": 2321,
      "法": 2322,
      "泗": 2323,
      "泛": 2324,
      "泡": 2325,
      "波": 2326,
      "泣": 2327,
      "泥": 2328,
      "注": 2329,
      "泪": 2330,
      "泰": 2331,
      "泳": 2332,
      "泵": 2333,
      "泸": 2334,
      "泻": 2335,
      "泼": 2336,
      "泽": 2337,
      "泾": 2338,
      "洁": 2339,
      "洋": 2340,
      "洒": 2341,
      "洗": 2342,
      "洙": 2343,
      "洛": 2344,
      "洞": 2345,
      "津": 2346,
      "洪": 2347,
      "洱": 2348,
      "洲": 2349,
      "活": 2350,
      "洼": 2351,
      "洽": 2352,
      "派": 2353,
      "流": 2354,
      "浅": 2355,
      "浆": 2356,
      "浇": 2357,
      "浊": 2358,
      "测": 2359,
      "济": 2360,
      "浏": 2361,
      "浑": 2362,
      "浒": 2363,
      "浓": 2364,
      "浔": 2365,
      "浙": 2366,
      "浚": 2367,
      "浜": 2368,
      "浦": 2369,
      "浩": 2370,
      "浪": 2371,
      "浮": 2372,
      "浴": 2373,
      "海": 2374,
      "浸": 2375,
      "涂": 2376,
      "涅": 2377,
      "消": 2378,
      "涉": 2379,
      "涌": 2380,
      "涎": 2381,
      "涓": 2382,
      "涕": 2383,
      "涛": 2384,
      "涝": 2385,
      "涞": 2386,
      "涟": 2387,
      "涡": 2388,
      "涤": 2389,
      "润": 2390,
      "涧": 2391,
      "涨": 2392,
      "涩": 2393,
      "涪": 2394,
      "涮": 2395,
      "涯": 2396,
      "液": 2397,
      "涵": 2398,
      "淀": 2399,
      "淄": 2400,
      "淅": 2401,
      "淆": 2402,
      "淇": 2403,
      "淋": 2404,
      "淌": 2405,
      "淑": 2406,
      "淘": 2407,
      "淡": 2408,
      "淤": 2409,
      "淫": 2410,
      "淬": 2411,
      "淮": 2412,
      "深": 2413,
      "淳": 2414,
      "混": 2415,
      "淹": 2416,
      "添": 2417,
      "淼": 2418,
      "清": 2419,
      "渊": 2420,
      "渍": 2421,
      "渎": 2422,
      "渐": 2423,
      "渔": 2424,
      "渗": 2425,
      "渚": 2426,
      "減": 2427,
      "渝": 2428,
      "渠": 2429,
      "渡": 2430,
      "渣": 2431,
      "渤": 2432,
      "渥": 2433,
      "温": 2434,
      "測": 2435,
      "渭": 2436,
      "港": 2437,
      "渲": 2438,
      "渴": 2439,
      "游": 2440,
      "渺": 2441,
      "湃": 2442,
      "湄": 2443,
      "湖": 2444,
      "湘": 2445,
      "湛": 2446,
      "湾": 2447,
      "湿": 2448,
      "溃": 2449,
      "溅": 2450,
      "溉": 2451,
      "源": 2452,
      "準": 2453,
      "溜": 2454,
      "溢": 2455,
      "溧": 2456,
      "溪": 2457,
      "溫": 2458,
      "溯": 2459,
      "溴": 2460,
      "溶": 2461,
      "溺": 2462,
      "滁": 2463,
      "滇": 2464,
      "滋": 2465,
      "滑": 2466,
      "滔": 2467,
      "滕": 2468,
      "滚": 2469,
      "滞": 2470,
      "满": 2471,
      "滤": 2472,
      "滥": 2473,
      "滦": 2474,
      "滨": 2475,
      "滩": 2476,
      "滴": 2477,
      "滿": 2478,
      "漂": 2479,
      "漆": 2480,
      "漏": 2481,
      "漓": 2482,
      "演": 2483,
      "漠": 2484,
      "漩": 2485,
      "漪": 2486,
      "漫": 2487,
      "漯": 2488,
      "漱": 2489,
      "漳": 2490,
      "漾": 2491,
      "潇": 2492,
      "潍": 2493,
      "潔": 2494,
      "潘": 2495,
      "潜": 2496,
      "潞": 2497,
      "潢": 2498,
      "潤": 2499,
      "潭": 2500,
      "潮": 2501,
      "潺": 2502,
      "潼": 2503,
      "澄": 2504,
      "澈": 2505,
      "澎": 2506,
      "澜": 2507,
      "澡": 2508,
      "澳": 2509,
      "激": 2510,
      "濑": 2511,
      "濒": 2512,
      "濕": 2513,
      "濟": 2514,
      "濠": 2515,
      "濡": 2516,
      "濮": 2517,
      "濾": 2518,
      "瀑": 2519,
      "瀚": 2520,
      "瀛": 2521,
      "灌": 2522,
      "火": 2523,
      "灭": 2524,
      "灯": 2525,
      "灰": 2526,
      "灵": 2527,
      "灶": 2528,
      "灸": 2529,
      "灼": 2530,
      "灾": 2531,
      "灿": 2532,
      "炉": 2533,
      "炊": 2534,
      "炎": 2535,
      "炒": 2536,
      "炖": 2537,
      "炙": 2538,
      "炜": 2539,
      "炫": 2540,
      "炬": 2541,
      "炭": 2542,
      "炮": 2543,
      "炯": 2544,
      "炳": 2545,
      "炸": 2546,
      "点": 2547,
      "為": 2548,
      "炼": 2549,
      "炽": 2550,
      "烁": 2551,
      "烂": 2552,
      "烃": 2553,
      "烈": 2554,
      "烊": 2555,
      "烘": 2556,
      "烙": 2557,
      "烛": 2558,
      "烟": 2559,
      "烤": 2560,
      "烦": 2561,
      "烧": 2562,
      "烨": 2563,
      "烩": 2564,
      "烫": 2565,
      "烬": 2566,
      "热": 2567,
      "烯": 2568,
      "烷": 2569,
      "烹": 2570,
      "烽": 2571,
      "焉": 2572,
      "焊": 2573,
      "焕": 2574,
      "焖": 2575,
      "焙": 2576,
      "焚": 2577,
      "無": 2578,
      "焦": 2579,
      "焯": 2580,
      "焰": 2581,
      "然": 2582,
      "煌": 2583,
      "煎": 2584,
      "煜": 2585,
      "煞": 2586,
      "煤": 2587,
      "煦": 2588,
      "照": 2589,
      "煮": 2590,
      "煲": 2591,
      "煽": 2592,
      "熄": 2593,
      "熊": 2594,
      "熏": 2595,
      "熔": 2596,
      "熙": 2597,
      "熟": 2598,
      "熠": 2599,
      "熨": 2600,
      "熬": 2601,
      "熱": 2602,
      "熹": 2603,
      "燃": 2604,
      "燈": 2605,
      "燕": 2606,
      "營": 2607,
      "燥": 2608,
      "爆": 2609,
      "爐": 2610,
      "爪": 2611,
      "爬": 2612,
      "爭": 2613,
      "爱": 2614,
      "爵": 2615,
      "父": 2616,
      "爷": 2617,
      "爸": 2618,
      "爹": 2619,
      "爽": 2620,
      "片": 2621,
      "版": 2622,
      "牌": 2623,
      "牙": 2624,
      "牛": 2625,
      "牟": 2626,
      "牡": 2627,
      "牢": 2628,
      "牧": 2629,
      "物": 2630,
      "牲": 2631,
      "牵": 2632,
      "特": 2633,
      "牺": 2634,
      "犀": 2635,
      "犁": 2636,
      "犬": 2637,
      "犯": 2638,
      "状": 2639,
      "犹": 2640,
      "狀": 2641,
      "狂": 2642,
      "狄": 2643,
      "狐": 2644,
      "狗": 2645,
      "狙": 2646,
      "狠": 2647,
      "狡": 2648,
      "狩": 2649,
      "独": 2650,
      "狭": 2651,
      "狮": 2652,
      "狱": 2653,
      "狸": 2654,
      "狼": 2655,
      "猎": 2656,
      "猕": 2657,
      "猛": 2658,
      "猜": 2659,
      "猝": 2660,
      "猩": 2661,
      "猪": 2662,
      "猫": 2663,
      "献": 2664,
      "猴": 2665,
      "猿": 2666,
      "獨": 2667,
      "獲": 2668,
      "玄": 2669,
      "率": 2670,
      "玉": 2671,
      "王": 2672,
      "玑": 2673,
      "玖": 2674,
      "玛": 2675,
      "玥": 2676,
      "玩": 2677,
      "玫": 2678,
      "玮": 2679,
      "环": 2680,
      "现": 2681,
      "玲": 2682,
      "玺": 2683,
      "玻": 2684,
      "珀": 2685,
      "珂": 2686,
      "珊": 2687,
      "珍": 2688,
      "珑": 2689,
      "珞": 2690,
      "珠": 2691,
      "班": 2692,
      "現": 2693,
      "球": 2694,
      "琅": 2695,
      "理": 2696,
      "琉": 2697,
      "琐": 2698,
      "琛": 2699,
      "琢": 2700,
      "琥": 2701,
      "琦": 2702,
      "琪": 2703,
      "琳": 2704,
      "琴": 2705,
      "琵": 2706,
      "琶": 2707,
      "琼": 2708,
      "瑕": 2709,
      "瑙": 2710,
      "瑚": 2711,
      "瑛": 2712,
      "瑜": 2713,
      "瑞": 2714,
      "瑟": 2715,
      "瑰": 2716,
      "瑶": 2717,
      "瑾": 2718,
      "璀": 2719,
      "璃": 2720,
      "璇": 2721,
      "璋": 2722,
      "璐": 2723,
      "璞": 2724,
      "璟": 2725,
      "璧": 2726,
      "璨": 2727,
      "環": 2728,
      "瓜": 2729,
      "瓢": 2730,
      "瓣": 2731,
      "瓦": 2732,
      "瓯": 2733,
      "瓶": 2734,
      "瓷": 2735,
      "甄": 2736,
      "甘": 2737,
      "甚": 2738,
      "甜": 2739,
      "生": 2740,
      "產": 2741,
      "用": 2742,
      "甩": 2743,
      "甫": 2744,
      "甬": 2745,
      "田": 2746,
      "由": 2747,
      "甲": 2748,
      "申": 2749,
      "电": 2750,
      "男": 2751,
      "甸": 2752,
      "町": 2753,
      "画": 2754,
      "畅": 2755,
      "界": 2756,
      "畏": 2757,
      "畔": 2758,
      "留": 2759,
      "畜": 2760,
      "略": 2761,
      "番": 2762,
      "異": 2763,
      "畴": 2764,
      "當": 2765,
      "畸": 2766,
      "疆": 2767,
      "疏": 2768,
      "疑": 2769,
      "疗": 2770,
      "疙": 2771,
      "疚": 2772,
      "疡": 2773,
      "疤": 2774,
      "疫": 2775,
      "疮": 2776,
      "疯": 2777,
      "疱": 2778,
      "疲": 2779,
      "疵": 2780,
      "疹": 2781,
      "疼": 2782,
      "疾": 2783,
      "病": 2784,
      "症": 2785,
      "痉": 2786,
      "痊": 2787,
      "痒": 2788,
      "痔": 2789,
      "痕": 2790,
      "痘": 2791,
      "痛": 2792,
      "痢": 2793,
      "痣": 2794,
      "痤": 2795,
      "痪": 2796,
      "痫": 2797,
      "痰": 2798,
      "痴": 2799,
      "痹": 2800,
      "瘀": 2801,
      "瘙": 2802,
      "瘟": 2803,
      "瘤": 2804,
      "瘦": 2805,
      "瘩": 2806,
      "瘫": 2807,
      "瘾": 2808,
      "療": 2809,
      "癌": 2810,
      "癜": 2811,
      "癣": 2812,
      "癫": 2813,
      "癸": 2814,
      "登": 2815,
      "發": 2816,
      "白": 2817,
      "百": 2818,
      "皂": 2819,
      "的": 2820,
      "皆": 2821,
      "皇": 2822,
      "皈": 2823,
      "皋": 2824,
      "皓": 2825,
      "皖": 2826,
      "皙": 2827,
      "皮": 2828,
      "皱": 2829,
      "皿": 2830,
      "盆": 2831,
      "盈": 2832,
      "益": 2833,
      "盎": 2834,
      "盏": 2835,
      "盐": 2836,
      "监": 2837,
      "盒": 2838,
      "盔": 2839,
      "盖": 2840,
      "盗": 2841,
      "盘": 2842,
      "盛": 2843,
      "盟": 2844,
      "監": 2845,
      "目": 2846,
      "盯": 2847,
      "盲": 2848,
      "直": 2849,
      "相": 2850,
      "盼": 2851,
      "盾": 2852,
      "省": 2853,
      "眉": 2854,
      "看": 2855,
      "真": 2856,
      "眠": 2857,
      "眨": 2858,
      "眩": 2859,
      "眯": 2860,
      "眶": 2861,
      "眷": 2862,
      "眸": 2863,
      "眺": 2864,
      "眼": 2865,
      "眾": 2866,
      "着": 2867,
      "睁": 2868,
      "睐": 2869,
      "睑": 2870,
      "睛": 2871,
      "睡": 2872,
      "督": 2873,
      "睦": 2874,
      "睫": 2875,
      "睹": 2876,
      "睾": 2877,
      "睿": 2878,
      "瞄": 2879,
      "瞎": 2880,
      "瞒": 2881,
      "瞥": 2882,
      "瞧": 2883,
      "瞩": 2884,
      "瞪": 2885,
      "瞬": 2886,
      "瞰": 2887,
      "瞳": 2888,
      "瞻": 2889,
      "矗": 2890,
      "矛": 2891,
      "矢": 2892,
      "矣": 2893,
      "知": 2894,
      "矩": 2895,
      "矫": 2896,
      "短": 2897,
      "矮": 2898,
      "石": 2899,
      "矶": 2900,
      "矾": 2901,
      "矿": 2902,
      "码": 2903,
      "砂": 2904,
      "砌": 2905,
      "砍": 2906,
      "研": 2907,
      "砖": 2908,
      "砚": 2909,
      "砝": 2910,
      "砥": 2911,
      "破": 2912,
      "砵": 2913,
      "砷": 2914,
      "砸": 2915,
      "砺": 2916,
      "砼": 2917,
      "砾": 2918,
      "础": 2919,
      "硅": 2920,
      "硒": 2921,
      "硕": 2922,
      "硝": 2923,
      "硫": 2924,
      "硬": 2925,
      "确": 2926,
      "硼": 2927,
      "碌": 2928,
      "碍": 2929,
      "碎": 2930,
      "碑": 2931,
      "碗": 2932,
      "碘": 2933,
      "碟": 2934,
      "碧": 2935,
      "碰": 2936,
      "碱": 2937,
      "碳": 2938,
      "確": 2939,
      "碼": 2940,
      "碾": 2941,
      "磁": 2942,
      "磅": 2943,
      "磊": 2944,
      "磋": 2945,
      "磐": 2946,
      "磕": 2947,
      "磨": 2948,
      "磷": 2949,
      "磺": 2950,
      "礁": 2951,
      "礎": 2952,
      "礦": 2953,
      "礴": 2954,
      "示": 2955,
      "礼": 2956,
      "社": 2957,
      "祀": 2958,
      "祁": 2959,
      "祂": 2960,
      "祈": 2961,
      "祉": 2962,
      "祎": 2963,
      "祐": 2964,
      "祖": 2965,
      "祛": 2966,
      "祝": 2967,
      "神": 2968,
      "祠": 2969,
      "祥": 2970,
      "票": 2971,
      "祭": 2972,
      "祯": 2973,
      "祷": 2974,
      "祸": 2975,
      "祺": 2976,
      "禀": 2977,
      "禁": 2978,
      "禄": 2979,
      "禅": 2980,
      "福": 2981,
      "禧": 2982,
      "禹": 2983,
      "禺": 2984,
      "离": 2985,
      "禽": 2986,
      "禾": 2987,
      "秀": 2988,
      "私": 2989,
      "秃": 2990,
      "秆": 2991,
      "秉": 2992,
      "秋": 2993,
      "种": 2994,
      "科": 2995,
      "秒": 2996,
      "秘": 2997,
      "租": 2998,
      "秤": 2999,
      "秦": 3000,
      "秧": 3001,
      "秩": 3002,
      "积": 3003,
      "称": 3004,
      "秸": 3005,
      "移": 3006,
      "秽": 3007,
      "稀": 3008,
      "程": 3009,
      "稍": 3010,
      "税": 3011,
      "稚": 3012,
      "稠": 3013,
      "稣": 3014,
      "種": 3015,
      "稱": 3016,
      "稳": 3017,
      "稷": 3018,
      "稻": 3019,
      "稼": 3020,
      "稽": 3021,
      "稿": 3022,
      "穆": 3023,
      "積": 3024,
      "穗": 3025,
      "穩": 3026,
      "穴": 3027,
      "究": 3028,
      "穷": 3029,
      "穹": 3030,
      "空": 3031,
      "穿": 3032,
      "突": 3033,
      "窃": 3034,
      "窄": 3035,
      "窍": 3036,
      "窑": 3037,
      "窒": 3038,
      "窖": 3039,
      "窗": 3040,
      "窘": 3041,
      "窜": 3042,
      "窝": 3043,
      "窟": 3044,
      "窥": 3045,
      "窦": 3046,
      "立": 3047,
      "竖": 3048,
      "站": 3049,
      "竞": 3050,
      "竟": 3051,
      "章": 3052,
      "竣": 3053,
      "童": 3054,
      "竭": 3055,
      "端": 3056,
      "競": 3057,
      "竹": 3058,
      "竺": 3059,
      "竿": 3060,
      "笃": 3061,
      "笋": 3062,
      "笑": 3063,
      "笔": 3064,
      "笙": 3065,
      "笛": 3066,
      "符": 3067,
      "笨": 3068,
      "第": 3069,
      "笼": 3070,
      "等": 3071,
      "筋": 3072,
      "筐": 3073,
      "筑": 3074,
      "筒": 3075,
      "答": 3076,
      "策": 3077,
      "筛": 3078,
      "筝": 3079,
      "筱": 3080,
      "筷": 3081,
      "筹": 3082,
      "签": 3083,
      "简": 3084,
      "箍": 3085,
      "箔": 3086,
      "算": 3087,
      "管": 3088,
      "箭": 3089,
      "箱": 3090,
      "節": 3091,
      "篆": 3092,
      "篇": 3093,
      "篡": 3094,
      "篮": 3095,
      "篱": 3096,
      "篷": 3097,
      "簇": 3098,
      "簡": 3099,
      "簧": 3100,
      "簸": 3101,
      "簿": 3102,
      "籁": 3103,
      "籍": 3104,
      "米": 3105,
      "类": 3106,
      "籽": 3107,
      "粉": 3108,
      "粑": 3109,
      "粒": 3110,
      "粕": 3111,
      "粗": 3112,
      "粘": 3113,
      "粟": 3114,
      "粤": 3115,
      "粥": 3116,
      "粪": 3117,
      "粮": 3118,
      "粱": 3119,
      "粹": 3120,
      "粼": 3121,
      "粽": 3122,
      "精": 3123,
      "糊": 3124,
      "糕": 3125,
      "糖": 3126,
      "糙": 3127,
      "糜": 3128,
      "糟": 3129,
      "糠": 3130,
      "糯": 3131,
      "系": 3132,
      "約": 3133,
      "紅": 3134,
      "紊": 3135,
      "紙": 3136,
      "級": 3137,
      "素": 3138,
      "索": 3139,
      "紧": 3140,
      "紫": 3141,
      "累": 3142,
      "細": 3143,
      "紹": 3144,
      "終": 3145,
      "組": 3146,
      "結": 3147,
      "絡": 3148,
      "給": 3149,
      "絮": 3150,
      "統": 3151,
      "絲": 3152,
      "經": 3153,
      "綜": 3154,
      "綠": 3155,
      "維": 3156,
      "網": 3157,
      "緊": 3158,
      "線": 3159,
      "編": 3160,
      "縮": 3161,
      "總": 3162,
      "繁": 3163,
      "織": 3164,
      "纂": 3165,
      "續": 3166,
      "纠": 3167,
      "红": 3168,
      "纤": 3169,
      "约": 3170,
      "级": 3171,
      "纪": 3172,
      "纫": 3173,
      "纬": 3174,
      "纭": 3175,
      "纯": 3176,
      "纱": 3177,
      "纲": 3178,
      "纳": 3179,
      "纵": 3180,
      "纶": 3181,
      "纷": 3182,
      "纸": 3183,
      "纹": 3184,
      "纺": 3185,
      "纽": 3186,
      "纾": 3187,
      "线": 3188,
      "练": 3189,
      "组": 3190,
      "绅": 3191,
      "细": 3192,
      "织": 3193,
      "终": 3194,
      "绊": 3195,
      "绍": 3196,
      "绎": 3197,
      "经": 3198,
      "绑": 3199,
      "绒": 3200,
      "结": 3201,
      "绕": 3202,
      "绘": 3203,
      "给": 3204,
      "绚": 3205,
      "绛": 3206,
      "络": 3207,
      "绝": 3208,
      "绞": 3209,
      "统": 3210,
      "绢": 3211,
      "绣": 3212,
      "绥": 3213,
      "继": 3214,
      "绩": 3215,
      "绪": 3216,
      "续": 3217,
      "绮": 3218,
      "绯": 3219,
      "绰": 3220,
      "绳": 3221,
      "维": 3222,
      "绵": 3223,
      "绷": 3224,
      "绸": 3225,
      "综": 3226,
      "绽": 3227,
      "绿": 3228,
      "缀": 3229,
      "缅": 3230,
      "缆": 3231,
      "缉": 3232,
      "缎": 3233,
      "缓": 3234,
      "缔": 3235,
      "缕": 3236,
      "编": 3237,
      "缘": 3238,
      "缚": 3239,
      "缜": 3240,
      "缝": 3241,
      "缠": 3242,
      "缤": 3243,
      "缨": 3244,
      "缩": 3245,
      "缪": 3246,
      "缭": 3247,
      "缮": 3248,
      "缴": 3249,
      "缸": 3250,
      "缺": 3251,
      "罄": 3252,
      "罐": 3253,
      "网": 3254,
      "罕": 3255,
      "罗": 3256,
      "罚": 3257,
      "罢": 3258,
      "罩": 3259,
      "罪": 3260,
      "置": 3261,
      "署": 3262,
      "罹": 3263,
      "羁": 3264,
      "羊": 3265,
      "羌": 3266,
      "美": 3267,
      "羔": 3268,
      "羚": 3269,
      "羞": 3270,
      "羟": 3271,
      "羡": 3272,
      "群": 3273,
      "羧": 3274,
      "羯": 3275,
      "羲": 3276,
      "羹": 3277,
      "羽": 3278,
      "翁": 3279,
      "翅": 3280,
      "翌": 3281,
      "習": 3282,
      "翔": 3283,
      "翘": 3284,
      "翟": 3285,
      "翠": 3286,
      "翡": 3287,
      "翩": 3288,
      "翰": 3289,
      "翱": 3290,
      "翻": 3291,
      "翼": 3292,
      "耀": 3293,
      "老": 3294,
      "考": 3295,
      "者": 3296,
      "而": 3297,
      "耍": 3298,
      "耐": 3299,
      "耕": 3300,
      "耗": 3301,
      "耘": 3302,
      "耙": 3303,
      "耦": 3304,
      "耳": 3305,
      "耶": 3306,
      "耸": 3307,
      "耻": 3308,
      "耽": 3309,
      "耿": 3310,
      "聂": 3311,
      "聆": 3312,
      "聊": 3313,
      "聋": 3314,
      "职": 3315,
      "联": 3316,
      "聘": 3317,
      "聚": 3318,
      "聞": 3319,
      "聪": 3320,
      "聯": 3321,
      "聲": 3322,
      "職": 3323,
      "肃": 3324,
      "肆": 3325,
      "肇": 3326,
      "肉": 3327,
      "肋": 3328,
      "肌": 3329,
      "肖": 3330,
      "肘": 3331,
      "肚": 3332,
      "肛": 3333,
      "肝": 3334,
      "肠": 3335,
      "股": 3336,
      "肢": 3337,
      "肤": 3338,
      "肥": 3339,
      "肩": 3340,
      "肪": 3341,
      "肯": 3342,
      "育": 3343,
      "肴": 3344,
      "肺": 3345,
      "肽": 3346,
      "肾": 3347,
      "肿": 3348,
      "胀": 3349,
      "胁": 3350,
      "胃": 3351,
      "胆": 3352,
      "背": 3353,
      "胎": 3354,
      "胖": 3355,
      "胚": 3356,
      "胜": 3357,
      "胞": 3358,
      "胡": 3359,
      "胤": 3360,
      "胥": 3361,
      "胧": 3362,
      "胰": 3363,
      "胱": 3364,
      "胳": 3365,
      "胶": 3366,
      "胸": 3367,
      "胺": 3368,
      "能": 3369,
      "脂": 3370,
      "脆": 3371,
      "脉": 3372,
      "脊": 3373,
      "脏": 3374,
      "脐": 3375,
      "脑": 3376,
      "脓": 3377,
      "脖": 3378,
      "脚": 3379,
      "脱": 3380,
      "脲": 3381,
      "脸": 3382,
      "脾": 3383,
      "腈": 3384,
      "腊": 3385,
      "腋": 3386,
      "腌": 3387,
      "腐": 3388,
      "腑": 3389,
      "腓": 3390,
      "腔": 3391,
      "腕": 3392,
      "腥": 3393,
      "腮": 3394,
      "腰": 3395,
      "腱": 3396,
      "腹": 3397,
      "腺": 3398,
      "腻": 3399,
      "腾": 3400,
      "腿": 3401,
      "膀": 3402,
      "膊": 3403,
      "膏": 3404,
      "膛": 3405,
      "膜": 3406,
      "膝": 3407,
      "膠": 3408,
      "膨": 3409,
      "膳": 3410,
      "膺": 3411,
      "臀": 3412,
      "臂": 3413,
      "臣": 3414,
      "臧": 3415,
      "自": 3416,
      "臭": 3417,
      "至": 3418,
      "致": 3419,
      "臺": 3420,
      "臻": 3421,
      "舅": 3422,
      "舆": 3423,
      "與": 3424,
      "舌": 3425,
      "舍": 3426,
      "舒": 3427,
      "舜": 3428,
      "舞": 3429,
      "舟": 3430,
      "航": 3431,
      "般": 3432,
      "舰": 3433,
      "舱": 3434,
      "舵": 3435,
      "舶": 3436,
      "船": 3437,
      "艇": 3438,
      "艘": 3439,
      "良": 3440,
      "艰": 3441,
      "色": 3442,
      "艳": 3443,
      "艺": 3444,
      "艾": 3445,
      "节": 3446,
      "芊": 3447,
      "芋": 3448,
      "芍": 3449,
      "芒": 3450,
      "芙": 3451,
      "芜": 3452,
      "芝": 3453,
      "芥": 3454,
      "芦": 3455,
      "芪": 3456,
      "芬": 3457,
      "芭": 3458,
      "芮": 3459,
      "芯": 3460,
      "花": 3461,
      "芳": 3462,
      "芷": 3463,
      "芸": 3464,
      "芹": 3465,
      "芽": 3466,
      "苇": 3467,
      "苍": 3468,
      "苏": 3469,
      "苑": 3470,
      "苓": 3471,
      "苔": 3472,
      "苗": 3473,
      "苛": 3474,
      "苞": 3475,
      "苟": 3476,
      "若": 3477,
      "苦": 3478,
      "苯": 3479,
      "英": 3480,
      "苷": 3481,
      "苹": 3482,
      "茁": 3483,
      "茂": 3484,
      "范": 3485,
      "茄": 3486,
      "茅": 3487,
      "茉": 3488,
      "茎": 3489,
      "茗": 3490,
      "茜": 3491,
      "茧": 3492,
      "茨": 3493,
      "茫": 3494,
      "茬": 3495,
      "茯": 3496,
      "茱": 3497,
      "茵": 3498,
      "茶": 3499,
      "茸": 3500,
      "茹": 3501,
      "荀": 3502,
      "荃": 3503,
      "荆": 3504,
      "草": 3505,
      "荐": 3506,
      "荒": 3507,
      "荔": 3508,
      "荞": 3509,
      "荟": 3510,
      "荡": 3511,
      "荣": 3512,
      "荤": 3513,
      "荧": 3514,
      "荨": 3515,
      "荫": 3516,
      "药": 3517,
      "荷": 3518,
      "荼": 3519,
      "莅": 3520,
      "莆": 3521,
      "莉": 3522,
      "莎": 3523,
      "莓": 3524,
      "莘": 3525,
      "莞": 3526,
      "莫": 3527,
      "莱": 3528,
      "莲": 3529,
      "获": 3530,
      "莹": 3531,
      "莺": 3532,
      "莽": 3533,
      "菁": 3534,
      "菇": 3535,
      "菊": 3536,
      "菌": 3537,
      "菏": 3538,
      "菜": 3539,
      "菠": 3540,
      "菩": 3541,
      "華": 3542,
      "菱": 3543,
      "菲": 3544,
      "萃": 3545,
      "萄": 3546,
      "萌": 3547,
      "萍": 3548,
      "萎": 3549,
      "萝": 3550,
      "萤": 3551,
      "营": 3552,
      "萦": 3553,
      "萧": 3554,
      "萨": 3555,
      "萬": 3556,
      "萱": 3557,
      "萼": 3558,
      "落": 3559,
      "葆": 3560,
      "著": 3561,
      "葚": 3562,
      "葛": 3563,
      "葡": 3564,
      "董": 3565,
      "葩": 3566,
      "葫": 3567,
      "葬": 3568,
      "葱": 3569,
      "葵": 3570,
      "蒂": 3571,
      "蒋": 3572,
      "蒙": 3573,
      "蒜": 3574,
      "蒲": 3575,
      "蒸": 3576,
      "蒿": 3577,
      "蓄": 3578,
      "蓉": 3579,
      "蓋": 3580,
      "蓓": 3581,
      "蓝": 3582,
      "蓬": 3583,
      "蔑": 3584,
      "蔓": 3585,
      "蔗": 3586,
      "蔚": 3587,
      "蔡": 3588,
      "蔬": 3589,
      "蔷": 3590,
      "蔻": 3591,
      "蔽": 3592,
      "蕃": 3593,
      "蕉": 3594,
      "蕊": 3595,
      "蕴": 3596,
      "蕾": 3597,
      "薄": 3598,
      "薇": 3599,
      "薏": 3600,
      "薛": 3601,
      "薪": 3602,
      "薯": 3603,
      "薰": 3604,
      "藉": 3605,
      "藏": 3606,
      "藕": 3607,
      "藝": 3608,
      "藤": 3609,
      "藥": 3610,
      "藩": 3611,
      "藻": 3612,
      "蘑": 3613,
      "蘭": 3614,
      "蘸": 3615,
      "虎": 3616,
      "虏": 3617,
      "虐": 3618,
      "虑": 3619,
      "虔": 3620,
      "處": 3621,
      "虚": 3622,
      "虞": 3623,
      "號": 3624,
      "虫": 3625,
      "虹": 3626,
      "虽": 3627,
      "虾": 3628,
      "蚀": 3629,
      "蚁": 3630,
      "蚂": 3631,
      "蚊": 3632,
      "蚌": 3633,
      "蚓": 3634,
      "蚕": 3635,
      "蚝": 3636,
      "蚣": 3637,
      "蛀": 3638,
      "蛇": 3639,
      "蛋": 3640,
      "蛙": 3641,
      "蛛": 3642,
      "蛟": 3643,
      "蛤": 3644,
      "蛮": 3645,
      "蛰": 3646,
      "蛾": 3647,
      "蜀": 3648,
      "蜂": 3649,
      "蜈": 3650,
      "蜒": 3651,
      "蜕": 3652,
      "蜗": 3653,
      "蜘": 3654,
      "蜜": 3655,
      "蜡": 3656,
      "蜿": 3657,
      "蝇": 3658,
      "蝉": 3659,
      "蝎": 3660,
      "蝙": 3661,
      "蝠": 3662,
      "蝴": 3663,
      "蝶": 3664,
      "螂": 3665,
      "螃": 3666,
      "融": 3667,
      "螨": 3668,
      "螺": 3669,
      "蟑": 3670,
      "蟠": 3671,
      "蟹": 3672,
      "蠕": 3673,
      "蠢": 3674,
      "血": 3675,
      "衅": 3676,
      "行": 3677,
      "衍": 3678,
      "術": 3679,
      "衔": 3680,
      "街": 3681,
      "衙": 3682,
      "衡": 3683,
      "衢": 3684,
      "衣": 3685,
      "补": 3686,
      "表": 3687,
      "衫": 3688,
      "衬": 3689,
      "衰": 3690,
      "衷": 3691,
      "袁": 3692,
      "袂": 3693,
      "袅": 3694,
      "袋": 3695,
      "袍": 3696,
      "袖": 3697,
      "袜": 3698,
      "被": 3699,
      "袭": 3700,
      "袱": 3701,
      "裁": 3702,
      "裂": 3703,
      "装": 3704,
      "裔": 3705,
      "裕": 3706,
      "裘": 3707,
      "裙": 3708,
      "補": 3709,
      "裝": 3710,
      "裤": 3711,
      "裳": 3712,
      "裴": 3713,
      "裸": 3714,
      "裹": 3715,
      "褐": 3716,
      "褒": 3717,
      "褚": 3718,
      "褥": 3719,
      "褪": 3720,
      "褶": 3721,
      "襄": 3722,
      "襟": 3723,
      "西": 3724,
      "要": 3725,
      "覆": 3726,
      "見": 3727,
      "規": 3728,
      "視": 3729,
      "觀": 3730,
      "见": 3731,
      "观": 3732,
      "规": 3733,
      "觅": 3734,
      "视": 3735,
      "览": 3736,
      "觉": 3737,
      "觑": 3738,
      "角": 3739,
      "解": 3740,
      "触": 3741,
      "言": 3742,
      "計": 3743,
      "訓": 3744,
      "記": 3745,
      "設": 3746,
      "許": 3747,
      "評": 3748,
      "詢": 3749,
      "試": 3750,
      "話": 3751,
      "該": 3752,
      "詹": 3753,
      "誉": 3754,
      "認": 3755,
      "誓": 3756,
      "說": 3757,
      "調": 3758,
      "請": 3759,
      "論": 3760,
      "證": 3761,
      "識": 3762,
      "警": 3763,
      "譬": 3764,
      "議": 3765,
      "護": 3766,
      "變": 3767,
      "讓": 3768,
      "计": 3769,
      "订": 3770,
      "认": 3771,
      "讨": 3772,
      "让": 3773,
      "训": 3774,
      "议": 3775,
      "讯": 3776,
      "记": 3777,
      "讲": 3778,
      "讳": 3779,
      "讶": 3780,
      "讷": 3781,
      "许": 3782,
      "论": 3783,
      "讼": 3784,
      "讽": 3785,
      "设": 3786,
      "访": 3787,
      "诀": 3788,
      "证": 3789,
      "评": 3790,
      "诅": 3791,
      "识": 3792,
      "诈": 3793,
      "诉": 3794,
      "诊": 3795,
      "词": 3796,
      "诏": 3797,
      "译": 3798,
      "试": 3799,
      "诗": 3800,
      "诙": 3801,
      "诚": 3802,
      "诛": 3803,
      "话": 3804,
      "诞": 3805,
      "诟": 3806,
      "诠": 3807,
      "诡": 3808,
      "询": 3809,
      "诣": 3810,
      "该": 3811,
      "详": 3812,
      "诫": 3813,
      "语": 3814,
      "误": 3815,
      "诱": 3816,
      "诲": 3817,
      "说": 3818,
      "诵": 3819,
      "请": 3820,
      "诸": 3821,
      "诺": 3822,
      "读": 3823,
      "课": 3824,
      "谁": 3825,
      "调": 3826,
      "谅": 3827,
      "谈": 3828,
      "谊": 3829,
      "谋": 3830,
      "谌": 3831,
      "谍": 3832,
      "谎": 3833,
      "谏": 3834,
      "谐": 3835,
      "谓": 3836,
      "谕": 3837,
      "谙": 3838,
      "谚": 3839,
      "谛": 3840,
      "谜": 3841,
      "谢": 3842,
      "谣": 3843,
      "谤": 3844,
      "谥": 3845,
      "谦": 3846,
      "谧": 3847,
      "谨": 3848,
      "谬": 3849,
      "谭": 3850,
      "谱": 3851,
      "谴": 3852,
      "谷": 3853,
      "豁": 3854,
      "豆": 3855,
      "豉": 3856,
      "豌": 3857,
      "豚": 3858,
      "象": 3859,
      "豪": 3860,
      "豫": 3861,
      "豹": 3862,
      "貂": 3863,
      "貅": 3864,
      "貌": 3865,
      "貔": 3866,
      "負": 3867,
      "貨": 3868,
      "責": 3869,
      "買": 3870,
      "費": 3871,
      "資": 3872,
      "質": 3873,
      "購": 3874,
      "賽": 3875,
      "贝": 3876,
      "贞": 3877,
      "负": 3878,
      "贡": 3879,
      "财": 3880,
      "责": 3881,
      "贤": 3882,
      "败": 3883,
      "账": 3884,
      "货": 3885,
      "质": 3886,
      "贩": 3887,
      "贪": 3888,
      "贫": 3889,
      "贬": 3890,
      "购": 3891,
      "贮": 3892,
      "贯": 3893,
      "贰": 3894,
      "贱": 3895,
      "贴": 3896,
      "贵": 3897,
      "贷": 3898,
      "贸": 3899,
      "费": 3900,
      "贺": 3901,
      "贼": 3902,
      "贾": 3903,
      "贿": 3904,
      "赁": 3905,
      "赂": 3906,
      "赃": 3907,
      "资": 3908,
      "赋": 3909,
      "赌": 3910,
      "赎": 3911,
      "赏": 3912,
      "赐": 3913,
      "赔": 3914,
      "赖": 3915,
      "赘": 3916,
      "赚": 3917,
      "赛": 3918,
      "赞": 3919,
      "赠": 3920,
      "赡": 3921,
      "赢": 3922,
      "赣": 3923,
      "赤": 3924,
      "赦": 3925,
      "赫": 3926,
      "走": 3927,
      "赴": 3928,
      "赵": 3929,
      "赶": 3930,
      "起": 3931,
      "趁": 3932,
      "超": 3933,
      "越": 3934,
      "趋": 3935,
      "趟": 3936,
      "趣": 3937,
      "足": 3938,
      "趴": 3939,
      "趾": 3940,
      "跃": 3941,
      "跆": 3942,
      "跋": 3943,
      "跌": 3944,
      "跑": 3945,
      "距": 3946,
      "跟": 3947,
      "跤": 3948,
      "跨": 3949,
      "跪": 3950,
      "路": 3951,
      "跳": 3952,
      "践": 3953,
      "跻": 3954,
      "踊": 3955,
      "踏": 3956,
      "踝": 3957,
      "踞": 3958,
      "踢": 3959,
      "踩": 3960,
      "踪": 3961,
      "踵": 3962,
      "蹄": 3963,
      "蹈": 3964,
      "蹊": 3965,
      "蹦": 3966,
      "蹭": 3967,
      "蹲": 3968,
      "蹴": 3969,
      "躁": 3970,
      "身": 3971,
      "躬": 3972,
      "躯": 3973,
      "躲": 3974,
      "躺": 3975,
      "車": 3976,
      "軟": 3977,
      "軸": 3978,
      "較": 3979,
      "載": 3980,
      "輕": 3981,
      "輪": 3982,
      "輸": 3983,
      "轉": 3984,
      "车": 3985,
      "轧": 3986,
      "轨": 3987,
      "轩": 3988,
      "转": 3989,
      "轮": 3990,
      "软": 3991,
      "轰": 3992,
      "轴": 3993,
      "轶": 3994,
      "轻": 3995,
      "轼": 3996,
      "载": 3997,
      "轿": 3998,
      "较": 3999,
      "辄": 4000,
      "辅": 4001,
      "辆": 4002,
      "辈": 4003,
      "辉": 4004,
      "辊": 4005,
      "辍": 4006,
      "辐": 4007,
      "辑": 4008,
      "输": 4009,
      "辕": 4010,
      "辖": 4011,
      "辗": 4012,
      "辙": 4013,
      "辛": 4014,
      "辜": 4015,
      "辞": 4016,
      "辟": 4017,
      "辣": 4018,
      "辦": 4019,
      "辨": 4020,
      "辩": 4021,
      "辫": 4022,
      "辰": 4023,
      "辱": 4024,
      "農": 4025,
      "边": 4026,
      "辽": 4027,
      "达": 4028,
      "迁": 4029,
      "迄": 4030,
      "迅": 4031,
      "过": 4032,
      "迈": 4033,
      "迎": 4034,
      "运": 4035,
      "近": 4036,
      "返": 4037,
      "还": 4038,
      "这": 4039,
      "进": 4040,
      "远": 4041,
      "违": 4042,
      "连": 4043,
      "迟": 4044,
      "迥": 4045,
      "迦": 4046,
      "迩": 4047,
      "迪": 4048,
      "迫": 4049,
      "迭": 4050,
      "述": 4051,
      "迷": 4052,
      "迸": 4053,
      "迹": 4054,
      "追": 4055,
      "退": 4056,
      "送": 4057,
      "适": 4058,
      "逃": 4059,
      "逅": 4060,
      "逆": 4061,
      "选": 4062,
      "逊": 4063,
      "逍": 4064,
      "透": 4065,
      "逐": 4066,
      "递": 4067,
      "途": 4068,
      "逗": 4069,
      "這": 4070,
      "通": 4071,
      "逛": 4072,
      "逝": 4073,
      "速": 4074,
      "造": 4075,
      "逢": 4076,
      "連": 4077,
      "逮": 4078,
      "進": 4079,
      "逸": 4080,
      "逻": 4081,
      "逼": 4082,
      "逾": 4083,
      "遁": 4084,
      "遂": 4085,
      "遇": 4086,
      "運": 4087,
      "遍": 4088,
      "過": 4089,
      "遏": 4090,
      "遐": 4091,
      "道": 4092,
      "達": 4093,
      "遗": 4094,
      "遠": 4095,
      "遣": 4096,
      "遥": 4097,
      "遨": 4098,
      "適": 4099,
      "遭": 4100,
      "遮": 4101,
      "遴": 4102,
      "遵": 4103,
      "選": 4104,
      "避": 4105,
      "邀": 4106,
      "邂": 4107,
      "邃": 4108,
      "還": 4109,
      "邊": 4110,
      "邑": 4111,
      "邓": 4112,
      "邢": 4113,
      "那": 4114,
      "邦": 4115,
      "邨": 4116,
      "邪": 4117,
      "邮": 4118,
      "邯": 4119,
      "邱": 4120,
      "邵": 4121,
      "邸": 4122,
      "邹": 4123,
      "邻": 4124,
      "郁": 4125,
      "郊": 4126,
      "郎": 4127,
      "郑": 4128,
      "郝": 4129,
      "郡": 4130,
      "部": 4131,
      "郭": 4132,
      "郴": 4133,
      "郸": 4134,
      "都": 4135,
      "鄂": 4136,
      "鄙": 4137,
      "鄱": 4138,
      "酉": 4139,
      "酋": 4140,
      "酌": 4141,
      "配": 4142,
      "酒": 4143,
      "酗": 4144,
      "酚": 4145,
      "酝": 4146,
      "酣": 4147,
      "酥": 4148,
      "酪": 4149,
      "酬": 4150,
      "酮": 4151,
      "酯": 4152,
      "酰": 4153,
      "酱": 4154,
      "酵": 4155,
      "酶": 4156,
      "酷": 4157,
      "酸": 4158,
      "酿": 4159,
      "醇": 4160,
      "醉": 4161,
      "醋": 4162,
      "醒": 4163,
      "醚": 4164,
      "醛": 4165,
      "醫": 4166,
      "采": 4167,
      "釉": 4168,
      "释": 4169,
      "里": 4170,
      "重": 4171,
      "野": 4172,
      "量": 4173,
      "金": 4174,
      "釜": 4175,
      "鉴": 4176,
      "銷": 4177,
      "銹": 4178,
      "鋁": 4179,
      "鋼": 4180,
      "錄": 4181,
      "鍵": 4182,
      "鏈": 4183,
      "鐵": 4184,
      "鑫": 4185,
      "针": 4186,
      "钉": 4187,
      "钊": 4188,
      "钎": 4189,
      "钒": 4190,
      "钓": 4191,
      "钙": 4192,
      "钛": 4193,
      "钝": 4194,
      "钞": 4195,
      "钟": 4196,
      "钠": 4197,
      "钡": 4198,
      "钢": 4199,
      "钣": 4200,
      "钥": 4201,
      "钦": 4202,
      "钧": 4203,
      "钨": 4204,
      "钩": 4205,
      "钮": 4206,
      "钯": 4207,
      "钰": 4208,
      "钱": 4209,
      "钳": 4210,
      "钴": 4211,
      "钵": 4212,
      "钻": 4213,
      "钼": 4214,
      "钾": 4215,
      "铁": 4216,
      "铂": 4217,
      "铃": 4218,
      "铅": 4219,
      "铆": 4220,
      "铎": 4221,
      "铜": 4222,
      "铝": 4223,
      "铠": 4224,
      "铣": 4225,
      "铬": 4226,
      "铭": 4227,
      "铮": 4228,
      "铰": 4229,
      "铲": 4230,
      "铵": 4231,
      "银": 4232,
      "铸": 4233,
      "铺": 4234,
      "链": 4235,
      "铿": 4236,
      "销": 4237,
      "锁": 4238,
      "锂": 4239,
      "锄": 4240,
      "锅": 4241,
      "锆": 4242,
      "锈": 4243,
      "锋": 4244,
      "锌": 4245,
      "锐": 4246,
      "错": 4247,
      "锚": 4248,
      "锡": 4249,
      "锣": 4250,
      "锤": 4251,
      "锥": 4252,
      "锦": 4253,
      "锭": 4254,
      "键": 4255,
      "锯": 4256,
      "锰": 4257,
      "锵": 4258,
      "锻": 4259,
      "镀": 4260,
      "镁": 4261,
      "镂": 4262,
      "镇": 4263,
      "镉": 4264,
      "镌": 4265,
      "镍": 4266,
      "镐": 4267,
      "镑": 4268,
      "镖": 4269,
      "镜": 4270,
      "镯": 4271,
      "镰": 4272,
      "镶": 4273,
      "長": 4274,
      "长": 4275,
      "門": 4276,
      "開": 4277,
      "間": 4278,
      "閥": 4279,
      "關": 4280,
      "门": 4281,
      "闪": 4282,
      "闫": 4283,
      "闭": 4284,
      "问": 4285,
      "闯": 4286,
      "闲": 4287,
      "间": 4288,
      "闵": 4289,
      "闷": 4290,
      "闸": 4291,
      "闹": 4292,
      "闺": 4293,
      "闻": 4294,
      "闽": 4295,
      "阀": 4296,
      "阁": 4297,
      "阅": 4298,
      "阈": 4299,
      "阎": 4300,
      "阐": 4301,
      "阑": 4302,
      "阔": 4303,
      "阖": 4304,
      "阙": 4305,
      "阜": 4306,
      "队": 4307,
      "阪": 4308,
      "阮": 4309,
      "阱": 4310,
      "防": 4311,
      "阳": 4312,
      "阴": 4313,
      "阵": 4314,
      "阶": 4315,
      "阻": 4316,
      "阿": 4317,
      "陀": 4318,
      "陂": 4319,
      "附": 4320,
      "际": 4321,
      "陆": 4322,
      "陇": 4323,
      "陈": 4324,
      "陋": 4325,
      "陌": 4326,
      "降": 4327,
      "限": 4328,
      "陕": 4329,
      "陛": 4330,
      "陡": 4331,
      "院": 4332,
      "除": 4333,
      "陨": 4334,
      "险": 4335,
      "陪": 4336,
      "陵": 4337,
      "陶": 4338,
      "陷": 4339,
      "陽": 4340,
      "隅": 4341,
      "隆": 4342,
      "隊": 4343,
      "隋": 4344,
      "随": 4345,
      "隐": 4346,
      "隔": 4347,
      "隘": 4348,
      "隙": 4349,
      "際": 4350,
      "障": 4351,
      "隧": 4352,
      "隨": 4353,
      "險": 4354,
      "隶": 4355,
      "隽": 4356,
      "难": 4357,
      "雀": 4358,
      "雁": 4359,
      "雄": 4360,
      "雅": 4361,
      "集": 4362,
      "雇": 4363,
      "雌": 4364,
      "雍": 4365,
      "雏": 4366,
      "雕": 4367,
      "雙": 4368,
      "離": 4369,
      "難": 4370,
      "雨": 4371,
      "雪": 4372,
      "雯": 4373,
      "雳": 4374,
      "零": 4375,
      "雷": 4376,
      "雹": 4377,
      "電": 4378,
      "雾": 4379,
      "需": 4380,
      "霄": 4381,
      "霆": 4382,
      "震": 4383,
      "霉": 4384,
      "霍": 4385,
      "霏": 4386,
      "霓": 4387,
      "霖": 4388,
      "霜": 4389,
      "霞": 4390,
      "露": 4391,
      "霸": 4392,
      "霹": 4393,
      "霾": 4394,
      "青": 4395,
      "靓": 4396,
      "靖": 4397,
      "静": 4398,
      "非": 4399,
      "靠": 4400,
      "靡": 4401,
      "面": 4402,
      "革": 4403,
      "靳": 4404,
      "靴": 4405,
      "靶": 4406,
      "鞋": 4407,
      "鞍": 4408,
      "鞘": 4409,
      "鞠": 4410,
      "鞭": 4411,
      "韦": 4412,
      "韧": 4413,
      "韩": 4414,
      "韬": 4415,
      "韭": 4416,
      "音": 4417,
      "韵": 4418,
      "韶": 4419,
      "響": 4420,
      "頁": 4421,
      "項": 4422,
      "須": 4423,
      "預": 4424,
      "領": 4425,
      "頭": 4426,
      "頻": 4427,
      "題": 4428,
      "類": 4429,
      "顯": 4430,
      "页": 4431,
      "顶": 4432,
      "顷": 4433,
      "项": 4434,
      "顺": 4435,
      "须": 4436,
      "顽": 4437,
      "顾": 4438,
      "顿": 4439,
      "颁": 4440,
      "颂": 4441,
      "预": 4442,
      "颅": 4443,
      "领": 4444,
      "颇": 4445,
      "颈": 4446,
      "颊": 4447,
      "颌": 4448,
      "颍": 4449,
      "颐": 4450,
      "频": 4451,
      "颓": 4452,
      "颖": 4453,
      "颗": 4454,
      "题": 4455,
      "颚": 4456,
      "颜": 4457,
      "额": 4458,
      "颠": 4459,
      "颤": 4460,
      "風": 4461,
      "风": 4462,
      "飒": 4463,
      "飓": 4464,
      "飘": 4465,
      "飙": 4466,
      "飞": 4467,
      "食": 4468,
      "飲": 4469,
      "飾": 4470,
      "養": 4471,
      "餐": 4472,
      "饥": 4473,
      "饨": 4474,
      "饪": 4475,
      "饭": 4476,
      "饮": 4477,
      "饰": 4478,
      "饱": 4479,
      "饲": 4480,
      "饵": 4481,
      "饶": 4482,
      "饺": 4483,
      "饼": 4484,
      "饿": 4485,
      "馄": 4486,
      "馅": 4487,
      "馆": 4488,
      "馈": 4489,
      "馋": 4490,
      "馍": 4491,
      "馏": 4492,
      "馒": 4493,
      "首": 4494,
      "香": 4495,
      "馥": 4496,
      "馨": 4497,
      "驗": 4498,
      "马": 4499,
      "驭": 4500,
      "驯": 4501,
      "驰": 4502,
      "驱": 4503,
      "驳": 4504,
      "驴": 4505,
      "驶": 4506,
      "驹": 4507,
      "驻": 4508,
      "驼": 4509,
      "驾": 4510,
      "驿": 4511,
      "骁": 4512,
      "骂": 4513,
      "骄": 4514,
      "骆": 4515,
      "骇": 4516,
      "骋": 4517,
      "验": 4518,
      "骏": 4519,
      "骑": 4520,
      "骗": 4521,
      "骚": 4522,
      "骤": 4523,
      "骨": 4524,
      "骸": 4525,
      "骼": 4526,
      "髓": 4527,
      "體": 4528,
      "高": 4529,
      "髦": 4530,
      "鬼": 4531,
      "魁": 4532,
      "魂": 4533,
      "魄": 4534,
      "魅": 4535,
      "魏": 4536,
      "魔": 4537,
      "鱼": 4538,
      "鱿": 4539,
      "鲁": 4540,
      "鲈": 4541,
      "鲍": 4542,
      "鲜": 4543,
      "鲤": 4544,
      "鲨": 4545,
      "鲫": 4546,
      "鲲": 4547,
      "鲸": 4548,
      "鳄": 4549,
      "鳌": 4550,
      "鳍": 4551,
      "鳞": 4552,
      "鸟": 4553,
      "鸠": 4554,
      "鸡": 4555,
      "鸣": 4556,
      "鸥": 4557,
      "鸦": 4558,
      "鸭": 4559,
      "鸯": 4560,
      "鸳": 4561,
      "鸽": 4562,
      "鸿": 4563,
      "鹃": 4564,
      "鹅": 4565,
      "鹈": 4566,
      "鹉": 4567,
      "鹊": 4568,
      "鹏": 4569,
      "鹕": 4570,
      "鹤": 4571,
      "鹦": 4572,
      "鹭": 4573,
      "鹰": 4574,
      "鹿": 4575,
      "麒": 4576,
      "麓": 4577,
      "麟": 4578,
      "麦": 4579,
      "麻": 4580,
      "麼": 4581,
      "麾": 4582,
      "黃": 4583,
      "黄": 4584,
      "黎": 4585,
      "黏": 4586,
      "黑": 4587,
      "黔": 4588,
      "默": 4589,
      "黛": 4590,
      "點": 4591,
      "黨": 4592,
      "黯": 4593,
      "鼎": 4594,
      "鼓": 4595,
      "鼠": 4596,
      "鼻": 4597,
      "齐": 4598,
      "齿": 4599,
      "龄": 4600,
      "龈": 4601,
      "龍": 4602,
      "龙": 4603,
      "龚": 4604,
      "龟": 4605,
      "️": 4606,
      "﻿": 4607,
      "�": 4608,
      "👇": 4609,
      "👉": 4610,
      "🔥": 4611,
      "20": 4612,
      "公司": 4613,
      "00": 4614,
      "可以": 4615,
      "我们": 4616,
      "一个": 4617,
      "工作": 4618,
      "中国": 4619,
      "企业": 4620,
      "发展": 4621,
      "201": 4622,
      "技术": 4623,
      "服务": 4624,
      "进行": 4625,
      "产品": 4626,
      "管理": 4627,
      "自己": 4628,
      "10": 4629,
      "使用": 4630,
      "时间": 4631,
      "没有": 4632,
      "市场": 4633,
      "通过": 4634,
      "项目": 4635,
      "设计": 4636,
      "国家": 4637,
      "需要": 4638,
      "提供": 4639,
      "信息": 4640,
      "研究": 4641,
      "专业": 4642,
      "生产": 4643,
      "问题": 4644,
      "系统": 4645,
      "202": 4646,
      "就是": 4647,
      "19": 4648,
      "他们": 4649,
      "安全": 4650,
      "教育": 4651,
      "工程": 4652,
      "12": 4653,
      "建设": 4654,
      "主要": 4655,
      "如果": 4656,
      "行业": 4657,
      "活动": 4658,
      "什么": 4659,
      "生活": 4660,
      "设备": 4661,
      "以及": 4662,
      "这个": 4663,
      "11": 4664,
      "世界": 4665,
      "大学": 4666,
      "同时": 4667,
      "是一": 4668,
      "方面": 4669,
      "中心": 4670,
      "可能": 4671,
      "人员": 4672,
      "因为": 4673,
      "社会": 4674,
      "好的": 4675,
      "相关": 4676,
      "经济": 4677,
      "情况": 4678,
      "有限": 4679,
      "重要": 4680,
      "环境": 4681,
      "数据": 4682,
      "要求": 4683,
      "的一": 4684,
      "不同": 4685,
      "影响": 4686,
      "选择": 4687,
      "学生": 4688,
      "文化": 4689,
      "非常": 4690,
      "已经": 4691,
      "成为": 4692,
      "很多": 4693,
      "能力": 4694,
      "的人": 4695,
      "第一": 4696,
      "具有": 4697,
      "国际": 4698,
      "质量": 4699,
      "30": 4700,
      "大家": 4701,
      "科技": 4702,
      "15": 4703,
      "投资": 4704,
      "所以": 4705,
      "其他": 4706,
      "作为": 4707,
      "平台": 4708,
      "大的": 4709,
      "也是": 4710,
      "中的": 4711,
      "方式": 4712,
      "有限公司": 4713,
      "品牌": 4714,
      "200": 4715,
      "对于": 4716,
      "这些": 4717,
      "根据": 4718,
      "城市": 4719,
      "游戏": 4720,
      "时候": 4721,
      "目前": 4722,
      "应用": 4723,
      "n1": 4724,
      "内容": 4725,
      "能够": 4726,
      "处理": 4727,
      "学习": 4728,
      "产业": 4729,
      "材料": 4730,
      "学校": 4731,
      "这样": 4732,
      "开始": 4733,
      "er": 4734,
      "n2": 4735,
      "部分": 4736,
      "单位": 4737,
      "现在": 4738,
      "合作": 4739,
      "创新": 4740,
      "但是": 4741,
      "人的": 4742,
      "客户": 4743,
      "以上": 4744,
      "标准": 4745,
      "自己的": 4746,
      "治疗": 4747,
      "获得": 4748,
      "过程": 4749,
      "到了": 4750,
      "一些": 4751,
      "不是": 4752,
      "用户": 4753,
      "建筑": 4754,
      "实现": 4755,
      "提高": 4756,
      "包括": 4757,
      "其中": 4758,
      "in": 4759,
      "组织": 4760,
      "人民": 4761,
      "的是": 4762,
      "所有": 4763,
      "18": 4764,
      "科学": 4765,
      "一定": 4766,
      "都是": 4767,
      "n在": 4768,
      "全国": 4769,
      "还是": 4770,
      "出现": 4771,
      "功能": 4772,
      "开发": 4773,
      "政府": 4774,
      "了解": 4775,
      "健康": 4776,
      "方法": 4777,
      "集团": 4778,
      "北京": 4779,
      "或者": 4780,
      "孩子": 4781,
      "月2": 4782,
      "网络": 4783,
      "2年": 4784,
      "价格": 4785,
      "n3": 4786,
      "增长": 4787,
      "部门": 4788,
      "比较": 4789,
      "16": 4790,
      "个人": 4791,
      "完成": 4792,
      "更多": 4793,
      "基础": 4794,
      "智能": 4795,
      "资源": 4796,
      "50": 4797,
      "机构": 4798,
      "规定": 4799,
      "需求": 4800,
      "工业": 4801,
      "消费": 4802,
      "on": 4803,
      "an": 4804,
      "提升": 4805,
      "因此": 4806,
      "汽车": 4807,
      "网站": 4808,
      "患者": 4809,
      "不断": 4810,
      "表示": 4811,
      "学院": 4812,
      "领域": 4813,
      "第二": 4814,
      "控制": 4815,
      "业务": 4816,
      "13": 4817,
      "采用": 4818,
      "100": 4819,
      "美国": 4820,
      "地区": 4821,
      "作用": 4822,
      "发现": 4823,
      "14": 4824,
      "发生": 4825,
      "一般": 4826,
      "这种": 4827,
      "如何": 4828,
      "发布": 4829,
      "支持": 4830,
      "年的": 4831,
      "比赛": 4832,
      "不能": 4833,
      "由于": 4834,
      "分析": 4835,
      "之后": 4836,
      "国内": 4837,
      "计划": 4838,
      "知道": 4839,
      "那么": 4840,
      "来的": 4841,
      "解决": 4842,
      "还有": 4843,
      "各种": 4844,
      "亿元": 4845,
      "了一": 4846,
      "拥有": 4847,
      "电子": 4848,
      "结构": 4849,
      "销售": 4850,
      "开展": 4851,
      "经营": 4852,
      "为了": 4853,
      "17": 4854,
      "全球": 4855,
      "医院": 4856,
      "增加": 4857,
      "保护": 4858,
      "制造": 4859,
      "上的": 4860,
      "教学": 4861,
      "知识": 4862,
      "注意": 4863,
      "而且": 4864,
      "不会": 4865,
      "这一": 4866,
      "代表": 4867,
      "2020": 4868,
      "1年": 4869,
      "的时候": 4870,
      "有关": 4871,
      "上海": 4872,
      "综合": 4873,
      "系列": 4874,
      "自然": 4875,
      "一步": 4876,
      "负责": 4877,
      "新的": 4878,
      "效果": 4879,
      "一起": 4880,
      "进入": 4881,
      "利用": 4882,
      "希望": 4883,
      "用于": 4884,
      "必须": 4885,
      "申请": 4886,
      "艺术": 4887,
      "有效": 4888,
      "水平": 4889,
      "之一": 4890,
      "帮助": 4891,
      "基本": 4892,
      "直接": 4893,
      "9年": 4894,
      "历史": 4895,
      "手机": 4896,
      "方案": 4897,
      "介绍": 4898,
      "来说": 4899,
      "培训": 4900,
      "认为": 4901,
      "万元": 4902,
      "精神": 4903,
      "任何": 4904,
      "职业": 4905,
      "特别": 4906,
      "3年": 4907,
      "怎么": 4908,
      "产生": 4909,
      "关于": 4910,
      "持续": 4911,
      "不仅": 4912,
      "成功": 4913,
      "责任": 4914,
      "积极": 4915,
      "传统": 4916,
      "达到": 4917,
      "我国": 4918,
      "虽然": 4919,
      "操作": 4920,
      "第三": 4921,
      "联网": 4922,
      "旅游": 4923,
      "条件": 4924,
      "存在": 4925,
      "重点": 4926,
      "这是": 4927,
      "联系": 4928,
      "模式": 4929,
      "n4": 4930,
      "应该": 4931,
      "目标": 4932,
      "空间": 4933,
      "自动": 4934,
      "之间": 4935,
      "参加": 4936,
      "关系": 4937,
      "随着": 4938,
      "8年": 4939,
      "交通": 4940,
      "关注": 4941,
      "形成": 4942,
      "以下": 4943,
      "运动": 4944,
      "ar": 4945,
      "更加": 4946,
      "000": 4947,
      "施工": 4948,
      "作品": 4949,
      "25": 4950,
      "一直": 4951,
      "未来": 4952,
      "团队": 4953,
      "价值": 4954,
      "en": 4955,
      "朋友": 4956,
      "超过": 4957,
      "规划": 4958,
      "60": 4959,
      "地方": 4960,
      "显示": 4961,
      "导致": 4962,
      "参与": 4963,
      "实际": 4964,
      "最后": 4965,
      "继续": 4966,
      "软件": 4967,
      "40": 4968,
      "经验": 4969,
      "体育": 4970,
      "研发": 4971,
      "优势": 4972,
      "今年": 4973,
      "白癜": 4974,
      "体验": 4975,
      "体系": 4976,
      "人才": 4977,
      "白癜风": 4978,
      "2022年": 4979,
      "结合": 4980,
      "这里": 4981,
      "建立": 4982,
      "计算": 4983,
      "分钟": 4984,
      "or": 4985,
      "交易": 4986,
      "范围": 4987,
      "检测": 4988,
      "保持": 4989,
      "造成": 4990,
      "教师": 4991,
      "容易": 4992,
      "实施": 4993,
      "进一步": 4994,
      "原因": 4995,
      "食品": 4996,
      "许多": 4997,
      "机械": 4998,
      "成立": 4999,
      "不过": 5000,
      "取得": 5001,
      "我们的": 5002,
      "性能": 5003,
      "按照": 5004,
      "现场": 5005,
      "报告": 5006,
      "一样": 5007,
      "人们": 5008,
      "全面": 5009,
      "喜欢": 5010,
      "老师": 5011,
      "正在": 5012,
      "能源": 5013,
      "会议": 5014,
      "24": 5015,
      "过程中": 5016,
      "丰富": 5017,
      "安装": 5018,
      "得到": 5019,
      "行为": 5020,
      "起来": 5021,
      "他的": 5022,
      "现代": 5023,
      "视频": 5024,
      "出了": 5025,
      "结果": 5026,
      "5年": 5027,
      "及时": 5028,
      "保障": 5029,
      "只有": 5030,
      "基金": 5031,
      "表现": 5032,
      "的大": 5033,
      "80": 5034,
      "一次": 5035,
      "生物": 5036,
      "稳定": 5037,
      "面积": 5038,
      "金融": 5039,
      "at": 5040,
      "时代": 5041,
      "成本": 5042,
      "期间": 5043,
      "经过": 5044,
      "快速": 5045,
      "不要": 5046,
      "并且": 5047,
      "医疗": 5048,
      "你的": 5049,
      "电影": 5050,
      "关键": 5051,
      "银行": 5052,
      "看到": 5053,
      "媒体": 5054,
      "保证": 5055,
      "检查": 5056,
      "两个": 5057,
      "加工": 5058,
      "规模": 5059,
      "是否": 5060,
      "今天": 5061,
      "行政": 5062,
      "注册": 5063,
      "简单": 5064,
      "法律": 5065,
      "疫情": 5066,
      "制作": 5067,
      "专家": 5068,
      "甚至": 5069,
      "交流": 5070,
      "培养": 5071,
      "其实": 5072,
      "7年": 5073,
      "课程": 5074,
      "咨询": 5075,
      "应当": 5076,
      "性的": 5077,
      "记者": 5078,
      "共同": 5079,
      "2020年": 5080,
      "al": 5081,
      "我的": 5082,
      "生态": 5083,
      "风险": 5084,
      "一种": 5085,
      "核心": 5086,
      "考试": 5087,
      "分别": 5088,
      "加强": 5089,
      "努力": 5090,
      "无法": 5091,
      "区域": 5092,
      "互联网": 5093,
      "带来": 5094,
      "建议": 5095,
      "数字": 5096,
      "变化": 5097,
      "委员": 5098,
      "实验": 5099,
      "具体": 5100,
      "1日": 5101,
      "减少": 5102,
      "除了": 5103,
      "身体": 5104,
      "才能": 5105,
      "新闻": 5106,
      "执行": 5107,
      "的高": 5108,
      "运营": 5109,
      "es": 5110,
      "竞争": 5111,
      "以来": 5112,
      "资金": 5113,
      "员工": 5114,
      "然后": 5115,
      "家庭": 5116,
      "6年": 5117,
      "坚持": 5118,
      "小时": 5119,
      "的发展": 5120,
      "工艺": 5121,
      "打造": 5122,
      "23": 5123,
      "n本": 5124,
      "疾病": 5125,
      "阶段": 5126,
      "收入": 5127,
      "音乐": 5128,
      "资料": 5129,
      "满足": 5130,
      "来自": 5131,
      "政策": 5132,
      "n第": 5133,
      "om": 5134,
      "有的": 5135,
      "受到": 5136,
      "电话": 5137,
      "是在": 5138,
      "决定": 5139,
      "不得": 5140,
      "优秀": 5141,
      "联合": 5142,
      "日本": 5143,
      "设施": 5144,
      "促进": 5145,
      "属于": 5146,
      "商业": 5147,
      "卫生": 5148,
      "2019年": 5149,
      "消费者": 5150,
      "推动": 5151,
      "之前": 5152,
      "故事": 5153,
      "是一个": 5154,
      "球队": 5155,
      "特色": 5156,
      "出的": 5157,
      "形式": 5158,
      "一下": 5159,
      "战略": 5160,
      "机会": 5161,
      "成绩": 5162,
      "22": 5163,
      "压力": 5164,
      "是一种": 5165,
      "高的": 5166,
      "领导": 5167,
      "办公": 5168,
      "宣传": 5169,
      "做好": 5170,
      "玩家": 5171,
      "指导": 5172,
      "不同的": 5173,
      "n5": 5174,
      "位于": 5175,
      "事业": 5176,
      "调整": 5177,
      "完全": 5178,
      "合同": 5179,
      "正式": 5180,
      "运行": 5181,
      "毕业": 5182,
      "最终": 5183,
      "方向": 5184,
      "2021年": 5185,
      "状态": 5186,
      "环保": 5187,
      "量的": 5188,
      "也有": 5189,
      "公开": 5190,
      "保险": 5191,
      "接受": 5192,
      "整体": 5193,
      "年来": 5194,
      "程序": 5195,
      "越来": 5196,
      "降低": 5197,
      "it": 5198,
      "90": 5199,
      "严重": 5200,
      "越来越": 5201,
      "欢迎": 5202,
      "美元": 5203,
      "特点": 5204,
      "都有": 5205,
      "广泛": 5206,
      "避免": 5207,
      "不可": 5208,
      "70": 5209,
      "推进": 5210,
      "十分": 5211,
      "符合": 5212,
      "长期": 5213,
      "供应": 5214,
      "主题": 5215,
      "来看": 5216,
      "因素": 5217,
      "文件": 5218,
      "左右": 5219,
      "位置": 5220,
      "温度": 5221,
      "le": 5222,
      "ic": 5223,
      "赛季": 5224,
      "化的": 5225,
      "确定": 5226,
      "就会": 5227,
      "农业": 5228,
      "充分": 5229,
      "的话": 5230,
      "技能": 5231,
      "的事": 5232,
      "香港": 5233,
      "皮肤": 5234,
      "劳动": 5235,
      "商品": 5236,
      "4年": 5237,
      "分享": 5238,
      "目的": 5239,
      "确保": 5240,
      "社区": 5241,
      "任务": 5242,
      "的新": 5243,
      "整个": 5244,
      "同比": 5245,
      "在线": 5246,
      "考虑": 5247,
      "创业": 5248,
      "来源": 5249,
      "免费": 5250,
      "针对": 5251,
      "的小": 5252,
      "正常": 5253,
      "推荐": 5254,
      "准备": 5255,
      "比如": 5256,
      "规范": 5257,
      "的情况": 5258,
      "普通": 5259,
      "购买": 5260,
      "觉得": 5261,
      "电视": 5262,
      "先进": 5263,
      "微信": 5264,
      "下载": 5265,
      "协会": 5266,
      "明显": 5267,
      "也不": 5268,
      "制度": 5269,
      "28": 5270,
      "文章": 5271,
      "并不": 5272,
      "措施": 5273,
      "资格": 5274,
      "从而": 5275,
      "报名": 5276,
      "理念": 5277,
      "199": 5278,
      "速度": 5279,
      "发挥": 5280,
      "创造": 5281,
      "的问题": 5282,
      "深圳": 5283,
      "适合": 5284,
      "污染": 5285,
      "品质": 5286,
      "am": 5287,
      "测试": 5288,
      "只是": 5289,
      "生命": 5290,
      "费用": 5291,
      "不少": 5292,
      "方便": 5293,
      "哪些": 5294,
      "化学": 5295,
      "感觉": 5296,
      "此外": 5297,
      "加盟": 5298,
      "26": 5299,
      "el": 5300,
      "组成": 5301,
      "完善": 5302,
      "都会": 5303,
      "空气": 5304,
      "程度": 5305,
      "效率": 5306,
      "维护": 5307,
      "全部": 5308,
      "的重要": 5309,
      "35": 5310,
      "营销": 5311,
      "后的": 5312,
      "作者": 5313,
      "金属": 5314,
      "上市": 5315,
      "实践": 5316,
      "股份": 5317,
      "合理": 5318,
      "2018年": 5319,
      "中华": 5320,
      "下降": 5321,
      "基地": 5322,
      "n一": 5323,
      "3月": 5324,
      "物流": 5325,
      "这样的": 5326,
      "良好的": 5327,
      "21": 5328,
      "et": 5329,
      "资产": 5330,
      "个月": 5331,
      "心理": 5332,
      "运输": 5333,
      "委员会": 5334,
      "阅读": 5335,
      "改革": 5336,
      "展示": 5337,
      "一体": 5338,
      "从事": 5339,
      "公共": 5340,
      "通知": 5341,
      "球员": 5342,
      "27": 5343,
      "举办": 5344,
      "山东": 5345,
      "加入": 5346,
      "土地": 5347,
      "自身": 5348,
      "绿色": 5349,
      "有些": 5350,
      "想要": 5351,
      "重要的": 5352,
      "机器": 5353,
      "儿童": 5354,
      "首先": 5355,
      "优质": 5356,
      "同学": 5357,
      "12月": 5358,
      "改变": 5359,
      "尤其": 5360,
      "多的": 5361,
      "开放": 5362,
      "移动": 5363,
      "排名": 5364,
      "过去": 5365,
      "发展的": 5366,
      "提出": 5367,
      "真正": 5368,
      "细胞": 5369,
      "另外": 5370,
      "办法": 5371,
      "广东": 5372,
      "酒店": 5373,
      "9月": 5374,
      "st": 5375,
      "广告": 5376,
      "成果": 5377,
      "的工作": 5378,
      "pp": 5379,
      "教授": 5380,
      "表面": 5381,
      "如此": 5382,
      "广州": 5383,
      "升级": 5384,
      "官方": 5385,
      "机关": 5386,
      "安排": 5387,
      "ro": 5388,
      "地址": 5389,
      "设置": 5390,
      "500": 5391,
      "出来": 5392,
      "科研": 5393,
      "只要": 5394,
      "每个": 5395,
      "当然": 5396,
      "动力": 5397,
      "成长": 5398,
      "公里": 5399,
      "力量": 5400,
      "也会": 5401,
      "东西": 5402,
      "包装": 5403,
      "理论": 5404,
      "工具": 5405,
      "引起": 5406,
      "面对": 5407,
      "平方": 5408,
      "物质": 5409,
      "最大": 5410,
      "推广": 5411,
      "监督": 5412,
      "中央": 5413,
      "每天": 5414,
      "具备": 5415,
      "调查": 5416,
      "多个": 5417,
      "行动": 5418,
      "多种": 5419,
      "意识": 5420,
      "he": 5421,
      "说明": 5422,
      "6月": 5423,
      "日常": 5424,
      "登记": 5425,
      "实力": 5426,
      "优化": 5427,
      "类型": 5428,
      "消息": 5429,
      "冠军": 5430,
      "电池": 5431,
      "有一": 5432,
      "的产品": 5433,
      "10月": 5434,
      "主任": 5435,
      "经常": 5436,
      "智慧": 5437,
      "语言": 5438,
      "举行": 5439,
      "1月": 5440,
      "此次": 5441,
      "n201": 5442,
      "样的": 5443,
      "学科": 5444,
      "装修": 5445,
      "它的": 5446,
      "最新": 5447,
      "意义": 5448,
      "厂家": 5449,
      "无论": 5450,
      "当时": 5451,
      "意见": 5452,
      "风格": 5453,
      "明确": 5454,
      "29": 5455,
      "7月": 5456,
      "相对": 5457,
      "11月": 5458,
      "玻璃": 5459,
      "36": 5460,
      "连续": 5461,
      "当地": 5462,
      "严格": 5463,
      "下的": 5464,
      "生的": 5465,
      "出口": 5466,
      "招聘": 5467,
      "为主": 5468,
      "多少": 5469,
      "理解": 5470,
      "下来": 5471,
      "相信": 5472,
      "用的": 5473,
      "落实": 5474,
      "ou": 5475,
      "支付": 5476,
      "结束": 5477,
      "防水": 5478,
      "年轻": 5479,
      "内的": 5480,
      "经理": 5481,
      "思想": 5482,
      "领先": 5483,
      "特殊": 5484,
      "也可以": 5485,
      "深入": 5486,
      "重大": 5487,
      "它们": 5488,
      "挑战": 5489,
      "8月": 5490,
      "反应": 5491,
      "ac": 5492,
      "数量": 5493,
      "值得": 5494,
      "机制": 5495,
      "制定": 5496,
      "PP": 5497,
      "他们的": 5498,
      "分为": 5499,
      "45": 5500,
      "就业": 5501,
      "人类": 5502,
      "真的": 5503,
      "大型": 5504,
      "增强": 5505,
      "99": 5506,
      "88": 5507,
      "直播": 5508,
      "症状": 5509,
      "进行了": 5510,
      "连接": 5511,
      "认证": 5512,
      "车辆": 5513,
      "自由": 5514,
      "面的": 5515,
      "您的": 5516,
      "文明": 5517,
      "各类": 5518,
      "为什么": 5519,
      "岗位": 5520,
      "联赛": 5521,
      "统计": 5522,
      "通常": 5523,
      "浙江": 5524,
      "例如": 5525,
      "公布": 5526,
      "集中": 5527,
      "然而": 5528,
      "办理": 5529,
      "食物": 5530,
      "最高": 5531,
      "°C": 5532,
      "力的": 5533,
      "产品的": 5534,
      "证明": 5535,
      "统一": 5536,
      "双方": 5537,
      "如今": 5538,
      "一定要": 5539,
      "n这": 5540,
      "氧化": 5541,
      "高速": 5542,
      "不到": 5543,
      "英语": 5544,
      "流程": 5545,
      "内部": 5546,
      "距离": 5547,
      "ed": 5548,
      "道路": 5549,
      "5月": 5550,
      "家长": 5551,
      "就可以": 5552,
      "更新": 5553,
      "投入": 5554,
      "公司的": 5555,
      "电动": 5556,
      "不错": 5557,
      "地产": 5558,
      "主管": 5559,
      "营养": 5560,
      "吸引": 5561,
      "真实": 5562,
      "贡献": 5563,
      "经历": 5564,
      "有着": 5565,
      "群众": 5566,
      "的时间": 5567,
      "广大": 5568,
      "再次": 5569,
      "33": 5570,
      "这么": 5571,
      "世纪": 5572,
      "改善": 5573,
      "涉及": 5574,
      "点击": 5575,
      "训练": 5576,
      "平均": 5577,
      "评价": 5578,
      "详细": 5579,
      "4月": 5580,
      "大多": 5581,
      "以后": 5582,
      "承担": 5583,
      "相比": 5584,
      "去年": 5585,
      "博士": 5586,
      "找到": 5587,
      "n6": 5588,
      "采取": 5589,
      "青年": 5590,
      "协议": 5591,
      "记录": 5592,
      "2023年": 5593,
      "恢复": 5594,
      "原则": 5595,
      "植物": 5596,
      "资本": 5597,
      "度的": 5598,
      "ing": 5599,
      "最佳": 5600,
      "重庆": 5601,
      "娱乐": 5602,
      "感染": 5603,
      "公告": 5604,
      "机的": 5605,
      "垃圾": 5606,
      "先生": 5607,
      "突破": 5608,
      "一年": 5609,
      "知名": 5610,
      "州市": 5611,
      "n据": 5612,
      "时期": 5613,
      "商务": 5614,
      "线上": 5615,
      "小编": 5616,
      "英国": 5617,
      "学术": 5618,
      "com": 5619,
      "欧洲": 5620,
      "利润": 5621,
      "那些": 5622,
      "民族": 5623,
      "参考": 5624,
      "图片": 5625,
      "做到": 5626,
      "医学": 5627,
      "常见": 5628,
      "预计": 5629,
      "is": 5630,
      "报道": 5631,
      "现象": 5632,
      "资讯": 5633,
      "本次": 5634,
      "re": 5635,
      "江苏": 5636,
      "相当": 5637,
      "药物": 5638,
      "的方式": 5639,
      "身份": 5640,
      "证书": 5641,
      "观众": 5642,
      "正确": 5643,
      "伙伴": 5644,
      "mm": 5645,
      "让人": 5646,
      "融合": 5647,
      "公众": 5648,
      "告诉": 5649,
      "农村": 5650,
      "认识": 5651,
      "独立": 5652,
      "是什么": 5653,
      "困难": 5654,
      "有所": 5655,
      "as": 5656,
      "最大的": 5657,
      "依法": 5658,
      "更多的": 5659,
      "必要": 5660,
      "高校": 5661,
      "角色": 5662,
      "一点": 5663,
      "等等": 5664,
      "趋势": 5665,
      "居民": 5666,
      "可能会": 5667,
      "运用": 5668,
      "掌握": 5669,
      "化工": 5670,
      "只能": 5671,
      "人工": 5672,
      "企业的": 5673,
      "重新": 5674,
      "称为": 5675,
      "太阳": 5676,
      "驾驶": 5677,
      "之间的": 5678,
      "成员": 5679,
      "了一个": 5680,
      "2017年": 5681,
      "三个": 5682,
      "一定的": 5683,
      "il": 5684,
      "基于": 5685,
      "试验": 5686,
      "装备": 5687,
      "即可": 5688,
      "最近": 5689,
      "而是": 5690,
      "ol": 5691,
      "大量": 5692,
      "处于": 5693,
      "逐渐": 5694,
      "当前": 5695,
      "贸易": 5696,
      "300": 5697,
      "n我": 5698,
      "形象": 5699,
      "河南": 5700,
      "成都": 5701,
      "ww": 5702,
      "监管": 5703,
      "主动": 5704,
      "复杂": 5705,
      "沟通": 5706,
      "方面的": 5707,
      "四川": 5708,
      "房屋": 5709,
      "接触": 5710,
      "决赛": 5711,
      "2月": 5712,
      "官网": 5713,
      "重视": 5714,
      "动物": 5715,
      "公园": 5716,
      "另一": 5717,
      "配合": 5718,
      "ch": 5719,
      "证券": 5720,
      "相应": 5721,
      "指出": 5722,
      "足球": 5723,
      "有了": 5724,
      "医生": 5725,
      "小学": 5726,
      "你们": 5727,
      "更是": 5728,
      "更好": 5729,
      "工作的": 5730,
      "启动": 5731,
      "装饰": 5732,
      "装置": 5733,
      "推出": 5734,
      "大会": 5735,
      "及其": 5736,
      "成了": 5737,
      "性和": 5738,
      "探索": 5739,
      "作业": 5740,
      "兴趣": 5741,
      "评估": 5742,
      "负责人": 5743,
      "习惯": 5744,
      "享受": 5745,
      "本文": 5746,
      "公路": 5747,
      "牛皮": 5748,
      "2000": 5749,
      "传播": 5750,
      "学会": 5751,
      "下面": 5752,
      "解决方案": 5753,
      "55": 5754,
      "每一": 5755,
      "的影响": 5756,
      "覆盖": 5757,
      "将在": 5758,
      "代理": 5759,
      "会员": 5760,
      "版权": 5761,
      "展开": 5762,
      "计算机": 5763,
      "者的": 5764,
      "38": 5765,
      "里的": 5766,
      "强的": 5767,
      "比例": 5768,
      "平方米": 5769,
      "塑料": 5770,
      "有人": 5771,
      "考生": 5772,
      "状况": 5773,
      "色的": 5774,
      "高效": 5775,
      "德国": 5776,
      "仍然": 5777,
      "专业的": 5778,
      "之外": 5779,
      "主义": 5780,
      "独特": 5781,
      "董事": 5782,
      "武汉": 5783,
      "大利": 5784,
      "股票": 5785,
      "肯定": 5786,
      "病毒": 5787,
      "n二": 5788,
      "各地": 5789,
      "有机": 5790,
      "幸福": 5791,
      "经典": 5792,
      "电脑": 5793,
      "而言": 5794,
      "每年": 5795,
      "维修": 5796,
      "近日": 5797,
      "流量": 5798,
      "室内": 5799,
      "采购": 5800,
      "8日": 5801,
      "自主": 5802,
      "政治": 5803,
      "加快": 5804,
      "本身": 5805,
      "消防": 5806,
      "变得": 5807,
      "分类": 5808,
      "2021": 5809,
      "查看": 5810,
      "添加": 5811,
      "简称": 5812,
      "出版": 5813,
      "网上": 5814,
      "丰富的": 5815,
      "致力": 5816,
      "高度": 5817,
      "节目": 5818,
      "发表": 5819,
      "37": 5820,
      "医药": 5821,
      "如下": 5822,
      "n三": 5823,
      "元素": 5824,
      "不足": 5825,
      "专利": 5826,
      "临床": 5827,
      "适应": 5828,
      "牛皮癣": 5829,
      "表达": 5830,
      "同样": 5831,
      "完整": 5832,
      "示范": 5833,
      "防止": 5834,
      "感受": 5835,
      "ion": 5836,
      "呈现": 5837,
      "本科": 5838,
      "认真": 5839,
      "打开": 5840,
      "会有": 5841,
      "父母": 5842,
      "高级": 5843,
      "幼儿": 5844,
      "人士": 5845,
      "商标": 5846,
      "充满": 5847,
      "场景": 5848,
      "限制": 5849,
      "固定": 5850,
      "营业": 5851,
      "n公司": 5852,
      "搜索": 5853,
      "34": 5854,
      "创作": 5855,
      "准确": 5856,
      "几个": 5857,
      "迅速": 5858,
      "配置": 5859,
      "实验室": 5860,
      "令人": 5861,
      "定制": 5862,
      "校园": 5863,
      "电力": 5864,
      "BA": 5865,
      "防控": 5866,
      "节能": 5867,
      "现实": 5868,
      "渠道": 5869,
      "几乎": 5870,
      "oo": 5871,
      "n从": 5872,
      "事项": 5873,
      "队伍": 5874,
      "背景": 5875,
      "展现": 5876,
      "网友": 5877,
      "法院": 5878,
      "页第": 5879,
      "第四": 5880,
      "二十": 5881,
      "天然": 5882,
      "扩大": 5883,
      "体现": 5884,
      "2022": 5885,
      "的主要": 5886,
      "可靠": 5887,
      "追求": 5888,
      "职工": 5889,
      "体的": 5890,
      "分子": 5891,
      "小组": 5892,
      "电机": 5893,
      "的地方": 5894,
      "少年": 5895,
      "著名": 5896,
      "人民政府": 5897,
      "合格": 5898,
      "一家": 5899,
      "一切": 5900,
      "航空": 5901,
      "事件": 5902,
      "始终": 5903,
      "往往": 5904,
      "银屑": 5905,
      "监测": 5906,
      "5日": 5907,
      "进步": 5908,
      "布局": 5909,
      "银屑病": 5910,
      "各项": 5911,
      "预防": 5912,
      "1000": 5913,
      "48": 5914,
      "治理": 5915,
      "人口": 5916,
      "所在": 5917,
      "论文": 5918,
      "年度": 5919,
      "顺利": 5920,
      "管道": 5921,
      "包含": 5922,
      "心的": 5923,
      "首次": 5924,
      "学位": 5925,
      "依据": 5926,
      "铁路": 5927,
      "精彩": 5928,
      "2016年": 5929,
      "组合": 5930,
      "很多人": 5931,
      "7日": 5932,
      "景区": 5933,
      "这次": 5934,
      "事情": 5935,
      "环节": 5936,
      "定位": 5937,
      "强度": 5938,
      "的基础": 5939,
      "财务": 5940,
      "给予": 5941,
      "下午": 5942,
      "相同": 5943,
      "指数": 5944,
      "32": 5945,
      "美的": 5946,
      "and": 5947,
      "构建": 5948,
      "指标": 5949,
      "轻松": 5950,
      "创建": 5951,
      "获取": 5952,
      "进口": 5953,
      "多年": 5954,
      "尤其是": 5955,
      "的好": 5956,
      "198": 5957,
      "女性": 5958,
      "众多": 5959,
      "截至": 5960,
      "的企业": 5961,
      "ht": 5962,
      "机场": 5963,
      "文字": 5964,
      "污水": 5965,
      "十二": 5966,
      "75": 5967,
      "的一个": 5968,
      "ad": 5969,
      "场比赛": 5970,
      "颜色": 5971,
      "都在": 5972,
      "共享": 5973,
      "天津": 5974,
      "可以在": 5975,
      "更好的": 5976,
      "遇到": 5977,
      "上述": 5978,
      "新型": 5979,
      "快乐": 5980,
      "饮食": 5981,
      "6日": 5982,
      "和国": 5983,
      "n如果": 5984,
      "就能": 5985,
      "app": 5986,
      "授权": 5987,
      "强化": 5988,
      "ri": 5989,
      "韩国": 5990,
      "还要": 5991,
      "的生活": 5992,
      "改造": 5993,
      "循环": 5994,
      "可是": 5995,
      "满意": 5996,
      "法规": 5997,
      "的同时": 5998,
      "将会": 5999,
      "期待": 6000,
      "3日": 6001,
      "期的": 6002,
      "角度": 6003,
      "不知道": 6004,
      "蛋白": 6005,
      "房地产": 6006,
      "亿美元": 6007,
      "65": 6008,
      "年代": 6009,
      "季度": 6010,
      "9日": 6011,
      "讨论": 6012,
      "提供了": 6013,
      "IP": 6014,
      "大部分": 6015,
      "39": 6016,
      "支撑": 6017,
      "尽管": 6018,
      "南京": 6019,
      "她的": 6020,
      "素质": 6021,
      "根本": 6022,
      "编辑": 6023,
      "名称": 6024,
      "通信": 6025,
      "子的": 6026,
      "面临": 6027,
      "办公室": 6028,
      "物理": 6029,
      "各个": 6030,
      "2015年": 6031,
      "是指": 6032,
      "声明": 6033,
      "葡萄": 6034,
      "测量": 6035,
      "批准": 6036,
      "即使": 6037,
      "上升": 6038,
      "版本": 6039,
      "2019": 6040,
      "生长": 6041,
      "曾经": 6042,
      "观察": 6043,
      "高质量": 6044,
      "致力于": 6045,
      "转型": 6046,
      "近年来": 6047,
      "加上": 6048,
      "年龄": 6049,
      "很大": 6050,
      "是由": 6051,
      "提前": 6052,
      "家具": 6053,
      "联盟": 6054,
      "新能源": 6055,
      "宣布": 6056,
      "招生": 6057,
      "信用": 6058,
      "器的": 6059,
      "罗斯": 6060,
      "车型": 6061,
      "学历": 6062,
      "唯一": 6063,
      "志愿": 6064,
      "良好": 6065,
      "财政": 6066,
      "清洁": 6067,
      "天气": 6068,
      "事实": 6069,
      "使得": 6070,
      "协调": 6071,
      "搭配": 6072,
      "互动": 6073,
      "开启": 6074,
      "对象": 6075,
      "理想": 6076,
      "还可以": 6077,
      "总结": 6078,
      "电商": 6079,
      "院校": 6080,
      "引导": 6081,
      "31": 6082,
      "4日": 6083,
      "n我们": 6084,
      "保温": 6085,
      "配套": 6086,
      "会计": 6087,
      "案例": 6088,
      "清洗": 6089,
      "66": 6090,
      "转载": 6091,
      "在于": 6092,
      "亚洲": 6093,
      "招标": 6094,
      "人生": 6095,
      "自我": 6096,
      "事故": 6097,
      "情绪": 6098,
      "构成": 6099,
      "概念": 6100,
      "务院": 6101,
      "的一种": 6102,
      "时尚": 6103,
      "上一": 6104,
      "市场的": 6105,
      "标志": 6106,
      "有哪些": 6107,
      "大多数": 6108,
      "手术": 6109,
      "信号": 6110,
      "很好": 6111,
      "当中": 6112,
      "书记": 6113,
      "的服务": 6114,
      "鼓励": 6115,
      "优惠": 6116,
      "♀♀": 6117,
      "演员": 6118,
      "的心": 6119,
      "感谢": 6120,
      "的技术": 6121,
      "的事情": 6122,
      "的方法": 6123,
      "违法": 6124,
      "许可": 6125,
      "发动": 6126,
      "的设计": 6127,
      "n0": 6128,
      "主持": 6129,
      "文学": 6130,
      "n7": 6131,
      "地位": 6132,
      "世界杯": 6133,
      "先后": 6134,
      "制品": 6135,
      "400": 6136,
      "定的": 6137,
      "召开": 6138,
      "湖南": 6139,
      "成熟": 6140,
      "查询": 6141,
      "街道": 6142,
      "同比增长": 6143
    },
    "merges": [
      [
        "2",
        "0"
      ],
      [
        "公",
        "司"
      ],
      [
        "0",
        "0"
      ],
      [
        "可",
        "以"
      ],
      [
        "我",
        "们"
      ],
      [
        "一",
        "个"
      ],
      [
        "工",
        "作"
      ],
      [
        "中",
        "国"
      ],
      [
        "企",
        "业"
      ],
      [
        "发",
        "展"
      ],
      [
        "20",
        "1"
      ],
      [
        "技",
        "术"
      ],
      [
        "服",
        "务"
      ],
      [
        "进",
        "行"
      ],
      [
        "产",
        "品"
      ],
      [
        "管",
        "理"
      ],
      [
        "自",
        "己"
      ],
      [
        "1",
        "0"
      ],
      [
        "使",
        "用"
      ],
      [
        "时",
        "间"
      ],
      [
        "没",
        "有"
      ],
      [
        "市",
        "场"
      ],
      [
        "通",
        "过"
      ],
      [
        "项",
        "目"
      ],
      [
        "设",
        "计"
      ],
      [
        "国",
        "家"
      ],
      [
        "需",
        "要"
      ],
      [
        "提",
        "供"
      ],
      [
        "信",
        "息"
      ],
      [
        "研",
        "究"
      ],
      [
        "专",
        "业"
      ],
      [
        "生",
        "产"
      ],
      [
        "问",
        "题"
      ],
      [
        "系",
        "统"
      ],
      [
        "20",
        "2"
      ],
      [
        "就",
        "是"
      ],
      [
        "1",
        "9"
      ],
      [
        "他",
        "们"
      ],
      [
        "安",
        "全"
      ],
      [
        "教",
        "育"
      ],
      [
        "工",
        "程"
      ],
      [
        "1",
        "2"
      ],
      [
        "建",
        "设"
      ],
      [
        "主",
        "要"
      ],
      [
        "如",
        "果"
      ],
      [
        "行",
        "业"
      ],
      [
        "活",
        "动"
      ],
      [
        "什",
        "么"
      ],
      [
        "生",
        "活"
      ],
      [
        "设",
        "备"
      ],
      [
        "以",
        "及"
      ],
      [
        "这",
        "个"
      ],
      [
        "1",
        "1"
      ],
      [
        "世",
        "界"
      ],
      [
        "大",
        "学"
      ],
      [
        "同",
        "时"
      ],
      [
        "是",
        "一"
      ],
      [
        "方",
        "面"
      ],
      [
        "中",
        "心"
      ],
      [
        "可",
        "能"
      ],
      [
        "人",
        "员"
      ],
      [
        "因",
        "为"
      ],
      [
        "社",
        "会"
      ],
      [
        "好",
        "的"
      ],
      [
        "相",
        "关"
      ],
      [
        "经",
        "济"
      ],
      [
        "情",
        "况"
      ],
      [
        "有",
        "限"
      ],
      [
        "重",
        "要"
      ],
      [
        "环",
        "境"
      ],
      [
        "数",
        "据"
      ],
      [
        "要",
        "求"
      ],
      [
        "的",
        "一"
      ],
      [
        "不",
        "同"
      ],
      [
        "影",
        "响"
      ],
      [
        "选",
        "择"
      ],
      [
        "学",
        "生"
      ],
      [
        "文",
        "化"
      ],
      [
        "非",
        "常"
      ],
      [
        "已",
        "经"
      ],
      [
        "成",
        "为"
      ],
      [
        "很",
        "多"
      ],
      [
        "能",
        "力"
      ],
      [
        "的",
        "人"
      ],
      [
        "第",
        "一"
      ],
      [
        "具",
        "有"
      ],
      [
        "国",
        "际"
      ],
      [
        "质",
        "量"
      ],
      [
        "3",
        "0"
      ],
      [
        "大",
        "家"
      ],
      [
        "科",
        "技"
      ],
      [
        "1",
        "5"
      ],
      [
        "投",
        "资"
      ],
      [
        "所",
        "以"
      ],
      [
        "其",
        "他"
      ],
      [
        "作",
        "为"
      ],
      [
        "平",
        "台"
      ],
      [
        "大",
        "的"
      ],
      [
        "也",
        "是"
      ],
      [
        "中",
        "的"
      ],
      [
        "方",
        "式"
      ],
      [
        "有限",
        "公司"
      ],
      [
        "品",
        "牌"
      ],
      [
        "20",
        "0"
      ],
      [
        "对",
        "于"
      ],
      [
        "这",
        "些"
      ],
      [
        "根",
        "据"
      ],
      [
        "城",
        "市"
      ],
      [
        "游",
        "戏"
      ],
      [
        "时",
        "候"
      ],
      [
        "目",
        "前"
      ],
      [
        "应",
        "用"
      ],
      [
        "n",
        "1"
      ],
      [
        "内",
        "容"
      ],
      [
        "能",
        "够"
      ],
      [
        "处",
        "理"
      ],
      [
        "学",
        "习"
      ],
      [
        "产",
        "业"
      ],
      [
        "材",
        "料"
      ],
      [
        "学",
        "校"
      ],
      [
        "这",
        "样"
      ],
      [
        "开",
        "始"
      ],
      [
        "e",
        "r"
      ],
      [
        "n",
        "2"
      ],
      [
        "部",
        "分"
      ],
      [
        "单",
        "位"
      ],
      [
        "现",
        "在"
      ],
      [
        "合",
        "作"
      ],
      [
        "创",
        "新"
      ],
      [
        "但",
        "是"
      ],
      [
        "人",
        "的"
      ],
      [
        "客",
        "户"
      ],
      [
        "以",
        "上"
      ],
      [
        "标",
        "准"
      ],
      [
        "自己",
        "的"
      ],
      [
        "治",
        "疗"
      ],
      [
        "获",
        "得"
      ],
      [
        "过",
        "程"
      ],
      [
        "到",
        "了"
      ],
      [
        "一",
        "些"
      ],
      [
        "不",
        "是"
      ],
      [
        "用",
        "户"
      ],
      [
        "建",
        "筑"
      ],
      [
        "实",
        "现"
      ],
      [
        "提",
        "高"
      ],
      [
        "包",
        "括"
      ],
      [
        "其",
        "中"
      ],
      [
        "i",
        "n"
      ],
      [
        "组",
        "织"
      ],
      [
        "人",
        "民"
      ],
      [
        "的",
        "是"
      ],
      [
        "所",
        "有"
      ],
      [
        "1",
        "8"
      ],
      [
        "科",
        "学"
      ],
      [
        "一",
        "定"
      ],
      [
        "都",
        "是"
      ],
      [
        "n",
        "在"
      ],
      [
        "全",
        "国"
      ],
      [
        "还",
        "是"
      ],
      [
        "出",
        "现"
      ],
      [
        "功",
        "能"
      ],
      [
        "开",
        "发"
      ],
      [
        "政",
        "府"
      ],
      [
        "了",
        "解"
      ],
      [
        "健",
        "康"
      ],
      [
        "方",
        "法"
      ],
      [
        "集",
        "团"
      ],
      [
        "北",
        "京"
      ],
      [
        "或",
        "者"
      ],
      [
        "孩",
        "子"
      ],
      [
        "月",
        "2"
      ],
      [
        "网",
        "络"
      ],
      [
        "2",
        "年"
      ],
      [
        "价",
        "格"
      ],
      [
        "n",
        "3"
      ],
      [
        "增",
        "长"
      ],
      [
        "部",
        "门"
      ],
      [
        "比",
        "较"
      ],
      [
        "1",
        "6"
      ],
      [
        "个",
        "人"
      ],
      [
        "完",
        "成"
      ],
      [
        "更",
        "多"
      ],
      [
        "基",
        "础"
      ],
      [
        "智",
        "能"
      ],
      [
        "资",
        "源"
      ],
      [
        "5",
        "0"
      ],
      [
        "机",
        "构"
      ],
      [
        "规",
        "定"
      ],
      [
        "需",
        "求"
      ],
      [
        "工",
        "业"
      ],
      [
        "消",
        "费"
      ],
      [
        "o",
        "n"
      ],
      [
        "a",
        "n"
      ],
      [
        "提",
        "升"
      ],
      [
        "因",
        "此"
      ],
      [
        "汽",
        "车"
      ],
      [
        "网",
        "站"
      ],
      [
        "患",
        "者"
      ],
      [
        "不",
        "断"
      ],
      [
        "表",
        "示"
      ],
      [
        "学",
        "院"
      ],
      [
        "领",
        "域"
      ],
      [
        "第",
        "二"
      ],
      [
        "控",
        "制"
      ],
      [
        "业",
        "务"
      ],
      [
        "1",
        "3"
      ],
      [
        "采",
        "用"
      ],
      [
        "1",
        "00"
      ],
      [
        "美",
        "国"
      ],
      [
        "地",
        "区"
      ],
      [
        "作",
        "用"
      ],
      [
        "发",
        "现"
      ],
      [
        "1",
        "4"
      ],
      [
        "发",
        "生"
      ],
      [
        "一",
        "般"
      ],
      [
        "这",
        "种"
      ],
      [
        "如",
        "何"
      ],
      [
        "发",
        "布"
      ],
      [
        "支",
        "持"
      ],
      [
        "年",
        "的"
      ],
      [
        "比",
        "赛"
      ],
      [
        "不",
        "能"
      ],
      [
        "由",
        "于"
      ],
      [
        "分",
        "析"
      ],
      [
        "之",
        "后"
      ],
      [
        "国",
        "内"
      ],
      [
        "计",
        "划"
      ],
      [
        "知",
        "道"
      ],
      [
        "那",
        "么"
      ],
      [
        "来",
        "的"
      ],
      [
        "解",
        "决"
      ],
      [
        "还",
        "有"
      ],
      [
        "各",
        "种"
      ],
      [
        "亿",
        "元"
      ],
      [
        "了",
        "一"
      ],
      [
        "拥",
        "有"
      ],
      [
        "电",
        "子"
      ],
      [
        "结",
        "构"
      ],
      [
        "销",
        "售"
      ],
      [
        "开",
        "展"
      ],
      [
        "经",
        "营"
      ],
      [
        "为",
        "了"
      ],
      [
        "1",
        "7"
      ],
      [
        "全",
        "球"
      ],
      [
        "医",
        "院"
      ],
      [
        "增",
        "加"
      ],
      [
        "保",
        "护"
      ],
      [
        "制",
        "造"
      ],
      [
        "上",
        "的"
      ],
      [
        "教",
        "学"
      ],
      [
        "知",
        "识"
      ],
      [
        "注",
        "意"
      ],
      [
        "而",
        "且"
      ],
      [
        "不",
        "会"
      ],
      [
        "这",
        "一"
      ],
      [
        "代",
        "表"
      ],
      [
        "20",
        "20"
      ],
      [
        "1",
        "年"
      ],
      [
        "的",
        "时候"
      ],
      [
        "有",
        "关"
      ],
      [
        "上",
        "海"
      ],
      [
        "综",
        "合"
      ],
      [
        "系",
        "列"
      ],
      [
        "自",
        "然"
      ],
      [
        "一",
        "步"
      ],
      [
        "负",
        "责"
      ],
      [
        "新",
        "的"
      ],
      [
        "效",
        "果"
      ],
      [
        "一",
        "起"
      ],
      [
        "进",
        "入"
      ],
      [
        "利",
        "用"
      ],
      [
        "希",
        "望"
      ],
      [
        "用",
        "于"
      ],
      [
        "必",
        "须"
      ],
      [
        "申",
        "请"
      ],
      [
        "艺",
        "术"
      ],
      [
        "有",
        "效"
      ],
      [
        "水",
        "平"
      ],
      [
        "之",
        "一"
      ],
      [
        "帮",
        "助"
      ],
      [
        "基",
        "本"
      ],
      [
        "直",
        "接"
      ],
      [
        "9",
        "年"
      ],
      [
        "历",
        "史"
      ],
      [
        "手",
        "机"
      ],
      [
        "方",
        "案"
      ],
      [
        "介",
        "绍"
      ],
      [
        "来",
        "说"
      ],
      [
        "培",
        "训"
      ],
      [
        "认",
        "为"
      ],
      [
        "万",
        "元"
      ],
      [
        "精",
        "神"
      ],
      [
        "任",
        "何"
      ],
      [
        "职",
        "业"
      ],
      [
        "特",
        "别"
      ],
      [
        "3",
        "年"
      ],
      [
        "怎",
        "么"
      ],
      [
        "产",
        "生"
      ],
      [
        "关",
        "于"
      ],
      [
        "持",
        "续"
      ],
      [
        "不",
        "仅"
      ],
      [
        "成",
        "功"
      ],
      [
        "责",
        "任"
      ],
      [
        "积",
        "极"
      ],
      [
        "传",
        "统"
      ],
      [
        "达",
        "到"
      ],
      [
        "我",
        "国"
      ],
      [
        "虽",
        "然"
      ],
      [
        "操",
        "作"
      ],
      [
        "第",
        "三"
      ],
      [
        "联",
        "网"
      ],
      [
        "旅",
        "游"
      ],
      [
        "条",
        "件"
      ],
      [
        "存",
        "在"
      ],
      [
        "重",
        "点"
      ],
      [
        "这",
        "是"
      ],
      [
        "联",
        "系"
      ],
      [
        "模",
        "式"
      ],
      [
        "n",
        "4"
      ],
      [
        "应",
        "该"
      ],
      [
        "目",
        "标"
      ],
      [
        "空",
        "间"
      ],
      [
        "自",
        "动"
      ],
      [
        "之",
        "间"
      ],
      [
        "参",
        "加"
      ],
      [
        "关",
        "系"
      ],
      [
        "随",
        "着"
      ],
      [
        "8",
        "年"
      ],
      [
        "交",
        "通"
      ],
      [
        "关",
        "注"
      ],
      [
        "形",
        "成"
      ],
      [
        "以",
        "下"
      ],
      [
        "运",
        "动"
      ],
      [
        "a",
        "r"
      ],
      [
        "更",
        "加"
      ],
      [
        "00",
        "0"
      ],
      [
        "施",
        "工"
      ],
      [
        "作",
        "品"
      ],
      [
        "2",
        "5"
      ],
      [
        "一",
        "直"
      ],
      [
        "未",
        "来"
      ],
      [
        "团",
        "队"
      ],
      [
        "价",
        "值"
      ],
      [
        "e",
        "n"
      ],
      [
        "朋",
        "友"
      ],
      [
        "超",
        "过"
      ],
      [
        "规",
        "划"
      ],
      [
        "6",
        "0"
      ],
      [
        "地",
        "方"
      ],
      [
        "显",
        "示"
      ],
      [
        "导",
        "致"
      ],
      [
        "参",
        "与"
      ],
      [
        "实",
        "际"
      ],
      [
        "最",
        "后"
      ],
      [
        "继",
        "续"
      ],
      [
        "软",
        "件"
      ],
      [
        "4",
        "0"
      ],
      [
        "经",
        "验"
      ],
      [
        "体",
        "育"
      ],
      [
        "研",
        "发"
      ],
      [
        "优",
        "势"
      ],
      [
        "今",
        "年"
      ],
      [
        "白",
        "癜"
      ],
      [
        "体",
        "验"
      ],
      [
        "体",
        "系"
      ],
      [
        "人",
        "才"
      ],
      [
        "白癜",
        "风"
      ],
      [
        "202",
        "2年"
      ],
      [
        "结",
        "合"
      ],
      [
        "这",
        "里"
      ],
      [
        "建",
        "立"
      ],
      [
        "计",
        "算"
      ],
      [
        "分",
        "钟"
      ],
      [
        "o",
        "r"
      ],
      [
        "交",
        "易"
      ],
      [
        "范",
        "围"
      ],
      [
        "检",
        "测"
      ],
      [
        "保",
        "持"
      ],
      [
        "造",
        "成"
      ],
      [
        "教",
        "师"
      ],
      [
        "容",
        "易"
      ],
      [
        "实",
        "施"
      ],
      [
        "进",
        "一步"
      ],
      [
        "原",
        "因"
      ],
      [
        "食",
        "品"
      ],
      [
        "许",
        "多"
      ],
      [
        "机",
        "械"
      ],
      [
        "成",
        "立"
      ],
      [
        "不",
        "过"
      ],
      [
        "取",
        "得"
      ],
      [
        "我们",
        "的"
      ],
      [
        "性",
        "能"
      ],
      [
        "按",
        "照"
      ],
      [
        "现",
        "场"
      ],
      [
        "报",
        "告"
      ],
      [
        "一",
        "样"
      ],
      [
        "人",
        "们"
      ],
      [
        "全",
        "面"
      ],
      [
        "喜",
        "欢"
      ],
      [
        "老",
        "师"
      ],
      [
        "正",
        "在"
      ],
      [
        "能",
        "源"
      ],
      [
        "会",
        "议"
      ],
      [
        "2",
        "4"
      ],
      [
        "过程",
        "中"
      ],
      [
        "丰",
        "富"
      ],
      [
        "安",
        "装"
      ],
      [
        "得",
        "到"
      ],
      [
        "行",
        "为"
      ],
      [
        "起",
        "来"
      ],
      [
        "他",
        "的"
      ],
      [
        "现",
        "代"
      ],
      [
        "视",
        "频"
      ],
      [
        "出",
        "了"
      ],
      [
        "结",
        "果"
      ],
      [
        "5",
        "年"
      ],
      [
        "及",
        "时"
      ],
      [
        "保",
        "障"
      ],
      [
        "只",
        "有"
      ],
      [
        "基",
        "金"
      ],
      [
        "表",
        "现"
      ],
      [
        "的",
        "大"
      ],
      [
        "8",
        "0"
      ],
      [
        "一",
        "次"
      ],
      [
        "生",
        "物"
      ],
      [
        "稳",
        "定"
      ],
      [
        "面",
        "积"
      ],
      [
        "金",
        "融"
      ],
      [
        "a",
        "t"
      ],
      [
        "时",
        "代"
      ],
      [
        "成",
        "本"
      ],
      [
        "期",
        "间"
      ],
      [
        "经",
        "过"
      ],
      [
        "快",
        "速"
      ],
      [
        "不",
        "要"
      ],
      [
        "并",
        "且"
      ],
      [
        "医",
        "疗"
      ],
      [
        "你",
        "的"
      ],
      [
        "电",
        "影"
      ],
      [
        "关",
        "键"
      ],
      [
        "银",
        "行"
      ],
      [
        "看",
        "到"
      ],
      [
        "媒",
        "体"
      ],
      [
        "保",
        "证"
      ],
      [
        "检",
        "查"
      ],
      [
        "两",
        "个"
      ],
      [
        "加",
        "工"
      ],
      [
        "规",
        "模"
      ],
      [
        "是",
        "否"
      ],
      [
        "今",
        "天"
      ],
      [
        "行",
        "政"
      ],
      [
        "注",
        "册"
      ],
      [
        "简",
        "单"
      ],
      [
        "法",
        "律"
      ],
      [
        "疫",
        "情"
      ],
      [
        "制",
        "作"
      ],
      [
        "专",
        "家"
      ],
      [
        "甚",
        "至"
      ],
      [
        "交",
        "流"
      ],
      [
        "培",
        "养"
      ],
      [
        "其",
        "实"
      ],
      [
        "7",
        "年"
      ],
      [
        "课",
        "程"
      ],
      [
        "咨",
        "询"
      ],
      [
        "应",
        "当"
      ],
      [
        "性",
        "的"
      ],
      [
        "记",
        "者"
      ],
      [
        "共",
        "同"
      ],
      [
        "2020",
        "年"
      ],
      [
        "a",
        "l"
      ],
      [
        "我",
        "的"
      ],
      [
        "生",
        "态"
      ],
      [
        "风",
        "险"
      ],
      [
        "一",
        "种"
      ],
      [
        "核",
        "心"
      ],
      [
        "考",
        "试"
      ],
      [
        "分",
        "别"
      ],
      [
        "加",
        "强"
      ],
      [
        "努",
        "力"
      ],
      [
        "无",
        "法"
      ],
      [
        "区",
        "域"
      ],
      [
        "互",
        "联网"
      ],
      [
        "带",
        "来"
      ],
      [
        "建",
        "议"
      ],
      [
        "数",
        "字"
      ],
      [
        "变",
        "化"
      ],
      [
        "委",
        "员"
      ],
      [
        "实",
        "验"
      ],
      [
        "具",
        "体"
      ],
      [
        "1",
        "日"
      ],
      [
        "减",
        "少"
      ],
      [
        "除",
        "了"
      ],
      [
        "身",
        "体"
      ],
      [
        "才",
        "能"
      ],
      [
        "新",
        "闻"
      ],
      [
        "执",
        "行"
      ],
      [
        "的",
        "高"
      ],
      [
        "运",
        "营"
      ],
      [
        "e",
        "s"
      ],
      [
        "竞",
        "争"
      ],
      [
        "以",
        "来"
      ],
      [
        "资",
        "金"
      ],
      [
        "员",
        "工"
      ],
      [
        "然",
        "后"
      ],
      [
        "家",
        "庭"
      ],
      [
        "6",
        "年"
      ],
      [
        "坚",
        "持"
      ],
      [
        "小",
        "时"
      ],
      [
        "的",
        "发展"
      ],
      [
        "工",
        "艺"
      ],
      [
        "打",
        "造"
      ],
      [
        "2",
        "3"
      ],
      [
        "n",
        "本"
      ],
      [
        "疾",
        "病"
      ],
      [
        "阶",
        "段"
      ],
      [
        "收",
        "入"
      ],
      [
        "音",
        "乐"
      ],
      [
        "资",
        "料"
      ],
      [
        "满",
        "足"
      ],
      [
        "来",
        "自"
      ],
      [
        "政",
        "策"
      ],
      [
        "n",
        "第"
      ],
      [
        "o",
        "m"
      ],
      [
        "有",
        "的"
      ],
      [
        "受",
        "到"
      ],
      [
        "电",
        "话"
      ],
      [
        "是",
        "在"
      ],
      [
        "决",
        "定"
      ],
      [
        "不",
        "得"
      ],
      [
        "优",
        "秀"
      ],
      [
        "联",
        "合"
      ],
      [
        "日",
        "本"
      ],
      [
        "设",
        "施"
      ],
      [
        "促",
        "进"
      ],
      [
        "属",
        "于"
      ],
      [
        "商",
        "业"
      ],
      [
        "卫",
        "生"
      ],
      [
        "201",
        "9年"
      ],
      [
        "消费",
        "者"
      ],
      [
        "推",
        "动"
      ],
      [
        "之",
        "前"
      ],
      [
        "故",
        "事"
      ],
      [
        "是",
        "一个"
      ],
      [
        "球",
        "队"
      ],
      [
        "特",
        "色"
      ],
      [
        "出",
        "的"
      ],
      [
        "形",
        "式"
      ],
      [
        "一",
        "下"
      ],
      [
        "战",
        "略"
      ],
      [
        "机",
        "会"
      ],
      [
        "成",
        "绩"
      ],
      [
        "2",
        "2"
      ],
      [
        "压",
        "力"
      ],
      [
        "是一",
        "种"
      ],
      [
        "高",
        "的"
      ],
      [
        "领",
        "导"
      ],
      [
        "办",
        "公"
      ],
      [
        "宣",
        "传"
      ],
      [
        "做",
        "好"
      ],
      [
        "玩",
        "家"
      ],
      [
        "指",
        "导"
      ],
      [
        "不同",
        "的"
      ],
      [
        "n",
        "5"
      ],
      [
        "位",
        "于"
      ],
      [
        "事",
        "业"
      ],
      [
        "调",
        "整"
      ],
      [
        "完",
        "全"
      ],
      [
        "合",
        "同"
      ],
      [
        "正",
        "式"
      ],
      [
        "运",
        "行"
      ],
      [
        "毕",
        "业"
      ],
      [
        "最",
        "终"
      ],
      [
        "方",
        "向"
      ],
      [
        "202",
        "1年"
      ],
      [
        "状",
        "态"
      ],
      [
        "环",
        "保"
      ],
      [
        "量",
        "的"
      ],
      [
        "也",
        "有"
      ],
      [
        "公",
        "开"
      ],
      [
        "保",
        "险"
      ],
      [
        "接",
        "受"
      ],
      [
        "整",
        "体"
      ],
      [
        "年",
        "来"
      ],
      [
        "程",
        "序"
      ],
      [
        "越",
        "来"
      ],
      [
        "降",
        "低"
      ],
      [
        "i",
        "t"
      ],
      [
        "9",
        "0"
      ],
      [
        "严",
        "重"
      ],
      [
        "越来",
        "越"
      ],
      [
        "欢",
        "迎"
      ],
      [
        "美",
        "元"
      ],
      [
        "特",
        "点"
      ],
      [
        "都",
        "有"
      ],
      [
        "广",
        "泛"
      ],
      [
        "避",
        "免"
      ],
      [
        "不",
        "可"
      ],
      [
        "7",
        "0"
      ],
      [
        "推",
        "进"
      ],
      [
        "十",
        "分"
      ],
      [
        "符",
        "合"
      ],
      [
        "长",
        "期"
      ],
      [
        "供",
        "应"
      ],
      [
        "主",
        "题"
      ],
      [
        "来",
        "看"
      ],
      [
        "因",
        "素"
      ],
      [
        "文",
        "件"
      ],
      [
        "左",
        "右"
      ],
      [
        "位",
        "置"
      ],
      [
        "温",
        "度"
      ],
      [
        "l",
        "e"
      ],
      [
        "i",
        "c"
      ],
      [
        "赛",
        "季"
      ],
      [
        "化",
        "的"
      ],
      [
        "确",
        "定"
      ],
      [
        "就",
        "会"
      ],
      [
        "农",
        "业"
      ],
      [
        "充",
        "分"
      ],
      [
        "的",
        "话"
      ],
      [
        "技",
        "能"
      ],
      [
        "的",
        "事"
      ],
      [
        "香",
        "港"
      ],
      [
        "皮",
        "肤"
      ],
      [
        "劳",
        "动"
      ],
      [
        "商",
        "品"
      ],
      [
        "4",
        "年"
      ],
      [
        "分",
        "享"
      ],
      [
        "目",
        "的"
      ],
      [
        "确",
        "保"
      ],
      [
        "社",
        "区"
      ],
      [
        "任",
        "务"
      ],
      [
        "的",
        "新"
      ],
      [
        "整",
        "个"
      ],
      [
        "同",
        "比"
      ],
      [
        "在",
        "线"
      ],
      [
        "考",
        "虑"
      ],
      [
        "创",
        "业"
      ],
      [
        "来",
        "源"
      ],
      [
        "免",
        "费"
      ],
      [
        "针",
        "对"
      ],
      [
        "的",
        "小"
      ],
      [
        "正",
        "常"
      ],
      [
        "推",
        "荐"
      ],
      [
        "准",
        "备"
      ],
      [
        "比",
        "如"
      ],
      [
        "规",
        "范"
      ],
      [
        "的",
        "情况"
      ],
      [
        "普",
        "通"
      ],
      [
        "购",
        "买"
      ],
      [
        "觉",
        "得"
      ],
      [
        "电",
        "视"
      ],
      [
        "先",
        "进"
      ],
      [
        "微",
        "信"
      ],
      [
        "下",
        "载"
      ],
      [
        "协",
        "会"
      ],
      [
        "明",
        "显"
      ],
      [
        "也",
        "不"
      ],
      [
        "制",
        "度"
      ],
      [
        "2",
        "8"
      ],
      [
        "文",
        "章"
      ],
      [
        "并",
        "不"
      ],
      [
        "措",
        "施"
      ],
      [
        "资",
        "格"
      ],
      [
        "从",
        "而"
      ],
      [
        "报",
        "名"
      ],
      [
        "理",
        "念"
      ],
      [
        "19",
        "9"
      ],
      [
        "速",
        "度"
      ],
      [
        "发",
        "挥"
      ],
      [
        "创",
        "造"
      ],
      [
        "的",
        "问题"
      ],
      [
        "深",
        "圳"
      ],
      [
        "适",
        "合"
      ],
      [
        "污",
        "染"
      ],
      [
        "品",
        "质"
      ],
      [
        "a",
        "m"
      ],
      [
        "测",
        "试"
      ],
      [
        "只",
        "是"
      ],
      [
        "生",
        "命"
      ],
      [
        "费",
        "用"
      ],
      [
        "不",
        "少"
      ],
      [
        "方",
        "便"
      ],
      [
        "哪",
        "些"
      ],
      [
        "化",
        "学"
      ],
      [
        "感",
        "觉"
      ],
      [
        "此",
        "外"
      ],
      [
        "加",
        "盟"
      ],
      [
        "2",
        "6"
      ],
      [
        "e",
        "l"
      ],
      [
        "组",
        "成"
      ],
      [
        "完",
        "善"
      ],
      [
        "都",
        "会"
      ],
      [
        "空",
        "气"
      ],
      [
        "程",
        "度"
      ],
      [
        "效",
        "率"
      ],
      [
        "维",
        "护"
      ],
      [
        "全",
        "部"
      ],
      [
        "的",
        "重要"
      ],
      [
        "3",
        "5"
      ],
      [
        "营",
        "销"
      ],
      [
        "后",
        "的"
      ],
      [
        "作",
        "者"
      ],
      [
        "金",
        "属"
      ],
      [
        "上",
        "市"
      ],
      [
        "实",
        "践"
      ],
      [
        "股",
        "份"
      ],
      [
        "合",
        "理"
      ],
      [
        "201",
        "8年"
      ],
      [
        "中",
        "华"
      ],
      [
        "下",
        "降"
      ],
      [
        "基",
        "地"
      ],
      [
        "n",
        "一"
      ],
      [
        "3",
        "月"
      ],
      [
        "物",
        "流"
      ],
      [
        "这样",
        "的"
      ],
      [
        "良",
        "好的"
      ],
      [
        "2",
        "1"
      ],
      [
        "e",
        "t"
      ],
      [
        "资",
        "产"
      ],
      [
        "个",
        "月"
      ],
      [
        "心",
        "理"
      ],
      [
        "运",
        "输"
      ],
      [
        "委员",
        "会"
      ],
      [
        "阅",
        "读"
      ],
      [
        "改",
        "革"
      ],
      [
        "展",
        "示"
      ],
      [
        "一",
        "体"
      ],
      [
        "从",
        "事"
      ],
      [
        "公",
        "共"
      ],
      [
        "通",
        "知"
      ],
      [
        "球",
        "员"
      ],
      [
        "2",
        "7"
      ],
      [
        "举",
        "办"
      ],
      [
        "山",
        "东"
      ],
      [
        "加",
        "入"
      ],
      [
        "土",
        "地"
      ],
      [
        "自",
        "身"
      ],
      [
        "绿",
        "色"
      ],
      [
        "有",
        "些"
      ],
      [
        "想",
        "要"
      ],
      [
        "重要",
        "的"
      ],
      [
        "机",
        "器"
      ],
      [
        "儿",
        "童"
      ],
      [
        "首",
        "先"
      ],
      [
        "优",
        "质"
      ],
      [
        "同",
        "学"
      ],
      [
        "12",
        "月"
      ],
      [
        "改",
        "变"
      ],
      [
        "尤",
        "其"
      ],
      [
        "多",
        "的"
      ],
      [
        "开",
        "放"
      ],
      [
        "移",
        "动"
      ],
      [
        "排",
        "名"
      ],
      [
        "过",
        "去"
      ],
      [
        "发展",
        "的"
      ],
      [
        "提",
        "出"
      ],
      [
        "真",
        "正"
      ],
      [
        "细",
        "胞"
      ],
      [
        "另",
        "外"
      ],
      [
        "办",
        "法"
      ],
      [
        "广",
        "东"
      ],
      [
        "酒",
        "店"
      ],
      [
        "9",
        "月"
      ],
      [
        "s",
        "t"
      ],
      [
        "广",
        "告"
      ],
      [
        "成",
        "果"
      ],
      [
        "的",
        "工作"
      ],
      [
        "p",
        "p"
      ],
      [
        "教",
        "授"
      ],
      [
        "表",
        "面"
      ],
      [
        "如",
        "此"
      ],
      [
        "广",
        "州"
      ],
      [
        "升",
        "级"
      ],
      [
        "官",
        "方"
      ],
      [
        "机",
        "关"
      ],
      [
        "安",
        "排"
      ],
      [
        "r",
        "o"
      ],
      [
        "地",
        "址"
      ],
      [
        "设",
        "置"
      ],
      [
        "5",
        "00"
      ],
      [
        "出",
        "来"
      ],
      [
        "科",
        "研"
      ],
      [
        "只",
        "要"
      ],
      [
        "每",
        "个"
      ],
      [
        "当",
        "然"
      ],
      [
        "动",
        "力"
      ],
      [
        "成",
        "长"
      ],
      [
        "公",
        "里"
      ],
      [
        "力",
        "量"
      ],
      [
        "也",
        "会"
      ],
      [
        "东",
        "西"
      ],
      [
        "包",
        "装"
      ],
      [
        "理",
        "论"
      ],
      [
        "工",
        "具"
      ],
      [
        "引",
        "起"
      ],
      [
        "面",
        "对"
      ],
      [
        "平",
        "方"
      ],
      [
        "物",
        "质"
      ],
      [
        "最",
        "大"
      ],
      [
        "推",
        "广"
      ],
      [
        "监",
        "督"
      ],
      [
        "中",
        "央"
      ],
      [
        "每",
        "天"
      ],
      [
        "具",
        "备"
      ],
      [
        "调",
        "查"
      ],
      [
        "多",
        "个"
      ],
      [
        "行",
        "动"
      ],
      [
        "多",
        "种"
      ],
      [
        "意",
        "识"
      ],
      [
        "h",
        "e"
      ],
      [
        "说",
        "明"
      ],
      [
        "6",
        "月"
      ],
      [
        "日",
        "常"
      ],
      [
        "登",
        "记"
      ],
      [
        "实",
        "力"
      ],
      [
        "优",
        "化"
      ],
      [
        "类",
        "型"
      ],
      [
        "消",
        "息"
      ],
      [
        "冠",
        "军"
      ],
      [
        "电",
        "池"
      ],
      [
        "有",
        "一"
      ],
      [
        "的",
        "产品"
      ],
      [
        "10",
        "月"
      ],
      [
        "主",
        "任"
      ],
      [
        "经",
        "常"
      ],
      [
        "智",
        "慧"
      ],
      [
        "语",
        "言"
      ],
      [
        "举",
        "行"
      ],
      [
        "1",
        "月"
      ],
      [
        "此",
        "次"
      ],
      [
        "n",
        "201"
      ],
      [
        "样",
        "的"
      ],
      [
        "学",
        "科"
      ],
      [
        "装",
        "修"
      ],
      [
        "它",
        "的"
      ],
      [
        "最",
        "新"
      ],
      [
        "意",
        "义"
      ],
      [
        "厂",
        "家"
      ],
      [
        "无",
        "论"
      ],
      [
        "当",
        "时"
      ],
      [
        "意",
        "见"
      ],
      [
        "风",
        "格"
      ],
      [
        "明",
        "确"
      ],
      [
        "2",
        "9"
      ],
      [
        "7",
        "月"
      ],
      [
        "相",
        "对"
      ],
      [
        "11",
        "月"
      ],
      [
        "玻",
        "璃"
      ],
      [
        "3",
        "6"
      ],
      [
        "连",
        "续"
      ],
      [
        "当",
        "地"
      ],
      [
        "严",
        "格"
      ],
      [
        "下",
        "的"
      ],
      [
        "生",
        "的"
      ],
      [
        "出",
        "口"
      ],
      [
        "招",
        "聘"
      ],
      [
        "为",
        "主"
      ],
      [
        "多",
        "少"
      ],
      [
        "理",
        "解"
      ],
      [
        "下",
        "来"
      ],
      [
        "相",
        "信"
      ],
      [
        "用",
        "的"
      ],
      [
        "落",
        "实"
      ],
      [
        "o",
        "u"
      ],
      [
        "支",
        "付"
      ],
      [
        "结",
        "束"
      ],
      [
        "防",
        "水"
      ],
      [
        "年",
        "轻"
      ],
      [
        "内",
        "的"
      ],
      [
        "经",
        "理"
      ],
      [
        "思",
        "想"
      ],
      [
        "领",
        "先"
      ],
      [
        "特",
        "殊"
      ],
      [
        "也",
        "可以"
      ],
      [
        "深",
        "入"
      ],
      [
        "重",
        "大"
      ],
      [
        "它",
        "们"
      ],
      [
        "挑",
        "战"
      ],
      [
        "8",
        "月"
      ],
      [
        "反",
        "应"
      ],
      [
        "a",
        "c"
      ],
      [
        "数",
        "量"
      ],
      [
        "值",
        "得"
      ],
      [
        "机",
        "制"
      ],
      [
        "制",
        "定"
      ],
      [
        "P",
        "P"
      ],
      [
        "他们",
        "的"
      ],
      [
        "分",
        "为"
      ],
      [
        "4",
        "5"
      ],
      [
        "就",
        "业"
      ],
      [
        "人",
        "类"
      ],
      [
        "真",
        "的"
      ],
      [
        "大",
        "型"
      ],
      [
        "增",
        "强"
      ],
      [
        "9",
        "9"
      ],
      [
        "8",
        "8"
      ],
      [
        "直",
        "播"
      ],
      [
        "症",
        "状"
      ],
      [
        "进行",
        "了"
      ],
      [
        "连",
        "接"
      ],
      [
        "认",
        "证"
      ],
      [
        "车",
        "辆"
      ],
      [
        "自",
        "由"
      ],
      [
        "面",
        "的"
      ],
      [
        "您",
        "的"
      ],
      [
        "文",
        "明"
      ],
      [
        "各",
        "类"
      ],
      [
        "为",
        "什么"
      ],
      [
        "岗",
        "位"
      ],
      [
        "联",
        "赛"
      ],
      [
        "统",
        "计"
      ],
      [
        "通",
        "常"
      ],
      [
        "浙",
        "江"
      ],
      [
        "例",
        "如"
      ],
      [
        "公",
        "布"
      ],
      [
        "集",
        "中"
      ],
      [
        "然",
        "而"
      ],
      [
        "办",
        "理"
      ],
      [
        "食",
        "物"
      ],
      [
        "最",
        "高"
      ],
      [
        "°",
        "C"
      ],
      [
        "力",
        "的"
      ],
      [
        "产品",
        "的"
      ],
      [
        "证",
        "明"
      ],
      [
        "统",
        "一"
      ],
      [
        "双",
        "方"
      ],
      [
        "如",
        "今"
      ],
      [
        "一定",
        "要"
      ],
      [
        "n",
        "这"
      ],
      [
        "氧",
        "化"
      ],
      [
        "高",
        "速"
      ],
      [
        "不",
        "到"
      ],
      [
        "英",
        "语"
      ],
      [
        "流",
        "程"
      ],
      [
        "内",
        "部"
      ],
      [
        "距",
        "离"
      ],
      [
        "e",
        "d"
      ],
      [
        "道",
        "路"
      ],
      [
        "5",
        "月"
      ],
      [
        "家",
        "长"
      ],
      [
        "就",
        "可以"
      ],
      [
        "更",
        "新"
      ],
      [
        "投",
        "入"
      ],
      [
        "公司",
        "的"
      ],
      [
        "电",
        "动"
      ],
      [
        "不",
        "错"
      ],
      [
        "地",
        "产"
      ],
      [
        "主",
        "管"
      ],
      [
        "营",
        "养"
      ],
      [
        "吸",
        "引"
      ],
      [
        "真",
        "实"
      ],
      [
        "贡",
        "献"
      ],
      [
        "经",
        "历"
      ],
      [
        "有",
        "着"
      ],
      [
        "群",
        "众"
      ],
      [
        "的",
        "时间"
      ],
      [
        "广",
        "大"
      ],
      [
        "再",
        "次"
      ],
      [
        "3",
        "3"
      ],
      [
        "这",
        "么"
      ],
      [
        "世",
        "纪"
      ],
      [
        "改",
        "善"
      ],
      [
        "涉",
        "及"
      ],
      [
        "点",
        "击"
      ],
      [
        "训",
        "练"
      ],
      [
        "平",
        "均"
      ],
      [
        "评",
        "价"
      ],
      [
        "详",
        "细"
      ],
      [
        "4",
        "月"
      ],
      [
        "大",
        "多"
      ],
      [
        "以",
        "后"
      ],
      [
        "承",
        "担"
      ],
      [
        "相",
        "比"
      ],
      [
        "去",
        "年"
      ],
      [
        "博",
        "士"
      ],
      [
        "找",
        "到"
      ],
      [
        "n",
        "6"
      ],
      [
        "采",
        "取"
      ],
      [
        "青",
        "年"
      ],
      [
        "协",
        "议"
      ],
      [
        "记",
        "录"
      ],
      [
        "202",
        "3年"
      ],
      [
        "恢",
        "复"
      ],
      [
        "原",
        "则"
      ],
      [
        "植",
        "物"
      ],
      [
        "资",
        "本"
      ],
      [
        "度",
        "的"
      ],
      [
        "in",
        "g"
      ],
      [
        "最",
        "佳"
      ],
      [
        "重",
        "庆"
      ],
      [
        "娱",
        "乐"
      ],
      [
        "感",
        "染"
      ],
      [
        "公",
        "告"
      ],
      [
        "机",
        "的"
      ],
      [
        "垃",
        "圾"
      ],
      [
        "先",
        "生"
      ],
      [
        "突",
        "破"
      ],
      [
        "一",
        "年"
      ],
      [
        "知",
        "名"
      ],
      [
        "州",
        "市"
      ],
      [
        "n",
        "据"
      ],
      [
        "时",
        "期"
      ],
      [
        "商",
        "务"
      ],
      [
        "线",
        "上"
      ],
      [
        "小",
        "编"
      ],
      [
        "英",
        "国"
      ],
      [
        "学",
        "术"
      ],
      [
        "c",
        "om"
      ],
      [
        "欧",
        "洲"
      ],
      [
        "利",
        "润"
      ],
      [
        "那",
        "些"
      ],
      [
        "民",
        "族"
      ],
      [
        "参",
        "考"
      ],
      [
        "图",
        "片"
      ],
      [
        "做",
        "到"
      ],
      [
        "医",
        "学"
      ],
      [
        "常",
        "见"
      ],
      [
        "预",
        "计"
      ],
      [
        "i",
        "s"
      ],
      [
        "报",
        "道"
      ],
      [
        "现",
        "象"
      ],
      [
        "资",
        "讯"
      ],
      [
        "本",
        "次"
      ],
      [
        "r",
        "e"
      ],
      [
        "江",
        "苏"
      ],
      [
        "相",
        "当"
      ],
      [
        "药",
        "物"
      ],
      [
        "的",
        "方式"
      ],
      [
        "身",
        "份"
      ],
      [
        "证",
        "书"
      ],
      [
        "观",
        "众"
      ],
      [
        "正",
        "确"
      ],
      [
        "伙",
        "伴"
      ],
      [
        "m",
        "m"
      ],
      [
        "让",
        "人"
      ],
      [
        "融",
        "合"
      ],
      [
        "公",
        "众"
      ],
      [
        "告",
        "诉"
      ],
      [
        "农",
        "村"
      ],
      [
        "认",
        "识"
      ],
      [
        "独",
        "立"
      ],
      [
        "是",
        "什么"
      ],
      [
        "困",
        "难"
      ],
      [
        "有",
        "所"
      ],
      [
        "a",
        "s"
      ],
      [
        "最",
        "大的"
      ],
      [
        "依",
        "法"
      ],
      [
        "更多",
        "的"
      ],
      [
        "必",
        "要"
      ],
      [
        "高",
        "校"
      ],
      [
        "角",
        "色"
      ],
      [
        "一",
        "点"
      ],
      [
        "等",
        "等"
      ],
      [
        "趋",
        "势"
      ],
      [
        "居",
        "民"
      ],
      [
        "可能",
        "会"
      ],
      [
        "运",
        "用"
      ],
      [
        "掌",
        "握"
      ],
      [
        "化",
        "工"
      ],
      [
        "只",
        "能"
      ],
      [
        "人",
        "工"
      ],
      [
        "企业",
        "的"
      ],
      [
        "重",
        "新"
      ],
      [
        "称",
        "为"
      ],
      [
        "太",
        "阳"
      ],
      [
        "驾",
        "驶"
      ],
      [
        "之间",
        "的"
      ],
      [
        "成",
        "员"
      ],
      [
        "了",
        "一个"
      ],
      [
        "201",
        "7年"
      ],
      [
        "三",
        "个"
      ],
      [
        "一定",
        "的"
      ],
      [
        "i",
        "l"
      ],
      [
        "基",
        "于"
      ],
      [
        "试",
        "验"
      ],
      [
        "装",
        "备"
      ],
      [
        "即",
        "可"
      ],
      [
        "最",
        "近"
      ],
      [
        "而",
        "是"
      ],
      [
        "o",
        "l"
      ],
      [
        "大",
        "量"
      ],
      [
        "处",
        "于"
      ],
      [
        "逐",
        "渐"
      ],
      [
        "当",
        "前"
      ],
      [
        "贸",
        "易"
      ],
      [
        "3",
        "00"
      ],
      [
        "n",
        "我"
      ],
      [
        "形",
        "象"
      ],
      [
        "河",
        "南"
      ],
      [
        "成",
        "都"
      ],
      [
        "w",
        "w"
      ],
      [
        "监",
        "管"
      ],
      [
        "主",
        "动"
      ],
      [
        "复",
        "杂"
      ],
      [
        "沟",
        "通"
      ],
      [
        "方面",
        "的"
      ],
      [
        "四",
        "川"
      ],
      [
        "房",
        "屋"
      ],
      [
        "接",
        "触"
      ],
      [
        "决",
        "赛"
      ],
      [
        "2",
        "月"
      ],
      [
        "官",
        "网"
      ],
      [
        "重",
        "视"
      ],
      [
        "动",
        "物"
      ],
      [
        "公",
        "园"
      ],
      [
        "另",
        "一"
      ],
      [
        "配",
        "合"
      ],
      [
        "c",
        "h"
      ],
      [
        "证",
        "券"
      ],
      [
        "相",
        "应"
      ],
      [
        "指",
        "出"
      ],
      [
        "足",
        "球"
      ],
      [
        "有",
        "了"
      ],
      [
        "医",
        "生"
      ],
      [
        "小",
        "学"
      ],
      [
        "你",
        "们"
      ],
      [
        "更",
        "是"
      ],
      [
        "更",
        "好"
      ],
      [
        "工作",
        "的"
      ],
      [
        "启",
        "动"
      ],
      [
        "装",
        "饰"
      ],
      [
        "装",
        "置"
      ],
      [
        "推",
        "出"
      ],
      [
        "大",
        "会"
      ],
      [
        "及",
        "其"
      ],
      [
        "成",
        "了"
      ],
      [
        "性",
        "和"
      ],
      [
        "探",
        "索"
      ],
      [
        "作",
        "业"
      ],
      [
        "兴",
        "趣"
      ],
      [
        "评",
        "估"
      ],
      [
        "负责",
        "人"
      ],
      [
        "习",
        "惯"
      ],
      [
        "享",
        "受"
      ],
      [
        "本",
        "文"
      ],
      [
        "公",
        "路"
      ],
      [
        "牛",
        "皮"
      ],
      [
        "20",
        "00"
      ],
      [
        "传",
        "播"
      ],
      [
        "学",
        "会"
      ],
      [
        "下",
        "面"
      ],
      [
        "解决",
        "方案"
      ],
      [
        "5",
        "5"
      ],
      [
        "每",
        "一"
      ],
      [
        "的",
        "影响"
      ],
      [
        "覆",
        "盖"
      ],
      [
        "将",
        "在"
      ],
      [
        "代",
        "理"
      ],
      [
        "会",
        "员"
      ],
      [
        "版",
        "权"
      ],
      [
        "展",
        "开"
      ],
      [
        "计算",
        "机"
      ],
      [
        "者",
        "的"
      ],
      [
        "3",
        "8"
      ],
      [
        "里",
        "的"
      ],
      [
        "强",
        "的"
      ],
      [
        "比",
        "例"
      ],
      [
        "平方",
        "米"
      ],
      [
        "塑",
        "料"
      ],
      [
        "有",
        "人"
      ],
      [
        "考",
        "生"
      ],
      [
        "状",
        "况"
      ],
      [
        "色",
        "的"
      ],
      [
        "高",
        "效"
      ],
      [
        "德",
        "国"
      ],
      [
        "仍",
        "然"
      ],
      [
        "专业",
        "的"
      ],
      [
        "之",
        "外"
      ],
      [
        "主",
        "义"
      ],
      [
        "独",
        "特"
      ],
      [
        "董",
        "事"
      ],
      [
        "武",
        "汉"
      ],
      [
        "大",
        "利"
      ],
      [
        "股",
        "票"
      ],
      [
        "肯",
        "定"
      ],
      [
        "病",
        "毒"
      ],
      [
        "n",
        "二"
      ],
      [
        "各",
        "地"
      ],
      [
        "有",
        "机"
      ],
      [
        "幸",
        "福"
      ],
      [
        "经",
        "典"
      ],
      [
        "电",
        "脑"
      ],
      [
        "而",
        "言"
      ],
      [
        "每",
        "年"
      ],
      [
        "维",
        "修"
      ],
      [
        "近",
        "日"
      ],
      [
        "流",
        "量"
      ],
      [
        "室",
        "内"
      ],
      [
        "采",
        "购"
      ],
      [
        "8",
        "日"
      ],
      [
        "自",
        "主"
      ],
      [
        "政",
        "治"
      ],
      [
        "加",
        "快"
      ],
      [
        "本",
        "身"
      ],
      [
        "消",
        "防"
      ],
      [
        "变",
        "得"
      ],
      [
        "分",
        "类"
      ],
      [
        "202",
        "1"
      ],
      [
        "查",
        "看"
      ],
      [
        "添",
        "加"
      ],
      [
        "简",
        "称"
      ],
      [
        "出",
        "版"
      ],
      [
        "网",
        "上"
      ],
      [
        "丰富",
        "的"
      ],
      [
        "致",
        "力"
      ],
      [
        "高",
        "度"
      ],
      [
        "节",
        "目"
      ],
      [
        "发",
        "表"
      ],
      [
        "3",
        "7"
      ],
      [
        "医",
        "药"
      ],
      [
        "如",
        "下"
      ],
      [
        "n",
        "三"
      ],
      [
        "元",
        "素"
      ],
      [
        "不",
        "足"
      ],
      [
        "专",
        "利"
      ],
      [
        "临",
        "床"
      ],
      [
        "适",
        "应"
      ],
      [
        "牛皮",
        "癣"
      ],
      [
        "表",
        "达"
      ],
      [
        "同",
        "样"
      ],
      [
        "完",
        "整"
      ],
      [
        "示",
        "范"
      ],
      [
        "防",
        "止"
      ],
      [
        "感",
        "受"
      ],
      [
        "i",
        "on"
      ],
      [
        "呈",
        "现"
      ],
      [
        "本",
        "科"
      ],
      [
        "认",
        "真"
      ],
      [
        "打",
        "开"
      ],
      [
        "会",
        "有"
      ],
      [
        "父",
        "母"
      ],
      [
        "高",
        "级"
      ],
      [
        "幼",
        "儿"
      ],
      [
        "人",
        "士"
      ],
      [
        "商",
        "标"
      ],
      [
        "充",
        "满"
      ],
      [
        "场",
        "景"
      ],
      [
        "限",
        "制"
      ],
      [
        "固",
        "定"
      ],
      [
        "营",
        "业"
      ],
      [
        "n",
        "公司"
      ],
      [
        "搜",
        "索"
      ],
      [
        "3",
        "4"
      ],
      [
        "创",
        "作"
      ],
      [
        "准",
        "确"
      ],
      [
        "几",
        "个"
      ],
      [
        "迅",
        "速"
      ],
      [
        "配",
        "置"
      ],
      [
        "实验",
        "室"
      ],
      [
        "令",
        "人"
      ],
      [
        "定",
        "制"
      ],
      [
        "校",
        "园"
      ],
      [
        "电",
        "力"
      ],
      [
        "B",
        "A"
      ],
      [
        "防",
        "控"
      ],
      [
        "节",
        "能"
      ],
      [
        "现",
        "实"
      ],
      [
        "渠",
        "道"
      ],
      [
        "几",
        "乎"
      ],
      [
        "o",
        "o"
      ],
      [
        "n",
        "从"
      ],
      [
        "事",
        "项"
      ],
      [
        "队",
        "伍"
      ],
      [
        "背",
        "景"
      ],
      [
        "展",
        "现"
      ],
      [
        "网",
        "友"
      ],
      [
        "法",
        "院"
      ],
      [
        "页",
        "第"
      ],
      [
        "第",
        "四"
      ],
      [
        "二",
        "十"
      ],
      [
        "天",
        "然"
      ],
      [
        "扩",
        "大"
      ],
      [
        "体",
        "现"
      ],
      [
        "202",
        "2"
      ],
      [
        "的",
        "主要"
      ],
      [
        "可",
        "靠"
      ],
      [
        "追",
        "求"
      ],
      [
        "职",
        "工"
      ],
      [
        "体",
        "的"
      ],
      [
        "分",
        "子"
      ],
      [
        "小",
        "组"
      ],
      [
        "电",
        "机"
      ],
      [
        "的",
        "地方"
      ],
      [
        "少",
        "年"
      ],
      [
        "著",
        "名"
      ],
      [
        "人民",
        "政府"
      ],
      [
        "合",
        "格"
      ],
      [
        "一",
        "家"
      ],
      [
        "一",
        "切"
      ],
      [
        "航",
        "空"
      ],
      [
        "事",
        "件"
      ],
      [
        "始",
        "终"
      ],
      [
        "往",
        "往"
      ],
      [
        "银",
        "屑"
      ],
      [
        "监",
        "测"
      ],
      [
        "5",
        "日"
      ],
      [
        "进",
        "步"
      ],
      [
        "布",
        "局"
      ],
      [
        "银屑",
        "病"
      ],
      [
        "各",
        "项"
      ],
      [
        "预",
        "防"
      ],
      [
        "100",
        "0"
      ],
      [
        "4",
        "8"
      ],
      [
        "治",
        "理"
      ],
      [
        "人",
        "口"
      ],
      [
        "所",
        "在"
      ],
      [
        "论",
        "文"
      ],
      [
        "年",
        "度"
      ],
      [
        "顺",
        "利"
      ],
      [
        "管",
        "道"
      ],
      [
        "包",
        "含"
      ],
      [
        "心",
        "的"
      ],
      [
        "首",
        "次"
      ],
      [
        "学",
        "位"
      ],
      [
        "依",
        "据"
      ],
      [
        "铁",
        "路"
      ],
      [
        "精",
        "彩"
      ],
      [
        "201",
        "6年"
      ],
      [
        "组",
        "合"
      ],
      [
        "很多",
        "人"
      ],
      [
        "7",
        "日"
      ],
      [
        "景",
        "区"
      ],
      [
        "这",
        "次"
      ],
      [
        "事",
        "情"
      ],
      [
        "环",
        "节"
      ],
      [
        "定",
        "位"
      ],
      [
        "强",
        "度"
      ],
      [
        "的",
        "基础"
      ],
      [
        "财",
        "务"
      ],
      [
        "给",
        "予"
      ],
      [
        "下",
        "午"
      ],
      [
        "相",
        "同"
      ],
      [
        "指",
        "数"
      ],
      [
        "3",
        "2"
      ],
      [
        "美",
        "的"
      ],
      [
        "an",
        "d"
      ],
      [
        "构",
        "建"
      ],
      [
        "指",
        "标"
      ],
      [
        "轻",
        "松"
      ],
      [
        "创",
        "建"
      ],
      [
        "获",
        "取"
      ],
      [
        "进",
        "口"
      ],
      [
        "多",
        "年"
      ],
      [
        "尤其",
        "是"
      ],
      [
        "的",
        "好"
      ],
      [
        "19",
        "8"
      ],
      [
        "女",
        "性"
      ],
      [
        "众",
        "多"
      ],
      [
        "截",
        "至"
      ],
      [
        "的",
        "企业"
      ],
      [
        "h",
        "t"
      ],
      [
        "机",
        "场"
      ],
      [
        "文",
        "字"
      ],
      [
        "污",
        "水"
      ],
      [
        "十",
        "二"
      ],
      [
        "7",
        "5"
      ],
      [
        "的",
        "一个"
      ],
      [
        "a",
        "d"
      ],
      [
        "场",
        "比赛"
      ],
      [
        "颜",
        "色"
      ],
      [
        "都",
        "在"
      ],
      [
        "共",
        "享"
      ],
      [
        "天",
        "津"
      ],
      [
        "可以",
        "在"
      ],
      [
        "更",
        "好的"
      ],
      [
        "遇",
        "到"
      ],
      [
        "上",
        "述"
      ],
      [
        "新",
        "型"
      ],
      [
        "快",
        "乐"
      ],
      [
        "饮",
        "食"
      ],
      [
        "6",
        "日"
      ],
      [
        "和",
        "国"
      ],
      [
        "n",
        "如果"
      ],
      [
        "就",
        "能"
      ],
      [
        "a",
        "pp"
      ],
      [
        "授",
        "权"
      ],
      [
        "强",
        "化"
      ],
      [
        "r",
        "i"
      ],
      [
        "韩",
        "国"
      ],
      [
        "还",
        "要"
      ],
      [
        "的",
        "生活"
      ],
      [
        "改",
        "造"
      ],
      [
        "循",
        "环"
      ],
      [
        "可",
        "是"
      ],
      [
        "满",
        "意"
      ],
      [
        "法",
        "规"
      ],
      [
        "的",
        "同时"
      ],
      [
        "将",
        "会"
      ],
      [
        "期",
        "待"
      ],
      [
        "3",
        "日"
      ],
      [
        "期",
        "的"
      ],
      [
        "角",
        "度"
      ],
      [
        "不",
        "知道"
      ],
      [
        "蛋",
        "白"
      ],
      [
        "房",
        "地产"
      ],
      [
        "亿",
        "美元"
      ],
      [
        "6",
        "5"
      ],
      [
        "年",
        "代"
      ],
      [
        "季",
        "度"
      ],
      [
        "9",
        "日"
      ],
      [
        "讨",
        "论"
      ],
      [
        "提供",
        "了"
      ],
      [
        "I",
        "P"
      ],
      [
        "大",
        "部分"
      ],
      [
        "3",
        "9"
      ],
      [
        "支",
        "撑"
      ],
      [
        "尽",
        "管"
      ],
      [
        "南",
        "京"
      ],
      [
        "她",
        "的"
      ],
      [
        "素",
        "质"
      ],
      [
        "根",
        "本"
      ],
      [
        "编",
        "辑"
      ],
      [
        "名",
        "称"
      ],
      [
        "通",
        "信"
      ],
      [
        "子",
        "的"
      ],
      [
        "面",
        "临"
      ],
      [
        "办公",
        "室"
      ],
      [
        "物",
        "理"
      ],
      [
        "各",
        "个"
      ],
      [
        "201",
        "5年"
      ],
      [
        "是",
        "指"
      ],
      [
        "声",
        "明"
      ],
      [
        "葡",
        "萄"
      ],
      [
        "测",
        "量"
      ],
      [
        "批",
        "准"
      ],
      [
        "即",
        "使"
      ],
      [
        "上",
        "升"
      ],
      [
        "版",
        "本"
      ],
      [
        "201",
        "9"
      ],
      [
        "生",
        "长"
      ],
      [
        "曾",
        "经"
      ],
      [
        "观",
        "察"
      ],
      [
        "高",
        "质量"
      ],
      [
        "致力",
        "于"
      ],
      [
        "转",
        "型"
      ],
      [
        "近",
        "年来"
      ],
      [
        "加",
        "上"
      ],
      [
        "年",
        "龄"
      ],
      [
        "很",
        "大"
      ],
      [
        "是",
        "由"
      ],
      [
        "提",
        "前"
      ],
      [
        "家",
        "具"
      ],
      [
        "联",
        "盟"
      ],
      [
        "新",
        "能源"
      ],
      [
        "宣",
        "布"
      ],
      [
        "招",
        "生"
      ],
      [
        "信",
        "用"
      ],
      [
        "器",
        "的"
      ],
      [
        "罗",
        "斯"
      ],
      [
        "车",
        "型"
      ],
      [
        "学",
        "历"
      ],
      [
        "唯",
        "一"
      ],
      [
        "志",
        "愿"
      ],
      [
        "良",
        "好"
      ],
      [
        "财",
        "政"
      ],
      [
        "清",
        "洁"
      ],
      [
        "天",
        "气"
      ],
      [
        "事",
        "实"
      ],
      [
        "使",
        "得"
      ],
      [
        "协",
        "调"
      ],
      [
        "搭",
        "配"
      ],
      [
        "互",
        "动"
      ],
      [
        "开",
        "启"
      ],
      [
        "对",
        "象"
      ],
      [
        "理",
        "想"
      ],
      [
        "还",
        "可以"
      ],
      [
        "总",
        "结"
      ],
      [
        "电",
        "商"
      ],
      [
        "院",
        "校"
      ],
      [
        "引",
        "导"
      ],
      [
        "3",
        "1"
      ],
      [
        "4",
        "日"
      ],
      [
        "n",
        "我们"
      ],
      [
        "保",
        "温"
      ],
      [
        "配",
        "套"
      ],
      [
        "会",
        "计"
      ],
      [
        "案",
        "例"
      ],
      [
        "清",
        "洗"
      ],
      [
        "6",
        "6"
      ],
      [
        "转",
        "载"
      ],
      [
        "在",
        "于"
      ],
      [
        "亚",
        "洲"
      ],
      [
        "招",
        "标"
      ],
      [
        "人",
        "生"
      ],
      [
        "自",
        "我"
      ],
      [
        "事",
        "故"
      ],
      [
        "情",
        "绪"
      ],
      [
        "构",
        "成"
      ],
      [
        "概",
        "念"
      ],
      [
        "务",
        "院"
      ],
      [
        "的一",
        "种"
      ],
      [
        "时",
        "尚"
      ],
      [
        "上",
        "一"
      ],
      [
        "市场",
        "的"
      ],
      [
        "标",
        "志"
      ],
      [
        "有",
        "哪些"
      ],
      [
        "大多",
        "数"
      ],
      [
        "手",
        "术"
      ],
      [
        "信",
        "号"
      ],
      [
        "很",
        "好"
      ],
      [
        "当",
        "中"
      ],
      [
        "书",
        "记"
      ],
      [
        "的",
        "服务"
      ],
      [
        "鼓",
        "励"
      ],
      [
        "优",
        "惠"
      ],
      [
        "♀",
        "♀"
      ],
      [
        "演",
        "员"
      ],
      [
        "的",
        "心"
      ],
      [
        "感",
        "谢"
      ],
      [
        "的",
        "技术"
      ],
      [
        "的事",
        "情"
      ],
      [
        "的",
        "方法"
      ],
      [
        "违",
        "法"
      ],
      [
        "许",
        "可"
      ],
      [
        "发",
        "动"
      ],
      [
        "的",
        "设计"
      ],
      [
        "n",
        "0"
      ],
      [
        "主",
        "持"
      ],
      [
        "文",
        "学"
      ],
      [
        "n",
        "7"
      ],
      [
        "地",
        "位"
      ],
      [
        "世界",
        "杯"
      ],
      [
        "先",
        "后"
      ],
      [
        "制",
        "品"
      ],
      [
        "4",
        "00"
      ],
      [
        "定",
        "的"
      ],
      [
        "召",
        "开"
      ],
      [
        "湖",
        "南"
      ],
      [
        "成",
        "熟"
      ],
      [
        "查",
        "询"
      ],
      [
        "街",
        "道"
      ],
      [
        "同比",
        "增长"
      ]
    ]
  }
}