{
  "version": "1.0",
  "truncation": null,
  "padding": null,
  "added_tokens": [
    {
      "id": 0,
      "content": "[PAD]",
      "single_word": false,
      "lstrip": false,
      "rstrip": false,
      "normalized": false,
      "special": true
    },
    {
      "id": 1,
      "content": "[UNK]",
      "single_word": false,
      "lstrip": false,
      "rstrip": false,
      "normalized": false,
      "special": true
    },
    {
      "id": 2,
      "content": "[END]",
      "single_word": false,
      "lstrip": false,
      "rstrip": false,
      "normalized": false,
      "special": true
    },
    {
      "id": 3,
      "content": "[START]",
      "single_word": false,
      "lstrip": false,
      "rstrip": false,
      "normalized": false,
      "special": true
    }
  ],
  "normalizer": {
    "type": "NFKD"
  },
  "pre_tokenizer": {
    "type": "BertPreTokenizer"
  },
  "post_processor": null,
  "decoder": null,
  "model": {
    "type": "BPE",
    "dropout": null,
    "unk_token": "[UNK]",
    "continuing_subword_prefix": null,
    "end_of_word_suffix": null,
    "fuse_unk": false,
    "byte_fallback": false,
    "ignore_merges": false,
    "vocab": {
      "[PAD]": 0,
      "[UNK]": 1,
      "[END]": 2,
      "[START]": 3,
      "!": 4,
      "\"": 5,
      "#": 6,
      "$": 7,
      "%": 8,
      "&": 9,
      "'": 10,
      "(": 11,
      ")": 12,
      "*": 13,
      "+": 14,
      ",": 15,
      "-": 16,
      ".": 17,
      "/": 18,
      "0": 19,
      "1": 20,
      "2": 21,
      "3": 22,
      "4": 23,
      "5": 24,
      "6": 25,
      "7": 26,
      "8": 27,
      "9": 28,
      ":": 29,
      ";": 30,
      "<": 31,
      "=": 32,
      ">": 33,
      "?": 34,
      "@": 35,
      "A": 36,
      "B": 37,
      "C": 38,
      "D": 39,
      "E": 40,
      "F": 41,
      "G": 42,
      "H": 43,
      "I": 44,
      "J": 45,
      "K": 46,
      "L": 47,
      "M": 48,
      "N": 49,
      "O": 50,
      "P": 51,
      "Q": 52,
      "R": 53,
      "S": 54,
      "T": 55,
      "U": 56,
      "V": 57,
      "W": 58,
      "X": 59,
      "Y": 60,
      "Z": 61,
      "[": 62,
      "\\": 63,
      "]": 64,
      "^": 65,
      "_": 66,
      "`": 67,
      "a": 68,
      "b": 69,
      "c": 70,
      "d": 71,
      "e": 72,
      "f": 73,
      "g": 74,
      "h": 75,
      "i": 76,
      "j": 77,
      "k": 78,
      "l": 79,
      "m": 80,
      "n": 81,
      "o": 82,
      "p": 83,
      "q": 84,
      "r": 85,
      "s": 86,
      "t": 87,
      "u": 88,
      "v": 89,
      "w": 90,
      "x": 91,
      "y": 92,
      "z": 93,
      "{": 94,
      "|": 95,
      "}": 96,
      "~": 97,
      "¥": 98,
      "©": 99,
      "®": 100,
      "°": 101,
      "±": 102,
      "·": 103,
      "»": 104,
      "×": 105,
      "÷": 106,
      "̀": 107,
      "́": 108,
      "̂": 109,
      "̄": 110,
      "̈": 111,
      "̌": 112,
      "̸": 113,
      "Ο": 114,
      "Φ": 115,
      "Ω": 116,
      "α": 117,
      "β": 118,
      "γ": 119,
      "μ": 120,
      "π": 121,
      "φ": 122,
      "ᄀ": 123,
      "ᄋ": 124,
      "ᅡ": 125,
      "ᅳ": 126,
      "ᅵ": 127,
      "ᆫ": 128,
      "​": 129,
      "‍": 130,
      "–": 131,
      "—": 132,
      "―": 133,
      "‘": 134,
      "’": 135,
      "“": 136,
      "”": 137,
      "•": 138,
      "‧": 139,
      "‬": 140,
      "‰": 141,
      "′": 142,
      "※": 143,
      "€": 144,
      "↑": 145,
      "→": 146,
      "↓": 147,
      "√": 148,
      "∠": 149,
      "∶": 150,
      "≈": 151,
      "≤": 152,
      "≥": 153,
      "⊙": 154,
      "⋯": 155,
      "─": 156,
      "│": 157,
      "═": 158,
      "█": 159,
      "▌": 160,
      "■": 161,
      "□": 162,
      "▪": 163,
      "▲": 164,
      "△": 165,
      "▶": 166,
      "▷": 167,
      "►": 168,
      "▼": 169,
      "▽": 170,
      "◁": 171,
      "◆": 172,
      "◇": 173,
      "○": 174,
      "◎": 175,
      "●": 176,
      "★": 177,
      "☆": 178,
      "♀": 179,
      "✦": 180,
      "❤": 181,
      "、": 182,
      "。": 183,
      "〇": 184,
      "〈": 185,
      "〉": 186,
      "《": 187,
      "》": 188,
      "「": 189,
      "」": 190,
      "『": 191,
      "』": 192,
      "【": 193,
      "】": 194,
      "〔": 195,
      "〕": 196,
      "〖": 197,
      "〗": 198,
      "い": 199,
      "か": 200,
      "こ": 201,
      "さ": 202,
      "し": 203,
      "す": 204,
      "た": 205,
      "て": 206,
      "と": 207,
      "な": 208,
      "に": 209,
      "の": 210,
      "は": 211,
      "ま": 212,
      "り": 213,
      "る": 214,
      "を": 215,
      "゙": 216,
      "゚": 217,
      "ス": 218,
      "ト": 219,
      "フ": 220,
      "ル": 221,
      "ン": 222,
      "・": 223,
      "ー": 224,
      "一": 225,
      "丁": 226,
      "七": 227,
      "万": 228,
      "丈": 229,
      "三": 230,
      "上": 231,
      "下": 232,
      "不": 233,
      "与": 234,
      "丐": 235,
      "丑": 236,
      "专": 237,
      "且": 238,
      "世": 239,
      "丘": 240,
      "丙": 241,
      "业": 242,
      "丛": 243,
      "东": 244,
      "丝": 245,
      "丞": 246,
      "丢": 247,
      "两": 248,
      "严": 249,
      "並": 250,
      "丧": 251,
      "丨": 252,
      "个": 253,
      "丫": 254,
      "中": 255,
      "丰": 256,
      "串": 257,
      "临": 258,
      "丶": 259,
      "丸": 260,
      "丹": 261,
      "为": 262,
      "主": 263,
      "丽": 264,
      "举": 265,
      "乃": 266,
      "久": 267,
      "么": 268,
      "义": 269,
      "之": 270,
      "乌": 271,
      "乍": 272,
      "乎": 273,
      "乏": 274,
      "乐": 275,
      "乒": 276,
      "乓": 277,
      "乔": 278,
      "乖": 279,
      "乘": 280,
      "乙": 281,
      "九": 282,
      "乞": 283,
      "也": 284,
      "习": 285,
      "乡": 286,
      "书": 287,
      "买": 288,
      "乱": 289,
      "乳": 290,
      "乾": 291,
      "了": 292,
      "予": 293,
      "争": 294,
      "事": 295,
      "二": 296,
      "于": 297,
      "亏": 298,
      "云": 299,
      "互": 300,
      "五": 301,
      "井": 302,
      "亘": 303,
      "亚": 304,
      "些": 305,
      "亞": 306,
      "亟": 307,
      "亡": 308,
      "亢": 309,
      "交": 310,
      "亥": 311,
      "亦": 312,
      "产": 313,
      "亨": 314,
      "亩": 315,
      "享": 316,
      "京": 317,
      "亭": 318,
      "亮": 319,
      "亲": 320,
      "亳": 321,
      "人": 322,
      "亿": 323,
      "什": 324,
      "仁": 325,
      "仄": 326,
      "仅": 327,
      "仆": 328,
      "仇": 329,
      "今": 330,
      "介": 331,
      "仍": 332,
      "从": 333,
      "仑": 334,
      "仓": 335,
      "仔": 336,
      "仕": 337,
      "他": 338,
      "仗": 339,
      "付": 340,
      "仙": 341,
      "仟": 342,
      "代": 343,
      "令": 344,
      "以": 345,
      "仪": 346,
      "们": 347,
      "仰": 348,
      "仲": 349,
      "件": 350,
      "价": 351,
      "任": 352,
      "份": 353,
      "仿": 354,
      "企": 355,
      "伊": 356,
      "伍": 357,
      "伎": 358,
      "伏": 359,
      "伐": 360,
      "休": 361,
      "众": 362,
      "优": 363,
      "伙": 364,
      "会": 365,
      "伞": 366,
      "伟": 367,
      "传": 368,
      "伤": 369,
      "伦": 370,
      "伪": 371,
      "伯": 372,
      "估": 373,
      "伴": 374,
      "伶": 375,
      "伸": 376,
      "伺": 377,
      "似": 378,
      "伽": 379,
      "但": 380,
      "位": 381,
      "低": 382,
      "住": 383,
      "佐": 384,
      "佑": 385,
      "体": 386,
      "何": 387,
      "余": 388,
      "佛": 389,
      "作": 390,
      "佟": 391,
      "你": 392,
      "佣": 393,
      "佩": 394,
      "佬": 395,
      "佰": 396,
      "佳": 397,
      "佼": 398,
      "使": 399,
      "侃": 400,
      "侄": 401,
      "來": 402,
      "侈": 403,
      "例": 404,
      "侍": 405,
      "侏": 406,
      "供": 407,
      "依": 408,
      "侠": 409,
      "侣": 410,
      "侥": 411,
      "侦": 412,
      "侧": 413,
      "侨": 414,
      "侪": 415,
      "侬": 416,
      "侮": 417,
      "侯": 418,
      "侵": 419,
      "便": 420,
      "促": 421,
      "俄": 422,
      "俊": 423,
      "俏": 424,
      "俐": 425,
      "俑": 426,
      "俗": 427,
      "俘": 428,
      "保": 429,
      "俞": 430,
      "信": 431,
      "俨": 432,
      "俩": 433,
      "俪": 434,
      "俭": 435,
      "修": 436,
      "俯": 437,
      "俱": 438,
      "俺": 439,
      "個": 440,
      "倍": 441,
      "們": 442,
      "倒": 443,
      "倔": 444,
      "倘": 445,
      "候": 446,
      "倚": 447,
      "借": 448,
      "倡": 449,
      "倦": 450,
      "倩": 451,
      "倪": 452,
      "债": 453,
      "值": 454,
      "倾": 455,
      "偃": 456,
      "假": 457,
      "偏": 458,
      "偕": 459,
      "做": 460,
      "停": 461,
      "健": 462,
      "偶": 463,
      "偷": 464,
      "偿": 465,
      "傅": 466,
      "傍": 467,
      "備": 468,
      "储": 469,
      "催": 470,
      "傲": 471,
      "傳": 472,
      "傷": 473,
      "傻": 474,
      "僅": 475,
      "像": 476,
      "僚": 477,
      "僧": 478,
      "僵": 479,
      "價": 480,
      "僻": 481,
      "儀": 482,
      "億": 483,
      "儒": 484,
      "優": 485,
      "儲": 486,
      "儿": 487,
      "兀": 488,
      "允": 489,
      "元": 490,
      "兄": 491,
      "充": 492,
      "兆": 493,
      "先": 494,
      "光": 495,
      "克": 496,
      "免": 497,
      "兑": 498,
      "兒": 499,
      "兔": 500,
      "党": 501,
      "兜": 502,
      "兢": 503,
      "入": 504,
      "內": 505,
      "全": 506,
      "兩": 507,
      "八": 508,
      "公": 509,
      "六": 510,
      "兮": 511,
      "兰": 512,
      "共": 513,
      "关": 514,
      "兴": 515,
      "兵": 516,
      "其": 517,
      "具": 518,
      "典": 519,
      "兹": 520,
      "养": 521,
      "兼": 522,
      "兽": 523,
      "冀": 524,
      "内": 525,
      "冇": 526,
      "冈": 527,
      "冉": 528,
      "冊": 529,
      "册": 530,
      "再": 531,
      "冒": 532,
      "冕": 533,
      "冗": 534,
      "写": 535,
      "军": 536,
      "农": 537,
      "冠": 538,
      "冢": 539,
      "冤": 540,
      "冥": 541,
      "冬": 542,
      "冯": 543,
      "冰": 544,
      "冲": 545,
      "决": 546,
      "况": 547,
      "冶": 548,
      "冷": 549,
      "冻": 550,
      "冽": 551,
      "净": 552,
      "凄": 553,
      "准": 554,
      "凈": 555,
      "凉": 556,
      "凋": 557,
      "凌": 558,
      "减": 559,
      "凑": 560,
      "凛": 561,
      "凝": 562,
      "几": 563,
      "凡": 564,
      "凤": 565,
      "凭": 566,
      "凯": 567,
      "凰": 568,
      "凳": 569,
      "凶": 570,
      "凸": 571,
      "凹": 572,
      "出": 573,
      "击": 574,
      "函": 575,
      "凿": 576,
      "刀": 577,
      "刁": 578,
      "刃": 579,
      "分": 580,
      "切": 581,
      "刊": 582,
      "刑": 583,
      "划": 584,
      "列": 585,
      "刘": 586,
      "则": 587,
      "刚": 588,
      "创": 589,
      "初": 590,
      "删": 591,
      "判": 592,
      "別": 593,
      "刨": 594,
      "利": 595,
      "别": 596,
      "刮": 597,
      "到": 598,
      "制": 599,
      "刷": 600,
      "券": 601,
      "刹": 602,
      "刺": 603,
      "刻": 604,
      "剁": 605,
      "剂": 606,
      "剃": 607,
      "則": 608,
      "削": 609,
      "前": 610,
      "剑": 611,
      "剔": 612,
      "剖": 613,
      "剥": 614,
      "剧": 615,
      "剩": 616,
      "剪": 617,
      "副": 618,
      "割": 619,
      "創": 620,
      "剿": 621,
      "劃": 622,
      "劈": 623,
      "劑": 624,
      "力": 625,
      "劝": 626,
      "办": 627,
      "功": 628,
      "加": 629,
      "务": 630,
      "劣": 631,
      "动": 632,
      "助": 633,
      "努": 634,
      "劫": 635,
      "励": 636,
      "劲": 637,
      "劳": 638,
      "势": 639,
      "勃": 640,
      "勇": 641,
      "勉": 642,
      "勋": 643,
      "勐": 644,
      "勒": 645,
      "動": 646,
      "勘": 647,
      "務": 648,
      "募": 649,
      "勢": 650,
      "勤": 651,
      "勺": 652,
      "勾": 653,
      "勿": 654,
      "匀": 655,
      "包": 656,
      "匆": 657,
      "匈": 658,
      "化": 659,
      "北": 660,
      "匙": 661,
      "匝": 662,
      "匠": 663,
      "匡": 664,
      "匣": 665,
      "匪": 666,
      "匮": 667,
      "匹": 668,
      "区": 669,
      "医": 670,
      "匾": 671,
      "匿": 672,
      "區": 673,
      "十": 674,
      "千": 675,
      "升": 676,
      "午": 677,
      "卉": 678,
      "半": 679,
      "华": 680,
      "协": 681,
      "卑": 682,
      "卒": 683,
      "卓": 684,
      "協": 685,
      "单": 686,
      "卖": 687,
      "南": 688,
      "博": 689,
      "卜": 690,
      "占": 691,
      "卡": 692,
      "卢": 693,
      "卤": 694,
      "卦": 695,
      "卧": 696,
      "卫": 697,
      "卯": 698,
      "印": 699,
      "危": 700,
      "即": 701,
      "却": 702,
      "卵": 703,
      "卷": 704,
      "卸": 705,
      "卻": 706,
      "卿": 707,
      "厂": 708,
      "厄": 709,
      "厅": 710,
      "历": 711,
      "厉": 712,
      "压": 713,
      "厌": 714,
      "厕": 715,
      "厘": 716,
      "厚": 717,
      "厝": 718,
      "原": 719,
      "厢": 720,
      "厥": 721,
      "厦": 722,
      "厨": 723,
      "厮": 724,
      "去": 725,
      "县": 726,
      "叁": 727,
      "参": 728,
      "參": 729,
      "又": 730,
      "叉": 731,
      "及": 732,
      "友": 733,
      "双": 734,
      "反": 735,
      "发": 736,
      "叔": 737,
      "取": 738,
      "受": 739,
      "变": 740,
      "叙": 741,
      "叛": 742,
      "叟": 743,
      "叠": 744,
      "口": 745,
      "古": 746,
      "句": 747,
      "另": 748,
      "叨": 749,
      "叩": 750,
      "只": 751,
      "叫": 752,
      "召": 753,
      "叭": 754,
      "叮": 755,
      "可": 756,
      "台": 757,
      "史": 758,
      "右": 759,
      "叶": 760,
      "号": 761,
      "司": 762,
      "叹": 763,
      "叽": 764,
      "吁": 765,
      "吃": 766,
      "各": 767,
      "吆": 768,
      "合": 769,
      "吉": 770,
      "吊": 771,
      "吋": 772,
      "同": 773,
      "名": 774,
      "后": 775,
      "吏": 776,
      "吐": 777,
      "向": 778,
      "吒": 779,
      "吓": 780,
      "吕": 781,
      "吗": 782,
      "君": 783,
      "吝": 784,
      "吞": 785,
      "吟": 786,
      "吡": 787,
      "否": 788,
      "吧": 789,
      "吨": 790,
      "吩": 791,
      "含": 792,
      "听": 793,
      "启": 794,
      "吱": 795,
      "吴": 796,
      "吵": 797,
      "吸": 798,
      "吹": 799,
      "吻": 800,
      "吼": 801,
      "吾": 802,
      "呀": 803,
      "呆": 804,
      "呈": 805,
      "告": 806,
      "呐": 807,
      "呕": 808,
      "呗": 809,
      "员": 810,
      "呛": 811,
      "呜": 812,
      "呢": 813,
      "呤": 814,
      "呦": 815,
      "周": 816,
      "呱": 817,
      "味": 818,
      "呵": 819,
      "呷": 820,
      "呼": 821,
      "命": 822,
      "咀": 823,
      "咆": 824,
      "咋": 825,
      "和": 826,
      "咎": 827,
      "咏": 828,
      "咐": 829,
      "咒": 830,
      "咔": 831,
      "咕": 832,
      "咖": 833,
      "咙": 834,
      "咚": 835,
      "咤": 836,
      "咧": 837,
      "咨": 838,
      "咪": 839,
      "咫": 840,
      "咬": 841,
      "咯": 842,
      "咱": 843,
      "咳": 844,
      "咸": 845,
      "咽": 846,
      "哀": 847,
      "品": 848,
      "哄": 849,
      "哆": 850,
      "哇": 851,
      "哈": 852,
      "哉": 853,
      "响": 854,
      "哎": 855,
      "哑": 856,
      "哒": 857,
      "哔": 858,
      "哗": 859,
      "哟": 860,
      "員": 861,
      "哥": 862,
      "哦": 863,
      "哨": 864,
      "哩": 865,
      "哪": 866,
      "哭": 867,
      "哮": 868,
      "哲": 869,
      "哺": 870,
      "哼": 871,
      "唇": 872,
      "唉": 873,
      "唐": 874,
      "唑": 875,
      "唔": 876,
      "唠": 877,
      "唤": 878,
      "售": 879,
      "唯": 880,
      "唱": 881,
      "唾": 882,
      "啃": 883,
      "啄": 884,
      "商": 885,
      "啊": 886,
      "問": 887,
      "啟": 888,
      "啡": 889,
      "啤": 890,
      "啥": 891,
      "啦": 892,
      "啧": 893,
      "啪": 894,
      "啬": 895,
      "啮": 896,
      "啰": 897,
      "啸": 898,
      "啼": 899,
      "喀": 900,
      "喂": 901,
      "喃": 902,
      "善": 903,
      "喆": 904,
      "喇": 905,
      "喉": 906,
      "喊": 907,
      "喔": 908,
      "喘": 909,
      "喜": 910,
      "喝": 911,
      "喧": 912,
      "單": 913,
      "喱": 914,
      "喵": 915,
      "喷": 916,
      "喻": 917,
      "喽": 918,
      "嗅": 919,
      "嗎": 920,
      "嗒": 921,
      "嗓": 922,
      "嗜": 923,
      "嗡": 924,
      "嗣": 925,
      "嗦": 926,
      "嗨": 927,
      "嗯": 928,
      "嗽": 929,
      "嘀": 930,
      "嘅": 931,
      "嘈": 932,
      "嘉": 933,
      "嘎": 934,
      "嘘": 935,
      "嘛": 936,
      "嘟": 937,
      "嘱": 938,
      "嘲": 939,
      "嘴": 940,
      "嘶": 941,
      "嘻": 942,
      "嘿": 943,
      "噗": 944,
      "噜": 945,
      "噢": 946,
      "器": 947,
      "噩": 948,
      "噪": 949,
      "噬": 950,
      "噱": 951,
      "噴": 952,
      "嚏": 953,
      "嚣": 954,
      "嚴": 955,
      "嚷": 956,
      "嚼": 957,
      "囊": 958,
      "囚": 959,
      "四": 960,
      "回": 961,
      "因": 962,
      "团": 963,
      "囤": 964,
      "囧": 965,
      "园": 966,
      "困": 967,
      "囱": 968,
      "围": 969,
      "固": 970,
      "国": 971,
      "图": 972,
      "圃": 973,
      "圆": 974,
      "圈": 975,
      "國": 976,
      "圍": 977,
      "園": 978,
      "圓": 979,
      "圖": 980,
      "團": 981,
      "土": 982,
      "圣": 983,
      "在": 984,
      "圩": 985,
      "圭": 986,
      "地": 987,
      "圳": 988,
      "场": 989,
      "圾": 990,
      "址": 991,
      "坂": 992,
      "均": 993,
      "坊": 994,
      "坍": 995,
      "坎": 996,
      "坏": 997,
      "坐": 998,
      "坑": 999,
      "块": 1000,
      "坚": 1001,
      "坛": 1002,
      "坝": 1003,
      "坞": 1004,
      "坟": 1005,
      "坠": 1006,
      "坡": 1007,
      "坤": 1008,
      "坦": 1009,
      "坩": 1010,
      "坪": 1011,
      "坯": 1012,
      "坷": 1013,
      "垂": 1014,
      "垃": 1015,
      "垄": 1016,
      "型": 1017,
      "垒": 1018,
      "垛": 1019,
      "垠": 1020,
      "垢": 1021,
      "垣": 1022,
      "垦": 1023,
      "垫": 1024,
      "垮": 1025,
      "埃": 1026,
      "埋": 1027,
      "城": 1028,
      "埔": 1029,
      "埚": 1030,
      "域": 1031,
      "埠": 1032,
      "執": 1033,
      "培": 1034,
      "基": 1035,
      "堂": 1036,
      "堅": 1037,
      "堆": 1038,
      "堕": 1039,
      "堡": 1040,
      "堤": 1041,
      "堪": 1042,
      "堰": 1043,
      "報": 1044,
      "場": 1045,
      "堵": 1046,
      "塊": 1047,
      "塌": 1048,
      "塑": 1049,
      "塔": 1050,
      "塘": 1051,
      "塞": 1052,
      "填": 1053,
      "塵": 1054,
      "境": 1055,
      "墅": 1056,
      "墓": 1057,
      "墙": 1058,
      "增": 1059,
      "墟": 1060,
      "墨": 1061,
      "墩": 1062,
      "墻": 1063,
      "壁": 1064,
      "壑": 1065,
      "壓": 1066,
      "壞": 1067,
      "壤": 1068,
      "士": 1069,
      "壬": 1070,
      "壮": 1071,
      "声": 1072,
      "壳": 1073,
      "壶": 1074,
      "壹": 1075,
      "壽": 1076,
      "处": 1077,
      "备": 1078,
      "复": 1079,
      "夏": 1080,
      "夕": 1081,
      "外": 1082,
      "多": 1083,
      "夜": 1084,
      "够": 1085,
      "夠": 1086,
      "大": 1087,
      "天": 1088,
      "太": 1089,
      "夫": 1090,
      "夭": 1091,
      "央": 1092,
      "夯": 1093,
      "失": 1094,
      "头": 1095,
      "夷": 1096,
      "夸": 1097,
      "夹": 1098,
      "夺": 1099,
      "奂": 1100,
      "奇": 1101,
      "奈": 1102,
      "奉": 1103,
      "奋": 1104,
      "奎": 1105,
      "奏": 1106,
      "契": 1107,
      "奔": 1108,
      "奕": 1109,
      "奖": 1110,
      "套": 1111,
      "奚": 1112,
      "奠": 1113,
      "奢": 1114,
      "奥": 1115,
      "女": 1116,
      "奴": 1117,
      "奶": 1118,
      "奸": 1119,
      "她": 1120,
      "好": 1121,
      "如": 1122,
      "妃": 1123,
      "妄": 1124,
      "妆": 1125,
      "妇": 1126,
      "妈": 1127,
      "妊": 1128,
      "妍": 1129,
      "妒": 1130,
      "妖": 1131,
      "妙": 1132,
      "妞": 1133,
      "妥": 1134,
      "妨": 1135,
      "妩": 1136,
      "妮": 1137,
      "妹": 1138,
      "妻": 1139,
      "妾": 1140,
      "姆": 1141,
      "姊": 1142,
      "始": 1143,
      "姐": 1144,
      "姑": 1145,
      "姓": 1146,
      "委": 1147,
      "姗": 1148,
      "姚": 1149,
      "姜": 1150,
      "姝": 1151,
      "姣": 1152,
      "姥": 1153,
      "姨": 1154,
      "姬": 1155,
      "姻": 1156,
      "姿": 1157,
      "威": 1158,
      "娃": 1159,
      "娄": 1160,
      "娅": 1161,
      "娆": 1162,
      "娇": 1163,
      "娓": 1164,
      "娘": 1165,
      "娜": 1166,
      "娟": 1167,
      "娠": 1168,
      "娥": 1169,
      "娩": 1170,
      "娱": 1171,
      "娲": 1172,
      "娴": 1173,
      "娶": 1174,
      "婆": 1175,
      "婉": 1176,
      "婕": 1177,
      "婚": 1178,
      "婧": 1179,
      "婪": 1180,
      "婴": 1181,
      "婵": 1182,
      "婷": 1183,
      "婺": 1184,
      "婿": 1185,
      "媒": 1186,
      "媚": 1187,
      "媛": 1188,
      "媲": 1189,
      "媳": 1190,
      "嫁": 1191,
      "嫂": 1192,
      "嫉": 1193,
      "嫌": 1194,
      "嫣": 1195,
      "嫦": 1196,
      "嫩": 1197,
      "嬉": 1198,
      "嬛": 1199,
      "嬴": 1200,
      "嬷": 1201,
      "子": 1202,
      "孔": 1203,
      "孕": 1204,
      "字": 1205,
      "存": 1206,
      "孙": 1207,
      "孚": 1208,
      "孜": 1209,
      "孝": 1210,
      "孟": 1211,
      "孢": 1212,
      "季": 1213,
      "孤": 1214,
      "学": 1215,
      "孩": 1216,
      "孪": 1217,
      "孰": 1218,
      "孵": 1219,
      "學": 1220,
      "孽": 1221,
      "宁": 1222,
      "它": 1223,
      "宅": 1224,
      "宇": 1225,
      "守": 1226,
      "安": 1227,
      "宋": 1228,
      "完": 1229,
      "宏": 1230,
      "宕": 1231,
      "宗": 1232,
      "官": 1233,
      "宙": 1234,
      "定": 1235,
      "宛": 1236,
      "宜": 1237,
      "宝": 1238,
      "实": 1239,
      "宠": 1240,
      "审": 1241,
      "客": 1242,
      "宣": 1243,
      "室": 1244,
      "宪": 1245,
      "宫": 1246,
      "宰": 1247,
      "害": 1248,
      "宴": 1249,
      "宵": 1250,
      "家": 1251,
      "宸": 1252,
      "容": 1253,
      "宽": 1254,
      "宾": 1255,
      "宿": 1256,
      "寂": 1257,
      "寄": 1258,
      "寅": 1259,
      "密": 1260,
      "寇": 1261,
      "富": 1262,
      "寐": 1263,
      "寒": 1264,
      "寓": 1265,
      "寝": 1266,
      "寞": 1267,
      "察": 1268,
      "寡": 1269,
      "寥": 1270,
      "實": 1271,
      "寧": 1272,
      "寨": 1273,
      "審": 1274,
      "寫": 1275,
      "寮": 1276,
      "寰": 1277,
      "寶": 1278,
      "寸": 1279,
      "对": 1280,
      "寺": 1281,
      "寻": 1282,
      "导": 1283,
      "寿": 1284,
      "封": 1285,
      "射": 1286,
      "将": 1287,
      "將": 1288,
      "專": 1289,
      "尉": 1290,
      "尊": 1291,
      "對": 1292,
      "導": 1293,
      "小": 1294,
      "少": 1295,
      "尔": 1296,
      "尖": 1297,
      "尘": 1298,
      "尚": 1299,
      "尝": 1300,
      "尤": 1301,
      "尧": 1302,
      "尬": 1303,
      "就": 1304,
      "尴": 1305,
      "尸": 1306,
      "尹": 1307,
      "尺": 1308,
      "尼": 1309,
      "尽": 1310,
      "尾": 1311,
      "尿": 1312,
      "局": 1313,
      "屁": 1314,
      "层": 1315,
      "居": 1316,
      "屈": 1317,
      "屉": 1318,
      "届": 1319,
      "屋": 1320,
      "屎": 1321,
      "屏": 1322,
      "屑": 1323,
      "展": 1324,
      "属": 1325,
      "屠": 1326,
      "屡": 1327,
      "層": 1328,
      "履": 1329,
      "屬": 1330,
      "屯": 1331,
      "山": 1332,
      "屹": 1333,
      "屿": 1334,
      "岁": 1335,
      "岂": 1336,
      "岌": 1337,
      "岐": 1338,
      "岑": 1339,
      "岔": 1340,
      "岖": 1341,
      "岗": 1342,
      "岚": 1343,
      "岛": 1344,
      "岩": 1345,
      "岭": 1346,
      "岱": 1347,
      "岳": 1348,
      "岸": 1349,
      "峙": 1350,
      "峡": 1351,
      "峥": 1352,
      "峦": 1353,
      "峨": 1354,
      "峪": 1355,
      "峭": 1356,
      "峰": 1357,
      "峻": 1358,
      "崂": 1359,
      "崇": 1360,
      "崎": 1361,
      "崔": 1362,
      "崖": 1363,
      "崛": 1364,
      "崩": 1365,
      "崭": 1366,
      "崽": 1367,
      "嵌": 1368,
      "嵘": 1369,
      "嵩": 1370,
      "巅": 1371,
      "巍": 1372,
      "川": 1373,
      "州": 1374,
      "巡": 1375,
      "巢": 1376,
      "工": 1377,
      "左": 1378,
      "巧": 1379,
      "巨": 1380,
      "巩": 1381,
      "巫": 1382,
      "差": 1383,
      "己": 1384,
      "已": 1385,
      "巳": 1386,
      "巴": 1387,
      "巷": 1388,
      "巾": 1389,
      "币": 1390,
      "市": 1391,
      "布": 1392,
      "帅": 1393,
      "帆": 1394,
      "师": 1395,
      "希": 1396,
      "帐": 1397,
      "帕": 1398,
      "帖": 1399,
      "帘": 1400,
      "帛": 1401,
      "帜": 1402,
      "帝": 1403,
      "带": 1404,
      "帧": 1405,
      "師": 1406,
      "席": 1407,
      "帮": 1408,
      "帶": 1409,
      "帷": 1410,
      "常": 1411,
      "帼": 1412,
      "帽": 1413,
      "幂": 1414,
      "幅": 1415,
      "幌": 1416,
      "幔": 1417,
      "幕": 1418,
      "幢": 1419,
      "幫": 1420,
      "干": 1421,
      "平": 1422,
      "年": 1423,
      "并": 1424,
      "幸": 1425,
      "幺": 1426,
      "幻": 1427,
      "幼": 1428,
      "幽": 1429,
      "幾": 1430,
      "广": 1431,
      "庄": 1432,
      "庆": 1433,
      "庇": 1434,
      "床": 1435,
      "序": 1436,
      "庐": 1437,
      "库": 1438,
      "应": 1439,
      "底": 1440,
      "店": 1441,
      "庙": 1442,
      "庚": 1443,
      "府": 1444,
      "庞": 1445,
      "废": 1446,
      "度": 1447,
      "座": 1448,
      "庫": 1449,
      "庭": 1450,
      "庵": 1451,
      "庶": 1452,
      "康": 1453,
      "庸": 1454,
      "廉": 1455,
      "廊": 1456,
      "廓": 1457,
      "廖": 1458,
      "廠": 1459,
      "廢": 1460,
      "廣": 1461,
      "廳": 1462,
      "延": 1463,
      "廷": 1464,
      "建": 1465,
      "廿": 1466,
      "开": 1467,
      "异": 1468,
      "弃": 1469,
      "弄": 1470,
      "弈": 1471,
      "弊": 1472,
      "式": 1473,
      "弓": 1474,
      "引": 1475,
      "弗": 1476,
      "弘": 1477,
      "弛": 1478,
      "弟": 1479,
      "张": 1480,
      "弥": 1481,
      "弦": 1482,
      "弧": 1483,
      "弩": 1484,
      "弯": 1485,
      "弱": 1486,
      "張": 1487,
      "強": 1488,
      "弹": 1489,
      "强": 1490,
      "彈": 1491,
      "归": 1492,
      "当": 1493,
      "录": 1494,
      "彝": 1495,
      "形": 1496,
      "彤": 1497,
      "彦": 1498,
      "彩": 1499,
      "彪": 1500,
      "彬": 1501,
      "彭": 1502,
      "彰": 1503,
      "影": 1504,
      "彷": 1505,
      "役": 1506,
      "彻": 1507,
      "彼": 1508,
      "往": 1509,
      "征": 1510,
      "径": 1511,
      "待": 1512,
      "很": 1513,
      "徉": 1514,
      "徊": 1515,
      "律": 1516,
      "後": 1517,
      "徐": 1518,
      "徑": 1519,
      "徒": 1520,
      "徕": 1521,
      "得": 1522,
      "徘": 1523,
      "徙": 1524,
      "徜": 1525,
      "從": 1526,
      "御": 1527,
      "復": 1528,
      "循": 1529,
      "微": 1530,
      "德": 1531,
      "徽": 1532,
      "心": 1533,
      "必": 1534,
      "忆": 1535,
      "忌": 1536,
      "忍": 1537,
      "忏": 1538,
      "忐": 1539,
      "忑": 1540,
      "志": 1541,
      "忘": 1542,
      "忙": 1543,
      "忠": 1544,
      "忧": 1545,
      "快": 1546,
      "忱": 1547,
      "念": 1548,
      "忻": 1549,
      "忽": 1550,
      "怀": 1551,
      "态": 1552,
      "怂": 1553,
      "怅": 1554,
      "怎": 1555,
      "怒": 1556,
      "怔": 1557,
      "怕": 1558,
      "怖": 1559,
      "怜": 1560,
      "思": 1561,
      "怠": 1562,
      "怡": 1563,
      "急": 1564,
      "性": 1565,
      "怨": 1566,
      "怪": 1567,
      "怯": 1568,
      "总": 1569,
      "怼": 1570,
      "恃": 1571,
      "恋": 1572,
      "恍": 1573,
      "恐": 1574,
      "恒": 1575,
      "恕": 1576,
      "恙": 1577,
      "恢": 1578,
      "恣": 1579,
      "恤": 1580,
      "恨": 1581,
      "恩": 1582,
      "恪": 1583,
      "恬": 1584,
      "恭": 1585,
      "息": 1586,
      "恰": 1587,
      "恳": 1588,
      "恶": 1589,
      "恺": 1590,
      "恼": 1591,
      "悄": 1592,
      "悉": 1593,
      "悍": 1594,
      "悔": 1595,
      "悖": 1596,
      "悚": 1597,
      "悟": 1598,
      "悠": 1599,
      "患": 1600,
      "悦": 1601,
      "您": 1602,
      "悬": 1603,
      "悯": 1604,
      "悲": 1605,
      "悸": 1606,
      "悼": 1607,
      "情": 1608,
      "惊": 1609,
      "惋": 1610,
      "惑": 1611,
      "惕": 1612,
      "惚": 1613,
      "惜": 1614,
      "惟": 1615,
      "惠": 1616,
      "惦": 1617,
      "惧": 1618,
      "惨": 1619,
      "惩": 1620,
      "惫": 1621,
      "惬": 1622,
      "惭": 1623,
      "惮": 1624,
      "惯": 1625,
      "惰": 1626,
      "想": 1627,
      "惶": 1628,
      "惹": 1629,
      "愁": 1630,
      "愈": 1631,
      "愉": 1632,
      "意": 1633,
      "愕": 1634,
      "愚": 1635,
      "愛": 1636,
      "感": 1637,
      "愣": 1638,
      "愤": 1639,
      "愧": 1640,
      "愫": 1641,
      "愿": 1642,
      "慈": 1643,
      "態": 1644,
      "慌": 1645,
      "慎": 1646,
      "慑": 1647,
      "慕": 1648,
      "慜": 1649,
      "慢": 1650,
      "慧": 1651,
      "慨": 1652,
      "慮": 1653,
      "慰": 1654,
      "慵": 1655,
      "慶": 1656,
      "慷": 1657,
      "憋": 1658,
      "憎": 1659,
      "憧": 1660,
      "憨": 1661,
      "憩": 1662,
      "憬": 1663,
      "憾": 1664,
      "懂": 1665,
      "懈": 1666,
      "應": 1667,
      "懊": 1668,
      "懒": 1669,
      "懦": 1670,
      "懵": 1671,
      "懿": 1672,
      "戈": 1673,
      "戊": 1674,
      "戌": 1675,
      "戎": 1676,
      "戏": 1677,
      "成": 1678,
      "我": 1679,
      "戒": 1680,
      "或": 1681,
      "战": 1682,
      "戚": 1683,
      "戛": 1684,
      "戟": 1685,
      "截": 1686,
      "戮": 1687,
      "戰": 1688,
      "戲": 1689,
      "戳": 1690,
      "戴": 1691,
      "戶": 1692,
      "户": 1693,
      "房": 1694,
      "所": 1695,
      "扁": 1696,
      "扇": 1697,
      "扉": 1698,
      "手": 1699,
      "才": 1700,
      "扎": 1701,
      "扑": 1702,
      "扒": 1703,
      "打": 1704,
      "扔": 1705,
      "托": 1706,
      "扛": 1707,
      "扣": 1708,
      "扦": 1709,
      "执": 1710,
      "扩": 1711,
      "扫": 1712,
      "扬": 1713,
      "扭": 1714,
      "扮": 1715,
      "扯": 1716,
      "扰": 1717,
      "扳": 1718,
      "扶": 1719,
      "批": 1720,
      "扼": 1721,
      "找": 1722,
      "承": 1723,
      "技": 1724,
      "抄": 1725,
      "抉": 1726,
      "把": 1727,
      "抑": 1728,
      "抒": 1729,
      "抓": 1730,
      "投": 1731,
      "抖": 1732,
      "抗": 1733,
      "折": 1734,
      "抚": 1735,
      "抛": 1736,
      "抠": 1737,
      "抢": 1738,
      "护": 1739,
      "报": 1740,
      "抨": 1741,
      "披": 1742,
      "抬": 1743,
      "抱": 1744,
      "抵": 1745,
      "抹": 1746,
      "押": 1747,
      "抽": 1748,
      "抿": 1749,
      "拂": 1750,
      "担": 1751,
      "拆": 1752,
      "拇": 1753,
      "拉": 1754,
      "拌": 1755,
      "拍": 1756,
      "拎": 1757,
      "拐": 1758,
      "拒": 1759,
      "拓": 1760,
      "拔": 1761,
      "拖": 1762,
      "拘": 1763,
      "拙": 1764,
      "招": 1765,
      "拜": 1766,
      "拟": 1767,
      "拢": 1768,
      "拣": 1769,
      "拥": 1770,
      "拦": 1771,
      "拧": 1772,
      "拨": 1773,
      "择": 1774,
      "括": 1775,
      "拭": 1776,
      "拮": 1777,
      "拯": 1778,
      "拱": 1779,
      "拳": 1780,
      "拷": 1781,
      "拼": 1782,
      "拽": 1783,
      "拾": 1784,
      "拿": 1785,
      "持": 1786,
      "挂": 1787,
      "指": 1788,
      "按": 1789,
      "挑": 1790,
      "挖": 1791,
      "挚": 1792,
      "挛": 1793,
      "挝": 1794,
      "挞": 1795,
      "挟": 1796,
      "挠": 1797,
      "挡": 1798,
      "挣": 1799,
      "挤": 1800,
      "挥": 1801,
      "挨": 1802,
      "挪": 1803,
      "挫": 1804,
      "振": 1805,
      "挺": 1806,
      "挽": 1807,
      "捂": 1808,
      "捅": 1809,
      "捆": 1810,
      "捉": 1811,
      "捍": 1812,
      "捏": 1813,
      "捐": 1814,
      "捕": 1815,
      "捞": 1816,
      "损": 1817,
      "捡": 1818,
      "换": 1819,
      "捣": 1820,
      "捧": 1821,
      "据": 1822,
      "捷": 1823,
      "捺": 1824,
      "捻": 1825,
      "掀": 1826,
      "授": 1827,
      "掉": 1828,
      "掌": 1829,
      "掏": 1830,
      "掐": 1831,
      "排": 1832,
      "掖": 1833,
      "掘": 1834,
      "掠": 1835,
      "探": 1836,
      "接": 1837,
      "控": 1838,
      "推": 1839,
      "掩": 1840,
      "措": 1841,
      "掰": 1842,
      "掷": 1843,
      "掺": 1844,
      "揉": 1845,
      "揍": 1846,
      "描": 1847,
      "提": 1848,
      "插": 1849,
      "換": 1850,
      "握": 1851,
      "揣": 1852,
      "揪": 1853,
      "揭": 1854,
      "揮": 1855,
      "援": 1856,
      "揽": 1857,
      "搀": 1858,
      "搁": 1859,
      "搂": 1860,
      "搅": 1861,
      "損": 1862,
      "搏": 1863,
      "搐": 1864,
      "搓": 1865,
      "搜": 1866,
      "搞": 1867,
      "搪": 1868,
      "搬": 1869,
      "搭": 1870,
      "携": 1871,
      "摄": 1872,
      "摆": 1873,
      "摇": 1874,
      "摊": 1875,
      "摒": 1876,
      "摔": 1877,
      "摘": 1878,
      "摧": 1879,
      "摩": 1880,
      "摸": 1881,
      "摹": 1882,
      "撇": 1883,
      "撑": 1884,
      "撒": 1885,
      "撕": 1886,
      "撞": 1887,
      "撤": 1888,
      "撩": 1889,
      "撬": 1890,
      "播": 1891,
      "撮": 1892,
      "撰": 1893,
      "撸": 1894,
      "撼": 1895,
      "擀": 1896,
      "擁": 1897,
      "擂": 1898,
      "擅": 1899,
      "擇": 1900,
      "擊": 1901,
      "操": 1902,
      "擎": 1903,
      "擒": 1904,
      "擔": 1905,
      "據": 1906,
      "擦": 1907,
      "攀": 1908,
      "攒": 1909,
      "攘": 1910,
      "支": 1911,
      "收": 1912,
      "攸": 1913,
      "改": 1914,
      "攻": 1915,
      "放": 1916,
      "政": 1917,
      "故": 1918,
      "效": 1919,
      "敌": 1920,
      "敏": 1921,
      "救": 1922,
      "敖": 1923,
      "教": 1924,
      "敛": 1925,
      "敞": 1926,
      "敢": 1927,
      "散": 1928,
      "敦": 1929,
      "敬": 1930,
      "数": 1931,
      "敲": 1932,
      "整": 1933,
      "敷": 1934,
      "數": 1935,
      "文": 1936,
      "斋": 1937,
      "斌": 1938,
      "斐": 1939,
      "斑": 1940,
      "斓": 1941,
      "斗": 1942,
      "料": 1943,
      "斛": 1944,
      "斜": 1945,
      "斟": 1946,
      "斤": 1947,
      "斥": 1948,
      "斧": 1949,
      "斩": 1950,
      "断": 1951,
      "斯": 1952,
      "新": 1953,
      "斷": 1954,
      "方": 1955,
      "於": 1956,
      "施": 1957,
      "旁": 1958,
      "旅": 1959,
      "旋": 1960,
      "旌": 1961,
      "族": 1962,
      "旗": 1963,
      "无": 1964,
      "既": 1965,
      "日": 1966,
      "旦": 1967,
      "旧": 1968,
      "旨": 1969,
      "早": 1970,
      "旬": 1971,
      "旭": 1972,
      "旱": 1973,
      "时": 1974,
      "旷": 1975,
      "旺": 1976,
      "昀": 1977,
      "昂": 1978,
      "昆": 1979,
      "昊": 1980,
      "昌": 1981,
      "明": 1982,
      "昏": 1983,
      "易": 1984,
      "昔": 1985,
      "昕": 1986,
      "昙": 1987,
      "星": 1988,
      "映": 1989,
      "春": 1990,
      "昧": 1991,
      "昨": 1992,
      "昭": 1993,
      "是": 1994,
      "昱": 1995,
      "昵": 1996,
      "昼": 1997,
      "显": 1998,
      "時": 1999,
      "晃": 2000,
      "晋": 2001,
      "晏": 2002,
      "晒": 2003,
      "晓": 2004,
      "晕": 2005,
      "晖": 2006,
      "晗": 2007,
      "晚": 2008,
      "晟": 2009,
      "晤": 2010,
      "晦": 2011,
      "晨": 2012,
      "普": 2013,
      "景": 2014,
      "晰": 2015,
      "晴": 2016,
      "晶": 2017,
      "智": 2018,
      "晾": 2019,
      "暂": 2020,
      "暇": 2021,
      "暑": 2022,
      "暖": 2023,
      "暗": 2024,
      "暧": 2025,
      "暨": 2026,
      "暮": 2027,
      "暴": 2028,
      "曙": 2029,
      "曜": 2030,
      "曝": 2031,
      "曦": 2032,
      "曩": 2033,
      "曰": 2034,
      "曲": 2035,
      "曳": 2036,
      "更": 2037,
      "書": 2038,
      "曹": 2039,
      "曼": 2040,
      "曾": 2041,
      "替": 2042,
      "最": 2043,
      "會": 2044,
      "月": 2045,
      "有": 2046,
      "朋": 2047,
      "服": 2048,
      "朔": 2049,
      "朕": 2050,
      "朗": 2051,
      "望": 2052,
      "朝": 2053,
      "期": 2054,
      "朦": 2055,
      "木": 2056,
      "未": 2057,
      "末": 2058,
      "本": 2059,
      "札": 2060,
      "术": 2061,
      "朱": 2062,
      "朴": 2063,
      "朵": 2064,
      "机": 2065,
      "朽": 2066,
      "杀": 2067,
      "杂": 2068,
      "权": 2069,
      "杆": 2070,
      "杉": 2071,
      "李": 2072,
      "杏": 2073,
      "材": 2074,
      "村": 2075,
      "杖": 2076,
      "杜": 2077,
      "杞": 2078,
      "束": 2079,
      "杠": 2080,
      "条": 2081,
      "来": 2082,
      "杨": 2083,
      "杭": 2084,
      "杯": 2085,
      "杰": 2086,
      "東": 2087,
      "杷": 2088,
      "松": 2089,
      "板": 2090,
      "极": 2091,
      "构": 2092,
      "枇": 2093,
      "枉": 2094,
      "析": 2095,
      "枕": 2096,
      "林": 2097,
      "枚": 2098,
      "果": 2099,
      "枝": 2100,
      "枢": 2101,
      "枣": 2102,
      "枪": 2103,
      "枫": 2104,
      "枭": 2105,
      "枯": 2106,
      "架": 2107,
      "枸": 2108,
      "柄": 2109,
      "柏": 2110,
      "某": 2111,
      "柑": 2112,
      "柒": 2113,
      "染": 2114,
      "柔": 2115,
      "柚": 2116,
      "柜": 2117,
      "柠": 2118,
      "查": 2119,
      "柬": 2120,
      "柯": 2121,
      "柱": 2122,
      "柳": 2123,
      "柴": 2124,
      "柿": 2125,
      "栀": 2126,
      "栅": 2127,
      "标": 2128,
      "栈": 2129,
      "栋": 2130,
      "栏": 2131,
      "树": 2132,
      "栓": 2133,
      "栖": 2134,
      "栗": 2135,
      "校": 2136,
      "栩": 2137,
      "株": 2138,
      "样": 2139,
      "核": 2140,
      "根": 2141,
      "格": 2142,
      "栽": 2143,
      "栾": 2144,
      "桁": 2145,
      "桂": 2146,
      "桃": 2147,
      "框": 2148,
      "案": 2149,
      "桌": 2150,
      "桐": 2151,
      "桑": 2152,
      "桓": 2153,
      "桔": 2154,
      "档": 2155,
      "桥": 2156,
      "桦": 2157,
      "桨": 2158,
      "桩": 2159,
      "桶": 2160,
      "桿": 2161,
      "梁": 2162,
      "梅": 2163,
      "梓": 2164,
      "梗": 2165,
      "條": 2166,
      "梢": 2167,
      "梦": 2168,
      "梧": 2169,
      "梨": 2170,
      "梭": 2171,
      "梯": 2172,
      "械": 2173,
      "梳": 2174,
      "梵": 2175,
      "检": 2176,
      "棉": 2177,
      "棋": 2178,
      "棍": 2179,
      "棒": 2180,
      "棕": 2181,
      "棘": 2182,
      "棚": 2183,
      "棠": 2184,
      "森": 2185,
      "棱": 2186,
      "棵": 2187,
      "棺": 2188,
      "椅": 2189,
      "植": 2190,
      "椎": 2191,
      "椒": 2192,
      "椭": 2193,
      "椰": 2194,
      "椿": 2195,
      "楂": 2196,
      "楔": 2197,
      "楚": 2198,
      "楞": 2199,
      "楠": 2200,
      "業": 2201,
      "極": 2202,
      "楷": 2203,
      "楼": 2204,
      "概": 2205,
      "榄": 2206,
      "榆": 2207,
      "榈": 2208,
      "榔": 2209,
      "榕": 2210,
      "榜": 2211,
      "榨": 2212,
      "榫": 2213,
      "榭": 2214,
      "榮": 2215,
      "榴": 2216,
      "榻": 2217,
      "槃": 2218,
      "構": 2219,
      "槌": 2220,
      "槐": 2221,
      "槛": 2222,
      "槟": 2223,
      "槽": 2224,
      "樂": 2225,
      "樊": 2226,
      "樑": 2227,
      "樓": 2228,
      "標": 2229,
      "樟": 2230,
      "模": 2231,
      "樣": 2232,
      "横": 2233,
      "樱": 2234,
      "樹": 2235,
      "樽": 2236,
      "樾": 2237,
      "橄": 2238,
      "橋": 2239,
      "橘": 2240,
      "橙": 2241,
      "機": 2242,
      "橡": 2243,
      "橱": 2244,
      "檀": 2245,
      "檐": 2246,
      "檢": 2247,
      "檬": 2248,
      "權": 2249,
      "欠": 2250,
      "次": 2251,
      "欢": 2252,
      "欣": 2253,
      "欧": 2254,
      "欲": 2255,
      "欺": 2256,
      "款": 2257,
      "歇": 2258,
      "歉": 2259,
      "歌": 2260,
      "歡": 2261,
      "止": 2262,
      "正": 2263,
      "此": 2264,
      "步": 2265,
      "武": 2266,
      "歧": 2267,
      "歪": 2268,
      "歷": 2269,
      "歹": 2270,
      "死": 2271,
      "歼": 2272,
      "殆": 2273,
      "殊": 2274,
      "残": 2275,
      "殖": 2276,
      "殡": 2277,
      "殴": 2278,
      "段": 2279,
      "殷": 2280,
      "殿": 2281,
      "毁": 2282,
      "毂": 2283,
      "毅": 2284,
      "毋": 2285,
      "母": 2286,
      "每": 2287,
      "毒": 2288,
      "毓": 2289,
      "比": 2290,
      "毕": 2291,
      "毗": 2292,
      "毙": 2293,
      "毛": 2294,
      "毡": 2295,
      "毫": 2296,
      "毯": 2297,
      "氏": 2298,
      "民": 2299,
      "氓": 2300,
      "气": 2301,
      "氙": 2302,
      "氛": 2303,
      "氟": 2304,
      "氢": 2305,
      "氣": 2306,
      "氦": 2307,
      "氧": 2308,
      "氨": 2309,
      "氩": 2310,
      "氪": 2311,
      "氮": 2312,
      "氯": 2313,
      "氰": 2314,
      "水": 2315,
      "永": 2316,
      "汀": 2317,
      "汁": 2318,
      "求": 2319,
      "汇": 2320,
      "汉": 2321,
      "汐": 2322,
      "汕": 2323,
      "汗": 2324,
      "汛": 2325,
      "汝": 2326,
      "汞": 2327,
      "江": 2328,
      "池": 2329,
      "污": 2330,
      "汤": 2331,
      "汪": 2332,
      "汰": 2333,
      "汲": 2334,
      "汶": 2335,
      "汹": 2336,
      "決": 2337,
      "汽": 2338,
      "汾": 2339,
      "沁": 2340,
      "沂": 2341,
      "沃": 2342,
      "沅": 2343,
      "沈": 2344,
      "沉": 2345,
      "沌": 2346,
      "沐": 2347,
      "沒": 2348,
      "沓": 2349,
      "沖": 2350,
      "沙": 2351,
      "沛": 2352,
      "沟": 2353,
      "没": 2354,
      "沣": 2355,
      "沥": 2356,
      "沦": 2357,
      "沧": 2358,
      "沪": 2359,
      "沫": 2360,
      "沮": 2361,
      "沱": 2362,
      "河": 2363,
      "沸": 2364,
      "油": 2365,
      "治": 2366,
      "沼": 2367,
      "沽": 2368,
      "沾": 2369,
      "沿": 2370,
      "況": 2371,
      "泄": 2372,
      "泉": 2373,
      "泊": 2374,
      "泌": 2375,
      "泓": 2376,
      "法": 2377,
      "泗": 2378,
      "泛": 2379,
      "泞": 2380,
      "泡": 2381,
      "波": 2382,
      "泣": 2383,
      "泥": 2384,
      "注": 2385,
      "泪": 2386,
      "泯": 2387,
      "泰": 2388,
      "泳": 2389,
      "泵": 2390,
      "泸": 2391,
      "泻": 2392,
      "泼": 2393,
      "泽": 2394,
      "泾": 2395,
      "洁": 2396,
      "洋": 2397,
      "洒": 2398,
      "洗": 2399,
      "洛": 2400,
      "洞": 2401,
      "津": 2402,
      "洪": 2403,
      "洱": 2404,
      "洲": 2405,
      "活": 2406,
      "洼": 2407,
      "洽": 2408,
      "派": 2409,
      "流": 2410,
      "浅": 2411,
      "浆": 2412,
      "浇": 2413,
      "浊": 2414,
      "测": 2415,
      "济": 2416,
      "浏": 2417,
      "浑": 2418,
      "浒": 2419,
      "浓": 2420,
      "浔": 2421,
      "浙": 2422,
      "浚": 2423,
      "浜": 2424,
      "浣": 2425,
      "浦": 2426,
      "浩": 2427,
      "浪": 2428,
      "浮": 2429,
      "浴": 2430,
      "海": 2431,
      "浸": 2432,
      "涂": 2433,
      "涅": 2434,
      "消": 2435,
      "涉": 2436,
      "涌": 2437,
      "涎": 2438,
      "涓": 2439,
      "涕": 2440,
      "涛": 2441,
      "涝": 2442,
      "涟": 2443,
      "涡": 2444,
      "涣": 2445,
      "涤": 2446,
      "润": 2447,
      "涧": 2448,
      "涨": 2449,
      "涩": 2450,
      "涪": 2451,
      "涮": 2452,
      "涯": 2453,
      "液": 2454,
      "涵": 2455,
      "淀": 2456,
      "淄": 2457,
      "淅": 2458,
      "淆": 2459,
      "淇": 2460,
      "淋": 2461,
      "淌": 2462,
      "淑": 2463,
      "淘": 2464,
      "淡": 2465,
      "淤": 2466,
      "淫": 2467,
      "淬": 2468,
      "淮": 2469,
      "深": 2470,
      "淳": 2471,
      "混": 2472,
      "淹": 2473,
      "添": 2474,
      "淼": 2475,
      "清": 2476,
      "渊": 2477,
      "渍": 2478,
      "渎": 2479,
      "渐": 2480,
      "渔": 2481,
      "渗": 2482,
      "渚": 2483,
      "減": 2484,
      "渝": 2485,
      "渠": 2486,
      "渡": 2487,
      "渣": 2488,
      "渤": 2489,
      "温": 2490,
      "測": 2491,
      "渭": 2492,
      "港": 2493,
      "渲": 2494,
      "渴": 2495,
      "游": 2496,
      "渺": 2497,
      "湃": 2498,
      "湄": 2499,
      "湍": 2500,
      "湖": 2501,
      "湘": 2502,
      "湛": 2503,
      "湾": 2504,
      "湿": 2505,
      "溃": 2506,
      "溅": 2507,
      "溉": 2508,
      "源": 2509,
      "準": 2510,
      "溜": 2511,
      "溝": 2512,
      "溢": 2513,
      "溧": 2514,
      "溪": 2515,
      "溫": 2516,
      "溯": 2517,
      "溴": 2518,
      "溶": 2519,
      "溺": 2520,
      "滁": 2521,
      "滇": 2522,
      "滋": 2523,
      "滑": 2524,
      "滔": 2525,
      "滕": 2526,
      "滚": 2527,
      "滞": 2528,
      "满": 2529,
      "滤": 2530,
      "滥": 2531,
      "滨": 2532,
      "滩": 2533,
      "滴": 2534,
      "滿": 2535,
      "漂": 2536,
      "漆": 2537,
      "漏": 2538,
      "漓": 2539,
      "演": 2540,
      "漠": 2541,
      "漢": 2542,
      "漩": 2543,
      "漪": 2544,
      "漫": 2545,
      "漯": 2546,
      "漱": 2547,
      "漳": 2548,
      "漾": 2549,
      "潇": 2550,
      "潍": 2551,
      "潔": 2552,
      "潘": 2553,
      "潜": 2554,
      "潢": 2555,
      "潤": 2556,
      "潭": 2557,
      "潮": 2558,
      "潺": 2559,
      "潼": 2560,
      "澄": 2561,
      "澈": 2562,
      "澎": 2563,
      "澜": 2564,
      "澡": 2565,
      "澳": 2566,
      "激": 2567,
      "濑": 2568,
      "濒": 2569,
      "濕": 2570,
      "濟": 2571,
      "濠": 2572,
      "濡": 2573,
      "濮": 2574,
      "濯": 2575,
      "濾": 2576,
      "瀑": 2577,
      "瀚": 2578,
      "瀛": 2579,
      "灌": 2580,
      "火": 2581,
      "灭": 2582,
      "灯": 2583,
      "灰": 2584,
      "灵": 2585,
      "灶": 2586,
      "灸": 2587,
      "灼": 2588,
      "灾": 2589,
      "灿": 2590,
      "炅": 2591,
      "炉": 2592,
      "炊": 2593,
      "炎": 2594,
      "炒": 2595,
      "炖": 2596,
      "炙": 2597,
      "炜": 2598,
      "炫": 2599,
      "炬": 2600,
      "炭": 2601,
      "炮": 2602,
      "炯": 2603,
      "炳": 2604,
      "炸": 2605,
      "点": 2606,
      "為": 2607,
      "炼": 2608,
      "炽": 2609,
      "烁": 2610,
      "烂": 2611,
      "烃": 2612,
      "烈": 2613,
      "烊": 2614,
      "烘": 2615,
      "烙": 2616,
      "烛": 2617,
      "烟": 2618,
      "烤": 2619,
      "烦": 2620,
      "烧": 2621,
      "烨": 2622,
      "烩": 2623,
      "烫": 2624,
      "烬": 2625,
      "热": 2626,
      "烯": 2627,
      "烷": 2628,
      "烹": 2629,
      "烽": 2630,
      "焉": 2631,
      "焊": 2632,
      "焕": 2633,
      "焖": 2634,
      "焙": 2635,
      "焚": 2636,
      "無": 2637,
      "焦": 2638,
      "焯": 2639,
      "焰": 2640,
      "焱": 2641,
      "然": 2642,
      "煅": 2643,
      "煌": 2644,
      "煎": 2645,
      "煙": 2646,
      "煜": 2647,
      "煞": 2648,
      "煤": 2649,
      "煦": 2650,
      "照": 2651,
      "煮": 2652,
      "煲": 2653,
      "煸": 2654,
      "煽": 2655,
      "熄": 2656,
      "熊": 2657,
      "熏": 2658,
      "熔": 2659,
      "熙": 2660,
      "熟": 2661,
      "熠": 2662,
      "熨": 2663,
      "熬": 2664,
      "熱": 2665,
      "熵": 2666,
      "熹": 2667,
      "燃": 2668,
      "燈": 2669,
      "燎": 2670,
      "燒": 2671,
      "燕": 2672,
      "營": 2673,
      "燥": 2674,
      "爆": 2675,
      "爐": 2676,
      "爪": 2677,
      "爬": 2678,
      "爭": 2679,
      "爱": 2680,
      "爵": 2681,
      "父": 2682,
      "爷": 2683,
      "爸": 2684,
      "爹": 2685,
      "爻": 2686,
      "爽": 2687,
      "爾": 2688,
      "片": 2689,
      "版": 2690,
      "牌": 2691,
      "牙": 2692,
      "牛": 2693,
      "牟": 2694,
      "牡": 2695,
      "牢": 2696,
      "牧": 2697,
      "物": 2698,
      "牲": 2699,
      "牵": 2700,
      "特": 2701,
      "牺": 2702,
      "犀": 2703,
      "犁": 2704,
      "犬": 2705,
      "犯": 2706,
      "状": 2707,
      "犷": 2708,
      "犹": 2709,
      "狀": 2710,
      "狂": 2711,
      "狄": 2712,
      "狈": 2713,
      "狐": 2714,
      "狗": 2715,
      "狙": 2716,
      "狠": 2717,
      "狡": 2718,
      "狩": 2719,
      "独": 2720,
      "狭": 2721,
      "狮": 2722,
      "狱": 2723,
      "狸": 2724,
      "狼": 2725,
      "猎": 2726,
      "猕": 2727,
      "猛": 2728,
      "猜": 2729,
      "猝": 2730,
      "猩": 2731,
      "猪": 2732,
      "猫": 2733,
      "献": 2734,
      "猴": 2735,
      "猿": 2736,
      "獎": 2737,
      "獨": 2738,
      "獲": 2739,
      "玄": 2740,
      "率": 2741,
      "玉": 2742,
      "王": 2743,
      "玑": 2744,
      "玖": 2745,
      "玛": 2746,
      "玥": 2747,
      "玩": 2748,
      "玫": 2749,
      "玮": 2750,
      "环": 2751,
      "现": 2752,
      "玲": 2753,
      "玺": 2754,
      "玻": 2755,
      "珀": 2756,
      "珂": 2757,
      "珊": 2758,
      "珍": 2759,
      "珑": 2760,
      "珞": 2761,
      "珠": 2762,
      "珩": 2763,
      "班": 2764,
      "現": 2765,
      "球": 2766,
      "琅": 2767,
      "理": 2768,
      "琉": 2769,
      "琐": 2770,
      "琛": 2771,
      "琢": 2772,
      "琥": 2773,
      "琦": 2774,
      "琪": 2775,
      "琳": 2776,
      "琴": 2777,
      "琵": 2778,
      "琶": 2779,
      "琼": 2780,
      "瑕": 2781,
      "瑙": 2782,
      "瑚": 2783,
      "瑛": 2784,
      "瑜": 2785,
      "瑞": 2786,
      "瑟": 2787,
      "瑰": 2788,
      "瑶": 2789,
      "瑾": 2790,
      "璀": 2791,
      "璃": 2792,
      "璇": 2793,
      "璋": 2794,
      "璐": 2795,
      "璞": 2796,
      "璟": 2797,
      "璧": 2798,
      "璨": 2799,
      "環": 2800,
      "瓜": 2801,
      "瓢": 2802,
      "瓣": 2803,
      "瓦": 2804,
      "瓯": 2805,
      "瓶": 2806,
      "瓷": 2807,
      "甄": 2808,
      "甘": 2809,
      "甚": 2810,
      "甜": 2811,
      "生": 2812,
      "產": 2813,
      "用": 2814,
      "甩": 2815,
      "甫": 2816,
      "甬": 2817,
      "田": 2818,
      "由": 2819,
      "甲": 2820,
      "申": 2821,
      "电": 2822,
      "男": 2823,
      "甸": 2824,
      "町": 2825,
      "画": 2826,
      "畅": 2827,
      "界": 2828,
      "畏": 2829,
      "畔": 2830,
      "留": 2831,
      "畜": 2832,
      "略": 2833,
      "番": 2834,
      "畫": 2835,
      "異": 2836,
      "畴": 2837,
      "當": 2838,
      "畸": 2839,
      "疆": 2840,
      "疏": 2841,
      "疑": 2842,
      "疗": 2843,
      "疙": 2844,
      "疚": 2845,
      "疡": 2846,
      "疣": 2847,
      "疤": 2848,
      "疫": 2849,
      "疮": 2850,
      "疯": 2851,
      "疱": 2852,
      "疲": 2853,
      "疵": 2854,
      "疹": 2855,
      "疼": 2856,
      "疾": 2857,
      "痂": 2858,
      "病": 2859,
      "症": 2860,
      "痉": 2861,
      "痊": 2862,
      "痒": 2863,
      "痔": 2864,
      "痕": 2865,
      "痘": 2866,
      "痛": 2867,
      "痢": 2868,
      "痣": 2869,
      "痤": 2870,
      "痪": 2871,
      "痫": 2872,
      "痰": 2873,
      "痴": 2874,
      "痹": 2875,
      "瘀": 2876,
      "瘙": 2877,
      "瘟": 2878,
      "瘠": 2879,
      "瘢": 2880,
      "瘤": 2881,
      "瘦": 2882,
      "瘩": 2883,
      "瘫": 2884,
      "瘾": 2885,
      "療": 2886,
      "癌": 2887,
      "癖": 2888,
      "癜": 2889,
      "癣": 2890,
      "癫": 2891,
      "癸": 2892,
      "登": 2893,
      "發": 2894,
      "白": 2895,
      "百": 2896,
      "皂": 2897,
      "的": 2898,
      "皆": 2899,
      "皇": 2900,
      "皋": 2901,
      "皎": 2902,
      "皑": 2903,
      "皓": 2904,
      "皖": 2905,
      "皙": 2906,
      "皮": 2907,
      "皱": 2908,
      "皿": 2909,
      "盆": 2910,
      "盈": 2911,
      "益": 2912,
      "盎": 2913,
      "盏": 2914,
      "盐": 2915,
      "监": 2916,
      "盒": 2917,
      "盔": 2918,
      "盖": 2919,
      "盗": 2920,
      "盘": 2921,
      "盛": 2922,
      "盟": 2923,
      "盡": 2924,
      "監": 2925,
      "盤": 2926,
      "目": 2927,
      "盯": 2928,
      "盱": 2929,
      "盲": 2930,
      "直": 2931,
      "相": 2932,
      "盼": 2933,
      "盾": 2934,
      "省": 2935,
      "眉": 2936,
      "看": 2937,
      "眙": 2938,
      "真": 2939,
      "眠": 2940,
      "眨": 2941,
      "眩": 2942,
      "眯": 2943,
      "眶": 2944,
      "眷": 2945,
      "眸": 2946,
      "眺": 2947,
      "眼": 2948,
      "眾": 2949,
      "着": 2950,
      "睁": 2951,
      "睐": 2952,
      "睑": 2953,
      "睛": 2954,
      "睡": 2955,
      "督": 2956,
      "睦": 2957,
      "睫": 2958,
      "睹": 2959,
      "睾": 2960,
      "睿": 2961,
      "瞄": 2962,
      "瞅": 2963,
      "瞎": 2964,
      "瞒": 2965,
      "瞥": 2966,
      "瞧": 2967,
      "瞩": 2968,
      "瞪": 2969,
      "瞬": 2970,
      "瞰": 2971,
      "瞳": 2972,
      "瞻": 2973,
      "矗": 2974,
      "矛": 2975,
      "矢": 2976,
      "矣": 2977,
      "知": 2978,
      "矩": 2979,
      "矫": 2980,
      "短": 2981,
      "矮": 2982,
      "石": 2983,
      "矶": 2984,
      "矿": 2985,
      "码": 2986,
      "砂": 2987,
      "砌": 2988,
      "砍": 2989,
      "研": 2990,
      "砖": 2991,
      "砚": 2992,
      "砝": 2993,
      "砥": 2994,
      "砧": 2995,
      "砰": 2996,
      "破": 2997,
      "砷": 2998,
      "砸": 2999,
      "砺": 3000,
      "砼": 3001,
      "砾": 3002,
      "础": 3003,
      "硅": 3004,
      "硒": 3005,
      "硕": 3006,
      "硝": 3007,
      "硫": 3008,
      "硬": 3009,
      "确": 3010,
      "硼": 3011,
      "碌": 3012,
      "碍": 3013,
      "碎": 3014,
      "碑": 3015,
      "碗": 3016,
      "碘": 3017,
      "碟": 3018,
      "碧": 3019,
      "碰": 3020,
      "碱": 3021,
      "碳": 3022,
      "確": 3023,
      "碼": 3024,
      "碾": 3025,
      "磁": 3026,
      "磅": 3027,
      "磊": 3028,
      "磋": 3029,
      "磐": 3030,
      "磕": 3031,
      "磨": 3032,
      "磷": 3033,
      "磺": 3034,
      "礁": 3035,
      "礎": 3036,
      "礦": 3037,
      "礴": 3038,
      "示": 3039,
      "礼": 3040,
      "社": 3041,
      "祀": 3042,
      "祁": 3043,
      "祂": 3044,
      "祈": 3045,
      "祉": 3046,
      "祎": 3047,
      "祖": 3048,
      "祛": 3049,
      "祝": 3050,
      "神": 3051,
      "祟": 3052,
      "祠": 3053,
      "祥": 3054,
      "票": 3055,
      "祭": 3056,
      "祯": 3057,
      "祷": 3058,
      "祸": 3059,
      "祺": 3060,
      "禀": 3061,
      "禁": 3062,
      "禄": 3063,
      "禅": 3064,
      "福": 3065,
      "禧": 3066,
      "禮": 3067,
      "禹": 3068,
      "禺": 3069,
      "离": 3070,
      "禽": 3071,
      "禾": 3072,
      "秀": 3073,
      "私": 3074,
      "秃": 3075,
      "秆": 3076,
      "秉": 3077,
      "秋": 3078,
      "种": 3079,
      "科": 3080,
      "秒": 3081,
      "秘": 3082,
      "租": 3083,
      "秤": 3084,
      "秦": 3085,
      "秧": 3086,
      "秩": 3087,
      "积": 3088,
      "称": 3089,
      "秸": 3090,
      "移": 3091,
      "秽": 3092,
      "稀": 3093,
      "稅": 3094,
      "程": 3095,
      "稍": 3096,
      "税": 3097,
      "稚": 3098,
      "稞": 3099,
      "稠": 3100,
      "稣": 3101,
      "種": 3102,
      "稱": 3103,
      "稳": 3104,
      "稷": 3105,
      "稻": 3106,
      "稼": 3107,
      "稽": 3108,
      "稿": 3109,
      "穆": 3110,
      "積": 3111,
      "穗": 3112,
      "穩": 3113,
      "穴": 3114,
      "究": 3115,
      "穷": 3116,
      "穹": 3117,
      "空": 3118,
      "穿": 3119,
      "突": 3120,
      "窃": 3121,
      "窄": 3122,
      "窍": 3123,
      "窑": 3124,
      "窒": 3125,
      "窖": 3126,
      "窗": 3127,
      "窘": 3128,
      "窜": 3129,
      "窝": 3130,
      "窟": 3131,
      "窥": 3132,
      "窦": 3133,
      "立": 3134,
      "竖": 3135,
      "站": 3136,
      "竞": 3137,
      "竟": 3138,
      "章": 3139,
      "竣": 3140,
      "童": 3141,
      "竭": 3142,
      "端": 3143,
      "競": 3144,
      "竹": 3145,
      "竺": 3146,
      "竿": 3147,
      "笃": 3148,
      "笋": 3149,
      "笑": 3150,
      "笔": 3151,
      "笙": 3152,
      "笛": 3153,
      "笠": 3154,
      "符": 3155,
      "笨": 3156,
      "第": 3157,
      "笼": 3158,
      "等": 3159,
      "筋": 3160,
      "筏": 3161,
      "筐": 3162,
      "筑": 3163,
      "筒": 3164,
      "答": 3165,
      "策": 3166,
      "筛": 3167,
      "筝": 3168,
      "筱": 3169,
      "筷": 3170,
      "筹": 3171,
      "签": 3172,
      "简": 3173,
      "箍": 3174,
      "箔": 3175,
      "算": 3176,
      "管": 3177,
      "箭": 3178,
      "箱": 3179,
      "節": 3180,
      "篆": 3181,
      "篇": 3182,
      "篝": 3183,
      "篡": 3184,
      "篮": 3185,
      "篱": 3186,
      "篷": 3187,
      "簇": 3188,
      "簡": 3189,
      "簧": 3190,
      "簸": 3191,
      "簽": 3192,
      "簿": 3193,
      "籁": 3194,
      "籍": 3195,
      "米": 3196,
      "类": 3197,
      "籽": 3198,
      "粉": 3199,
      "粑": 3200,
      "粒": 3201,
      "粕": 3202,
      "粗": 3203,
      "粘": 3204,
      "粟": 3205,
      "粤": 3206,
      "粥": 3207,
      "粪": 3208,
      "粮": 3209,
      "粱": 3210,
      "粳": 3211,
      "粹": 3212,
      "粼": 3213,
      "粽": 3214,
      "精": 3215,
      "糅": 3216,
      "糊": 3217,
      "糕": 3218,
      "糖": 3219,
      "糙": 3220,
      "糜": 3221,
      "糟": 3222,
      "糠": 3223,
      "糯": 3224,
      "系": 3225,
      "約": 3226,
      "紅": 3227,
      "紊": 3228,
      "紋": 3229,
      "納": 3230,
      "紙": 3231,
      "級": 3232,
      "素": 3233,
      "索": 3234,
      "紧": 3235,
      "紫": 3236,
      "累": 3237,
      "細": 3238,
      "紹": 3239,
      "終": 3240,
      "組": 3241,
      "結": 3242,
      "絕": 3243,
      "絡": 3244,
      "給": 3245,
      "絮": 3246,
      "統": 3247,
      "絲": 3248,
      "經": 3249,
      "綜": 3250,
      "綠": 3251,
      "維": 3252,
      "網": 3253,
      "緊": 3254,
      "線": 3255,
      "緣": 3256,
      "編": 3257,
      "縣": 3258,
      "縫": 3259,
      "縮": 3260,
      "總": 3261,
      "繁": 3262,
      "織": 3263,
      "繼": 3264,
      "纂": 3265,
      "續": 3266,
      "纜": 3267,
      "纠": 3268,
      "红": 3269,
      "纤": 3270,
      "约": 3271,
      "级": 3272,
      "纪": 3273,
      "纫": 3274,
      "纬": 3275,
      "纭": 3276,
      "纯": 3277,
      "纱": 3278,
      "纲": 3279,
      "纳": 3280,
      "纵": 3281,
      "纶": 3282,
      "纷": 3283,
      "纸": 3284,
      "纹": 3285,
      "纺": 3286,
      "纽": 3287,
      "纾": 3288,
      "线": 3289,
      "练": 3290,
      "组": 3291,
      "绅": 3292,
      "细": 3293,
      "织": 3294,
      "终": 3295,
      "绊": 3296,
      "绍": 3297,
      "绎": 3298,
      "经": 3299,
      "绑": 3300,
      "绒": 3301,
      "结": 3302,
      "绕": 3303,
      "绘": 3304,
      "给": 3305,
      "绚": 3306,
      "络": 3307,
      "绝": 3308,
      "绞": 3309,
      "统": 3310,
      "绣": 3311,
      "绥": 3312,
      "继": 3313,
      "绩": 3314,
      "绪": 3315,
      "绫": 3316,
      "续": 3317,
      "绮": 3318,
      "绯": 3319,
      "绰": 3320,
      "绳": 3321,
      "维": 3322,
      "绵": 3323,
      "绷": 3324,
      "绸": 3325,
      "综": 3326,
      "绽": 3327,
      "绾": 3328,
      "绿": 3329,
      "缀": 3330,
      "缅": 3331,
      "缆": 3332,
      "缇": 3333,
      "缉": 3334,
      "缎": 3335,
      "缓": 3336,
      "缔": 3337,
      "缕": 3338,
      "编": 3339,
      "缘": 3340,
      "缚": 3341,
      "缜": 3342,
      "缝": 3343,
      "缠": 3344,
      "缤": 3345,
      "缨": 3346,
      "缩": 3347,
      "缪": 3348,
      "缭": 3349,
      "缮": 3350,
      "缴": 3351,
      "缸": 3352,
      "缺": 3353,
      "罄": 3354,
      "罐": 3355,
      "网": 3356,
      "罕": 3357,
      "罗": 3358,
      "罚": 3359,
      "罡": 3360,
      "罢": 3361,
      "罩": 3362,
      "罪": 3363,
      "置": 3364,
      "署": 3365,
      "罹": 3366,
      "羁": 3367,
      "羊": 3368,
      "羌": 3369,
      "美": 3370,
      "羔": 3371,
      "羚": 3372,
      "羞": 3373,
      "羟": 3374,
      "羡": 3375,
      "群": 3376,
      "義": 3377,
      "羯": 3378,
      "羲": 3379,
      "羹": 3380,
      "羽": 3381,
      "羿": 3382,
      "翁": 3383,
      "翅": 3384,
      "翌": 3385,
      "習": 3386,
      "翔": 3387,
      "翘": 3388,
      "翟": 3389,
      "翠": 3390,
      "翡": 3391,
      "翩": 3392,
      "翰": 3393,
      "翱": 3394,
      "翻": 3395,
      "翼": 3396,
      "耀": 3397,
      "老": 3398,
      "考": 3399,
      "者": 3400,
      "而": 3401,
      "耍": 3402,
      "耐": 3403,
      "耕": 3404,
      "耗": 3405,
      "耘": 3406,
      "耙": 3407,
      "耦": 3408,
      "耳": 3409,
      "耶": 3410,
      "耸": 3411,
      "耻": 3412,
      "耽": 3413,
      "耿": 3414,
      "聂": 3415,
      "聆": 3416,
      "聊": 3417,
      "聋": 3418,
      "职": 3419,
      "联": 3420,
      "聘": 3421,
      "聚": 3422,
      "聞": 3423,
      "聪": 3424,
      "聯": 3425,
      "聲": 3426,
      "職": 3427,
      "肃": 3428,
      "肆": 3429,
      "肇": 3430,
      "肉": 3431,
      "肋": 3432,
      "肌": 3433,
      "肖": 3434,
      "肘": 3435,
      "肚": 3436,
      "肛": 3437,
      "肝": 3438,
      "肠": 3439,
      "股": 3440,
      "肢": 3441,
      "肤": 3442,
      "肥": 3443,
      "肩": 3444,
      "肪": 3445,
      "肯": 3446,
      "育": 3447,
      "肴": 3448,
      "肺": 3449,
      "肽": 3450,
      "肾": 3451,
      "肿": 3452,
      "胀": 3453,
      "胁": 3454,
      "胃": 3455,
      "胆": 3456,
      "背": 3457,
      "胎": 3458,
      "胖": 3459,
      "胚": 3460,
      "胜": 3461,
      "胞": 3462,
      "胡": 3463,
      "胤": 3464,
      "胧": 3465,
      "胰": 3466,
      "胱": 3467,
      "胳": 3468,
      "胶": 3469,
      "胸": 3470,
      "胺": 3471,
      "能": 3472,
      "脂": 3473,
      "脆": 3474,
      "脉": 3475,
      "脊": 3476,
      "脏": 3477,
      "脐": 3478,
      "脑": 3479,
      "脓": 3480,
      "脖": 3481,
      "脚": 3482,
      "脫": 3483,
      "脯": 3484,
      "脱": 3485,
      "脲": 3486,
      "脸": 3487,
      "脾": 3488,
      "腈": 3489,
      "腊": 3490,
      "腋": 3491,
      "腌": 3492,
      "腐": 3493,
      "腑": 3494,
      "腔": 3495,
      "腕": 3496,
      "腥": 3497,
      "腦": 3498,
      "腩": 3499,
      "腮": 3500,
      "腰": 3501,
      "腱": 3502,
      "腹": 3503,
      "腺": 3504,
      "腻": 3505,
      "腾": 3506,
      "腿": 3507,
      "膀": 3508,
      "膊": 3509,
      "膏": 3510,
      "膛": 3511,
      "膜": 3512,
      "膝": 3513,
      "膠": 3514,
      "膨": 3515,
      "膳": 3516,
      "膺": 3517,
      "臀": 3518,
      "臂": 3519,
      "臣": 3520,
      "臧": 3521,
      "臨": 3522,
      "自": 3523,
      "臭": 3524,
      "至": 3525,
      "致": 3526,
      "臺": 3527,
      "臻": 3528,
      "舅": 3529,
      "舆": 3530,
      "與": 3531,
      "興": 3532,
      "舉": 3533,
      "舌": 3534,
      "舍": 3535,
      "舒": 3536,
      "舔": 3537,
      "舜": 3538,
      "舞": 3539,
      "舟": 3540,
      "航": 3541,
      "般": 3542,
      "舰": 3543,
      "舱": 3544,
      "舵": 3545,
      "舶": 3546,
      "船": 3547,
      "艇": 3548,
      "艘": 3549,
      "艮": 3550,
      "良": 3551,
      "艰": 3552,
      "色": 3553,
      "艳": 3554,
      "艺": 3555,
      "艾": 3556,
      "节": 3557,
      "芊": 3558,
      "芋": 3559,
      "芍": 3560,
      "芒": 3561,
      "芙": 3562,
      "芜": 3563,
      "芝": 3564,
      "芡": 3565,
      "芥": 3566,
      "芦": 3567,
      "芪": 3568,
      "芬": 3569,
      "芭": 3570,
      "芮": 3571,
      "芯": 3572,
      "花": 3573,
      "芳": 3574,
      "芷": 3575,
      "芸": 3576,
      "芹": 3577,
      "芽": 3578,
      "苇": 3579,
      "苍": 3580,
      "苏": 3581,
      "苑": 3582,
      "苒": 3583,
      "苓": 3584,
      "苔": 3585,
      "苗": 3586,
      "苛": 3587,
      "苞": 3588,
      "苟": 3589,
      "若": 3590,
      "苦": 3591,
      "苯": 3592,
      "英": 3593,
      "苷": 3594,
      "苹": 3595,
      "茁": 3596,
      "茂": 3597,
      "范": 3598,
      "茄": 3599,
      "茅": 3600,
      "茉": 3601,
      "茎": 3602,
      "茗": 3603,
      "茜": 3604,
      "茧": 3605,
      "茨": 3606,
      "茫": 3607,
      "茬": 3608,
      "茯": 3609,
      "茵": 3610,
      "茶": 3611,
      "茸": 3612,
      "茹": 3613,
      "荀": 3614,
      "荆": 3615,
      "草": 3616,
      "荐": 3617,
      "荒": 3618,
      "荔": 3619,
      "荚": 3620,
      "荞": 3621,
      "荟": 3622,
      "荡": 3623,
      "荣": 3624,
      "荤": 3625,
      "荧": 3626,
      "荨": 3627,
      "荫": 3628,
      "药": 3629,
      "荷": 3630,
      "荼": 3631,
      "莅": 3632,
      "莆": 3633,
      "莉": 3634,
      "莎": 3635,
      "莓": 3636,
      "莘": 3637,
      "莞": 3638,
      "莠": 3639,
      "莫": 3640,
      "莱": 3641,
      "莲": 3642,
      "获": 3643,
      "莹": 3644,
      "莺": 3645,
      "莽": 3646,
      "菁": 3647,
      "菇": 3648,
      "菊": 3649,
      "菌": 3650,
      "菏": 3651,
      "菜": 3652,
      "菠": 3653,
      "菩": 3654,
      "華": 3655,
      "菱": 3656,
      "菲": 3657,
      "萃": 3658,
      "萄": 3659,
      "萌": 3660,
      "萍": 3661,
      "萎": 3662,
      "萝": 3663,
      "萤": 3664,
      "营": 3665,
      "萦": 3666,
      "萧": 3667,
      "萨": 3668,
      "萬": 3669,
      "萱": 3670,
      "落": 3671,
      "葆": 3672,
      "葉": 3673,
      "著": 3674,
      "葚": 3675,
      "葛": 3676,
      "葡": 3677,
      "董": 3678,
      "葩": 3679,
      "葫": 3680,
      "葬": 3681,
      "葱": 3682,
      "葵": 3683,
      "蒂": 3684,
      "蒋": 3685,
      "蒙": 3686,
      "蒜": 3687,
      "蒲": 3688,
      "蒸": 3689,
      "蒿": 3690,
      "蓄": 3691,
      "蓉": 3692,
      "蓋": 3693,
      "蓐": 3694,
      "蓓": 3695,
      "蓝": 3696,
      "蓬": 3697,
      "蔑": 3698,
      "蔓": 3699,
      "蔗": 3700,
      "蔚": 3701,
      "蔡": 3702,
      "蔬": 3703,
      "蔷": 3704,
      "蔻": 3705,
      "蔼": 3706,
      "蔽": 3707,
      "蕃": 3708,
      "蕉": 3709,
      "蕊": 3710,
      "蕨": 3711,
      "蕴": 3712,
      "蕾": 3713,
      "薄": 3714,
      "薇": 3715,
      "薏": 3716,
      "薛": 3717,
      "薪": 3718,
      "薯": 3719,
      "薰": 3720,
      "藉": 3721,
      "藏": 3722,
      "藓": 3723,
      "藕": 3724,
      "藜": 3725,
      "藝": 3726,
      "藤": 3727,
      "藥": 3728,
      "藩": 3729,
      "藻": 3730,
      "蘇": 3731,
      "蘑": 3732,
      "蘭": 3733,
      "蘸": 3734,
      "虎": 3735,
      "虏": 3736,
      "虐": 3737,
      "虑": 3738,
      "虔": 3739,
      "處": 3740,
      "虚": 3741,
      "虞": 3742,
      "號": 3743,
      "虫": 3744,
      "虹": 3745,
      "虽": 3746,
      "虾": 3747,
      "蚀": 3748,
      "蚁": 3749,
      "蚂": 3750,
      "蚊": 3751,
      "蚌": 3752,
      "蚓": 3753,
      "蚕": 3754,
      "蚝": 3755,
      "蚯": 3756,
      "蛀": 3757,
      "蛇": 3758,
      "蛋": 3759,
      "蛎": 3760,
      "蛙": 3761,
      "蛛": 3762,
      "蛟": 3763,
      "蛤": 3764,
      "蛮": 3765,
      "蛰": 3766,
      "蛾": 3767,
      "蜀": 3768,
      "蜂": 3769,
      "蜈": 3770,
      "蜒": 3771,
      "蜓": 3772,
      "蜕": 3773,
      "蜗": 3774,
      "蜘": 3775,
      "蜜": 3776,
      "蜡": 3777,
      "蜥": 3778,
      "蜴": 3779,
      "蜻": 3780,
      "蜿": 3781,
      "蝇": 3782,
      "蝉": 3783,
      "蝎": 3784,
      "蝕": 3785,
      "蝙": 3786,
      "蝠": 3787,
      "蝴": 3788,
      "蝶": 3789,
      "螂": 3790,
      "螃": 3791,
      "融": 3792,
      "螨": 3793,
      "螳": 3794,
      "螺": 3795,
      "蟑": 3796,
      "蟒": 3797,
      "蟠": 3798,
      "蟹": 3799,
      "蠕": 3800,
      "蠢": 3801,
      "血": 3802,
      "衅": 3803,
      "行": 3804,
      "衍": 3805,
      "術": 3806,
      "衔": 3807,
      "街": 3808,
      "衙": 3809,
      "衛": 3810,
      "衡": 3811,
      "衢": 3812,
      "衣": 3813,
      "补": 3814,
      "表": 3815,
      "衫": 3816,
      "衬": 3817,
      "衰": 3818,
      "衷": 3819,
      "袁": 3820,
      "袂": 3821,
      "袅": 3822,
      "袋": 3823,
      "袍": 3824,
      "袖": 3825,
      "袜": 3826,
      "袤": 3827,
      "被": 3828,
      "袭": 3829,
      "袱": 3830,
      "裁": 3831,
      "裂": 3832,
      "装": 3833,
      "裔": 3834,
      "裕": 3835,
      "裘": 3836,
      "裙": 3837,
      "補": 3838,
      "裝": 3839,
      "裤": 3840,
      "裱": 3841,
      "裳": 3842,
      "裴": 3843,
      "裸": 3844,
      "裹": 3845,
      "褐": 3846,
      "褒": 3847,
      "褚": 3848,
      "褥": 3849,
      "褪": 3850,
      "褶": 3851,
      "襄": 3852,
      "襟": 3853,
      "西": 3854,
      "要": 3855,
      "覃": 3856,
      "覆": 3857,
      "見": 3858,
      "規": 3859,
      "視": 3860,
      "親": 3861,
      "覺": 3862,
      "覽": 3863,
      "觀": 3864,
      "见": 3865,
      "观": 3866,
      "规": 3867,
      "觅": 3868,
      "视": 3869,
      "览": 3870,
      "觉": 3871,
      "觑": 3872,
      "角": 3873,
      "解": 3874,
      "触": 3875,
      "觸": 3876,
      "言": 3877,
      "訂": 3878,
      "計": 3879,
      "訊": 3880,
      "訓": 3881,
      "記": 3882,
      "設": 3883,
      "許": 3884,
      "評": 3885,
      "詢": 3886,
      "試": 3887,
      "話": 3888,
      "該": 3889,
      "詳": 3890,
      "詹": 3891,
      "誉": 3892,
      "認": 3893,
      "誓": 3894,
      "語": 3895,
      "誠": 3896,
      "說": 3897,
      "課": 3898,
      "調": 3899,
      "請": 3900,
      "論": 3901,
      "講": 3902,
      "證": 3903,
      "識": 3904,
      "警": 3905,
      "譬": 3906,
      "議": 3907,
      "護": 3908,
      "譽": 3909,
      "讀": 3910,
      "變": 3911,
      "讓": 3912,
      "计": 3913,
      "订": 3914,
      "认": 3915,
      "讨": 3916,
      "让": 3917,
      "训": 3918,
      "议": 3919,
      "讯": 3920,
      "记": 3921,
      "讲": 3922,
      "讳": 3923,
      "讶": 3924,
      "许": 3925,
      "论": 3926,
      "讼": 3927,
      "讽": 3928,
      "设": 3929,
      "访": 3930,
      "诀": 3931,
      "证": 3932,
      "评": 3933,
      "诅": 3934,
      "识": 3935,
      "诈": 3936,
      "诉": 3937,
      "诊": 3938,
      "诋": 3939,
      "词": 3940,
      "诏": 3941,
      "译": 3942,
      "试": 3943,
      "诗": 3944,
      "诙": 3945,
      "诚": 3946,
      "诛": 3947,
      "话": 3948,
      "诞": 3949,
      "诟": 3950,
      "诠": 3951,
      "诡": 3952,
      "询": 3953,
      "诣": 3954,
      "该": 3955,
      "详": 3956,
      "诧": 3957,
      "诫": 3958,
      "语": 3959,
      "误": 3960,
      "诱": 3961,
      "诲": 3962,
      "说": 3963,
      "诵": 3964,
      "请": 3965,
      "诸": 3966,
      "诺": 3967,
      "读": 3968,
      "诽": 3969,
      "课": 3970,
      "谁": 3971,
      "调": 3972,
      "谅": 3973,
      "谈": 3974,
      "谊": 3975,
      "谋": 3976,
      "谍": 3977,
      "谎": 3978,
      "谏": 3979,
      "谐": 3980,
      "谓": 3981,
      "谕": 3982,
      "谙": 3983,
      "谚": 3984,
      "谛": 3985,
      "谜": 3986,
      "谢": 3987,
      "谣": 3988,
      "谤": 3989,
      "谦": 3990,
      "谧": 3991,
      "谨": 3992,
      "谬": 3993,
      "谭": 3994,
      "谱": 3995,
      "谴": 3996,
      "谷": 3997,
      "豁": 3998,
      "豆": 3999,
      "豉": 4000,
      "豌": 4001,
      "豐": 4002,
      "豚": 4003,
      "象": 4004,
      "豪": 4005,
      "豫": 4006,
      "豹": 4007,
      "貂": 4008,
      "貌": 4009,
      "負": 4010,
      "貨": 4011,
      "責": 4012,
      "貴": 4013,
      "買": 4014,
      "費": 4015,
      "貼": 4016,
      "資": 4017,
      "質": 4018,
      "購": 4019,
      "賽": 4020,
      "贝": 4021,
      "贞": 4022,
      "负": 4023,
      "贡": 4024,
      "财": 4025,
      "责": 4026,
      "贤": 4027,
      "败": 4028,
      "账": 4029,
      "货": 4030,
      "质": 4031,
      "贩": 4032,
      "贪": 4033,
      "贫": 4034,
      "贬": 4035,
      "购": 4036,
      "贮": 4037,
      "贯": 4038,
      "贰": 4039,
      "贱": 4040,
      "贴": 4041,
      "贵": 4042,
      "贷": 4043,
      "贸": 4044,
      "费": 4045,
      "贺": 4046,
      "贼": 4047,
      "贾": 4048,
      "贿": 4049,
      "赁": 4050,
      "赃": 4051,
      "资": 4052,
      "赋": 4053,
      "赌": 4054,
      "赎": 4055,
      "赏": 4056,
      "赐": 4057,
      "赓": 4058,
      "赔": 4059,
      "赖": 4060,
      "赘": 4061,
      "赚": 4062,
      "赛": 4063,
      "赞": 4064,
      "赠": 4065,
      "赡": 4066,
      "赢": 4067,
      "赣": 4068,
      "赤": 4069,
      "赦": 4070,
      "赫": 4071,
      "走": 4072,
      "赴": 4073,
      "赵": 4074,
      "赶": 4075,
      "起": 4076,
      "趁": 4077,
      "超": 4078,
      "越": 4079,
      "趋": 4080,
      "趟": 4081,
      "趣": 4082,
      "足": 4083,
      "趴": 4084,
      "趾": 4085,
      "跃": 4086,
      "跆": 4087,
      "跋": 4088,
      "跌": 4089,
      "跑": 4090,
      "距": 4091,
      "跟": 4092,
      "跤": 4093,
      "跨": 4094,
      "跪": 4095,
      "路": 4096,
      "跳": 4097,
      "践": 4098,
      "跷": 4099,
      "跻": 4100,
      "踊": 4101,
      "踏": 4102,
      "踝": 4103,
      "踞": 4104,
      "踢": 4105,
      "踩": 4106,
      "踪": 4107,
      "踵": 4108,
      "蹄": 4109,
      "蹈": 4110,
      "蹊": 4111,
      "蹙": 4112,
      "蹦": 4113,
      "蹬": 4114,
      "蹭": 4115,
      "蹲": 4116,
      "蹴": 4117,
      "躁": 4118,
      "身": 4119,
      "躬": 4120,
      "躯": 4121,
      "躲": 4122,
      "躺": 4123,
      "車": 4124,
      "軍": 4125,
      "軟": 4126,
      "軸": 4127,
      "較": 4128,
      "載": 4129,
      "輕": 4130,
      "輛": 4131,
      "輪": 4132,
      "輸": 4133,
      "轉": 4134,
      "车": 4135,
      "轧": 4136,
      "轨": 4137,
      "轩": 4138,
      "转": 4139,
      "轮": 4140,
      "软": 4141,
      "轰": 4142,
      "轴": 4143,
      "轶": 4144,
      "轻": 4145,
      "轼": 4146,
      "载": 4147,
      "轿": 4148,
      "较": 4149,
      "辄": 4150,
      "辅": 4151,
      "辆": 4152,
      "辈": 4153,
      "辉": 4154,
      "辊": 4155,
      "辍": 4156,
      "辐": 4157,
      "辑": 4158,
      "输": 4159,
      "辕": 4160,
      "辖": 4161,
      "辗": 4162,
      "辙": 4163,
      "辛": 4164,
      "辜": 4165,
      "辞": 4166,
      "辟": 4167,
      "辣": 4168,
      "辦": 4169,
      "辨": 4170,
      "辩": 4171,
      "辫": 4172,
      "辰": 4173,
      "辱": 4174,
      "農": 4175,
      "边": 4176,
      "辽": 4177,
      "达": 4178,
      "迁": 4179,
      "迄": 4180,
      "迅": 4181,
      "过": 4182,
      "迈": 4183,
      "迎": 4184,
      "运": 4185,
      "近": 4186,
      "返": 4187,
      "还": 4188,
      "这": 4189,
      "进": 4190,
      "远": 4191,
      "违": 4192,
      "连": 4193,
      "迟": 4194,
      "迥": 4195,
      "迦": 4196,
      "迩": 4197,
      "迪": 4198,
      "迫": 4199,
      "迭": 4200,
      "述": 4201,
      "迷": 4202,
      "迸": 4203,
      "迹": 4204,
      "追": 4205,
      "退": 4206,
      "送": 4207,
      "适": 4208,
      "逃": 4209,
      "逅": 4210,
      "逆": 4211,
      "选": 4212,
      "逊": 4213,
      "逍": 4214,
      "透": 4215,
      "逐": 4216,
      "递": 4217,
      "途": 4218,
      "逗": 4219,
      "這": 4220,
      "通": 4221,
      "逛": 4222,
      "逝": 4223,
      "逞": 4224,
      "速": 4225,
      "造": 4226,
      "逢": 4227,
      "連": 4228,
      "逮": 4229,
      "進": 4230,
      "逸": 4231,
      "逻": 4232,
      "逼": 4233,
      "逾": 4234,
      "遁": 4235,
      "遂": 4236,
      "遇": 4237,
      "運": 4238,
      "遍": 4239,
      "過": 4240,
      "遏": 4241,
      "遐": 4242,
      "道": 4243,
      "達": 4244,
      "遗": 4245,
      "遛": 4246,
      "遠": 4247,
      "遣": 4248,
      "遥": 4249,
      "遨": 4250,
      "適": 4251,
      "遭": 4252,
      "遮": 4253,
      "遴": 4254,
      "遵": 4255,
      "選": 4256,
      "避": 4257,
      "邀": 4258,
      "邂": 4259,
      "邃": 4260,
      "還": 4261,
      "邊": 4262,
      "邑": 4263,
      "邓": 4264,
      "邢": 4265,
      "那": 4266,
      "邦": 4267,
      "邪": 4268,
      "邮": 4269,
      "邯": 4270,
      "邱": 4271,
      "邳": 4272,
      "邵": 4273,
      "邸": 4274,
      "邹": 4275,
      "邻": 4276,
      "郁": 4277,
      "郊": 4278,
      "郎": 4279,
      "郑": 4280,
      "郝": 4281,
      "郡": 4282,
      "部": 4283,
      "郭": 4284,
      "郴": 4285,
      "郸": 4286,
      "都": 4287,
      "鄂": 4288,
      "鄉": 4289,
      "鄙": 4290,
      "酉": 4291,
      "酋": 4292,
      "酌": 4293,
      "配": 4294,
      "酒": 4295,
      "酗": 4296,
      "酚": 4297,
      "酝": 4298,
      "酣": 4299,
      "酥": 4300,
      "酪": 4301,
      "酬": 4302,
      "酮": 4303,
      "酯": 4304,
      "酰": 4305,
      "酱": 4306,
      "酵": 4307,
      "酶": 4308,
      "酷": 4309,
      "酸": 4310,
      "酿": 4311,
      "醇": 4312,
      "醉": 4313,
      "醋": 4314,
      "醒": 4315,
      "醚": 4316,
      "醛": 4317,
      "醫": 4318,
      "采": 4319,
      "釉": 4320,
      "释": 4321,
      "里": 4322,
      "重": 4323,
      "野": 4324,
      "量": 4325,
      "金": 4326,
      "釜": 4327,
      "針": 4328,
      "鉴": 4329,
      "銀": 4330,
      "銷": 4331,
      "銹": 4332,
      "鋁": 4333,
      "鋼": 4334,
      "錄": 4335,
      "錯": 4336,
      "鍍": 4337,
      "鍵": 4338,
      "鎮": 4339,
      "鏈": 4340,
      "鐵": 4341,
      "鑄": 4342,
      "鑫": 4343,
      "针": 4344,
      "钉": 4345,
      "钊": 4346,
      "钎": 4347,
      "钒": 4348,
      "钓": 4349,
      "钗": 4350,
      "钙": 4351,
      "钛": 4352,
      "钜": 4353,
      "钝": 4354,
      "钞": 4355,
      "钟": 4356,
      "钠": 4357,
      "钡": 4358,
      "钢": 4359,
      "钣": 4360,
      "钥": 4361,
      "钦": 4362,
      "钧": 4363,
      "钨": 4364,
      "钩": 4365,
      "钮": 4366,
      "钯": 4367,
      "钰": 4368,
      "钱": 4369,
      "钳": 4370,
      "钴": 4371,
      "钵": 4372,
      "钻": 4373,
      "钼": 4374,
      "钾": 4375,
      "铀": 4376,
      "铁": 4377,
      "铂": 4378,
      "铃": 4379,
      "铅": 4380,
      "铆": 4381,
      "铎": 4382,
      "铛": 4383,
      "铜": 4384,
      "铝": 4385,
      "铠": 4386,
      "铣": 4387,
      "铬": 4388,
      "铭": 4389,
      "铮": 4390,
      "铰": 4391,
      "铱": 4392,
      "铲": 4393,
      "铵": 4394,
      "银": 4395,
      "铸": 4396,
      "铺": 4397,
      "链": 4398,
      "铿": 4399,
      "销": 4400,
      "锁": 4401,
      "锂": 4402,
      "锄": 4403,
      "锅": 4404,
      "锆": 4405,
      "锈": 4406,
      "锋": 4407,
      "锌": 4408,
      "锐": 4409,
      "错": 4410,
      "锚": 4411,
      "锛": 4412,
      "锡": 4413,
      "锢": 4414,
      "锣": 4415,
      "锤": 4416,
      "锥": 4417,
      "锦": 4418,
      "锭": 4419,
      "键": 4420,
      "锯": 4421,
      "锰": 4422,
      "锵": 4423,
      "锻": 4424,
      "镀": 4425,
      "镁": 4426,
      "镂": 4427,
      "镇": 4428,
      "镉": 4429,
      "镌": 4430,
      "镍": 4431,
      "镐": 4432,
      "镑": 4433,
      "镖": 4434,
      "镗": 4435,
      "镜": 4436,
      "镧": 4437,
      "镭": 4438,
      "镯": 4439,
      "镰": 4440,
      "镶": 4441,
      "長": 4442,
      "长": 4443,
      "門": 4444,
      "閉": 4445,
      "開": 4446,
      "間": 4447,
      "閥": 4448,
      "關": 4449,
      "门": 4450,
      "闪": 4451,
      "闫": 4452,
      "闭": 4453,
      "问": 4454,
      "闯": 4455,
      "闰": 4456,
      "闲": 4457,
      "间": 4458,
      "闵": 4459,
      "闷": 4460,
      "闸": 4461,
      "闹": 4462,
      "闺": 4463,
      "闻": 4464,
      "闽": 4465,
      "阀": 4466,
      "阁": 4467,
      "阂": 4468,
      "阅": 4469,
      "阈": 4470,
      "阎": 4471,
      "阐": 4472,
      "阑": 4473,
      "阔": 4474,
      "阖": 4475,
      "阙": 4476,
      "阜": 4477,
      "队": 4478,
      "阪": 4479,
      "阮": 4480,
      "阱": 4481,
      "防": 4482,
      "阳": 4483,
      "阴": 4484,
      "阵": 4485,
      "阶": 4486,
      "阻": 4487,
      "阿": 4488,
      "陀": 4489,
      "陂": 4490,
      "附": 4491,
      "际": 4492,
      "陆": 4493,
      "陇": 4494,
      "陈": 4495,
      "陋": 4496,
      "陌": 4497,
      "降": 4498,
      "限": 4499,
      "陕": 4500,
      "陛": 4501,
      "陡": 4502,
      "院": 4503,
      "除": 4504,
      "陨": 4505,
      "险": 4506,
      "陪": 4507,
      "陵": 4508,
      "陶": 4509,
      "陷": 4510,
      "陽": 4511,
      "隅": 4512,
      "隆": 4513,
      "隊": 4514,
      "隋": 4515,
      "随": 4516,
      "隐": 4517,
      "隔": 4518,
      "隘": 4519,
      "隙": 4520,
      "際": 4521,
      "障": 4522,
      "隧": 4523,
      "隨": 4524,
      "險": 4525,
      "隶": 4526,
      "隽": 4527,
      "难": 4528,
      "雀": 4529,
      "雁": 4530,
      "雄": 4531,
      "雅": 4532,
      "集": 4533,
      "雇": 4534,
      "雌": 4535,
      "雍": 4536,
      "雏": 4537,
      "雕": 4538,
      "雙": 4539,
      "雜": 4540,
      "離": 4541,
      "難": 4542,
      "雨": 4543,
      "雪": 4544,
      "雯": 4545,
      "雳": 4546,
      "零": 4547,
      "雷": 4548,
      "雹": 4549,
      "電": 4550,
      "雾": 4551,
      "需": 4552,
      "霄": 4553,
      "霆": 4554,
      "震": 4555,
      "霉": 4556,
      "霍": 4557,
      "霏": 4558,
      "霓": 4559,
      "霖": 4560,
      "霜": 4561,
      "霞": 4562,
      "露": 4563,
      "霸": 4564,
      "霹": 4565,
      "霾": 4566,
      "靈": 4567,
      "青": 4568,
      "靓": 4569,
      "靖": 4570,
      "静": 4571,
      "靜": 4572,
      "非": 4573,
      "靠": 4574,
      "靡": 4575,
      "面": 4576,
      "革": 4577,
      "靳": 4578,
      "靴": 4579,
      "靶": 4580,
      "鞋": 4581,
      "鞍": 4582,
      "鞘": 4583,
      "鞠": 4584,
      "鞭": 4585,
      "韦": 4586,
      "韧": 4587,
      "韩": 4588,
      "韬": 4589,
      "韭": 4590,
      "音": 4591,
      "韵": 4592,
      "韶": 4593,
      "響": 4594,
      "頁": 4595,
      "頂": 4596,
      "項": 4597,
      "順": 4598,
      "須": 4599,
      "預": 4600,
      "領": 4601,
      "頭": 4602,
      "頻": 4603,
      "題": 4604,
      "額": 4605,
      "類": 4606,
      "顧": 4607,
      "顯": 4608,
      "页": 4609,
      "顶": 4610,
      "顷": 4611,
      "项": 4612,
      "顺": 4613,
      "须": 4614,
      "顽": 4615,
      "顾": 4616,
      "顿": 4617,
      "颁": 4618,
      "颂": 4619,
      "预": 4620,
      "颅": 4621,
      "领": 4622,
      "颇": 4623,
      "颈": 4624,
      "颊": 4625,
      "颌": 4626,
      "颍": 4627,
      "颐": 4628,
      "频": 4629,
      "颓": 4630,
      "颔": 4631,
      "颖": 4632,
      "颗": 4633,
      "题": 4634,
      "颚": 4635,
      "颜": 4636,
      "额": 4637,
      "颠": 4638,
      "颤": 4639,
      "風": 4640,
      "风": 4641,
      "飒": 4642,
      "飓": 4643,
      "飘": 4644,
      "飙": 4645,
      "飛": 4646,
      "飞": 4647,
      "食": 4648,
      "飲": 4649,
      "飾": 4650,
      "養": 4651,
      "餐": 4652,
      "館": 4653,
      "饕": 4654,
      "饥": 4655,
      "饨": 4656,
      "饪": 4657,
      "饭": 4658,
      "饮": 4659,
      "饰": 4660,
      "饱": 4661,
      "饲": 4662,
      "饵": 4663,
      "饶": 4664,
      "饺": 4665,
      "饼": 4666,
      "饽": 4667,
      "饿": 4668,
      "馁": 4669,
      "馄": 4670,
      "馅": 4671,
      "馆": 4672,
      "馈": 4673,
      "馋": 4674,
      "馍": 4675,
      "馏": 4676,
      "馒": 4677,
      "首": 4678,
      "香": 4679,
      "馥": 4680,
      "馨": 4681,
      "馬": 4682,
      "驗": 4683,
      "马": 4684,
      "驭": 4685,
      "驯": 4686,
      "驰": 4687,
      "驱": 4688,
      "驳": 4689,
      "驴": 4690,
      "驶": 4691,
      "驹": 4692,
      "驻": 4693,
      "驼": 4694,
      "驾": 4695,
      "驿": 4696,
      "骁": 4697,
      "骂": 4698,
      "骄": 4699,
      "骆": 4700,
      "骇": 4701,
      "骋": 4702,
      "验": 4703,
      "骏": 4704,
      "骑": 4705,
      "骗": 4706,
      "骚": 4707,
      "骞": 4708,
      "骤": 4709,
      "骨": 4710,
      "骰": 4711,
      "骷": 4712,
      "骸": 4713,
      "骼": 4714,
      "髅": 4715,
      "髋": 4716,
      "髓": 4717,
      "體": 4718,
      "高": 4719,
      "髦": 4720,
      "鬓": 4721,
      "鬼": 4722,
      "魁": 4723,
      "魂": 4724,
      "魄": 4725,
      "魅": 4726,
      "魏": 4727,
      "魔": 4728,
      "鱼": 4729,
      "鱿": 4730,
      "鲁": 4731,
      "鲈": 4732,
      "鲍": 4733,
      "鲜": 4734,
      "鲤": 4735,
      "鲨": 4736,
      "鲫": 4737,
      "鲲": 4738,
      "鲶": 4739,
      "鲸": 4740,
      "鳄": 4741,
      "鳌": 4742,
      "鳍": 4743,
      "鳝": 4744,
      "鳞": 4745,
      "鸟": 4746,
      "鸡": 4747,
      "鸣": 4748,
      "鸥": 4749,
      "鸦": 4750,
      "鸭": 4751,
      "鸯": 4752,
      "鸳": 4753,
      "鸽": 4754,
      "鸿": 4755,
      "鹃": 4756,
      "鹅": 4757,
      "鹈": 4758,
      "鹉": 4759,
      "鹊": 4760,
      "鹏": 4761,
      "鹕": 4762,
      "鹤": 4763,
      "鹦": 4764,
      "鹭": 4765,
      "鹰": 4766,
      "鹿": 4767,
      "麒": 4768,
      "麓": 4769,
      "麟": 4770,
      "麦": 4771,
      "麸": 4772,
      "麻": 4773,
      "麼": 4774,
      "麾": 4775,
      "黃": 4776,
      "黄": 4777,
      "黎": 4778,
      "黏": 4779,
      "黑": 4780,
      "黔": 4781,
      "默": 4782,
      "黛": 4783,
      "點": 4784,
      "黨": 4785,
      "黯": 4786,
      "鼎": 4787,
      "鼓": 4788,
      "鼠": 4789,
      "鼻": 4790,
      "齐": 4791,
      "齿": 4792,
      "龄": 4793,
      "龈": 4794,
      "龋": 4795,
      "龍": 4796,
      "龙": 4797,
      "龚": 4798,
      "龟": 4799,
      "️": 4800,
      "�": 4801,
      "👇": 4802,
      "👉": 4803,
      "20": 4804,
      "可以": 4805,
      "我们": 4806,
      "一个": 4807,
      "公司": 4808,
      "00": 4809,
      "进行": 4810,
      "工作": 4811,
      "企业": 4812,
      "产品": 4813,
      "使用": 4814,
      "服务": 4815,
      "自己": 4816,
      "EN": 4817,
      "END": 4818,
      "技术": 4819,
      "发展": 4820,
      "通过": 4821,
      "时间": 4822,
      "需要": 4823,
      "管理": 4824,
      "没有": 4825,
      "中国": 4826,
      "设计": 4827,
      "市场": 4828,
      "问题": 4829,
      "10": 4830,
      "系统": 4831,
      "提供": 4832,
      "就是": 4833,
      "201": 4834,
      "如果": 4835,
      "安全": 4836,
      "什么": 4837,
      "n1": 4838,
      "信息": 4839,
      "可能": 4840,
      "数据": 4841,
      "设备": 4842,
      "项目": 4843,
      "他们": 4844,
      "这个": 4845,
      "选择": 4846,
      "生产": 4847,
      "情况": 4848,
      "不同": 4849,
      "好的": 4850,
      "影响": 4851,
      "主要": 4852,
      "活动": 4853,
      "行业": 4854,
      "专业": 4855,
      "n2": 4856,
      "同时": 4857,
      "因为": 4858,
      "生活": 4859,
      "非常": 4860,
      "以及": 4861,
      "方面": 4862,
      "要求": 4863,
      "是一": 4864,
      "很多": 4865,
      "中的": 4866,
      "大家": 4867,
      "重要": 4868,
      "已经": 4869,
      "in": 4870,
      "能够": 4871,
      "品牌": 4872,
      "这些": 4873,
      "环境": 4874,
      "用户": 4875,
      "一些": 4876,
      "所以": 4877,
      "时候": 4878,
      "相关": 4879,
      "方式": 4880,
      "对于": 4881,
      "平台": 4882,
      "处理": 4883,
      "n3": 4884,
      "能力": 4885,
      "人员": 4886,
      "客户": 4887,
      "研究": 4888,
      "er": 4889,
      "质量": 4890,
      "过程": 4891,
      "大的": 4892,
      "这样": 4893,
      "根据": 4894,
      "也是": 4895,
      "内容": 4896,
      "游戏": 4897,
      "应用": 4898,
      "现在": 4899,
      "202": 4900,
      "具有": 4901,
      "材料": 4902,
      "学生": 4903,
      "教育": 4904,
      "但是": 4905,
      "作为": 4906,
      "方法": 4907,
      "自己的": 4908,
      "其他": 4909,
      "部分": 4910,
      "on": 4911,
      "学习": 4912,
      "中心": 4913,
      "工程": 4914,
      "功能": 4915,
      "成为": 4916,
      "投资": 4917,
      "还是": 4918,
      "不是": 4919,
      "国家": 4920,
      "建设": 4921,
      "12": 4922,
      "的一": 4923,
      "提高": 4924,
      "的人": 4925,
      "一定": 4926,
      "开始": 4927,
      "了解": 4928,
      "目前": 4929,
      "实现": 4930,
      "孩子": 4931,
      "都是": 4932,
      "分析": 4933,
      "到了": 4934,
      "文化": 4935,
      "需求": 4936,
      "价格": 4937,
      "第一": 4938,
      "世界": 4939,
      "比较": 4940,
      "经济": 4941,
      "提升": 4942,
      "社会": 4943,
      "30": 4944,
      "的是": 4945,
      "有限": 4946,
      "所有": 4947,
      "网站": 4948,
      "控制": 4949,
      "采用": 4950,
      "智能": 4951,
      "出现": 4952,
      "更多": 4953,
      "科技": 4954,
      "消费": 4955,
      "包括": 4956,
      "11": 4957,
      "标准": 4958,
      "个人": 4959,
      "n在": 4960,
      "如何": 4961,
      "15": 4962,
      "上的": 4963,
      "合作": 4964,
      "一般": 4965,
      "这种": 4966,
      "健康": 4967,
      "那么": 4968,
      "an": 4969,
      "效果": 4970,
      "解决": 4971,
      "的时候": 4972,
      "完成": 4973,
      "网络": 4974,
      "因此": 4975,
      "人的": 4976,
      "国际": 4977,
      "知道": 4978,
      "城市": 4979,
      "或者": 4980,
      "支持": 4981,
      "操作": 4982,
      "结构": 4983,
      "创新": 4984,
      "注意": 4985,
      "有限公司": 4986,
      "获得": 4987,
      "开发": 4988,
      "不能": 4989,
      "来的": 4990,
      "资源": 4991,
      "产业": 4992,
      "n4": 4993,
      "作用": 4994,
      "各种": 4995,
      "治疗": 4996,
      "表示": 4997,
      "不断": 4998,
      "帮助": 4999,
      "发现": 5000,
      "19": 5001,
      "由于": 5002,
      "不会": 5003,
      "基础": 5004,
      "之后": 5005,
      "而且": 5006,
      "为了": 5007,
      "还有": 5008,
      "不仅": 5009,
      "en": 5010,
      "or": 5011,
      "了一": 5012,
      "用于": 5013,
      "直接": 5014,
      "50": 5015,
      "增加": 5016,
      "有效": 5017,
      "建筑": 5018,
      "方案": 5019,
      "这一": 5020,
      "业务": 5021,
      "怎么": 5022,
      "以上": 5023,
      "来说": 5024,
      "其中": 5025,
      "发生": 5026,
      "组织": 5027,
      "at": 5028,
      "学校": 5029,
      "汽车": 5030,
      "一起": 5031,
      "手机": 5032,
      "利用": 5033,
      "自动": 5034,
      "机构": 5035,
      "空间": 5036,
      "大学": 5037,
      "销售": 5038,
      "希望": 5039,
      "领域": 5040,
      "100": 5041,
      "一步": 5042,
      "发布": 5043,
      "保护": 5044,
      "比赛": 5045,
      "进入": 5046,
      "单位": 5047,
      "自然": 5048,
      "介绍": 5049,
      "以下": 5050,
      "新的": 5051,
      "安装": 5052,
      "必须": 5053,
      "200": 5054,
      "知识": 5055,
      "电子": 5056,
      "产生": 5057,
      "体验": 5058,
      "北京": 5059,
      "ar": 5060,
      "18": 5061,
      "基本": 5062,
      "培训": 5063,
      "特别": 5064,
      "应该": 5065,
      "模式": 5066,
      "更加": 5067,
      "存在": 5068,
      "实际": 5069,
      "开展": 5070,
      "患者": 5071,
      "es": 5072,
      "虽然": 5073,
      "系列": 5074,
      "关注": 5075,
      "之间": 5076,
      "计划": 5077,
      "国内": 5078,
      "是否": 5079,
      "你的": 5080,
      "任何": 5081,
      "传统": 5082,
      "目标": 5083,
      "科学": 5084,
      "性能": 5085,
      "朋友": 5086,
      "拥有": 5087,
      "集团": 5088,
      "导致": 5089,
      "确保": 5090,
      "部门": 5091,
      "团队": 5092,
      "工业": 5093,
      "年的": 5094,
      "具体": 5095,
      "医院": 5096,
      "成功": 5097,
      "检测": 5098,
      "成本": 5099,
      "简单": 5100,
      "关键": 5101,
      "16": 5102,
      "容易": 5103,
      "第二": 5104,
      "关系": 5105,
      "联系": 5106,
      "达到": 5107,
      "持续": 5108,
      "过程中": 5109,
      "制造": 5110,
      "经营": 5111,
      "随着": 5112,
      "显示": 5113,
      "保持": 5114,
      "起来": 5115,
      "检查": 5116,
      "未来": 5117,
      "这是": 5118,
      "计算": 5119,
      "条件": 5120,
      "水平": 5121,
      "施工": 5122,
      "价值": 5123,
      "关于": 5124,
      "认为": 5125,
      "软件": 5126,
      "保证": 5127,
      "美国": 5128,
      "喜欢": 5129,
      "al": 5130,
      "这里": 5131,
      "月2": 5132,
      "全球": 5133,
      "稳定": 5134,
      "全国": 5135,
      "2020": 5136,
      "视频": 5137,
      "交易": 5138,
      "形成": 5139,
      "综合": 5140,
      "地区": 5141,
      "结合": 5142,
      "建议": 5143,
      "运动": 5144,
      "结果": 5145,
      "现场": 5146,
      "一直": 5147,
      "老师": 5148,
      "不过": 5149,
      "正在": 5150,
      "原因": 5151,
      "经验": 5152,
      "然后": 5153,
      "表现": 5154,
      "并且": 5155,
      "风险": 5156,
      "不要": 5157,
      "13": 5158,
      "代表": 5159,
      "变化": 5160,
      "优势": 5161,
      "我们的": 5162,
      "积极": 5163,
      "一样": 5164,
      "最后": 5165,
      "上海": 5166,
      "疫情": 5167,
      "负责": 5168,
      "看到": 5169,
      "增长": 5170,
      "其实": 5171,
      "14": 5172,
      "加工": 5173,
      "快速": 5174,
      "制作": 5175,
      "联网": 5176,
      "n5": 5177,
      "一次": 5178,
      "压力": 5179,
      "规定": 5180,
      "一下": 5181,
      "及时": 5182,
      "造成": 5183,
      "范围": 5184,
      "2019": 5185,
      "教学": 5186,
      "温度": 5187,
      "le": 5188,
      "申请": 5189,
      "地方": 5190,
      "责任": 5191,
      "艺术": 5192,
      "消费者": 5193,
      "减少": 5194,
      "继续": 5195,
      "一种": 5196,
      "丰富": 5197,
      "进一步": 5198,
      "人民": 5199,
      "参与": 5200,
      "许多": 5201,
      "今天": 5202,
      "带来": 5203,
      "om": 5204,
      "000": 5205,
      "只有": 5206,
      "历史": 5207,
      "交通": 5208,
      "机械": 5209,
      "无法": 5210,
      "他的": 5211,
      "行为": 5212,
      "数字": 5213,
      "两个": 5214,
      "st": 5215,
      "甚至": 5216,
      "满足": 5217,
      "不同的": 5218,
      "状态": 5219,
      "才能": 5220,
      "调整": 5221,
      "之一": 5222,
      "建立": 5223,
      "人们": 5224,
      "考虑": 5225,
      "出了": 5226,
      "性的": 5227,
      "经过": 5228,
      "th": 5229,
      "位置": 5230,
      "政府": 5231,
      "详细": 5232,
      "今年": 5233,
      "17": 5234,
      "全面": 5235,
      "工艺": 5236,
      "超过": 5237,
      "适合": 5238,
      "白癜": 5239,
      "参加": 5240,
      "的大": 5241,
      "白癜风": 5242,
      "身体": 5243,
      "分钟": 5244,
      "2021": 5245,
      "精神": 5246,
      "得到": 5247,
      "2022": 5248,
      "媒体": 5249,
      "整体": 5250,
      "避免": 5251,
      "咨询": 5252,
      "60": 5253,
      "是一个": 5254,
      "运行": 5255,
      "家庭": 5256,
      "准备": 5257,
      "学院": 5258,
      "研发": 5259,
      "体系": 5260,
      "重点": 5261,
      "保障": 5262,
      "之前": 5263,
      "按照": 5264,
      "万元": 5265,
      "效率": 5266,
      "第三": 5267,
      "我的": 5268,
      "玩家": 5269,
      "特点": 5270,
      "员工": 5271,
      "银行": 5272,
      "记者": 5273,
      "的话": 5274,
      "核心": 5275,
      "25": 5276,
      "现代": 5277,
      "职业": 5278,
      "小时": 5279,
      "40": 5280,
      "食品": 5281,
      "是在": 5282,
      "完全": 5283,
      "区域": 5284,
      "测试": 5285,
      "旅游": 5286,
      "作品": 5287,
      "降低": 5288,
      "除了": 5289,
      "量的": 5290,
      "re": 5291,
      "竞争": 5292,
      "运营": 5293,
      "购买": 5294,
      "阶段": 5295,
      "优化": 5296,
      "有关": 5297,
      "速度": 5298,
      "比如": 5299,
      "程序": 5300,
      "规划": 5301,
      "高的": 5302,
      "交流": 5303,
      "金融": 5304,
      "it": 5305,
      "做好": 5306,
      "基金": 5307,
      "环保": 5308,
      "营销": 5309,
      "方便": 5310,
      "整个": 5311,
      "受到": 5312,
      "都有": 5313,
      "机会": 5314,
      "感觉": 5315,
      "表面": 5316,
      "生态": 5317,
      "am": 5318,
      "ic": 5319,
      "亿元": 5320,
      "的情况": 5321,
      "打造": 5322,
      "任务": 5323,
      "资金": 5324,
      "的问题": 5325,
      "报告": 5326,
      "期间": 5327,
      "针对": 5328,
      "互联网": 5329,
      "医疗": 5330,
      "分享": 5331,
      "实施": 5332,
      "从而": 5333,
      "我国": 5334,
      "来越": 5335,
      "推荐": 5336,
      "觉得": 5337,
      "就会": 5338,
      "形式": 5339,
      "共同": 5340,
      "越来越": 5341,
      "时代": 5342,
      "有的": 5343,
      "方向": 5344,
      "课程": 5345,
      "注册": 5346,
      "生物": 5347,
      "也不": 5348,
      "每个": 5349,
      "正常": 5350,
      "来看": 5351,
      "宣传": 5352,
      "因素": 5353,
      "供应": 5354,
      "工具": 5355,
      "80": 5356,
      "空气": 5357,
      "会议": 5358,
      "能源": 5359,
      "体育": 5360,
      "电话": 5361,
      "的高": 5362,
      "专家": 5363,
      "加盟": 5364,
      "哪些": 5365,
      "最终": 5366,
      "考试": 5367,
      "也有": 5368,
      "ac": 5369,
      "新闻": 5370,
      "24": 5371,
      "努力": 5372,
      "加强": 5373,
      "微信": 5374,
      "确定": 5375,
      "规模": 5376,
      "商业": 5377,
      "出的": 5378,
      "音乐": 5379,
      "左右": 5380,
      "el": 5381,
      "例如": 5382,
      "政策": 5383,
      "文件": 5384,
      "ro": 5385,
      "设置": 5386,
      "执行": 5387,
      "金属": 5388,
      "首先": 5389,
      "展示": 5390,
      "法律": 5391,
      "商品": 5392,
      "球队": 5393,
      "是一种": 5394,
      "费用": 5395,
      "有些": 5396,
      "et": 5397,
      "措施": 5398,
      "当然": 5399,
      "事情": 5400,
      "的发展": 5401,
      "欢迎": 5402,
      "在线": 5403,
      "符合": 5404,
      "长期": 5405,
      "的小": 5406,
      "想要": 5407,
      "广告": 5408,
      "都会": 5409,
      "只是": 5410,
      "资料": 5411,
      "化的": 5412,
      "不可": 5413,
      "这样的": 5414,
      "实验": 5415,
      "面积": 5416,
      "合理": 5417,
      "通常": 5418,
      "主题": 5419,
      "文章": 5420,
      "广泛": 5421,
      "取得": 5422,
      "决定": 5423,
      "理解": 5424,
      "教师": 5425,
      "社区": 5426,
      "明显": 5427,
      "充分": 5428,
      "办公": 5429,
      "程度": 5430,
      "属于": 5431,
      "技能": 5432,
      "装修": 5433,
      "下载": 5434,
      "品质": 5435,
      "十分": 5436,
      "心理": 5437,
      "后的": 5438,
      "推动": 5439,
      "目的": 5440,
      "出来": 5441,
      "保险": 5442,
      "厂家": 5443,
      "pp": 5444,
      "并不": 5445,
      "包装": 5446,
      "阅读": 5447,
      "加入": 5448,
      "维护": 5449,
      "机器": 5450,
      "来自": 5451,
      "风格": 5452,
      "坚持": 5453,
      "免费": 5454,
      "类型": 5455,
      "连接": 5456,
      "复杂": 5457,
      "人才": 5458,
      "说明": 5459,
      "皮肤": 5460,
      "自身": 5461,
      "移动": 5462,
      "推广": 5463,
      "您的": 5464,
      "分别": 5465,
      "不少": 5466,
      "接受": 5467,
      "指导": 5468,
      "尤其": 5469,
      "来源": 5470,
      "也会": 5471,
      "促进": 5472,
      "重要的": 5473,
      "色的": 5474,
      "玻璃": 5475,
      "创业": 5476,
      "以来": 5477,
      "普通": 5478,
      "流程": 5479,
      "设施": 5480,
      "故事": 5481,
      "不得": 5482,
      "多少": 5483,
      "2018": 5484,
      "规范": 5485,
      "只要": 5486,
      "多的": 5487,
      "ing": 5488,
      "n一": 5489,
      "污染": 5490,
      "面的": 5491,
      "卫生": 5492,
      "相对": 5493,
      "n本": 5494,
      "严重": 5495,
      "防水": 5496,
      "真正": 5497,
      "2020年": 5498,
      "n6": 5499,
      "的重要": 5500,
      "赛季": 5501,
      "用的": 5502,
      "动力": 5503,
      "战略": 5504,
      "培养": 5505,
      "领导": 5506,
      "合同": 5507,
      "每天": 5508,
      "球员": 5509,
      "下来": 5510,
      "生命": 5511,
      "内部": 5512,
      "升级": 5513,
      "日常": 5514,
      "另外": 5515,
      "改变": 5516,
      "的新": 5517,
      "全部": 5518,
      "挑战": 5519,
      "样的": 5520,
      "多种": 5521,
      "ou": 5522,
      "安排": 5523,
      "ion": 5524,
      "真的": 5525,
      "此外": 5526,
      "无论": 5527,
      "就可以": 5528,
      "它们": 5529,
      "正式": 5530,
      "成立": 5531,
      "疾病": 5532,
      "理念": 5533,
      "面对": 5534,
      "成绩": 5535,
      "成长": 5536,
      "PP": 5537,
      "实力": 5538,
      "也可以": 5539,
      "东西": 5540,
      "as": 5541,
      "组成": 5542,
      "收入": 5543,
      "这么": 5544,
      "物流": 5545,
      "优质": 5546,
      "推进": 5547,
      "它的": 5548,
      "发挥": 5549,
      "良好的": 5550,
      "22": 5551,
      "找到": 5552,
      "同学": 5553,
      "90": 5554,
      "明确": 5555,
      "的工作": 5556,
      "创造": 5557,
      "日本": 5558,
      "增强": 5559,
      "记录": 5560,
      "酒店": 5561,
      "电影": 5562,
      "不错": 5563,
      "完善": 5564,
      "mm": 5565,
      "如此": 5566,
      "优秀": 5567,
      "上市": 5568,
      "下的": 5569,
      "为什么": 5570,
      "产品的": 5571,
      "2019年": 5572,
      "反应": 5573,
      "性和": 5574,
      "多个": 5575,
      "严格": 5576,
      "度的": 5577,
      "机的": 5578,
      "年来": 5579,
      "训练": 5580,
      "意识": 5581,
      "力量": 5582,
      "点击": 5583,
      "的产品": 5584,
      "一点": 5585,
      "深圳": 5586,
      "儿童": 5587,
      "车辆": 5588,
      "23": 5589,
      "意义": 5590,
      "is": 5591,
      "吸引": 5592,
      "语言": 5593,
      "一定要": 5594,
      "经常": 5595,
      "更新": 5596,
      "行动": 5597,
      "化学": 5598,
      "机制": 5599,
      "资产": 5600,
      "特色": 5601,
      "过去": 5602,
      "电动": 5603,
      "作者": 5604,
      "的时间": 5605,
      "背景": 5606,
      "绿色": 5607,
      "支付": 5608,
      "深入": 5609,
      "99": 5610,
      "个月": 5611,
      "直播": 5612,
      "2022年": 5613,
      "最大": 5614,
      "数量": 5615,
      "小编": 5616,
      "70": 5617,
      "可能会": 5618,
      "家长": 5619,
      "联合": 5620,
      "流量": 5621,
      "ed": 5622,
      "实践": 5623,
      "运输": 5624,
      "经理": 5625,
      "沟通": 5626,
      "他们的": 5627,
      "lo": 5628,
      "特殊": 5629,
      "相信": 5630,
      "内的": 5631,
      "即可": 5632,
      "场景": 5633,
      "具备": 5634,
      "体的": 5635,
      "现象": 5636,
      "结束": 5637,
      "美元": 5638,
      "不到": 5639,
      "最新": 5640,
      "更多的": 5641,
      "你们": 5642,
      "正确": 5643,
      "官方": 5644,
      "装饰": 5645,
      "电池": 5646,
      "装置": 5647,
      "500": 5648,
      "引起": 5649,
      "年轻": 5650,
      "的影响": 5651,
      "毕业": 5652,
      "配置": 5653,
      "下面": 5654,
      "策略": 5655,
      "消息": 5656,
      "元素": 5657,
      "报名": 5658,
      "趋势": 5659,
      "com": 5660,
      "提出": 5661,
      "电视": 5662,
      "分类": 5663,
      "距离": 5664,
      "此次": 5665,
      "当前": 5666,
      "值得": 5667,
      "公司的": 5668,
      "定制": 5669,
      "必要": 5670,
      "常见": 5671,
      "人工": 5672,
      "n这": 5673,
      "通知": 5674,
      "先进": 5675,
      "智慧": 5676,
      "之间的": 5677,
      "°C": 5678,
      "物质": 5679,
      "驾驶": 5680,
      "地址": 5681,
      "独特": 5682,
      "农业": 5683,
      "有着": 5684,
      "步骤": 5685,
      "2021年": 5686,
      "1日": 5687,
      "试验": 5688,
      "图片": 5689,
      "5年": 5690,
      "力的": 5691,
      "基于": 5692,
      "广州": 5693,
      "3年": 5694,
      "评估": 5695,
      "自由": 5696,
      "开放": 5697,
      "分为": 5698,
      "连续": 5699,
      "搜索": 5700,
      "集中": 5701,
      "进行了": 5702,
      "事业": 5703,
      "更好": 5704,
      "颜色": 5705,
      "线上": 5706,
      "办法": 5707,
      "运用": 5708,
      "制定": 5709,
      "ch": 5710,
      "恢复": 5711,
      "下降": 5712,
      "准确": 5713,
      "ww": 5714,
      "真实": 5715,
      "当地": 5716,
      "每一": 5717,
      "排名": 5718,
      "以后": 5719,
      "防止": 5720,
      "垃圾": 5721,
      "打开": 5722,
      "作业": 5723,
      "做到": 5724,
      "只能": 5725,
      "如今": 5726,
      "有一": 5727,
      "告诉": 5728,
      "高效": 5729,
      "公共": 5730,
      "参考": 5731,
      "是什么": 5732,
      "最近": 5733,
      "28": 5734,
      "模型": 5735,
      "的方式": 5736,
      "大多": 5737,
      "那些": 5738,
      "等等": 5739,
      "几个": 5740,
      "制度": 5741,
      "测量": 5742,
      "位于": 5743,
      "再次": 5744,
      "查看": 5745,
      "接触": 5746,
      "表达": 5747,
      "清洗": 5748,
      "大型": 5749,
      "有所": 5750,
      "调查": 5751,
      "变得": 5752,
      "防控": 5753,
      "兴趣": 5754,
      "ht": 5755,
      "解决方案": 5756,
      "发展的": 5757,
      "添加": 5758,
      "然而": 5759,
      "招聘": 5760,
      "电机": 5761,
      "投入": 5762,
      "ent": 5763,
      "7年": 5764,
      "理论": 5765,
      "营养": 5766,
      "食物": 5767,
      "涉及": 5768,
      "重新": 5769,
      "逐渐": 5770,
      "企业的": 5771,
      "包含": 5772,
      "一定的": 5773,
      "21": 5774,
      "本身": 5775,
      "掌握": 5776,
      "角色": 5777,
      "可靠": 5778,
      "id": 5779,
      "轩宇": 5780,
      "股份": 5781,
      "配合": 5782,
      "消防": 5783,
      "相比": 5784,
      "娱乐": 5785,
      "感受": 5786,
      "大量": 5787,
      "26": 5788,
      "植物": 5789,
      "启动": 5790,
      "伙伴": 5791,
      "证明": 5792,
      "医生": 5793,
      "评价": 5794,
      "室内": 5795,
      "经历": 5796,
      "肯定": 5797,
      "落实": 5798,
      "让人": 5799,
      "了一个": 5800,
      "改善": 5801,
      "采取": 5802,
      "资格": 5803,
      "形象": 5804,
      "家具": 5805,
      "im": 5806,
      "道路": 5807,
      "氧化": 5808,
      "习惯": 5809,
      "搭配": 5810,
      "互动": 5811,
      "监管": 5812,
      "35": 5813,
      "渠道": 5814,
      "相应": 5815,
      "英语": 5816,
      "管道": 5817,
      "里的": 5818,
      "双方": 5819,
      "状况": 5820,
      "办理": 5821,
      "而是": 5822,
      "会有": 5823,
      "强度": 5824,
      "蓝轩宇": 5825,
      "联赛": 5826,
      "总结": 5827,
      "更是": 5828,
      "固定": 5829,
      "ig": 5830,
      "il": 5831,
      "为主": 5832,
      "人类": 5833,
      "统计": 5834,
      "n7": 5835,
      "统一": 5836,
      "方面的": 5837,
      "山东": 5838,
      "细胞": 5839,
      "有了": 5840,
      "先生": 5841,
      "意见": 5842,
      "身份": 5843,
      "突破": 5844,
      "轻松": 5845,
      "融合": 5846,
      "使得": 5847,
      "ad": 5848,
      "不锈": 5849,
      "专业的": 5850,
      "报道": 5851,
      "当时": 5852,
      "88": 5853,
      "协会": 5854,
      "采购": 5855,
      "解释": 5856,
      "相当": 5857,
      "期的": 5858,
      "主动": 5859,
      "迅速": 5860,
      "基地": 5861,
      "定位": 5862,
      "困难": 5863,
      "维修": 5864,
      "27": 5865,
      "获取": 5866,
      "适应": 5867,
      "组合": 5868,
      "器的": 5869,
      "各类": 5870,
      "广大": 5871,
      "处于": 5872,
      "描述": 5873,
      "不锈钢": 5874,
      "事件": 5875,
      "高度": 5876,
      "本次": 5877,
      "三个": 5878,
      "9月": 5879,
      "可以在": 5880,
      "电脑": 5881,
      "认证": 5882,
      "举办": 5883,
      "高速": 5884,
      "独立": 5885,
      "利润": 5886,
      "清洁": 5887,
      "探索": 5888,
      "协议": 5889,
      "2018年": 5890,
      "n我": 5891,
      "群众": 5892,
      "考生": 5893,
      "公众": 5894,
      "享受": 5895,
      "不足": 5896,
      "6年": 5897,
      "环节": 5898,
      "另一": 5899,
      "ol": 5900,
      "充满": 5901,
      "投资者": 5902,
      "子的": 5903,
      "案例": 5904,
      "te": 5905,
      "幼儿": 5906,
      "平均": 5907,
      "app": 5908,
      "可是": 5909,
      "同样": 5910,
      "遇到": 5911,
      "资讯": 5912,
      "认识": 5913,
      "情感": 5914,
      "原则": 5915,
      "塑料": 5916,
      "而言": 5917,
      "往往": 5918,
      "成果": 5919,
      "成了": 5920,
      "代理": 5921,
      "信号": 5922,
      "就能": 5923,
      "满意": 5924,
      "丰富的": 5925,
      "事项": 5926,
      "重视": 5927,
      "应当": 5928,
      "就业": 5929,
      "最高": 5930,
      "太阳": 5931,
      "36": 5932,
      "不知道": 5933,
      "时尚": 5934,
      "的地方": 5935,
      "知名": 5936,
      "识别": 5937,
      "覆盖": 5938,
      "限制": 5939,
      "岗位": 5940,
      "主任": 5941,
      "网上": 5942,
      "这次": 5943,
      "监督": 5944,
      "商务": 5945,
      "冠军": 5946,
      "n二": 5947,
      "更好的": 5948,
      "一年": 5949,
      "情绪": 5950,
      "角度": 5951,
      "n据": 5952,
      "定期": 5953,
      "45": 5954,
      "行政": 5955,
      "心的": 5956,
      "尺寸": 5957,
      "广东": 5958,
      "监测": 5959,
      "推出": 5960,
      "居民": 5961,
      "文明": 5962,
      "股票": 5963,
      "动态": 5964,
      "症状": 5965,
      "幸福": 5966,
      "300": 5967,
      "及其": 5968,
      "技巧": 5969,
      "比例": 5970,
      "有机": 5971,
      "循环": 5972,
      "8月": 5973,
      "提前": 5974,
      "改革": 5975,
      "舒适": 5976,
      "呈现": 5977,
      "一体": 5978,
      "n如果": 5979,
      "最佳": 5980,
      "创建": 5981,
      "之外": 5982,
      "寿命": 5983,
      "委员": 5984,
      "观察": 5985,
      "特征": 5986,
      "完整": 5987,
      "天气": 5988,
      "空调": 5989,
      "很多人": 5990,
      "电商": 5991,
      "传播": 5992,
      "各个": 5993,
      "装备": 5994,
      "经典": 5995,
      "公开": 5996,
      "回收": 5997,
      "观众": 5998,
      "都在": 5999,
      "系统的": 6000,
      "合适": 6001,
      "强的": 6002,
      "对方": 6003,
      "还可以": 6004,
      "布局": 6005,
      "尤其是": 6006,
      "n三": 6007,
      "行的": 6008,
      "资本": 6009,
      "预计": 6010,
      "证券": 6011,
      "同比": 6012,
      "如下": 6013,
      "and": 6014,
      "体现": 6015,
      "指标": 6016,
      "讨论": 6017,
      "最大的": 6018,
      "几乎": 6019,
      "动物": 6020,
      "商标": 6021,
      "地产": 6022,
      "还要": 6023,
      "um": 6024,
      "输出": 6025,
      "现实": 6026,
      "输入": 6027,
      "n0": 6028,
      "追求": 6029,
      "的设计": 6030,
      "♀♀": 6031,
      "提供了": 6032,
      "出口": 6033,
      "负责人": 6034,
      "展现": 6035,
      "成员": 6036,
      "父母": 6037,
      "者的": 6038,
      "开启": 6039,
      "从事": 6040,
      "收集": 6041,
      "细节": 6042,
      "的方法": 6043,
      "有人": 6044,
      "足球": 6045,
      "的好": 6046,
      "一家": 6047,
      "APP": 6048,
      "视觉": 6049,
      "概念": 6050,
      "思想": 6051,
      "干燥": 6052,
      "中央": 6053,
      "加上": 6054,
      "的情况下": 6055,
      "相同": 6056,
      "车型": 6057,
      "调节": 6058,
      "自我": 6059,
      "上述": 6060,
      "欧洲": 6061,
      "期待": 6062,
      "去年": 6063,
      "ag": 6064,
      "仍然": 6065,
      "确认": 6066,
      "声音": 6067,
      "29": 6068,
      "很好": 6069,
      "LE": 6070,
      "网友": 6071,
      "近日": 6072,
      "共享": 6073,
      "展开": 6074,
      "放在": 6075,
      "中小": 6076,
      "规则": 6077,
      "动作": 6078,
      "确实": 6079,
      "的同时": 6080,
      "6月": 6081,
      "监控": 6082,
      "定的": 6083,
      "财务": 6084,
      "顺利": 6085,
      "时的": 6086,
      "很大": 6087,
      "会员": 6088,
      "查询": 6089,
      "领先": 6090,
      "加热": 6091,
      "工厂": 6092,
      "oo": 6093,
      "她的": 6094,
      "美的": 6095,
      "引导": 6096,
      "最好": 6097,
      "优惠": 6098,
      "都能": 6099,
      "有哪些": 6100,
      "ct": 6101,
      "官网": 6102,
      "平方": 6103,
      "支撑": 6104,
      "能量": 6105,
      "重大": 6106,
      "快乐": 6107,
      "混合": 6108,
      "自主": 6109,
      "指出": 6110,
      "农村": 6111,
      "人士": 6112,
      "承担": 6113,
      "收益": 6114,
      "即使": 6115,
      "生长": 6116,
      "高温": 6117,
      "版权": 6118,
      "适用于": 6119,
      "面临": 6120,
      "强化": 6121,
      "深度": 6122,
      "清楚": 6123,
      "的主要": 6124,
      "进口": 6125,
      "餐饮": 6126,
      "保温": 6127,
      "故障": 6128,
      "大部分": 6129,
      "社交": 6130,
      "成都": 6131,
      "10月": 6132,
      "n从": 6133,
      "之中": 6134,
      "过滤": 6135,
      "将会": 6136,
      "将在": 6137,
      "贡献": 6138,
      "两种": 6139,
      "都不": 6140,
      "上一": 6141,
      "这款": 6142,
      "精彩": 6143
    },
    "merges": [
      [
        "2",
        "0"
      ],
      [
        "可",
        "以"
      ],
      [
        "我",
        "们"
      ],
      [
        "一",
        "个"
      ],
      [
        "公",
        "司"
      ],
      [
        "0",
        "0"
      ],
      [
        "进",
        "行"
      ],
      [
        "工",
        "作"
      ],
      [
        "企",
        "业"
      ],
      [
        "产",
        "品"
      ],
      [
        "使",
        "用"
      ],
      [
        "服",
        "务"
      ],
      [
        "自",
        "己"
      ],
      [
        "E",
        "N"
      ],
      [
        "EN",
        "D"
      ],
      [
        "技",
        "术"
      ],
      [
        "发",
        "展"
      ],
      [
        "通",
        "过"
      ],
      [
        "时",
        "间"
      ],
      [
        "需",
        "要"
      ],
      [
        "管",
        "理"
      ],
      [
        "没",
        "有"
      ],
      [
        "中",
        "国"
      ],
      [
        "设",
        "计"
      ],
      [
        "市",
        "场"
      ],
      [
        "问",
        "题"
      ],
      [
        "1",
        "0"
      ],
      [
        "系",
        "统"
      ],
      [
        "提",
        "供"
      ],
      [
        "就",
        "是"
      ],
      [
        "20",
        "1"
      ],
      [
        "如",
        "果"
      ],
      [
        "安",
        "全"
      ],
      [
        "什",
        "么"
      ],
      [
        "n",
        "1"
      ],
      [
        "信",
        "息"
      ],
      [
        "可",
        "能"
      ],
      [
        "数",
        "据"
      ],
      [
        "设",
        "备"
      ],
      [
        "项",
        "目"
      ],
      [
        "他",
        "们"
      ],
      [
        "这",
        "个"
      ],
      [
        "选",
        "择"
      ],
      [
        "生",
        "产"
      ],
      [
        "情",
        "况"
      ],
      [
        "不",
        "同"
      ],
      [
        "好",
        "的"
      ],
      [
        "影",
        "响"
      ],
      [
        "主",
        "要"
      ],
      [
        "活",
        "动"
      ],
      [
        "行",
        "业"
      ],
      [
        "专",
        "业"
      ],
      [
        "n",
        "2"
      ],
      [
        "同",
        "时"
      ],
      [
        "因",
        "为"
      ],
      [
        "生",
        "活"
      ],
      [
        "非",
        "常"
      ],
      [
        "以",
        "及"
      ],
      [
        "方",
        "面"
      ],
      [
        "要",
        "求"
      ],
      [
        "是",
        "一"
      ],
      [
        "很",
        "多"
      ],
      [
        "中",
        "的"
      ],
      [
        "大",
        "家"
      ],
      [
        "重",
        "要"
      ],
      [
        "已",
        "经"
      ],
      [
        "i",
        "n"
      ],
      [
        "能",
        "够"
      ],
      [
        "品",
        "牌"
      ],
      [
        "这",
        "些"
      ],
      [
        "环",
        "境"
      ],
      [
        "用",
        "户"
      ],
      [
        "一",
        "些"
      ],
      [
        "所",
        "以"
      ],
      [
        "时",
        "候"
      ],
      [
        "相",
        "关"
      ],
      [
        "方",
        "式"
      ],
      [
        "对",
        "于"
      ],
      [
        "平",
        "台"
      ],
      [
        "处",
        "理"
      ],
      [
        "n",
        "3"
      ],
      [
        "能",
        "力"
      ],
      [
        "人",
        "员"
      ],
      [
        "客",
        "户"
      ],
      [
        "研",
        "究"
      ],
      [
        "e",
        "r"
      ],
      [
        "质",
        "量"
      ],
      [
        "过",
        "程"
      ],
      [
        "大",
        "的"
      ],
      [
        "这",
        "样"
      ],
      [
        "根",
        "据"
      ],
      [
        "也",
        "是"
      ],
      [
        "内",
        "容"
      ],
      [
        "游",
        "戏"
      ],
      [
        "应",
        "用"
      ],
      [
        "现",
        "在"
      ],
      [
        "20",
        "2"
      ],
      [
        "具",
        "有"
      ],
      [
        "材",
        "料"
      ],
      [
        "学",
        "生"
      ],
      [
        "教",
        "育"
      ],
      [
        "但",
        "是"
      ],
      [
        "作",
        "为"
      ],
      [
        "方",
        "法"
      ],
      [
        "自己",
        "的"
      ],
      [
        "其",
        "他"
      ],
      [
        "部",
        "分"
      ],
      [
        "o",
        "n"
      ],
      [
        "学",
        "习"
      ],
      [
        "中",
        "心"
      ],
      [
        "工",
        "程"
      ],
      [
        "功",
        "能"
      ],
      [
        "成",
        "为"
      ],
      [
        "投",
        "资"
      ],
      [
        "还",
        "是"
      ],
      [
        "不",
        "是"
      ],
      [
        "国",
        "家"
      ],
      [
        "建",
        "设"
      ],
      [
        "1",
        "2"
      ],
      [
        "的",
        "一"
      ],
      [
        "提",
        "高"
      ],
      [
        "的",
        "人"
      ],
      [
        "一",
        "定"
      ],
      [
        "开",
        "始"
      ],
      [
        "了",
        "解"
      ],
      [
        "目",
        "前"
      ],
      [
        "实",
        "现"
      ],
      [
        "孩",
        "子"
      ],
      [
        "都",
        "是"
      ],
      [
        "分",
        "析"
      ],
      [
        "到",
        "了"
      ],
      [
        "文",
        "化"
      ],
      [
        "需",
        "求"
      ],
      [
        "价",
        "格"
      ],
      [
        "第",
        "一"
      ],
      [
        "世",
        "界"
      ],
      [
        "比",
        "较"
      ],
      [
        "经",
        "济"
      ],
      [
        "提",
        "升"
      ],
      [
        "社",
        "会"
      ],
      [
        "3",
        "0"
      ],
      [
        "的",
        "是"
      ],
      [
        "有",
        "限"
      ],
      [
        "所",
        "有"
      ],
      [
        "网",
        "站"
      ],
      [
        "控",
        "制"
      ],
      [
        "采",
        "用"
      ],
      [
        "智",
        "能"
      ],
      [
        "出",
        "现"
      ],
      [
        "更",
        "多"
      ],
      [
        "科",
        "技"
      ],
      [
        "消",
        "费"
      ],
      [
        "包",
        "括"
      ],
      [
        "1",
        "1"
      ],
      [
        "标",
        "准"
      ],
      [
        "个",
        "人"
      ],
      [
        "n",
        "在"
      ],
      [
        "如",
        "何"
      ],
      [
        "1",
        "5"
      ],
      [
        "上",
        "的"
      ],
      [
        "合",
        "作"
      ],
      [
        "一",
        "般"
      ],
      [
        "这",
        "种"
      ],
      [
        "健",
        "康"
      ],
      [
        "那",
        "么"
      ],
      [
        "a",
        "n"
      ],
      [
        "效",
        "果"
      ],
      [
        "解",
        "决"
      ],
      [
        "的",
        "时候"
      ],
      [
        "完",
        "成"
      ],
      [
        "网",
        "络"
      ],
      [
        "因",
        "此"
      ],
      [
        "人",
        "的"
      ],
      [
        "国",
        "际"
      ],
      [
        "知",
        "道"
      ],
      [
        "城",
        "市"
      ],
      [
        "或",
        "者"
      ],
      [
        "支",
        "持"
      ],
      [
        "操",
        "作"
      ],
      [
        "结",
        "构"
      ],
      [
        "创",
        "新"
      ],
      [
        "注",
        "意"
      ],
      [
        "有限",
        "公司"
      ],
      [
        "获",
        "得"
      ],
      [
        "开",
        "发"
      ],
      [
        "不",
        "能"
      ],
      [
        "来",
        "的"
      ],
      [
        "资",
        "源"
      ],
      [
        "产",
        "业"
      ],
      [
        "n",
        "4"
      ],
      [
        "作",
        "用"
      ],
      [
        "各",
        "种"
      ],
      [
        "治",
        "疗"
      ],
      [
        "表",
        "示"
      ],
      [
        "不",
        "断"
      ],
      [
        "帮",
        "助"
      ],
      [
        "发",
        "现"
      ],
      [
        "1",
        "9"
      ],
      [
        "由",
        "于"
      ],
      [
        "不",
        "会"
      ],
      [
        "基",
        "础"
      ],
      [
        "之",
        "后"
      ],
      [
        "而",
        "且"
      ],
      [
        "为",
        "了"
      ],
      [
        "还",
        "有"
      ],
      [
        "不",
        "仅"
      ],
      [
        "e",
        "n"
      ],
      [
        "o",
        "r"
      ],
      [
        "了",
        "一"
      ],
      [
        "用",
        "于"
      ],
      [
        "直",
        "接"
      ],
      [
        "5",
        "0"
      ],
      [
        "增",
        "加"
      ],
      [
        "有",
        "效"
      ],
      [
        "建",
        "筑"
      ],
      [
        "方",
        "案"
      ],
      [
        "这",
        "一"
      ],
      [
        "业",
        "务"
      ],
      [
        "怎",
        "么"
      ],
      [
        "以",
        "上"
      ],
      [
        "来",
        "说"
      ],
      [
        "其",
        "中"
      ],
      [
        "发",
        "生"
      ],
      [
        "组",
        "织"
      ],
      [
        "a",
        "t"
      ],
      [
        "学",
        "校"
      ],
      [
        "汽",
        "车"
      ],
      [
        "一",
        "起"
      ],
      [
        "手",
        "机"
      ],
      [
        "利",
        "用"
      ],
      [
        "自",
        "动"
      ],
      [
        "机",
        "构"
      ],
      [
        "空",
        "间"
      ],
      [
        "大",
        "学"
      ],
      [
        "销",
        "售"
      ],
      [
        "希",
        "望"
      ],
      [
        "领",
        "域"
      ],
      [
        "1",
        "00"
      ],
      [
        "一",
        "步"
      ],
      [
        "发",
        "布"
      ],
      [
        "保",
        "护"
      ],
      [
        "比",
        "赛"
      ],
      [
        "进",
        "入"
      ],
      [
        "单",
        "位"
      ],
      [
        "自",
        "然"
      ],
      [
        "介",
        "绍"
      ],
      [
        "以",
        "下"
      ],
      [
        "新",
        "的"
      ],
      [
        "安",
        "装"
      ],
      [
        "必",
        "须"
      ],
      [
        "20",
        "0"
      ],
      [
        "知",
        "识"
      ],
      [
        "电",
        "子"
      ],
      [
        "产",
        "生"
      ],
      [
        "体",
        "验"
      ],
      [
        "北",
        "京"
      ],
      [
        "a",
        "r"
      ],
      [
        "1",
        "8"
      ],
      [
        "基",
        "本"
      ],
      [
        "培",
        "训"
      ],
      [
        "特",
        "别"
      ],
      [
        "应",
        "该"
      ],
      [
        "模",
        "式"
      ],
      [
        "更",
        "加"
      ],
      [
        "存",
        "在"
      ],
      [
        "实",
        "际"
      ],
      [
        "开",
        "展"
      ],
      [
        "患",
        "者"
      ],
      [
        "e",
        "s"
      ],
      [
        "虽",
        "然"
      ],
      [
        "系",
        "列"
      ],
      [
        "关",
        "注"
      ],
      [
        "之",
        "间"
      ],
      [
        "计",
        "划"
      ],
      [
        "国",
        "内"
      ],
      [
        "是",
        "否"
      ],
      [
        "你",
        "的"
      ],
      [
        "任",
        "何"
      ],
      [
        "传",
        "统"
      ],
      [
        "目",
        "标"
      ],
      [
        "科",
        "学"
      ],
      [
        "性",
        "能"
      ],
      [
        "朋",
        "友"
      ],
      [
        "拥",
        "有"
      ],
      [
        "集",
        "团"
      ],
      [
        "导",
        "致"
      ],
      [
        "确",
        "保"
      ],
      [
        "部",
        "门"
      ],
      [
        "团",
        "队"
      ],
      [
        "工",
        "业"
      ],
      [
        "年",
        "的"
      ],
      [
        "具",
        "体"
      ],
      [
        "医",
        "院"
      ],
      [
        "成",
        "功"
      ],
      [
        "检",
        "测"
      ],
      [
        "成",
        "本"
      ],
      [
        "简",
        "单"
      ],
      [
        "关",
        "键"
      ],
      [
        "1",
        "6"
      ],
      [
        "容",
        "易"
      ],
      [
        "第",
        "二"
      ],
      [
        "关",
        "系"
      ],
      [
        "联",
        "系"
      ],
      [
        "达",
        "到"
      ],
      [
        "持",
        "续"
      ],
      [
        "过程",
        "中"
      ],
      [
        "制",
        "造"
      ],
      [
        "经",
        "营"
      ],
      [
        "随",
        "着"
      ],
      [
        "显",
        "示"
      ],
      [
        "保",
        "持"
      ],
      [
        "起",
        "来"
      ],
      [
        "检",
        "查"
      ],
      [
        "未",
        "来"
      ],
      [
        "这",
        "是"
      ],
      [
        "计",
        "算"
      ],
      [
        "条",
        "件"
      ],
      [
        "水",
        "平"
      ],
      [
        "施",
        "工"
      ],
      [
        "价",
        "值"
      ],
      [
        "关",
        "于"
      ],
      [
        "认",
        "为"
      ],
      [
        "软",
        "件"
      ],
      [
        "保",
        "证"
      ],
      [
        "美",
        "国"
      ],
      [
        "喜",
        "欢"
      ],
      [
        "a",
        "l"
      ],
      [
        "这",
        "里"
      ],
      [
        "月",
        "2"
      ],
      [
        "全",
        "球"
      ],
      [
        "稳",
        "定"
      ],
      [
        "全",
        "国"
      ],
      [
        "20",
        "20"
      ],
      [
        "视",
        "频"
      ],
      [
        "交",
        "易"
      ],
      [
        "形",
        "成"
      ],
      [
        "综",
        "合"
      ],
      [
        "地",
        "区"
      ],
      [
        "结",
        "合"
      ],
      [
        "建",
        "议"
      ],
      [
        "运",
        "动"
      ],
      [
        "结",
        "果"
      ],
      [
        "现",
        "场"
      ],
      [
        "一",
        "直"
      ],
      [
        "老",
        "师"
      ],
      [
        "不",
        "过"
      ],
      [
        "正",
        "在"
      ],
      [
        "原",
        "因"
      ],
      [
        "经",
        "验"
      ],
      [
        "然",
        "后"
      ],
      [
        "表",
        "现"
      ],
      [
        "并",
        "且"
      ],
      [
        "风",
        "险"
      ],
      [
        "不",
        "要"
      ],
      [
        "1",
        "3"
      ],
      [
        "代",
        "表"
      ],
      [
        "变",
        "化"
      ],
      [
        "优",
        "势"
      ],
      [
        "我们",
        "的"
      ],
      [
        "积",
        "极"
      ],
      [
        "一",
        "样"
      ],
      [
        "最",
        "后"
      ],
      [
        "上",
        "海"
      ],
      [
        "疫",
        "情"
      ],
      [
        "负",
        "责"
      ],
      [
        "看",
        "到"
      ],
      [
        "增",
        "长"
      ],
      [
        "其",
        "实"
      ],
      [
        "1",
        "4"
      ],
      [
        "加",
        "工"
      ],
      [
        "快",
        "速"
      ],
      [
        "制",
        "作"
      ],
      [
        "联",
        "网"
      ],
      [
        "n",
        "5"
      ],
      [
        "一",
        "次"
      ],
      [
        "压",
        "力"
      ],
      [
        "规",
        "定"
      ],
      [
        "一",
        "下"
      ],
      [
        "及",
        "时"
      ],
      [
        "造",
        "成"
      ],
      [
        "范",
        "围"
      ],
      [
        "201",
        "9"
      ],
      [
        "教",
        "学"
      ],
      [
        "温",
        "度"
      ],
      [
        "l",
        "e"
      ],
      [
        "申",
        "请"
      ],
      [
        "地",
        "方"
      ],
      [
        "责",
        "任"
      ],
      [
        "艺",
        "术"
      ],
      [
        "消费",
        "者"
      ],
      [
        "减",
        "少"
      ],
      [
        "继",
        "续"
      ],
      [
        "一",
        "种"
      ],
      [
        "丰",
        "富"
      ],
      [
        "进",
        "一步"
      ],
      [
        "人",
        "民"
      ],
      [
        "参",
        "与"
      ],
      [
        "许",
        "多"
      ],
      [
        "今",
        "天"
      ],
      [
        "带",
        "来"
      ],
      [
        "o",
        "m"
      ],
      [
        "00",
        "0"
      ],
      [
        "只",
        "有"
      ],
      [
        "历",
        "史"
      ],
      [
        "交",
        "通"
      ],
      [
        "机",
        "械"
      ],
      [
        "无",
        "法"
      ],
      [
        "他",
        "的"
      ],
      [
        "行",
        "为"
      ],
      [
        "数",
        "字"
      ],
      [
        "两",
        "个"
      ],
      [
        "s",
        "t"
      ],
      [
        "甚",
        "至"
      ],
      [
        "满",
        "足"
      ],
      [
        "不同",
        "的"
      ],
      [
        "状",
        "态"
      ],
      [
        "才",
        "能"
      ],
      [
        "调",
        "整"
      ],
      [
        "之",
        "一"
      ],
      [
        "建",
        "立"
      ],
      [
        "人",
        "们"
      ],
      [
        "考",
        "虑"
      ],
      [
        "出",
        "了"
      ],
      [
        "性",
        "的"
      ],
      [
        "经",
        "过"
      ],
      [
        "t",
        "h"
      ],
      [
        "位",
        "置"
      ],
      [
        "政",
        "府"
      ],
      [
        "详",
        "细"
      ],
      [
        "今",
        "年"
      ],
      [
        "1",
        "7"
      ],
      [
        "全",
        "面"
      ],
      [
        "工",
        "艺"
      ],
      [
        "超",
        "过"
      ],
      [
        "适",
        "合"
      ],
      [
        "白",
        "癜"
      ],
      [
        "参",
        "加"
      ],
      [
        "的",
        "大"
      ],
      [
        "白癜",
        "风"
      ],
      [
        "身",
        "体"
      ],
      [
        "分",
        "钟"
      ],
      [
        "202",
        "1"
      ],
      [
        "精",
        "神"
      ],
      [
        "得",
        "到"
      ],
      [
        "202",
        "2"
      ],
      [
        "媒",
        "体"
      ],
      [
        "整",
        "体"
      ],
      [
        "避",
        "免"
      ],
      [
        "咨",
        "询"
      ],
      [
        "6",
        "0"
      ],
      [
        "是",
        "一个"
      ],
      [
        "运",
        "行"
      ],
      [
        "家",
        "庭"
      ],
      [
        "准",
        "备"
      ],
      [
        "学",
        "院"
      ],
      [
        "研",
        "发"
      ],
      [
        "体",
        "系"
      ],
      [
        "重",
        "点"
      ],
      [
        "保",
        "障"
      ],
      [
        "之",
        "前"
      ],
      [
        "按",
        "照"
      ],
      [
        "万",
        "元"
      ],
      [
        "效",
        "率"
      ],
      [
        "第",
        "三"
      ],
      [
        "我",
        "的"
      ],
      [
        "玩",
        "家"
      ],
      [
        "特",
        "点"
      ],
      [
        "员",
        "工"
      ],
      [
        "银",
        "行"
      ],
      [
        "记",
        "者"
      ],
      [
        "的",
        "话"
      ],
      [
        "核",
        "心"
      ],
      [
        "2",
        "5"
      ],
      [
        "现",
        "代"
      ],
      [
        "职",
        "业"
      ],
      [
        "小",
        "时"
      ],
      [
        "4",
        "0"
      ],
      [
        "食",
        "品"
      ],
      [
        "是",
        "在"
      ],
      [
        "完",
        "全"
      ],
      [
        "区",
        "域"
      ],
      [
        "测",
        "试"
      ],
      [
        "旅",
        "游"
      ],
      [
        "作",
        "品"
      ],
      [
        "降",
        "低"
      ],
      [
        "除",
        "了"
      ],
      [
        "量",
        "的"
      ],
      [
        "r",
        "e"
      ],
      [
        "竞",
        "争"
      ],
      [
        "运",
        "营"
      ],
      [
        "购",
        "买"
      ],
      [
        "阶",
        "段"
      ],
      [
        "优",
        "化"
      ],
      [
        "有",
        "关"
      ],
      [
        "速",
        "度"
      ],
      [
        "比",
        "如"
      ],
      [
        "程",
        "序"
      ],
      [
        "规",
        "划"
      ],
      [
        "高",
        "的"
      ],
      [
        "交",
        "流"
      ],
      [
        "金",
        "融"
      ],
      [
        "i",
        "t"
      ],
      [
        "做",
        "好"
      ],
      [
        "基",
        "金"
      ],
      [
        "环",
        "保"
      ],
      [
        "营",
        "销"
      ],
      [
        "方",
        "便"
      ],
      [
        "整",
        "个"
      ],
      [
        "受",
        "到"
      ],
      [
        "都",
        "有"
      ],
      [
        "机",
        "会"
      ],
      [
        "感",
        "觉"
      ],
      [
        "表",
        "面"
      ],
      [
        "生",
        "态"
      ],
      [
        "a",
        "m"
      ],
      [
        "i",
        "c"
      ],
      [
        "亿",
        "元"
      ],
      [
        "的",
        "情况"
      ],
      [
        "打",
        "造"
      ],
      [
        "任",
        "务"
      ],
      [
        "资",
        "金"
      ],
      [
        "的",
        "问题"
      ],
      [
        "报",
        "告"
      ],
      [
        "期",
        "间"
      ],
      [
        "针",
        "对"
      ],
      [
        "互",
        "联网"
      ],
      [
        "医",
        "疗"
      ],
      [
        "分",
        "享"
      ],
      [
        "实",
        "施"
      ],
      [
        "从",
        "而"
      ],
      [
        "我",
        "国"
      ],
      [
        "来",
        "越"
      ],
      [
        "推",
        "荐"
      ],
      [
        "觉",
        "得"
      ],
      [
        "就",
        "会"
      ],
      [
        "形",
        "式"
      ],
      [
        "共",
        "同"
      ],
      [
        "越",
        "来越"
      ],
      [
        "时",
        "代"
      ],
      [
        "有",
        "的"
      ],
      [
        "方",
        "向"
      ],
      [
        "课",
        "程"
      ],
      [
        "注",
        "册"
      ],
      [
        "生",
        "物"
      ],
      [
        "也",
        "不"
      ],
      [
        "每",
        "个"
      ],
      [
        "正",
        "常"
      ],
      [
        "来",
        "看"
      ],
      [
        "宣",
        "传"
      ],
      [
        "因",
        "素"
      ],
      [
        "供",
        "应"
      ],
      [
        "工",
        "具"
      ],
      [
        "8",
        "0"
      ],
      [
        "空",
        "气"
      ],
      [
        "会",
        "议"
      ],
      [
        "能",
        "源"
      ],
      [
        "体",
        "育"
      ],
      [
        "电",
        "话"
      ],
      [
        "的",
        "高"
      ],
      [
        "专",
        "家"
      ],
      [
        "加",
        "盟"
      ],
      [
        "哪",
        "些"
      ],
      [
        "最",
        "终"
      ],
      [
        "考",
        "试"
      ],
      [
        "也",
        "有"
      ],
      [
        "a",
        "c"
      ],
      [
        "新",
        "闻"
      ],
      [
        "2",
        "4"
      ],
      [
        "努",
        "力"
      ],
      [
        "加",
        "强"
      ],
      [
        "微",
        "信"
      ],
      [
        "确",
        "定"
      ],
      [
        "规",
        "模"
      ],
      [
        "商",
        "业"
      ],
      [
        "出",
        "的"
      ],
      [
        "音",
        "乐"
      ],
      [
        "左",
        "右"
      ],
      [
        "e",
        "l"
      ],
      [
        "例",
        "如"
      ],
      [
        "政",
        "策"
      ],
      [
        "文",
        "件"
      ],
      [
        "r",
        "o"
      ],
      [
        "设",
        "置"
      ],
      [
        "执",
        "行"
      ],
      [
        "金",
        "属"
      ],
      [
        "首",
        "先"
      ],
      [
        "展",
        "示"
      ],
      [
        "法",
        "律"
      ],
      [
        "商",
        "品"
      ],
      [
        "球",
        "队"
      ],
      [
        "是一",
        "种"
      ],
      [
        "费",
        "用"
      ],
      [
        "有",
        "些"
      ],
      [
        "e",
        "t"
      ],
      [
        "措",
        "施"
      ],
      [
        "当",
        "然"
      ],
      [
        "事",
        "情"
      ],
      [
        "的",
        "发展"
      ],
      [
        "欢",
        "迎"
      ],
      [
        "在",
        "线"
      ],
      [
        "符",
        "合"
      ],
      [
        "长",
        "期"
      ],
      [
        "的",
        "小"
      ],
      [
        "想",
        "要"
      ],
      [
        "广",
        "告"
      ],
      [
        "都",
        "会"
      ],
      [
        "只",
        "是"
      ],
      [
        "资",
        "料"
      ],
      [
        "化",
        "的"
      ],
      [
        "不",
        "可"
      ],
      [
        "这样",
        "的"
      ],
      [
        "实",
        "验"
      ],
      [
        "面",
        "积"
      ],
      [
        "合",
        "理"
      ],
      [
        "通",
        "常"
      ],
      [
        "主",
        "题"
      ],
      [
        "文",
        "章"
      ],
      [
        "广",
        "泛"
      ],
      [
        "取",
        "得"
      ],
      [
        "决",
        "定"
      ],
      [
        "理",
        "解"
      ],
      [
        "教",
        "师"
      ],
      [
        "社",
        "区"
      ],
      [
        "明",
        "显"
      ],
      [
        "充",
        "分"
      ],
      [
        "办",
        "公"
      ],
      [
        "程",
        "度"
      ],
      [
        "属",
        "于"
      ],
      [
        "技",
        "能"
      ],
      [
        "装",
        "修"
      ],
      [
        "下",
        "载"
      ],
      [
        "品",
        "质"
      ],
      [
        "十",
        "分"
      ],
      [
        "心",
        "理"
      ],
      [
        "后",
        "的"
      ],
      [
        "推",
        "动"
      ],
      [
        "目",
        "的"
      ],
      [
        "出",
        "来"
      ],
      [
        "保",
        "险"
      ],
      [
        "厂",
        "家"
      ],
      [
        "p",
        "p"
      ],
      [
        "并",
        "不"
      ],
      [
        "包",
        "装"
      ],
      [
        "阅",
        "读"
      ],
      [
        "加",
        "入"
      ],
      [
        "维",
        "护"
      ],
      [
        "机",
        "器"
      ],
      [
        "来",
        "自"
      ],
      [
        "风",
        "格"
      ],
      [
        "坚",
        "持"
      ],
      [
        "免",
        "费"
      ],
      [
        "类",
        "型"
      ],
      [
        "连",
        "接"
      ],
      [
        "复",
        "杂"
      ],
      [
        "人",
        "才"
      ],
      [
        "说",
        "明"
      ],
      [
        "皮",
        "肤"
      ],
      [
        "自",
        "身"
      ],
      [
        "移",
        "动"
      ],
      [
        "推",
        "广"
      ],
      [
        "您",
        "的"
      ],
      [
        "分",
        "别"
      ],
      [
        "不",
        "少"
      ],
      [
        "接",
        "受"
      ],
      [
        "指",
        "导"
      ],
      [
        "尤",
        "其"
      ],
      [
        "来",
        "源"
      ],
      [
        "也",
        "会"
      ],
      [
        "促",
        "进"
      ],
      [
        "重要",
        "的"
      ],
      [
        "色",
        "的"
      ],
      [
        "玻",
        "璃"
      ],
      [
        "创",
        "业"
      ],
      [
        "以",
        "来"
      ],
      [
        "普",
        "通"
      ],
      [
        "流",
        "程"
      ],
      [
        "设",
        "施"
      ],
      [
        "故",
        "事"
      ],
      [
        "不",
        "得"
      ],
      [
        "多",
        "少"
      ],
      [
        "201",
        "8"
      ],
      [
        "规",
        "范"
      ],
      [
        "只",
        "要"
      ],
      [
        "多",
        "的"
      ],
      [
        "in",
        "g"
      ],
      [
        "n",
        "一"
      ],
      [
        "污",
        "染"
      ],
      [
        "面",
        "的"
      ],
      [
        "卫",
        "生"
      ],
      [
        "相",
        "对"
      ],
      [
        "n",
        "本"
      ],
      [
        "严",
        "重"
      ],
      [
        "防",
        "水"
      ],
      [
        "真",
        "正"
      ],
      [
        "2020",
        "年"
      ],
      [
        "n",
        "6"
      ],
      [
        "的",
        "重要"
      ],
      [
        "赛",
        "季"
      ],
      [
        "用",
        "的"
      ],
      [
        "动",
        "力"
      ],
      [
        "战",
        "略"
      ],
      [
        "培",
        "养"
      ],
      [
        "领",
        "导"
      ],
      [
        "合",
        "同"
      ],
      [
        "每",
        "天"
      ],
      [
        "球",
        "员"
      ],
      [
        "下",
        "来"
      ],
      [
        "生",
        "命"
      ],
      [
        "内",
        "部"
      ],
      [
        "升",
        "级"
      ],
      [
        "日",
        "常"
      ],
      [
        "另",
        "外"
      ],
      [
        "改",
        "变"
      ],
      [
        "的",
        "新"
      ],
      [
        "全",
        "部"
      ],
      [
        "挑",
        "战"
      ],
      [
        "样",
        "的"
      ],
      [
        "多",
        "种"
      ],
      [
        "o",
        "u"
      ],
      [
        "安",
        "排"
      ],
      [
        "i",
        "on"
      ],
      [
        "真",
        "的"
      ],
      [
        "此",
        "外"
      ],
      [
        "无",
        "论"
      ],
      [
        "就",
        "可以"
      ],
      [
        "它",
        "们"
      ],
      [
        "正",
        "式"
      ],
      [
        "成",
        "立"
      ],
      [
        "疾",
        "病"
      ],
      [
        "理",
        "念"
      ],
      [
        "面",
        "对"
      ],
      [
        "成",
        "绩"
      ],
      [
        "成",
        "长"
      ],
      [
        "P",
        "P"
      ],
      [
        "实",
        "力"
      ],
      [
        "也",
        "可以"
      ],
      [
        "东",
        "西"
      ],
      [
        "a",
        "s"
      ],
      [
        "组",
        "成"
      ],
      [
        "收",
        "入"
      ],
      [
        "这",
        "么"
      ],
      [
        "物",
        "流"
      ],
      [
        "优",
        "质"
      ],
      [
        "推",
        "进"
      ],
      [
        "它",
        "的"
      ],
      [
        "发",
        "挥"
      ],
      [
        "良",
        "好的"
      ],
      [
        "2",
        "2"
      ],
      [
        "找",
        "到"
      ],
      [
        "同",
        "学"
      ],
      [
        "9",
        "0"
      ],
      [
        "明",
        "确"
      ],
      [
        "的",
        "工作"
      ],
      [
        "创",
        "造"
      ],
      [
        "日",
        "本"
      ],
      [
        "增",
        "强"
      ],
      [
        "记",
        "录"
      ],
      [
        "酒",
        "店"
      ],
      [
        "电",
        "影"
      ],
      [
        "不",
        "错"
      ],
      [
        "完",
        "善"
      ],
      [
        "m",
        "m"
      ],
      [
        "如",
        "此"
      ],
      [
        "优",
        "秀"
      ],
      [
        "上",
        "市"
      ],
      [
        "下",
        "的"
      ],
      [
        "为",
        "什么"
      ],
      [
        "产品",
        "的"
      ],
      [
        "2019",
        "年"
      ],
      [
        "反",
        "应"
      ],
      [
        "性",
        "和"
      ],
      [
        "多",
        "个"
      ],
      [
        "严",
        "格"
      ],
      [
        "度",
        "的"
      ],
      [
        "机",
        "的"
      ],
      [
        "年",
        "来"
      ],
      [
        "训",
        "练"
      ],
      [
        "意",
        "识"
      ],
      [
        "力",
        "量"
      ],
      [
        "点",
        "击"
      ],
      [
        "的",
        "产品"
      ],
      [
        "一",
        "点"
      ],
      [
        "深",
        "圳"
      ],
      [
        "儿",
        "童"
      ],
      [
        "车",
        "辆"
      ],
      [
        "2",
        "3"
      ],
      [
        "意",
        "义"
      ],
      [
        "i",
        "s"
      ],
      [
        "吸",
        "引"
      ],
      [
        "语",
        "言"
      ],
      [
        "一定",
        "要"
      ],
      [
        "经",
        "常"
      ],
      [
        "更",
        "新"
      ],
      [
        "行",
        "动"
      ],
      [
        "化",
        "学"
      ],
      [
        "机",
        "制"
      ],
      [
        "资",
        "产"
      ],
      [
        "特",
        "色"
      ],
      [
        "过",
        "去"
      ],
      [
        "电",
        "动"
      ],
      [
        "作",
        "者"
      ],
      [
        "的",
        "时间"
      ],
      [
        "背",
        "景"
      ],
      [
        "绿",
        "色"
      ],
      [
        "支",
        "付"
      ],
      [
        "深",
        "入"
      ],
      [
        "9",
        "9"
      ],
      [
        "个",
        "月"
      ],
      [
        "直",
        "播"
      ],
      [
        "2022",
        "年"
      ],
      [
        "最",
        "大"
      ],
      [
        "数",
        "量"
      ],
      [
        "小",
        "编"
      ],
      [
        "7",
        "0"
      ],
      [
        "可能",
        "会"
      ],
      [
        "家",
        "长"
      ],
      [
        "联",
        "合"
      ],
      [
        "流",
        "量"
      ],
      [
        "e",
        "d"
      ],
      [
        "实",
        "践"
      ],
      [
        "运",
        "输"
      ],
      [
        "经",
        "理"
      ],
      [
        "沟",
        "通"
      ],
      [
        "他们",
        "的"
      ],
      [
        "l",
        "o"
      ],
      [
        "特",
        "殊"
      ],
      [
        "相",
        "信"
      ],
      [
        "内",
        "的"
      ],
      [
        "即",
        "可"
      ],
      [
        "场",
        "景"
      ],
      [
        "具",
        "备"
      ],
      [
        "体",
        "的"
      ],
      [
        "现",
        "象"
      ],
      [
        "结",
        "束"
      ],
      [
        "美",
        "元"
      ],
      [
        "不",
        "到"
      ],
      [
        "最",
        "新"
      ],
      [
        "更多",
        "的"
      ],
      [
        "你",
        "们"
      ],
      [
        "正",
        "确"
      ],
      [
        "官",
        "方"
      ],
      [
        "装",
        "饰"
      ],
      [
        "电",
        "池"
      ],
      [
        "装",
        "置"
      ],
      [
        "5",
        "00"
      ],
      [
        "引",
        "起"
      ],
      [
        "年",
        "轻"
      ],
      [
        "的",
        "影响"
      ],
      [
        "毕",
        "业"
      ],
      [
        "配",
        "置"
      ],
      [
        "下",
        "面"
      ],
      [
        "策",
        "略"
      ],
      [
        "消",
        "息"
      ],
      [
        "元",
        "素"
      ],
      [
        "报",
        "名"
      ],
      [
        "趋",
        "势"
      ],
      [
        "c",
        "om"
      ],
      [
        "提",
        "出"
      ],
      [
        "电",
        "视"
      ],
      [
        "分",
        "类"
      ],
      [
        "距",
        "离"
      ],
      [
        "此",
        "次"
      ],
      [
        "当",
        "前"
      ],
      [
        "值",
        "得"
      ],
      [
        "公司",
        "的"
      ],
      [
        "定",
        "制"
      ],
      [
        "必",
        "要"
      ],
      [
        "常",
        "见"
      ],
      [
        "人",
        "工"
      ],
      [
        "n",
        "这"
      ],
      [
        "通",
        "知"
      ],
      [
        "先",
        "进"
      ],
      [
        "智",
        "慧"
      ],
      [
        "之间",
        "的"
      ],
      [
        "°",
        "C"
      ],
      [
        "物",
        "质"
      ],
      [
        "驾",
        "驶"
      ],
      [
        "地",
        "址"
      ],
      [
        "独",
        "特"
      ],
      [
        "农",
        "业"
      ],
      [
        "有",
        "着"
      ],
      [
        "步",
        "骤"
      ],
      [
        "2021",
        "年"
      ],
      [
        "1",
        "日"
      ],
      [
        "试",
        "验"
      ],
      [
        "图",
        "片"
      ],
      [
        "5",
        "年"
      ],
      [
        "力",
        "的"
      ],
      [
        "基",
        "于"
      ],
      [
        "广",
        "州"
      ],
      [
        "3",
        "年"
      ],
      [
        "评",
        "估"
      ],
      [
        "自",
        "由"
      ],
      [
        "开",
        "放"
      ],
      [
        "分",
        "为"
      ],
      [
        "连",
        "续"
      ],
      [
        "搜",
        "索"
      ],
      [
        "集",
        "中"
      ],
      [
        "进行",
        "了"
      ],
      [
        "事",
        "业"
      ],
      [
        "更",
        "好"
      ],
      [
        "颜",
        "色"
      ],
      [
        "线",
        "上"
      ],
      [
        "办",
        "法"
      ],
      [
        "运",
        "用"
      ],
      [
        "制",
        "定"
      ],
      [
        "c",
        "h"
      ],
      [
        "恢",
        "复"
      ],
      [
        "下",
        "降"
      ],
      [
        "准",
        "确"
      ],
      [
        "w",
        "w"
      ],
      [
        "真",
        "实"
      ],
      [
        "当",
        "地"
      ],
      [
        "每",
        "一"
      ],
      [
        "排",
        "名"
      ],
      [
        "以",
        "后"
      ],
      [
        "防",
        "止"
      ],
      [
        "垃",
        "圾"
      ],
      [
        "打",
        "开"
      ],
      [
        "作",
        "业"
      ],
      [
        "做",
        "到"
      ],
      [
        "只",
        "能"
      ],
      [
        "如",
        "今"
      ],
      [
        "有",
        "一"
      ],
      [
        "告",
        "诉"
      ],
      [
        "高",
        "效"
      ],
      [
        "公",
        "共"
      ],
      [
        "参",
        "考"
      ],
      [
        "是",
        "什么"
      ],
      [
        "最",
        "近"
      ],
      [
        "2",
        "8"
      ],
      [
        "模",
        "型"
      ],
      [
        "的",
        "方式"
      ],
      [
        "大",
        "多"
      ],
      [
        "那",
        "些"
      ],
      [
        "等",
        "等"
      ],
      [
        "几",
        "个"
      ],
      [
        "制",
        "度"
      ],
      [
        "测",
        "量"
      ],
      [
        "位",
        "于"
      ],
      [
        "再",
        "次"
      ],
      [
        "查",
        "看"
      ],
      [
        "接",
        "触"
      ],
      [
        "表",
        "达"
      ],
      [
        "清",
        "洗"
      ],
      [
        "大",
        "型"
      ],
      [
        "有",
        "所"
      ],
      [
        "调",
        "查"
      ],
      [
        "变",
        "得"
      ],
      [
        "防",
        "控"
      ],
      [
        "兴",
        "趣"
      ],
      [
        "h",
        "t"
      ],
      [
        "解决",
        "方案"
      ],
      [
        "发展",
        "的"
      ],
      [
        "添",
        "加"
      ],
      [
        "然",
        "而"
      ],
      [
        "招",
        "聘"
      ],
      [
        "电",
        "机"
      ],
      [
        "投",
        "入"
      ],
      [
        "en",
        "t"
      ],
      [
        "7",
        "年"
      ],
      [
        "理",
        "论"
      ],
      [
        "营",
        "养"
      ],
      [
        "食",
        "物"
      ],
      [
        "涉",
        "及"
      ],
      [
        "重",
        "新"
      ],
      [
        "逐",
        "渐"
      ],
      [
        "企业",
        "的"
      ],
      [
        "包",
        "含"
      ],
      [
        "一定",
        "的"
      ],
      [
        "2",
        "1"
      ],
      [
        "本",
        "身"
      ],
      [
        "掌",
        "握"
      ],
      [
        "角",
        "色"
      ],
      [
        "可",
        "靠"
      ],
      [
        "i",
        "d"
      ],
      [
        "轩",
        "宇"
      ],
      [
        "股",
        "份"
      ],
      [
        "配",
        "合"
      ],
      [
        "消",
        "防"
      ],
      [
        "相",
        "比"
      ],
      [
        "娱",
        "乐"
      ],
      [
        "感",
        "受"
      ],
      [
        "大",
        "量"
      ],
      [
        "2",
        "6"
      ],
      [
        "植",
        "物"
      ],
      [
        "启",
        "动"
      ],
      [
        "伙",
        "伴"
      ],
      [
        "证",
        "明"
      ],
      [
        "医",
        "生"
      ],
      [
        "评",
        "价"
      ],
      [
        "室",
        "内"
      ],
      [
        "经",
        "历"
      ],
      [
        "肯",
        "定"
      ],
      [
        "落",
        "实"
      ],
      [
        "让",
        "人"
      ],
      [
        "了",
        "一个"
      ],
      [
        "改",
        "善"
      ],
      [
        "采",
        "取"
      ],
      [
        "资",
        "格"
      ],
      [
        "形",
        "象"
      ],
      [
        "家",
        "具"
      ],
      [
        "i",
        "m"
      ],
      [
        "道",
        "路"
      ],
      [
        "氧",
        "化"
      ],
      [
        "习",
        "惯"
      ],
      [
        "搭",
        "配"
      ],
      [
        "互",
        "动"
      ],
      [
        "监",
        "管"
      ],
      [
        "3",
        "5"
      ],
      [
        "渠",
        "道"
      ],
      [
        "相",
        "应"
      ],
      [
        "英",
        "语"
      ],
      [
        "管",
        "道"
      ],
      [
        "里",
        "的"
      ],
      [
        "双",
        "方"
      ],
      [
        "状",
        "况"
      ],
      [
        "办",
        "理"
      ],
      [
        "而",
        "是"
      ],
      [
        "会",
        "有"
      ],
      [
        "强",
        "度"
      ],
      [
        "蓝",
        "轩宇"
      ],
      [
        "联",
        "赛"
      ],
      [
        "总",
        "结"
      ],
      [
        "更",
        "是"
      ],
      [
        "固",
        "定"
      ],
      [
        "i",
        "g"
      ],
      [
        "i",
        "l"
      ],
      [
        "为",
        "主"
      ],
      [
        "人",
        "类"
      ],
      [
        "统",
        "计"
      ],
      [
        "n",
        "7"
      ],
      [
        "统",
        "一"
      ],
      [
        "方面",
        "的"
      ],
      [
        "山",
        "东"
      ],
      [
        "细",
        "胞"
      ],
      [
        "有",
        "了"
      ],
      [
        "先",
        "生"
      ],
      [
        "意",
        "见"
      ],
      [
        "身",
        "份"
      ],
      [
        "突",
        "破"
      ],
      [
        "轻",
        "松"
      ],
      [
        "融",
        "合"
      ],
      [
        "使",
        "得"
      ],
      [
        "a",
        "d"
      ],
      [
        "不",
        "锈"
      ],
      [
        "专业",
        "的"
      ],
      [
        "报",
        "道"
      ],
      [
        "当",
        "时"
      ],
      [
        "8",
        "8"
      ],
      [
        "协",
        "会"
      ],
      [
        "采",
        "购"
      ],
      [
        "解",
        "释"
      ],
      [
        "相",
        "当"
      ],
      [
        "期",
        "的"
      ],
      [
        "主",
        "动"
      ],
      [
        "迅",
        "速"
      ],
      [
        "基",
        "地"
      ],
      [
        "定",
        "位"
      ],
      [
        "困",
        "难"
      ],
      [
        "维",
        "修"
      ],
      [
        "2",
        "7"
      ],
      [
        "获",
        "取"
      ],
      [
        "适",
        "应"
      ],
      [
        "组",
        "合"
      ],
      [
        "器",
        "的"
      ],
      [
        "各",
        "类"
      ],
      [
        "广",
        "大"
      ],
      [
        "处",
        "于"
      ],
      [
        "描",
        "述"
      ],
      [
        "不锈",
        "钢"
      ],
      [
        "事",
        "件"
      ],
      [
        "高",
        "度"
      ],
      [
        "本",
        "次"
      ],
      [
        "三",
        "个"
      ],
      [
        "9",
        "月"
      ],
      [
        "可以",
        "在"
      ],
      [
        "电",
        "脑"
      ],
      [
        "认",
        "证"
      ],
      [
        "举",
        "办"
      ],
      [
        "高",
        "速"
      ],
      [
        "独",
        "立"
      ],
      [
        "利",
        "润"
      ],
      [
        "清",
        "洁"
      ],
      [
        "探",
        "索"
      ],
      [
        "协",
        "议"
      ],
      [
        "2018",
        "年"
      ],
      [
        "n",
        "我"
      ],
      [
        "群",
        "众"
      ],
      [
        "考",
        "生"
      ],
      [
        "公",
        "众"
      ],
      [
        "享",
        "受"
      ],
      [
        "不",
        "足"
      ],
      [
        "6",
        "年"
      ],
      [
        "环",
        "节"
      ],
      [
        "另",
        "一"
      ],
      [
        "o",
        "l"
      ],
      [
        "充",
        "满"
      ],
      [
        "投资",
        "者"
      ],
      [
        "子",
        "的"
      ],
      [
        "案",
        "例"
      ],
      [
        "t",
        "e"
      ],
      [
        "幼",
        "儿"
      ],
      [
        "平",
        "均"
      ],
      [
        "a",
        "pp"
      ],
      [
        "可",
        "是"
      ],
      [
        "同",
        "样"
      ],
      [
        "遇",
        "到"
      ],
      [
        "资",
        "讯"
      ],
      [
        "认",
        "识"
      ],
      [
        "情",
        "感"
      ],
      [
        "原",
        "则"
      ],
      [
        "塑",
        "料"
      ],
      [
        "而",
        "言"
      ],
      [
        "往",
        "往"
      ],
      [
        "成",
        "果"
      ],
      [
        "成",
        "了"
      ],
      [
        "代",
        "理"
      ],
      [
        "信",
        "号"
      ],
      [
        "就",
        "能"
      ],
      [
        "满",
        "意"
      ],
      [
        "丰富",
        "的"
      ],
      [
        "事",
        "项"
      ],
      [
        "重",
        "视"
      ],
      [
        "应",
        "当"
      ],
      [
        "就",
        "业"
      ],
      [
        "最",
        "高"
      ],
      [
        "太",
        "阳"
      ],
      [
        "3",
        "6"
      ],
      [
        "不",
        "知道"
      ],
      [
        "时",
        "尚"
      ],
      [
        "的",
        "地方"
      ],
      [
        "知",
        "名"
      ],
      [
        "识",
        "别"
      ],
      [
        "覆",
        "盖"
      ],
      [
        "限",
        "制"
      ],
      [
        "岗",
        "位"
      ],
      [
        "主",
        "任"
      ],
      [
        "网",
        "上"
      ],
      [
        "这",
        "次"
      ],
      [
        "监",
        "督"
      ],
      [
        "商",
        "务"
      ],
      [
        "冠",
        "军"
      ],
      [
        "n",
        "二"
      ],
      [
        "更",
        "好的"
      ],
      [
        "一",
        "年"
      ],
      [
        "情",
        "绪"
      ],
      [
        "角",
        "度"
      ],
      [
        "n",
        "据"
      ],
      [
        "定",
        "期"
      ],
      [
        "4",
        "5"
      ],
      [
        "行",
        "政"
      ],
      [
        "心",
        "的"
      ],
      [
        "尺",
        "寸"
      ],
      [
        "广",
        "东"
      ],
      [
        "监",
        "测"
      ],
      [
        "推",
        "出"
      ],
      [
        "居",
        "民"
      ],
      [
        "文",
        "明"
      ],
      [
        "股",
        "票"
      ],
      [
        "动",
        "态"
      ],
      [
        "症",
        "状"
      ],
      [
        "幸",
        "福"
      ],
      [
        "3",
        "00"
      ],
      [
        "及",
        "其"
      ],
      [
        "技",
        "巧"
      ],
      [
        "比",
        "例"
      ],
      [
        "有",
        "机"
      ],
      [
        "循",
        "环"
      ],
      [
        "8",
        "月"
      ],
      [
        "提",
        "前"
      ],
      [
        "改",
        "革"
      ],
      [
        "舒",
        "适"
      ],
      [
        "呈",
        "现"
      ],
      [
        "一",
        "体"
      ],
      [
        "n",
        "如果"
      ],
      [
        "最",
        "佳"
      ],
      [
        "创",
        "建"
      ],
      [
        "之",
        "外"
      ],
      [
        "寿",
        "命"
      ],
      [
        "委",
        "员"
      ],
      [
        "观",
        "察"
      ],
      [
        "特",
        "征"
      ],
      [
        "完",
        "整"
      ],
      [
        "天",
        "气"
      ],
      [
        "空",
        "调"
      ],
      [
        "很多",
        "人"
      ],
      [
        "电",
        "商"
      ],
      [
        "传",
        "播"
      ],
      [
        "各",
        "个"
      ],
      [
        "装",
        "备"
      ],
      [
        "经",
        "典"
      ],
      [
        "公",
        "开"
      ],
      [
        "回",
        "收"
      ],
      [
        "观",
        "众"
      ],
      [
        "都",
        "在"
      ],
      [
        "系统",
        "的"
      ],
      [
        "合",
        "适"
      ],
      [
        "强",
        "的"
      ],
      [
        "对",
        "方"
      ],
      [
        "还",
        "可以"
      ],
      [
        "布",
        "局"
      ],
      [
        "尤其",
        "是"
      ],
      [
        "n",
        "三"
      ],
      [
        "行",
        "的"
      ],
      [
        "资",
        "本"
      ],
      [
        "预",
        "计"
      ],
      [
        "证",
        "券"
      ],
      [
        "同",
        "比"
      ],
      [
        "如",
        "下"
      ],
      [
        "an",
        "d"
      ],
      [
        "体",
        "现"
      ],
      [
        "指",
        "标"
      ],
      [
        "讨",
        "论"
      ],
      [
        "最",
        "大的"
      ],
      [
        "几",
        "乎"
      ],
      [
        "动",
        "物"
      ],
      [
        "商",
        "标"
      ],
      [
        "地",
        "产"
      ],
      [
        "还",
        "要"
      ],
      [
        "u",
        "m"
      ],
      [
        "输",
        "出"
      ],
      [
        "现",
        "实"
      ],
      [
        "输",
        "入"
      ],
      [
        "n",
        "0"
      ],
      [
        "追",
        "求"
      ],
      [
        "的",
        "设计"
      ],
      [
        "♀",
        "♀"
      ],
      [
        "提供",
        "了"
      ],
      [
        "出",
        "口"
      ],
      [
        "负责",
        "人"
      ],
      [
        "展",
        "现"
      ],
      [
        "成",
        "员"
      ],
      [
        "父",
        "母"
      ],
      [
        "者",
        "的"
      ],
      [
        "开",
        "启"
      ],
      [
        "从",
        "事"
      ],
      [
        "收",
        "集"
      ],
      [
        "细",
        "节"
      ],
      [
        "的",
        "方法"
      ],
      [
        "有",
        "人"
      ],
      [
        "足",
        "球"
      ],
      [
        "的",
        "好"
      ],
      [
        "一",
        "家"
      ],
      [
        "A",
        "PP"
      ],
      [
        "视",
        "觉"
      ],
      [
        "概",
        "念"
      ],
      [
        "思",
        "想"
      ],
      [
        "干",
        "燥"
      ],
      [
        "中",
        "央"
      ],
      [
        "加",
        "上"
      ],
      [
        "的情况",
        "下"
      ],
      [
        "相",
        "同"
      ],
      [
        "车",
        "型"
      ],
      [
        "调",
        "节"
      ],
      [
        "自",
        "我"
      ],
      [
        "上",
        "述"
      ],
      [
        "欧",
        "洲"
      ],
      [
        "期",
        "待"
      ],
      [
        "去",
        "年"
      ],
      [
        "a",
        "g"
      ],
      [
        "仍",
        "然"
      ],
      [
        "确",
        "认"
      ],
      [
        "声",
        "音"
      ],
      [
        "2",
        "9"
      ],
      [
        "很",
        "好"
      ],
      [
        "L",
        "E"
      ],
      [
        "网",
        "友"
      ],
      [
        "近",
        "日"
      ],
      [
        "共",
        "享"
      ],
      [
        "展",
        "开"
      ],
      [
        "放",
        "在"
      ],
      [
        "中",
        "小"
      ],
      [
        "规",
        "则"
      ],
      [
        "动",
        "作"
      ],
      [
        "确",
        "实"
      ],
      [
        "的",
        "同时"
      ],
      [
        "6",
        "月"
      ],
      [
        "监",
        "控"
      ],
      [
        "定",
        "的"
      ],
      [
        "财",
        "务"
      ],
      [
        "顺",
        "利"
      ],
      [
        "时",
        "的"
      ],
      [
        "很",
        "大"
      ],
      [
        "会",
        "员"
      ],
      [
        "查",
        "询"
      ],
      [
        "领",
        "先"
      ],
      [
        "加",
        "热"
      ],
      [
        "工",
        "厂"
      ],
      [
        "o",
        "o"
      ],
      [
        "她",
        "的"
      ],
      [
        "美",
        "的"
      ],
      [
        "引",
        "导"
      ],
      [
        "最",
        "好"
      ],
      [
        "优",
        "惠"
      ],
      [
        "都",
        "能"
      ],
      [
        "有",
        "哪些"
      ],
      [
        "c",
        "t"
      ],
      [
        "官",
        "网"
      ],
      [
        "平",
        "方"
      ],
      [
        "支",
        "撑"
      ],
      [
        "能",
        "量"
      ],
      [
        "重",
        "大"
      ],
      [
        "快",
        "乐"
      ],
      [
        "混",
        "合"
      ],
      [
        "自",
        "主"
      ],
      [
        "指",
        "出"
      ],
      [
        "农",
        "村"
      ],
      [
        "人",
        "士"
      ],
      [
        "承",
        "担"
      ],
      [
        "收",
        "益"
      ],
      [
        "即",
        "使"
      ],
      [
        "生",
        "长"
      ],
      [
        "高",
        "温"
      ],
      [
        "版",
        "权"
      ],
      [
        "适",
        "用于"
      ],
      [
        "面",
        "临"
      ],
      [
        "强",
        "化"
      ],
      [
        "深",
        "度"
      ],
      [
        "清",
        "楚"
      ],
      [
        "的",
        "主要"
      ],
      [
        "进",
        "口"
      ],
      [
        "餐",
        "饮"
      ],
      [
        "保",
        "温"
      ],
      [
        "故",
        "障"
      ],
      [
        "大",
        "部分"
      ],
      [
        "社",
        "交"
      ],
      [
        "成",
        "都"
      ],
      [
        "10",
        "月"
      ],
      [
        "n",
        "从"
      ],
      [
        "之",
        "中"
      ],
      [
        "过",
        "滤"
      ],
      [
        "将",
        "会"
      ],
      [
        "将",
        "在"
      ],
      [
        "贡",
        "献"
      ],
      [
        "两",
        "种"
      ],
      [
        "都",
        "不"
      ],
      [
        "上",
        "一"
      ],
      [
        "这",
        "款"
      ],
      [
        "精",
        "彩"
      ]
    ]
  }
}